01b9
01e2
fd75
01b3
fec4
02db
0172
fd5d
01fe
02e7
fdf6
01e3
fd1a
01f0
02db
fb1f
fd35
fe87
ffee
005a
fb75
04c6
fccc
fd35
ffdd
fd59
0282
fe40
0150
0031
fb45
fafd
fe9d
ffd2
03c9
ff0c
fb17
00da
fae6
fc73
0183
03ae
00db
0363
0400
0328
00e6
017d
026a
fba0
fc38
018e
028c
02c0
fb44
fcb5
028a
0549
ff7c
009b
fec7
04b0
f91a
ffe5
004b
02a9
fcda
fd3b
0353
fe2a
00aa
01bc
0184
0065
005f
ffe4
fd27
05c6
fe84
04aa
01c1
011b
f86a
fe81
ff0d
fce1
0179
fd54
0101
0542
0704
fbfb
f958
0123
047f
fe85
02a9
f92f
020d
fbed
005e
ff93
fd22
f96c
01bd
fd5c
0363
fbca
03ef
fda9
0170
fac3
fd09
0200
03de
023a
017d
01a5
fe2e
fb18
0393
0049
f9bc
004d
fc6f
03aa
0679
fd04
feb0
00a9
0209
03be
fbf0
02cb
fef3
01ff
0271
fecd
031b
ff78
0214
04a6
f836
01a3
ffee
f986
03e1
02c4
fcf0
00f9
ff22
004b
fdda
0325
feda
037e
ff13
0041
f964
0431
032c
ff69
01e4
004c
fe84
ff71
feb1
0184
0022
00aa
010b
0339
0122
fef3
fe59
fceb
fda2
fd3f
fd13
fc10
fde5
05d7
fb2d
fb81
ffd2
ffe3
0086
f817
00c3
ff75
00f7
0370
ff9b
008e
0009
ff65
ff5f
fb42
fe65
0126
025c
ff84
0296
0156
fc4a
fcbc
fd9d
feb1
fdcc
0154
f8ff
ffa3
01dc
fe20
fffb
fa19
ffa3
0158
f9e1
012a
00a4
024b
0131
fcda
04c3
00fb
0357
02ad
fc99
ffb4
fdbc
fa5e
fe9a
01b1
fef5
0112
fcb6
ff75
0230
00a2
0904
0070
fe3a
019e
075e
019b
0258
00d8
01cf
0164
02e2
fa1b
f9df
fb5c
0708
fe53
fea2
037d
fd9a
ff3f
f9be
01e7
023a
04a0
0152
ff65
ffa4
0098
0165
ff69
fd3c
01e1
03ec
fb3a
fad9
f9f1
0013
000e
003e
04e1
fd14
fbbd
fc8f
ffda
026f
048b
0247
026f
0080
fe11
ff9b
ff6e
fd16
00eb
0110
02e8
ff29
ff2e
02ef
fb80
ff9f
fc80
043a
020a
01e4
fda6
047a
fc79
0009
0016
fd93
00db
fdfc
0178
fff6
0218
014e
fe8c
02f8
022c
fe00
0195
008e
f989
04a5
0510
011a
02b2
0409
0137
013b
fca7
ffb8
fbfe
0257
04db
fdfd
038c
ffba
018c
0486
fd38
fde0
ff1c
0170
fe9a
ffa5
ff42
031b
0078
fd83
00c8
094d
003b
0267
ff98
05bf
fed5
fd45
02f9
fc7d
002f
fe73
02ed
04a4
fdbd
ff4c
ff28
fcfd
00b7
037a
009b
0093
f8d8
00e0
f887
01df
fde3
ff78
00b5
047c
ff01
fd07
ff25
fddb
fe50
fea2
ff02
ffc7
fc60
0014
f82f
018f
fc7e
ff7d
0107
fc1d
08dc
fffd
017e
018a
fe87
fb94
fc8e
ff76
02db
0007
fc81
03e1
fd7e
0200
02fe
0399
0109
fd97
002d
0329
fc25
043e
0484
ff38
fe76
0154
02e0
fde4
fbec
f9e5
fdf7
0495
fdc7
0055
ff86
faac
00dd
06bc
fdab
0132
ff5c
0411
fe31
ffc1
fcb8
0434
fb21
fd95
02d2
04b8
0431
0213
01f0
f9d6
fe12
005e
fc36
fd9d
fc72
fd89
0234
fe4f
f8a6
fffb
ff5b
fbc0
fa09
0182
031b
fcfc
0237
faae
fc4f
026d
ff07
fba6
fead
0279
fa46
0063
feab
03ca
ff3a
fbe3
fc22
0301
0111
fb58
00ca
fa7d
056b
fcea
fc1f
fe72
fe04
0047
ff99
fda6
0337
0488
011c
feee
002f
fc9d
fe6c
ff9a
ff94
03f2
fe08
fd1f
0698
0002
0370
fee8
ffe1
030c
f9e2
0228
00ba
fe7f
00d7
047a
ffdd
01f6
ff0e
037e
fd20
0387
fe1d
01fd
007c
00fb
fdef
ffc2
fd6d
f839
fb52
0364
0065
0348
0476
00c1
0285
fbaf
0156
0193
ff86
0124
fd5d
0054
ff6e
fce4
0080
04aa
fef7
fd56
00d4
fff2
0059
fc5b
fc8a
019a
ff5b
fb17
026b
0546
0046
fe94
00e8
fd07
fa4a
004e
0231
fd5a
fcad
fe99
fa19
0253
0261
fcaa
000f
fbc0
047b
fefa
fa8e
0256
0225
0178
0273
fd3c
ff56
fd07
f96b
009d
ff36
fc9a
05e1
fbd9
ff20
fd4f
fd5a
04df
059a
fa30
fe3b
08f1
02b9
fdb5
fc28
012f
fe92
0224
0485
011a
0079
ffa8
fe1a
fe84
00a7
0037
fe05
022c
03a7
f79c
fda2
00aa
0495
ff02
0012
008c
ff12
fdc4
fc1d
fe76
ff62
0260
ffa0
fac5
fcf7
03cd
00e0
004d
fe8a
ff5d
03ec
fd00
fd4e
011d
027f
0083
0197
0084
026d
068d
fcfc
ff5f
fd2a
ff1f
03d3
fbf8
ff90
03b3
fc82
0037
fd8f
ff8f
fd39
012d
01ff
0042
0177
0492
faf0
fa21
01a5
0252
fc3e
fd34
ff75
03dc
feae
01a5
0653
fc19
fc4d
04d0
0334
fbc6
01cb
f5bd
f8b8
01e9
012c
ffb9
fe98
0684
0020
fe29
fd2c
0440
059f
02c1
021d
08f6
0204
0232
fcb4
003a
03e2
f963
ffd3
fc1f
01ae
008b
007d
fec6
ff61
fedf
0144
f79d
014a
0284
f8cb
ff1f
fea5
0265
fa1b
03d5
ff3f
fcb1
0107
00ad
01be
fceb
fb18
061f
037b
fcc1
fe54
fc38
0764
0019
fdec
00bc
00bb
016a
fb76
fbca
ff47
04fd
018a
fee8
034d
054e
feec
ff24
0408
fecb
0292
01d4
fe26
05cf
faf8
fe5b
fd6f
0240
01a8
fce3
fde8
043e
0ad3
018c
fe0f
fc9f
f939
02c5
0262
fb0b
003a
fc9f
02cb
0176
050d
0249
055a
fa07
fe34
