fd06
0258
fb24
f807
04a6
001f
00c3
fe6f
ff41
fd9e
fce2
0111
fcca
0063
f927
fc1a
fc2c
028a
00ea
fded
0461
f903
fd44
fefe
ff37
ff31
fe37
0413
02ac
ff0b
fdc3
0318
013a
02e0
ff00
fee7
fd71
054c
ff70
03b2
0578
f4b4
ffc2
01f7
03aa
fef5
005c
ff88
067b
003d
029a
fe3a
0168
01d2
0122
fef1
fe90
006a
fca7
fe56
01fb
01f7
ffdf
00ad
fc91
ff4c
fed7
fb8a
fc57
fe21
fe8e
fbf1
fc36
023d
ff1b
0385
04de
04a7
0578
fafc
01c9
005e
ffef
fda1
fc4d
faf3
fc7c
03af
012b
fb66
ffb0
fb53
039b
0020
02a9
fdbb
fd8b
00b5
fc50
01e0
fc9e
fcbb
fec7
fcfb
0221
fc0d
00c1
fb0e
00ff
0216
fb48
fe19
058f
0434
04dc
00fb
fdac
fc38
07b5
00fc
fd06
fde1
0215
fd47
0662
fc2d
019f
ff65
026c
fe56
fd4c
f814
ff01
fd4d
fd85
fbfb
020d
fedf
019c
fc1a
04de
0336
0296
fd30
0116
febf
fc89
0365
f966
fda6
fbf7
fe25
035c
ff16
fdc7
fff8
fd81
fe90
fc5d
f9a8
ff67
ffa8
fe2b
013d
ffd9
0216
fb30
fec2
ff5b
f4de
0000
003a
01a1
0378
006d
0932
0003
fdc4
0453
057a
fa5a
fe4b
00f8
036b
038d
f6da
fe31
0147
02f4
017a
0571
0286
fd81
fe34
fc9d
fe97
fd23
f91a
0085
fde7
fd82
03a0
023b
fe78
00da
01f2
0119
f99b
fea3
01cb
03cc
fd18
fe4d
fff9
fee0
0116
03a5
fd86
0151
01d1
fe71
0074
0026
075c
fec1
02f0
fc24
009a
ff8b
fd4e
fd23
fbe7
faff
ff52
02d4
ff2b
0047
feea
000b
0176
fb52
0269
00f0
000f
fc46
0181
fe18
02af
fdf1
ff33
fd90
fe5d
fdaf
fe02
fcbb
08a6
02ea
fe52
0423
fd87
ffbc
fa8d
fe0b
01a5
fc90
0656
0739
005c
0405
0230
ff5f
0052
0031
065b
f9c7
02bb
0056
05f6
febe
033a
fbbd
012e
fd6b
ff09
fe2f
01a4
fef1
0625
044f
0054
fe1d
0227
0335
00a3
fc23
01c4
fcd8
00bf
045b
0425
02ba
fb27
ffbf
04fa
07e3
05ab
fa24
0583
03c6
02f4
fbe2
fdf9
01cf
023f
ff75
f924
fd87
fca5
04bd
01a0
00b2
fe4d
ffe9
011b
00b3
0186
01b1
02c6
0134
fd5f
0168
fede
fefc
00ed
0019
0045
00d8
00eb
fff7
ffa3
0133
fc3c
fc4f
03fa
fd46
0111
febd
0037
fd15
03ef
fc7c
fe55
ff18
02a4
fe7e
ffce
fa7b
001c
0094
fcfe
0534
0173
fdf4
07ec
042b
fd57
fd72
fea0
01f4
ff93
ffbc
01d0
0215
fefa
fb8c
0232
021e
ff66
ff3e
fc95
0225
fef4
ff08
02d5
fe5a
fac9
0079
0265
fa39
f9de
0523
fe1b
ff11
021d
fc5a
0071
0379
fbdf
ffae
01a2
fe51
f776
f955
03da
0382
01fd
fe99
02e5
011b
0118
052e
fbc7
022f
fc11
06bf
feb0
fddf
0211
fd71
063f
055f
017f
fbb8
fd83
0325
fc4c
fd9f
04f9
0112
fb32
fd31
0358
ffd3
0271
0472
01f7
00c9
fb91
0341
fc0a
fd2d
0370
ff34
fe6d
0457
ff53
0472
02ca
fcf0
fd27
01b1
00db
0684
fd42
04b3
ff15
04f8
fc63
ff36
fe0d
ffe7
0538
0316
fcc4
007f
fce5
00c2
0406
fe95
fdce
ff77
0464
005e
0209
03de
0165
0014
fd22
010b
ffc4
fe30
0030
fe86
fef5
f45f
0277
03d7
00b8
fcc3
fef4
f8f7
ff0f
ffa3
fece
04c0
fb31
ff02
fdd0
00a2
fe9a
ff41
05d0
fd49
0101
f6df
031f
ffb8
fe67
fe31
ff13
0833
fd32
00d0
fb99
fe40
00ca
020a
01ce
0215
039b
008e
0302
01cc
017c
fd3e
0090
022b
fb9e
ff00
f863
ff98
080a
ff67
fa4e
044c
ff5e
fd19
0115
fd5b
fcdf
03a1
fa1a
019f
085a
03a7
03c3
0346
01df
008e
0161
0316
fab7
00e9
ffa1
ff61
fe78
07b8
027e
09f9
fd32
fc1f
0429
f939
fee5
ffb4
00d3
06b1
025d
fd61
049e
004f
ff03
020e
f9d1
fbd9
04ff
fe46
000a
feb5
fc0a
ff98
ff46
03ab
fe2a
02ac
0167
061c
00a0
fea9
0264
ffcd
fb39
0560
00b4
fd53
ffc7
0224
0073
fff5
ff70
05c6
fd40
fd71
fe85
00f8
0191
ff9f
0653
0205
017d
03cf
0411
0112
fe28
ffea
f958
02b4
015d
fd45
00aa
fcd1
0509
feb9
ff0f
02f7
fa8a
03c6
0145
0261
ff77
fb9d
002a
fea0
03d7
fef3
ffa5
0187
ff6c
0306
fb39
fd7a
fede
01ac
fcbe
ff8f
fddf
fee8
0091
0310
02f2
0067
f932
ff8d
00a5
fd6e
02f4
015c
ffa4
023d
01a0
fccf
fdb9
fdbe
0242
fa52
f9b6
0467
fbc6
0554
03c9
ff95
05fd
feb3
fff8
ff21
fcc5
0074
03b5
fefe
005f
fe41
fb32
fd70
fd5d
0203
008a
02ef
056c
00da
ff64
0306
fcc7
fc96
021b
fd71
054b
f9b6
0012
fead
0501
fc59
fada
0639
fd83
004b
03b0
fd1c
fe5d
0272
fece
fef3
0107
f57e
fd05
0082
009c
fa24
fb6f
fad8
018c
00bd
02f8
01e6
046b
0022
ffcd
038b
002d
0269
014f
ffae
ff25
0070
0319
fd37
00f4
fdd0
022f
05b0
fdcf
fe80
fbf2
fede
037f
fb48
fe5c
fefb
fbb0
0183
ffa5
ff42
ff3a
faa9
02a2
010d
01f3
074e
0310
009b
0237
fdb0
fc47
00e5
0124
00ab
ffaa
fea9
0039
0620
f918
ffe8
066d
ff03
037d
fd44
0105
039b
fc37
fdbd
008b
03fe
ff35
faf7
056e
