0590
04f2
ffff
023e
fd2b
0897
001e
05a2
ff66
00c2
f946
fe18
0571
0436
04a8
02cc
02ed
ff38
fe60
fe4e
ff84
0129
009f
0000
fe46
01d0
fed9
fd1d
0165
fdf1
ff33
055a
00c3
0747
000c
0254
04be
fc2e
fd70
0283
0538
fdde
0380
faa9
00a6
0386
ffdb
0072
0066
0083
fe32
ff3b
033b
fbb4
fda1
ffc0
0239
fc39
ffec
02eb
022c
014e
0435
ffc4
0125
06dc
0329
09e0
0014
f68b
fd4c
fcd6
fc64
fc09
ff8a
0257
ff2c
00fd
08f3
0239
028a
0412
0448
0256
fdf5
022f
026b
0314
ffb7
02db
fa4f
023d
fca2
fe3b
f938
02fa
0068
01c5
fd33
ff12
0161
fd7f
01c4
04e6
02f4
0396
f620
fd32
0240
fff4
079d
019a
0673
074e
01b3
0075
00ca
feee
0708
f76e
f865
0275
fe60
fe89
feb6
0301
fd7b
fa0d
0298
fd30
f698
fe5b
ffc7
0372
fef2
ff36
02ac
02a0
fd81
00a6
fcb9
0087
04fe
044a
fefa
fd1b
ff58
00c8
011c
0246
ff37
0436
0026
09e1
fda5
022f
f9a4
facf
fe6d
01ea
058a
00e4
0180
00b9
0321
00c1
00a0
fe17
fd20
0554
02c8
007e
fd06
fe49
fffb
018a
fc9a
0352
fea7
013e
0206
fd92
fc48
fe69
fc49
fe5c
045f
094d
fddc
f970
0110
fe7f
fca1
0198
016b
f65a
fd80
007f
fb97
019b
ffc8
0042
fc52
0102
ffb7
0403
fc9a
ff3c
ff85
fcd2
fda3
023b
010d
001f
012b
f9db
0205
0108
02bc
fb9e
0499
fdbe
000d
ffaa
fa8b
fef8
06e6
ff04
0052
0097
f947
04a4
fcdd
03ee
fe4b
0358
ffd6
05fa
036d
fe57
fb3a
fe2f
fcb9
ff07
004d
021b
fb17
fb2a
0379
01cc
fafe
0075
03ee
00d4
ffc1
fc28
05f8
fe91
0131
ff87
fd5b
ff05
02f7
03df
fd3f
ffad
fdeb
017e
012c
fc6e
026f
0547
0012
f949
fe70
01b7
0577
015e
fdd1
fdff
fe66
02af
fe42
024b
fec4
0132
0175
f98e
00cd
fec5
fe4f
00db
fb0d
fe01
ff25
f79f
fb41
fabf
febd
00f7
072b
0457
0127
03b6
f6c9
01df
ff8e
f8b0
fecc
fe70
02a4
fe89
fdd6
0536
fb9e
fca6
0637
ff8e
00ed
ff57
00de
0472
0229
fef3
ff9e
0231
0456
0101
ff63
fe55
009d
fd24
00b2
fdce
05ef
fd70
f7ee
ff1f
0307
0382
0225
fae9
00d8
026b
fd43
008e
ff5f
0018
f8b5
fa7e
fefe
0109
fefc
017e
ff51
fee7
004d
0346
018f
0130
fe6f
01c0
fc31
0549
fef5
0249
ffdb
fde2
010d
04d7
0005
0465
fdaf
ffe9
fe9a
ff28
fc8f
0195
fed8
0548
0086
0202
0214
0067
0587
0092
00aa
fe18
02c7
fdaf
fc4b
fe2a
ffec
026b
fe0b
00ce
ff8a
00f2
fe3d
fd32
fd62
0438
0200
fdfa
fe1b
f80f
fe19
fe87
fa1d
0050
0112
fcf0
02ad
04aa
fdf0
fe46
fc23
fd6d
fd6b
fa2e
ff95
03e7
fbc2
04d1
fdf9
0534
faf4
060c
fe32
fc7a
007d
ff83
0255
fdce
063c
02c9
fe17
fd52
fc2e
fe9d
0009
ffee
0008
f972
ffbb
01e4
fe35
00ac
fc83
01fe
00d9
00d9
02e8
04c1
0339
00a2
0318
fba1
fc5d
ff1f
fbcc
ff17
0170
ff0f
ff8f
ff03
0170
fcc3
0183
feb2
03e1
0128
fe59
01d9
ffa7
f938
014c
004a
016b
01cc
015e
ffdf
ff4d
0173
016c
0036
0490
0004
fd5e
fc06
03bf
01f0
fefd
ff4c
ffac
0088
ffb1
0292
fc05
feee
0279
0341
fce3
fdf8
009b
001d
0277
0154
fcae
002f
fec4
f9d8
00c5
016b
010e
fac1
fdb5
fe5f
0333
03dd
03db
fae8
fedc
0060
037f
00e0
ff61
0040
fe16
f8db
00b5
fd0a
004c
fd69
fd30
feda
0002
0147
01d4
006b
fe52
fd07
05d0
ffc7
fb49
fcb3
0173
0190
fda4
fe49
06a8
004e
0187
00fb
ffdd
fcdb
0528
fe16
0201
01e8
f7a3
0358
0487
fdc9
05da
003d
fff3
fe10
02fc
0156
fe9f
fc9a
fdba
fc1c
0599
0281
fc96
0137
fe3a
fead
ff42
ff36
0037
fb5e
fe30
f93d
012c
035b
021a
00ac
03fe
02bc
0373
feec
fd78
0015
fecb
faf9
006e
fe46
0473
fdaa
02f3
0188
0299
fbc0
04ed
0738
ff7d
0204
00a9
fb83
1088
0191
00db
ff7b
fa45
00e2
ff3f
0675
fd46
fd96
f5f2
fe8d
027d
fb45
015f
0174
02b2
ff62
0243
fa84
fcd2
00bd
fc02
ff55
feb2
0063
0413
009b
fa89
01cf
fde0
fee2
feae
073a
0080
0321
fc79
071d
fbc8
fc53
03c9
0471
fede
0039
ffb5
fdaf
0545
fdf9
003d
06ba
ff01
fca4
fefa
0213
0176
0055
02f5
feca
fd2d
fc0e
ff63
fe62
ff0a
0081
fea8
fadd
0041
072e
ffe1
fe02
fc22
fc9c
fd96
027a
0057
ffb4
fc1a
00cb
018c
f971
fd16
0050
0000
f744
005d
ff7e
03ca
ff27
ff38
fe71
fd40
fdae
fc73
069f
03e6
fd71
fcbd
ff87
0473
fdee
0294
f793
ff8d
fd1a
0398
fb19
fdeb
01b4
012e
fc0f
0529
024a
fde2
fecd
ff74
054a
fd92
0423
006e
fd3a
fe67
ff2e
0081
fe76
0010
fd7a
ff2a
0050
fc32
fccd
fe12
fecc
fca4
0519
0162
0029
f862
011d
fe08
ffa1
0286
fe47
fe7e
fe9c
fb2a
0083
0553
03c2
05dd
0108
0045
ffcf
05fa
f8f4
0319
ffbe
fc55
fdf2
005a
f999
0071
0398
06fe
020d
ff6e
fc2a
ff9d
fddc
033a
ff5e
0453
0072
