fa96
ff96
0060
fcf8
0478
02c8
0463
fca2
fcd5
0093
00a6
02f0
0078
004c
03d2
0116
ff86
fad2
0020
fddd
0546
0048
fed8
0226
ff16
0570
004a
fcfc
f9b0
ff86
007d
fe84
023c
ff23
00f2
0393
00ec
ff7c
fed6
036e
029e
0329
fb46
fe23
0109
fe1c
03b9
fd2c
f92e
03b5
0224
0264
02c2
00b7
ff8b
03aa
0145
f997
ffc0
fcd6
ff3a
0336
ff9a
0098
fee5
fe3e
fe68
fce8
012c
fbf2
fefc
027e
0168
039a
fee6
0073
00d8
00ee
fd8d
009e
fbd5
03ae
00f2
fa57
ff99
0146
0009
0218
fc64
feaa
0243
069f
ffbc
0389
fedf
003c
f9ea
fe6c
01ef
0423
006a
fd48
ff94
fd05
05ce
02be
fe61
f43c
0044
02bf
fd60
fdf7
fa76
032d
06a5
ff55
f824
0180
feb7
fee3
fd0d
05eb
024b
042b
ff45
0172
fccf
02ca
0455
0149
02c4
ff3e
ffdb
0552
fed6
fe0b
ff57
fb4d
0080
ff15
0137
ffa7
0334
03a5
00cf
04c4
fe1e
fcbf
fe2e
fd2d
ffbc
01ce
0151
0392
00f6
0333
fe5d
fff5
02dc
025c
0283
0180
fbb6
06b6
0604
fda5
fba1
027c
ff10
043f
ffbe
0206
fedf
f903
fda3
fcf3
ff07
019b
fde5
fe21
05c6
ff36
fdfc
ffb0
fc5b
0254
0090
0148
f95e
fedb
fec9
f916
00a2
ffaa
fdbd
fd5b
ff52
feb7
0578
fb28
fc1f
fe2a
fd1f
fd35
010d
ffd2
028f
015b
ff0d
0054
ff78
fffd
ffea
ff25
fda6
fcfa
fd0e
022f
fed4
031a
004c
fece
0020
ffc1
ff78
0594
0196
0411
fb91
ffba
ff90
f95b
003b
0168
ff6c
fc73
fffb
ffed
000a
fec4
fe94
feae
ff09
097e
025e
f9bf
009d
fd65
0261
fb6d
03ca
02eb
0598
fdb1
001a
ff9a
ff76
04af
ff17
feb4
01cc
fe8a
05f4
04fa
04e4
01c9
fe90
fed8
fd27
0087
01ec
fe6c
0095
fdd5
fb0c
0216
011d
049a
02ad
ffd7
0065
02b5
fe22
0271
0275
047d
fd49
fd74
049c
fed3
068c
05c7
03cc
fce5
0298
fdeb
fe06
0499
033c
0001
0166
00ac
04f6
000a
04ce
fc10
f877
04b8
005f
0039
ffed
0029
fcf2
0057
fe8f
fd5c
fd9b
0045
fe14
02dd
0258
0644
0520
fea9
ff98
0185
fe95
047b
01ea
00c1
ff8b
0316
0040
ffa7
054d
fec1
ffc7
fdbc
0461
0287
ff85
02e4
02ee
fff7
ffb6
fed5
fe6a
ffb8
fa92
fed0
01b8
0226
fa81
01c3
fded
fb93
fdcc
fd18
fbf3
0114
fc4c
01d9
01f7
ff91
015e
0494
fcad
0383
0183
040d
0942
fe67
faa7
0305
0620
014c
029d
0121
0585
fcf2
fea2
fc2d
ff9c
00e6
fd46
fef2
0345
ff31
fd09
ffba
fef8
fc9d
0196
0059
fecd
04eb
0078
0007
fee5
fc80
0318
03bd
018d
fc8f
05d3
056a
024a
0064
f94e
ff7c
ff7f
007a
0570
fede
0224
0115
0159
04ca
001d
f9aa
f88b
045d
ffec
0279
0360
ffe1
fdaf
0240
ff07
ff40
02ff
fa08
0138
024e
011f
faad
0111
fcc0
0139
00e1
ffbd
fd51
fec6
0649
0200
fb45
fe4f
03a3
ff31
00d5
fb4c
fa7c
fd34
01f1
fccd
fde4
fe02
fe0a
049b
fd0a
ffcb
ff00
ffc7
045e
01b0
fce7
fd78
01d0
fc91
0309
0210
fb53
03f4
ff51
0152
0403
0023
fd89
f89d
ff5a
0275
042f
02eb
fb00
ff53
fa51
fca3
fffb
0314
fb00
013c
fc41
00a6
00c9
0365
0031
0194
fe3c
fe9a
faa5
02f7
0373
0177
f928
fd4f
0170
f7cc
fc92
ff50
ffb0
01d8
053e
0060
002b
0001
01b6
fa28
00c6
ff68
fb92
fefa
0160
fed2
fbc8
05fc
fb4c
013c
01be
0363
ffe7
ff5c
00b9
fc1b
0126
fc78
0054
fc49
0224
fa31
02d5
0494
047d
f68e
ff58
020b
ffa2
fadb
0505
0046
03b8
006b
0371
fff7
ff14
0291
fb04
ff41
03c1
00af
042a
016f
fa4f
ff65
fe51
0146
04bf
0046
fc32
00b5
00cc
027e
f854
fad1
ffcf
fe9e
ffec
fe31
fdb6
018d
053b
fbcd
fed9
0145
f752
fa7d
0150
fefa
0b3d
fec4
fe98
fefa
fd1f
fa5e
fdc7
fccf
fcfa
0198
0060
0213
036b
ff5f
00da
ffa2
fbcf
0362
01a3
fccd
fd45
004c
025a
fe56
fff1
05cd
05bb
01c0
00a3
fea7
ff9e
fe9e
006d
ff78
0148
fea4
0235
fdd9
fcf7
fde9
04a2
026d
fa61
00d9
0137
010b
ff77
0335
018b
fd5f
014b
0313
fc61
feed
02fa
ffe1
023c
034e
00f9
0187
0bb2
fe1f
fc48
06b9
ffd6
01a7
05c0
0086
fe82
fd34
01a0
00f9
0022
0466
ff83
019d
fdfd
01fb
003e
003e
fc4b
fde1
ffc5
fbdf
02a0
0227
fc6d
00e8
fd54
feb8
febb
fb56
fe22
001e
0069
fd83
02f7
0327
04f2
02c8
00ff
0316
fee5
00b1
fc2c
fd7a
04ea
fd73
fd3b
ffb8
ff95
fed6
f959
0634
03b3
01ae
018c
0227
fd61
fc32
ff6d
015c
ff13
02ba
0397
ff55
fd15
0048
0060
ff13
fc67
0125
fe20
fe81
02c5
fb4a
0117
fc64
fcf6
058b
fe09
02e3
f930
fd44
0066
fcc0
fbd3
ff6e
ff66
fbb9
fa5a
0281
f7f7
0428
006e
fa93
01b3
fa45
03d5
033c
ffec
002c
041f
00e8
0310
fea6
0663
fd4e
fcbc
01a2
0363
fa4a
0088
f9ab
02cb
024a
0033
fe6e
fde0
04a0
0246
fe4f
011f
0202
05a2
0004
ff21
011d
fe65
fd11
00dd
02c3
065d
fefa
02df
fe4a
fdb3
