07b3
feb9
ff94
fbfa
fbaa
ff16
ff62
0818
ff51
028e
fd02
0027
00c5
ff28
01c1
002c
fe05
ff45
fee5
014f
fb72
05c6
009e
ff19
0506
0348
fe6e
fc9f
feb8
0089
0041
02a2
fdfd
fbab
ff31
05e0
fbfe
fc83
0370
0359
0136
fb3e
ff49
ff12
046a
fe80
ffbb
ff15
ffb1
0031
045d
0097
0284
fd56
027c
feff
fad3
0010
febe
f9a3
fff5
f9d2
01da
046d
00da
fbee
fdba
0051
02df
fda6
fde1
fe3e
fece
03b5
fe8e
fec0
01a7
0363
0136
01e3
fcb7
fdd1
ff4a
f88f
fff9
01ef
fed1
00b6
0274
ffb0
fa7e
faad
0184
0118
f894
020f
0203
0166
0092
01d7
00ce
02e4
fc41
ff4a
0720
fcec
044d
ffc9
fe70
0217
01a8
feda
00d1
0148
f85c
fd30
00ba
febf
ff90
0285
fe8f
01af
011d
ff96
ff8d
fffc
fc7c
fa52
fb3a
fdf8
fe06
fd37
03fa
fe14
fd6c
02d1
f991
fe04
f94f
f9af
ff8e
032a
fe90
fe70
f8b3
0068
02be
ffe8
fced
fff0
fdf1
0137
039a
0328
fe1a
016f
0075
febc
0167
fd3f
ff68
fdde
fd05
fda1
fea6
fbfb
08ef
fc62
0233
fef0
faf3
fce6
f989
0473
fb8e
00f8
0136
fa93
fbf5
fd7f
fec5
fdd3
ff3c
ff37
0183
fdf6
006c
ffe8
0217
fe53
fc4b
ff46
ffc2
fe4e
fc0d
ffe6
fde6
fad7
0030
fa3e
01ba
f9a8
ffd4
fde3
0033
ffd8
fe38
f9e9
01af
0762
fb9a
fd44
020c
01cb
fcb7
fd26
0183
0561
ffa5
06d8
0228
fdfa
04e1
fc86
0294
f785
007b
fe75
fda4
03ce
fec0
fe00
fb6c
fd53
011a
03cd
ff6c
f9d0
003d
048e
fe0c
001e
01ce
00eb
0174
ff65
0424
fe77
0139
ffe9
f971
fbd8
00f4
ffc4
003e
fdd1
fe71
fef0
fa3f
020b
07d9
0048
ff44
fc24
fe23
01f5
067e
010c
005c
033c
0113
ffbb
0119
0430
005c
0143
fa61
ff7c
0331
fd39
fe71
fd29
fe17
fdda
fadd
01d6
01c8
04cf
fd98
ff1a
ff5c
fe6b
fb08
fc55
0268
fb6c
fd84
fde3
fbad
fef9
07b4
fe28
fff2
00a7
fdfe
011e
fe70
07d7
fe29
fcba
fdee
0434
0473
00f6
011c
00ac
fceb
0530
fe25
004b
fd4e
00b9
0282
ffd3
002e
fdb6
01e4
0434
04c1
0382
02c6
0159
0228
00ac
ff73
0074
0156
00ba
031c
0115
fcef
fcc4
feb2
0243
fb35
033a
06be
00ff
ff63
f839
ffe2
fc51
0385
ff4b
ff3b
0158
0104
02ec
000b
06bc
05fb
fb3c
fdf6
003e
fef8
fea5
fba6
0143
ff81
ff52
fa56
01bd
0112
fb9c
0079
00ae
00af
fe79
0060
0493
ff9f
fe2e
fd68
04dc
0003
fe54
fe0e
057d
fc64
fce8
04e3
01d0
ff1a
00d5
0460
0098
0721
041e
0330
fb5c
00a7
ff02
006a
0034
0123
fae7
fde2
04c5
03f0
016d
ff02
021d
fe84
01f8
fd9a
fb23
f946
060f
fc0e
fea7
fe49
018a
fe87
fdf4
fd7b
fc7a
0101
0244
02b5
0058
ffbc
fca1
ffc3
004f
f8ad
fae2
fe22
ff6d
fe26
0135
01ba
0382
fce8
fedb
fdc3
01da
0004
fe28
0295
ffbd
fec9
03b6
fb23
fcfe
00de
ffc2
0373
ffe7
fef3
ffc5
0167
ffe9
fc8e
0319
00ef
fb67
01b4
f991
fd7f
0506
0243
fd47
062e
058b
ffa0
0050
02fb
0959
0331
fc70
00a2
fe04
fbb3
f857
ff62
fde3
015e
03d7
0442
0238
03d9
fe77
fd5d
0198
ff72
fb70
0590
fdab
ff35
ff69
02c6
0399
fedf
039d
0374
021d
fa4d
fc40
06a5
01e6
fdb2
01ac
fc1a
0178
fe07
fe86
ff94
ff94
0656
fcaf
0464
fe1e
02b2
02ca
ffb2
0196
0020
ff0d
fa67
0035
fd32
ff11
feb9
030a
0151
024b
f9b2
0143
f95a
fd12
ffda
fc49
ff14
0265
f9a9
fecd
ff23
fcc4
00d8
0034
ff0f
0613
fe3a
02d8
046f
033d
0121
009d
fbf1
f848
008d
ff1c
0049
fd71
02c7
0190
04f8
fcde
faa3
fc18
0125
0051
fdb9
0598
00e2
0586
02b2
0307
000b
fae6
04d1
fc9d
f9ce
004a
face
0547
fe64
060c
ff06
ff95
01d1
0366
fa85
fead
029b
fd84
03de
feda
fab8
fdef
0111
fcbe
fc35
fac0
fe89
0123
0041
02fa
0210
0057
fea1
fd7d
fcb2
ff8c
fdb6
fdc1
04f2
0000
f957
0012
fec9
fd77
0017
fe5c
0462
01ac
fd0f
0463
fc09
02f7
042b
028e
fa7f
fbd2
ff60
04c6
01f0
0127
fec6
fea9
fc92
fffd
012b
043f
03dc
0239
fe11
fd73
0076
00d4
00c5
0210
0036
f620
006c
fb31
0338
03b4
00b4
0104
ff6f
fe8a
0342
02c2
f7fd
ff81
002f
01ce
02d4
faa6
06e9
fe5e
ff52
0065
fe35
f734
003b
0368
ff85
fe85
0593
ff70
0253
fd97
01b9
07e6
0110
fe29
fdd3
006d
01ce
fe65
fed3
0425
04c1
fe7b
00a9
fd59
0056
fe02
ff55
ff95
fa3d
ff36
fd76
ffa2
f9ac
0006
fd3f
fea8
fe20
00b9
fb4d
fa4f
fcf7
0170
ff62
fbcd
00ae
0165
0505
0068
0031
f8ae
ff2c
02cf
fd1a
fdb9
fd56
fffc
ffc8
ffd0
01db
00f1
fadb
fb97
ff9b
01b8
fe45
0129
05a4
fda9
06f5
0365
fc6a
feaa
027e
ffae
fff6
fb07
fdd1
011d
0047
00f0
01f8
fcea
ff4b
01d3
0078
fa6b
0059
0360
fc0f
040f
fb69
01dd
ff13
0126
fdae
fff0
024a
0236
fb79
04ab
ff3d
ff08
fedf
0228
ff69
02e3
049b
fd94
0124
01e5
