06f6
fd49
fc1f
04ce
07fc
033c
fa98
0681
fa99
068e
f8d4
021a
ff8f
fe90
0162
014b
0295
fe6b
f994
fdb3
fc68
fbbb
01dd
00a9
feb1
fa4b
fac9
fcf9
fc9f
03dc
fdb2
fef8
01bf
fd0c
04d7
01b7
f9b4
fdca
02e2
fce1
040d
0162
0128
fbfb
fe1c
fbf5
0a1d
00a5
0140
fd42
f58b
02e1
008c
029f
01a4
ffe7
ffac
fd78
fcab
fd7b
0253
fdca
ff0e
0438
fe31
fb40
fee8
fdfb
0472
ff18
00b7
ff8b
fe54
fbc8
fdf0
fe10
0607
fbb8
003f
0389
fe58
fb10
00ee
fb8d
ff0d
03ef
02bf
0197
ff5f
ff94
013c
ff4a
01c1
0622
fff8
002b
0303
fc68
01f0
feef
fd32
021f
049a
0069
fcf1
01a6
0202
0016
fec3
fcdd
fd40
ff66
fd75
0187
fe0e
ff94
ff9c
ffb7
ff08
0166
faf6
0258
fefb
04dc
016a
0505
fbc2
fd99
019b
003c
02cd
fcdb
0039
01b9
ffca
fc55
fe9c
fcf6
0140
0256
0197
03db
0205
044f
01d0
fb67
0136
0289
01e8
0017
fcac
0385
0275
ff96
00f9
fda2
0013
fca1
fffe
0203
fdd2
0406
fc3a
fd15
03c6
fd00
fa94
01af
0239
0254
0125
02d2
ff3f
0130
ff95
ffce
fd0e
00bf
fd7d
fc16
fd1f
070f
021d
fadf
01c2
f989
fccc
fdbd
012b
01f5
ffac
030b
fb8a
fe7e
f7ab
fef5
0025
ff92
0123
fe3a
0073
00e6
fc9c
00d6
fda1
01ab
fc3e
ff9f
fe0f
fd1f
ffe4
0227
fdc3
fd1a
fad5
fe05
02d6
0147
f889
fc97
fdae
0213
ff76
0361
fd1d
03b3
fa42
092a
0281
fcaf
021f
030f
00a4
fa11
00cd
f9f0
fe50
018e
0303
03f7
f9d9
fec9
0108
ffca
f986
002e
fc23
00d8
fd13
01a3
057b
02b4
fb21
01ee
ff26
0423
fe8f
ffd8
ff70
ffc1
fb3a
feed
ff45
0166
0073
fe66
fc9c
fd2e
ff5e
fd2a
fe2a
ff55
fec6
fee4
043d
fc7f
fd96
07d6
01a8
fe82
028a
ffeb
005a
fb37
01d9
fd45
0475
ffcc
01e9
00c0
fc97
ff2c
0057
0150
ff44
02f9
f8b8
f94b
ff80
fdfa
fa16
0264
0076
ff8c
fd42
007b
ffee
00bb
01e7
fde1
04a8
fd14
fc68
037a
fc9b
0234
0378
fdcb
0062
fe4f
0230
0056
054d
fe8e
ff1c
ff86
02c5
fc51
0281
08f5
ffa1
018f
0151
fedf
ff4e
0129
fd36
fde6
fcda
0179
02d3
fcac
fe68
0034
fe49
0287
ff4f
0052
057f
fe55
020f
fee1
fe18
038e
0057
ffa7
000e
02c4
fa3b
00ee
0374
01e4
0030
fdab
00ec
02c8
044a
010c
fea5
fced
fe97
0277
05ef
fc23
fefa
fcd6
0118
fff4
ffe4
0116
ff1b
0130
fc6d
fe66
fc3d
0028
fc21
01b6
00f3
fbdf
01c8
0459
0071
fae9
01a8
015a
fc56
feea
012c
01d3
ffb7
04eb
0223
fc56
fbc7
0167
fdc6
fc03
fdd1
f9e8
fb73
ff27
0184
fb09
020e
f679
006b
051d
fe5c
0041
ff09
f652
0116
feb0
fd52
0105
01b1
ffd9
03ca
fe19
0174
fef2
fc95
05f6
02b0
f906
fbdb
fbd2
ff0d
0308
fe35
000b
0591
0062
02c8
0431
02e9
ffc0
fdbf
0462
fa34
faf1
034a
f703
03d9
04c5
04d6
0045
01c2
fed0
0299
036c
fc44
037e
0203
0090
0322
00f5
fc72
0001
fb6f
0034
05d0
fc0a
00bd
ffb7
fe93
00e4
fdba
00be
009f
0359
fc1a
fb1b
fe89
0442
fb76
0289
fecc
fda6
0140
0498
00ad
0326
01eb
f9e4
03ff
feac
02dc
0060
ff27
0189
02c8
fe39
ffc6
ff9b
0622
0324
02ea
05d8
fa47
0127
003e
01d4
0005
fc28
f9ee
f665
039a
0281
0110
fddd
0017
fc31
fc3b
fbc6
fe3f
01e9
fe04
0423
ff22
007d
00b8
fd2b
fe8d
001e
0052
ff20
ff1b
fec9
02d7
0058
0086
0010
fdac
0165
079a
fb97
00ca
01b1
ff91
00aa
fd65
005b
fe4f
0005
0288
028a
0293
036f
00ad
0012
ff9c
f943
01bd
fd93
04ba
0063
01b1
f994
02df
013a
0308
fdec
ff5c
fb4a
03ec
03b7
04c2
fb7b
fda6
02bc
00df
ffab
02f7
0115
02f9
010d
0153
0524
0259
02ca
03b4
0444
0346
0497
04ba
fdd2
04b6
fede
021f
ffc9
0066
fffc
0096
0023
00c5
07c5
003a
ff9a
0190
fbe5
ff7b
0339
f96b
018c
fe5b
0080
074e
fec3
003b
063f
000a
0864
0078
f90c
0998
fe0f
0367
0166
fe15
0001
fb56
fe99
0373
0080
0055
024f
045d
011b
040b
00b2
0039
0027
fe18
fea2
00d4
000e
ffe4
05f8
fe8b
f9f0
0194
fed5
03ab
fc10
fdca
0262
0140
01b1
0114
04a6
fe2c
ff40
04a8
008f
fcb8
0190
fee2
ff8a
026c
fe84
00b3
ffa2
fb78
0445
f9a9
ff8e
fffd
fcc7
0000
0054
fe58
0166
ff69
fe05
000b
0321
0193
0210
fee3
fe38
ffe6
fe10
fe70
faa6
fddc
f9e9
056c
021e
f9da
fda0
01b4
02e9
fb92
ff87
fc58
0026
018a
fb1c
fd4b
04c9
0088
0132
fca8
0086
00cc
fe3c
0109
039d
0126
0383
ff91
ff3e
03e1
01d9
00dd
fce7
ff60
fcdb
ffb3
02f5
0080
0116
0629
0135
fd86
03fd
081c
fef6
fd3a
f963
02a1
ff77
ff95
007d
fda4
053c
fdf3
0316
03ed
fad0
0284
fd68
f91d
faf4
0814
fc36
068e
ffd0
f989
02b2
fe9f
00bb
02a6
0481
ff1a
fdbd
0157
00db
008e
fdab
006f
feb5
ff56
03d5
0354
feec
f90b
fcaf
fc49
00fb
01a3
0179
