030a
fe6e
ff31
fded
fe43
0068
02cf
f905
fe88
037c
fec8
00a8
029d
0071
fd0f
ff49
028f
0282
ff29
fea6
fd77
0499
fb31
ff43
fc15
03d4
00cb
fff7
0145
fb94
fcbc
005e
f922
0163
fe77
03f9
fed8
079a
041b
00d3
ff4a
fd22
005d
fe5b
fb33
05bd
0530
005f
fc80
fc66
01c6
06d7
0144
fda1
fa96
f992
fdcb
fc77
fbfb
fd74
0383
fc5c
032b
0050
f8ea
f739
ff28
fddb
fccd
00d3
ffec
ff6c
ff89
fe85
014c
0113
ffac
03b1
f9d8
ff19
0182
03b7
080b
02b9
fd58
fefa
06e4
0227
011a
0202
04ea
fd7a
00eb
0495
00a4
fd0b
0719
0198
fbc7
fe51
ff16
0076
0025
fa8a
ff3f
fca0
05fe
0169
fd9d
fd93
0068
0154
ff4e
feda
01a9
fd79
fbb1
fd21
0175
fda4
0439
023d
fea5
0033
ff9c
01a8
fdd4
0018
fecb
fe80
001b
fe96
fc2c
fe38
0390
011d
fd72
ff4c
0361
04db
f79f
fc1a
fba6
0176
ffcc
09af
026a
fdf1
01e4
ffb6
fc0c
015c
01eb
fe60
0195
fea4
fed5
fd8b
06fc
023d
04f8
fcd8
fff4
fcf1
03ca
00a7
fc52
01ac
0518
0691
ff38
022b
019b
fb2c
fe08
fa08
0102
0276
fb6b
ffdf
017a
fedf
fd67
0144
fe0d
fab3
0023
03d6
faab
0087
0277
fd90
fe9c
00a7
0220
fc87
04de
ff32
f9cf
fae8
fc01
02fa
fcc0
feac
002a
042a
001b
0455
01b3
0459
fb50
03f6
00a5
febe
02e1
0134
feee
0387
fcdc
fdbd
0255
00d4
0496
00aa
08f6
fd2b
feab
fb2c
014a
fcb4
faa3
021a
fd5f
fcaf
fc64
fe2e
02e7
004f
fe76
fe4f
01e9
0363
03c0
fc8d
0095
006e
fcd6
01c9
fd50
fb56
012b
00e0
0119
05c4
017b
fe07
0014
000d
fd1e
0123
0404
024e
0269
01e1
fcdc
f990
facf
0006
ff92
039d
0225
f9ba
ffad
0481
02ca
0311
feda
00df
04a9
faeb
fd84
0132
0473
007d
0696
0053
feeb
fdb5
0458
fe2b
03ff
fe85
0546
fea6
fb9e
fdfc
0010
fa98
f97f
0261
ff0c
004f
ff6e
fd85
0226
02ad
fcc5
027c
ff4b
00e7
fd16
f9ca
fc7e
ff9a
fc5b
fe70
fd99
fbed
ffd2
fa89
0132
fb6f
fb8a
007b
0361
0176
ff05
0206
ff43
0049
0474
0388
ff84
010a
0413
fcba
fa49
fc5d
007a
fd76
ffc3
fe03
fd0e
fee3
00a9
fc65
fcac
fc5e
fbcd
f9a4
fbe7
057e
006a
0161
fed9
fba2
0246
00eb
062a
fdba
fd15
0295
0049
fb8b
04a9
fada
fffc
0221
fcc4
0352
fc32
fdc8
fca4
0379
ff2a
fdf2
fe7b
fce3
0187
002f
05e6
022e
0405
0276
fee9
060d
fc8e
ff99
0026
0308
02fe
ff2f
00fa
02b2
013c
00f4
fdeb
faf9
fae9
02af
02bc
0576
0001
feb3
f6ea
0189
034d
00dd
fc8c
062e
01a4
fda2
05b5
fe79
fefb
00e2
fea4
fe00
fbe7
fd4f
fcf1
fdb5
021c
027b
00e0
0191
fe80
fbd2
fc3b
fe83
0333
fe0d
03da
0528
0136
0109
0438
0509
fe98
022f
ff84
01e4
fe85
fc6e
023f
fea4
01da
fdfb
00b4
06dc
028f
fd3e
fed3
0247
0238
01aa
fffc
fefa
ffb0
0526
fe51
0390
0172
0445
ff97
fcd2
ffff
ffc4
02ce
fe0f
0190
005e
fb31
00ad
05bb
0169
028d
0193
0245
fcc9
fd7f
fd2c
ff65
001f
06f1
feac
01f3
01fc
00d8
0133
fba8
fda1
01dd
0088
001b
01b5
0385
ff2a
016b
fa44
faf1
0092
fe11
fb2d
fe70
fc53
f9d1
0106
feb7
06c3
fed0
fd07
0414
03b6
f945
063d
02e6
01f1
fa98
fff8
fd48
fe9b
fbe0
03e2
003d
fea8
fedd
ff1f
ffb2
01cc
fca4
0256
000d
00e2
fea0
fa4f
fb69
03bc
fe58
0001
0042
012d
0434
0238
fe51
f6de
0293
025a
ff1f
0542
02c2
049b
0144
ff9e
000f
00ec
ff02
0149
fc4e
fd90
ff80
fec7
066e
0379
ff3d
fee3
ffdb
04f4
fef1
013c
fd20
ffec
0028
056c
0153
fe44
fddb
026d
03b4
fff8
0062
017e
fc2f
06f5
fdad
005f
06e7
00af
fc4e
fe63
010d
fd6e
ff8f
096f
0252
fcf4
03f0
009a
ff5f
ff98
fe4e
fd4d
09a8
fa76
0180
01d4
ffe2
0341
ff5e
024b
005e
03aa
02a5
fe7d
00a1
fe46
ff68
fed2
ffa2
01a3
fe50
04dd
fed8
0101
fddd
046e
fffb
03e3
0454
fb1c
06eb
0423
fcca
008a
0006
fd8c
fea6
fdbd
fc48
0048
03cb
06cd
fd86
fe48
f936
03cb
fd71
fdfd
013d
0314
fe4d
fee5
ff13
fbcd
fd57
06fd
ffaa
fd83
0006
0196
06e0
0198
0439
031b
03b6
ff1b
0174
084d
0232
047e
014c
0121
0324
029d
f881
fe0e
fc62
fed4
01ea
fc39
0335
fa4c
fee6
02ca
ff7c
feec
004e
0160
031e
008f
029c
fe38
043d
febd
fb7a
0102
fa0f
032f
029b
014c
fed4
0408
feb9
fcd4
fd2e
ff14
fdb9
fbf2
0272
00c5
02bd
00e6
0483
faf6
fd37
fb39
0031
fba0
fdcd
004b
fd6a
00af
ff78
0378
fde0
015f
fd66
fdf3
0000
fa47
06c3
fec3
fc07
fd70
fe9c
fe15
0390
fe10
010d
0172
fc48
045f
fe11
001c
02a1
fe63
fd02
fd99
fccc
fe0c
fd9e
005f
fbdb
01b7
0049
049f
fe25
fc22
0070
0059
ff3b
0307
fe5f
faaf
fd89
fd5e
fa81
052c
00ae
0850
01a2
ffc7
fb70
fca3
fdad
fe24
0148
ff16
003a
044f
fe29
ff37
00a1
fba2
