fbe8
fe4f
fdcc
0433
fe26
0107
fbb5
fcd0
016b
00d3
03a2
fca3
fee7
fe91
0331
ffe9
00b5
0027
0429
047b
fc8c
fc91
0277
ff32
ff00
ff06
f9b1
033e
fa7c
fba9
fdd3
fc8d
fd4b
fc11
fcf4
f7e8
01d9
048e
02b3
fd7f
017d
fd7f
0130
001a
fff0
fef5
0059
0070
00f5
fe3f
01d3
020c
050c
f75c
fe8a
0090
ff27
ffc8
fc58
0465
001e
ff0e
00b1
005a
fbb3
0084
0031
024a
01ea
fe15
fca2
fe06
07c2
0014
03de
00fa
fe9e
fb08
f966
032c
0202
0264
029f
03b7
ff8a
057c
03a0
fc48
006b
0035
0236
feab
057a
0364
008e
03be
0442
ff2b
05d5
0148
00ca
02b7
ff80
fc31
0347
0147
fbc4
0419
0193
03ea
05df
feab
fd79
0260
03a6
0485
fda1
015d
0159
ffaf
fa62
0140
05c1
fea0
fbc1
fbfe
fc6b
f5b7
fc56
00d1
fd96
fdb4
fab1
01a3
02bc
f96f
fdda
fff4
ffff
ffc9
062b
fd20
0413
fbf7
ff3c
01b5
fd41
0413
ff77
016e
ff12
fbb9
fcfc
f96b
052b
fa10
01e9
fff8
047a
fb91
0226
03b8
ffeb
00bc
f945
fe94
03fe
fa98
0142
0601
02c1
fc90
ff34
0144
fd0e
fbcd
0049
fb7f
0036
019b
f991
0153
fc4d
045f
fb08
0105
029b
fd4e
03ed
ffa3
019b
fcce
fbed
00b2
fad2
fed1
00ad
06e4
feac
fecc
fe50
02ff
0053
03ed
0251
ff8e
0243
0320
03fe
0005
fe7a
ffe3
0171
002e
0430
02d7
ffbd
f9d9
0209
fca4
019a
0244
fc5b
fea5
fbae
febd
fcaa
0106
fcc4
00a1
faae
0272
fcd2
0170
00d7
03a7
fc88
fd92
fd43
feef
04a1
ffef
febd
0359
fdc5
ffaf
ffda
fdea
00a4
ff40
030b
02ae
fb82
00b6
0104
0487
feb0
0519
03a3
0186
ff52
06dc
fc85
faba
00a6
00da
020f
fe14
fe0c
00eb
f9fb
0231
fe79
ff0d
008b
002c
f960
0a20
01bc
00aa
ffa2
0a72
ffb6
05ce
00ec
f9d3
f6bb
002b
ffed
fe3f
fdcf
034f
ffa8
faba
fd46
fe85
025b
fdaf
03fc
0401
0253
005d
04da
0234
fe71
0341
05bf
024d
046f
0486
fd2a
ff02
071a
f9c9
04ca
0016
0420
029c
ff20
fe01
0141
fbd6
fda1
fe2c
fc36
0217
05ba
fed9
051e
fe4b
ffd8
00b9
0268
fba0
00b2
ff84
0023
fbbd
0030
fed8
f982
f929
01cc
fca8
fbca
fa4a
00eb
fe77
0690
fe44
fdeb
fbd1
fc40
0169
fc86
ff1d
04d2
0157
00f6
03f4
00fb
fda1
008c
fd0c
01be
f9fa
fdd7
fdb5
fe85
fdea
0707
0165
fb61
fb5b
037f
fe02
fe3a
007b
fded
fb5d
fc7a
02fc
00ef
fe6a
fe4e
0350
fd3a
fd90
01e6
00bd
fc3a
fe7a
0208
0268
0364
011e
059e
01f3
062a
ff6c
f877
00e4
01b2
ff69
00c5
00f5
fd05
fdb3
ff92
0354
fe84
ff88
0444
0215
fe3d
fe11
ffcb
f9e9
fe2d
fd21
01ea
02d5
00db
0296
0014
fdae
03c2
011f
fcd2
fe00
fea6
fd95
ff41
0250
064f
0051
0121
02f3
009d
04d8
ffdd
ff40
fdd4
0300
fdf8
0342
fddd
063e
ff8b
ffc2
ff8b
028d
0245
00dc
00fc
ff91
fc6b
ff94
01e2
fcf3
fbf6
0018
fe5d
0133
010c
02f9
017d
ffa4
026a
ffc0
0684
031f
fd20
fb6b
07e6
fbd5
00ca
fffe
0823
007e
0149
fcf9
fc68
fa82
02d8
fe21
0395
0216
fe38
fd45
fd18
01da
ff0f
0419
ff47
fb4b
fe40
02f3
02c6
ff59
0045
0098
fb4e
0566
0092
05eb
00c6
045e
ffe3
f95d
fde5
fa07
002e
fe0c
0269
ffc2
fd89
fbdd
ff7c
0529
fecc
06df
ff78
fe23
ff02
ff35
061d
0084
0459
fd39
029f
006f
fabe
046c
03b2
060d
fed5
0079
03a2
ff56
fe7c
fe35
0226
02d7
fe59
fa82
0464
fa7c
fb0a
0228
fecd
0235
ff40
fbfc
008d
fd42
fe7a
009d
09a6
fdcb
0470
ff32
03b8
ff37
ff80
0126
0102
05f1
02c2
00dc
fd09
01aa
fff4
0299
0303
fde2
0393
fd29
fc5d
01ce
011a
015f
fd4a
00aa
fddd
fe9e
0523
ff4e
0382
fe4e
ff57
fd8f
fc2b
fe90
0542
fe2c
03b8
fcb4
032d
000b
fefc
fd0e
054e
ff3e
002d
fe73
090c
0225
ff3d
fe81
008c
038f
fb76
01bc
064e
0051
ff15
ff56
0111
fddf
0208
fed4
00c3
fdb6
ffdd
00e9
fe93
f7ad
fd74
025a
0346
01ba
fda7
fed4
046b
fe48
fd0e
fe70
01c1
0452
fdd8
fec3
fd5b
03ed
0508
fc57
064d
00f4
fd4f
02f3
0236
fea1
ffab
0107
ff7f
ff9b
0781
05cf
fb59
ff49
024f
0120
01c3
0082
fe72
01c5
0053
04c0
0104
0751
019c
029c
fced
ff90
fe68
fe90
04a7
fe4c
fe84
03fe
0319
fe46
0487
fd6f
fded
fee8
049d
ff9d
fdcd
f984
fd92
0475
fe3c
fd5d
ffa6
050a
fe9b
0241
fc47
fd68
040a
fcfe
007d
ffac
0329
fccc
f8a5
ff71
0458
ff9f
0644
fe4e
0273
ff38
01e8
fcb6
0054
f8ce
0092
fcda
fe1e
02fe
fea7
02b9
0267
0004
03d4
fbd4
03ef
01ed
072d
ff19
fc0a
fe9c
fe1f
01f1
0341
fbfd
ff0d
fe58
ff3f
0506
0328
01ca
0031
00d9
fed7
05ce
0314
fcbf
fee1
fffe
01bf
0338
fddf
0168
fd12
0235
fee6
01e1
fd86
feff
01b8
fba9
fcb3
fd49
fe31
03e7
021b
ff3d
fde8
fde9
0296
fcc4
063b
fe6d
fec2
0138
01d9
fef5
fd99
0433
015d
ff3f
