ff5b
02b7
05d8
0260
009c
0277
0048
fd58
fd09
fe2a
0666
f9ab
ffb9
0000
fceb
ff80
02af
faf1
044b
ffa9
0172
023b
f5f9
fd44
002e
f8a9
0171
fc68
feba
01cb
fb21
02bd
0568
0364
02a8
fb96
fe3c
fac9
fd28
fc26
00c7
ffdf
02fd
fcc1
028b
fd81
0090
01a3
01da
0413
fdbd
fd64
fcdd
f86a
fffb
fe53
0084
fe2f
ff0f
fe6c
fd3b
030d
fdf0
033b
ffa6
f93c
0670
031e
0156
ff2c
009c
faf1
03b7
feee
023c
ff90
f958
00c3
03df
fe6a
fea7
f75a
0466
fef1
06e1
fc5b
fba3
fdc7
07be
fb5e
0108
04ee
0803
029a
fc29
fe50
ff47
0158
01fa
fdbf
000a
feda
fbaf
fd04
ff48
fc57
0289
0379
ffdd
ffef
0347
001c
00b4
025a
fc50
041d
03f3
fcc8
0151
02b3
fd01
fd82
0442
ff66
0569
00b6
0000
01b1
fd75
fc59
0481
ff49
ff76
026e
0313
0000
fc73
015b
fcfc
fdff
feb5
fcec
fd76
0259
0016
0467
0230
0000
020e
fc46
00e7
fcb5
034e
fdf7
0193
fffc
0025
feb7
fcbb
fc85
05b0
fd24
fee9
0092
019f
fb5b
fcaf
fd81
f93d
faa1
027a
ff44
ff00
0441
fe4c
047a
03f5
fd95
022e
fd61
01d2
0428
fdd9
0289
007b
0170
fe8d
0295
ff36
021e
fd5c
0538
0425
0040
fc3e
05cc
0101
ffda
ff95
f9a5
030d
fb3b
049c
fe2b
02eb
fd54
ff21
01aa
f742
fd5c
fdf2
03dd
fe28
f874
0617
02de
0021
fede
fef9
fa6c
ff45
073b
02cb
ff4f
00ca
04e4
f9fc
0226
ff88
fdc8
fca6
fc82
fbe5
fc46
0058
fbd6
fe11
ffb2
00ae
fce8
fc00
0155
fcdc
fbfe
0083
fb1b
fca5
0195
ff2e
ff74
fbab
010d
fe1a
0085
febb
fca3
023f
ff42
052f
068d
02a7
fbd2
0089
fddf
00a5
fa8c
fffe
fe64
01a8
00ce
0364
0269
0000
fd9c
fe09
0254
fe02
00f5
fd96
ff73
ff21
04f6
fe5b
fdb8
0245
fd5b
fdfc
ff4e
fea9
fa16
0069
fefe
ff80
04ca
00c7
030b
ff0e
0003
01e3
0411
00f7
fe0d
0389
fd62
0068
fe08
ff5b
fea6
00f7
00f4
fbfe
0011
025f
039d
0123
fe0f
0201
08e5
027d
001c
0240
0116
fbe4
fe47
0483
015e
00c8
0172
ffe3
0191
00d8
0124
02d3
fedc
02f5
0197
0598
0069
fbee
ffea
0438
feb4
0405
00b2
fd00
02be
fa6f
0129
fd4b
f971
fda1
fb38
ffbb
fd87
04dc
fb77
ffcb
ff03
fb97
0539
005e
ffd3
0115
02fb
013c
039a
0148
ffc5
01fd
fc2a
fdb4
00ef
0334
034b
fa6c
02d9
02b6
0078
010a
014d
ffdc
0142
035c
0004
ffa3
fbce
fc9c
0228
009c
051d
fd7e
fff2
ff95
0042
ff2e
fe28
0138
0216
0151
ff4c
ff0f
01c2
feb9
022b
fef7
fad1
fd2e
016f
035e
ffbb
05db
ff21
fbda
050e
fe62
0340
01dd
0148
fe63
012e
ffd0
fe90
05cf
fff6
fa9d
fdf7
f75e
fc98
fe35
feef
01a6
0617
ffd7
ffa3
00e9
00f3
02df
029c
fdc4
021e
0032
052e
0070
016c
0127
021c
009b
fa8a
02c0
fde2
fd42
fd99
fcb6
0028
fa57
fd96
005e
fe17
01c0
036d
f819
03ad
021f
02ad
051f
07a5
0141
0427
01cf
fdf2
fec9
0445
004f
001f
fd83
0247
05a5
ff5b
0026
fc56
fea7
0172
0481
fff8
ff3d
0191
fe8a
fcac
fd90
043c
01c3
fb8e
01d4
fffe
fd86
fd0f
0089
04cc
fe8f
002d
fdbd
0121
054d
032a
0046
056e
fc2e
012a
046a
fc23
0084
0621
00d7
fb83
026a
021e
0758
0012
fd37
fd23
fba3
fe7d
015f
028a
fbea
ff53
fe28
042f
00e1
0184
033c
feb9
009c
fc59
fb81
fd88
007c
00d5
009b
0137
0226
fd36
fdcb
0198
fafa
ff64
050b
fddb
04c8
05c5
03cc
fdd9
0456
fe8a
fe9d
014f
0088
fd40
fe01
0663
f91f
fd47
fe9f
0448
046d
ff68
fd44
04ce
fe7b
f97f
fe24
007a
01cc
fd72
ffdb
00d7
0139
ffed
0530
ff6d
fb95
fa78
fe12
fab3
fcec
fea0
0108
0260
ff60
0394
0052
fe2a
fbb2
fc58
0104
fff1
0723
ff3d
fff9
f94e
fc91
ff82
040e
fe36
02b4
07f6
fc14
032d
0246
ff9c
0171
fc2d
fdaa
fefc
ff8c
0104
01c9
fd32
f598
046f
005e
003f
02f6
03cd
0428
0016
f861
00cb
033f
01b9
012d
06d1
00de
04a7
fab7
fdee
ff15
009f
fc26
fe21
ff36
0015
0223
f9e3
04af
fca8
0112
05cb
02eb
0037
ffba
0115
fcb3
0276
fb53
01a6
0a65
fe88
009d
02bc
feaf
0391
0363
0039
0772
fc20
ffda
fb13
f990
0008
fe6a
045e
fbb3
fece
04cf
0170
056b
ffcf
0042
035f
01c2
ffce
01a6
0530
ffe7
fa36
0089
01a7
ff46
032c
fc7d
fa98
fd74
ff7b
fe5c
fd02
03ae
0022
fdbd
fddb
fb8f
fb64
fd12
0301
01bc
0161
feaa
fd31
0270
ff77
fd16
026b
ff40
ff59
ff7b
0382
008d
fd91
0033
f697
fedd
fe06
06b7
fcc1
fd2d
fd0b
00c1
00b7
0257
0361
0581
fe2b
0086
fcb9
fe8c
f880
fe42
001b
016e
feaf
ff9b
004b
001b
f9e5
000a
fa15
f772
fb3c
fd92
02a2
fdf8
ff32
fb5a
ff02
fdd7
0111
fb85
fbbd
faa8
0269
fd8b
0406
fe7b
0807
fac4
fe54
0022
024b
03e1
03a0
ff09
0369
03cb
fd22
ff74
01f4
00f8
0590
fda8
fa71
fe99
fefe
016e
faf8
