032b
fdf8
fe7c
fc77
010e
ff47
024e
ff12
038b
fed2
fc12
01ec
fe24
04a9
00c0
fa93
fea8
ff4f
ff73
fac0
fc42
faa6
008b
fc6e
068f
0169
0048
0360
023e
007d
f996
fdb9
06c3
0402
facc
0311
fa2f
fb30
0334
0429
00d9
086b
009f
00ee
fb5b
fcf8
0064
040d
0324
0081
0315
032c
02f4
ffcd
03a6
0185
0342
f796
0102
fc10
05ad
0476
f970
fe78
ffed
046b
fbd8
0292
018a
011c
ff60
03aa
f9b3
fec4
02f7
fff5
fa0b
fff0
00f2
fc45
fa6e
05e8
00e3
0743
011f
ffc0
03d1
fdc9
022a
004c
fe59
fa33
fdb9
00bd
0464
fec2
03f9
0669
0102
fe20
fd19
ff82
031f
0224
fea9
fde2
feb1
fc1d
0072
ff57
0182
030b
04a4
ff23
fccd
0226
0290
fcf8
f9d6
049b
fe50
0164
fce7
00f6
0015
ff61
ff38
ffff
ffe5
fd9b
ff21
fe43
ff98
00ab
0192
fcc8
ff80
fe89
0247
fe38
035e
0173
0147
fc4b
ffd9
03f5
fe2b
04a0
fd0b
04c1
f7f1
fe37
ff3d
0004
f9dd
ff44
0182
05a4
00c5
0463
0149
0487
fdd4
fdee
01c1
0314
0217
ff9a
02b2
0253
fe73
0895
03be
feb6
f9dc
0091
01a0
fead
ff50
fa28
ffb6
fef3
0163
ff6e
fdf2
f9da
00bb
fe09
fce0
fee6
ffcf
048e
fabf
ff71
fca0
ff5b
023d
0303
0048
01ce
0284
0146
03a8
0271
07a3
ffa9
fe93
fe4b
0002
fb98
0075
fed8
048d
ffff
fc4a
fd60
ff80
00ef
04d6
047e
0078
02b3
ff81
03cf
ff0b
fcf1
fe7e
05a1
ffe1
01f0
040b
0507
006d
fbb2
0163
008c
0034
ffeb
fdf6
07de
fe4f
fdad
ff33
fc73
fdb1
0010
048a
fb07
fcdd
004b
011d
fc68
ff5d
fd14
fce6
fbc1
087e
fa72
fe70
fd15
02ef
0065
012e
ff1e
04f3
00c4
f83a
01d9
03c0
002a
fe27
ff36
ffd4
fe40
f8d5
f9d9
01a1
0050
fd91
02d2
018e
fd42
fdfc
0000
00a1
fbdf
0005
0121
01d0
0148
fc8f
0056
ff78
0022
fbec
08c0
fe61
03cd
03e1
fa6f
0036
fdec
feb3
fe06
03a4
0006
fbdd
fe3c
04c3
0060
0747
fbd5
00b4
0265
ff2b
0359
021d
fa9b
fccb
0124
fc7d
fda5
0146
09d6
ff03
fc62
007f
ff07
0002
02f0
01aa
024d
fba8
0195
0291
010a
fcef
00b3
03e8
fb15
03d2
01b8
ff12
ff09
02d7
009f
010a
045a
0155
00b6
01a4
0197
fc59
015a
0307
05fb
ff21
04e6
0270
fed3
0321
029c
fb5c
06da
ff83
049a
008b
0394
ff60
00ad
0035
027f
007a
01db
0358
fbee
0668
0088
0856
0299
f7bd
081b
006e
02c8
fcd3
093a
fe96
0353
ff73
febc
ff3e
fe75
fdc6
01f3
016a
fe78
fe2b
01d5
fd42
02c5
fe36
fd4c
04b7
0256
020f
fc1c
fa99
fb65
fe0b
01da
026f
008b
03f4
0043
047c
0102
0004
f8cd
fefb
fae6
008d
fe77
fe20
01b6
f9fb
f971
0563
061a
0558
fedb
fdf9
021a
01cc
fdba
ff8c
fb65
014b
fe37
ff5c
0020
028b
ffc2
0056
fb4f
03bc
0086
0408
fc19
0374
0079
fcd8
0117
017d
015b
f9af
02a5
035c
0353
0312
0067
fe1b
0347
024d
fe78
000b
0118
0031
ff64
0008
019b
fdc0
fd22
00b2
fcba
feb6
005c
01de
02a2
ff8b
fd05
fd12
fd5e
fe04
fb92
ff48
01ef
0110
0397
fe77
0243
05d7
fdad
019b
03d6
0087
0043
fd44
099b
ff0d
0108
03a7
ff84
fe8d
f93d
fef3
0088
f9bd
02a8
fde6
ff8b
fee1
0951
0300
017a
0545
fc65
feb7
ffbd
fbdc
0334
0060
0902
fdf4
0122
010c
fe1b
056e
ff7e
0013
f995
fe42
0280
069f
007b
02ed
fe39
ff9c
0268
012e
0584
05e2
00c7
fcf0
fc9a
014a
0506
fe2c
fe08
f67d
0522
03a2
fc4f
f8cf
009d
02a3
f9b8
fec1
005a
fd9f
034c
0183
07ed
fed4
ff29
fe70
ff99
023c
fedc
001d
024e
0336
00ac
fda5
ff6a
033e
0107
005d
ff8a
02f2
0151
01b1
003c
fdb1
fd12
0863
fd0d
0555
fef1
fd83
0278
0379
fdf8
ff46
008d
0065
fce2
faf8
0355
ff41
047e
013f
feab
fd0d
03aa
fe26
027d
fed5
fec8
fdad
0249
0277
fe8d
fe3a
ff18
fb30
01d9
fd40
0129
fe96
0476
f907
0076
03a6
fdf6
ff87
fd94
fee9
0363
ff63
03cf
01f8
059c
02d4
02cc
00f1
fdc7
fd97
01ea
fcb8
fac5
01e2
fe3c
fc5f
012b
fe7b
fb52
fe15
05e9
01bb
01ef
0283
0016
00df
fc64
fefb
fb2d
06cd
0026
f6fc
ffbc
0264
f9d9
05de
0143
0120
0279
02be
fefd
0391
0145
00f2
0431
ff5e
03a3
fe83
fc3f
fcae
ff20
fabc
fffd
01ea
0032
04f2
ffc2
fb85
07b8
02f9
fe83
049f
0122
0108
0586
00c2
0885
05ca
04c4
0010
fce4
01b9
005f
010e
01e3
02d5
fffd
05e9
0364
fc4e
0520
fec0
005f
00ef
fdf2
fb1c
f6cf
fec9
0099
fa36
015e
ff01
fe9c
02fb
ff25
0252
ffc0
fd55
00b9
fbe3
f6e2
fee0
ff7c
030b
0114
fc1b
fef0
0175
fee1
fbe3
ffb7
04a9
fdbb
ffd7
ffc3
fe86
fe95
029a
fec9
00d0
fd4a
030e
044d
f84f
017e
02f1
fd21
02be
ff14
0210
fa2e
003e
01a7
fb99
080b
0164
fe63
ff49
fe67
fd78
ff82
fe9c
01e7
fc7d
fc13
00ed
04db
feee
fa63
01c1
03cf
fdff
feca
02ea
faa5
fba8
fd83
