045f
fdfd
0005
fe62
fbbd
fbf0
fe71
01be
fd1b
04dc
feb2
054b
02ef
fad2
fe81
0484
ff6c
fd11
03f3
0548
fe89
018b
043d
0207
0146
fed8
00f8
02fa
0164
031f
004e
0002
02d0
fc0a
033e
fd13
00f2
fc4b
ffc7
0220
fa4e
0613
fede
fac4
0272
fc97
fd6e
022e
0325
00bc
02e2
ffb1
fd7d
fed2
0001
01f0
048a
0172
0470
ff4a
fd25
0285
060d
00df
088c
ff98
ff4e
0130
02aa
fa95
fc06
00cf
fd06
0312
00de
fb4d
00b1
0405
fe70
faf0
ff82
fd7e
fb9c
00cc
fc1d
0293
04ff
0364
ff02
fab0
fd76
03da
0560
01f7
fb49
fec9
fc06
fd8d
0524
0250
092d
0433
fb1f
ff4c
0313
fedb
fcfb
0449
fdb1
02d2
02c8
032e
ff57
0202
fceb
0139
006e
fda9
015c
f854
f6f1
fd65
006d
015d
fd8d
fd52
01d1
fef1
fd9b
fed7
012b
fd68
0043
03bd
01f0
fa37
02bd
00ce
ff5f
fd1b
00fa
0515
00d3
049a
fb75
feed
029d
fc3d
ff3c
fd59
0061
0145
002f
00f1
0250
02a2
03c3
fe5b
02ee
fe6a
05ec
0231
0135
0440
02fc
fd5e
03f1
0423
ff27
ff31
fc84
0261
002a
fdc6
fe98
036a
fba7
fa72
0301
023b
fc4b
fe4a
026f
00e1
081d
fe07
0084
ff14
fe60
fd1a
fcfc
01ae
048e
ff62
f9eb
f9c7
0056
fffb
00c0
073e
0614
0117
fc17
0245
febf
f972
fb6f
07f4
ffd7
fdce
ff91
012f
fee2
ff38
ff18
05d6
fe2d
0377
fbe5
ff80
ff1a
ffd5
0288
0405
fa83
ffda
fca4
0180
018d
0296
fe4a
0278
fbb4
070f
fcf6
fbfe
00b0
fc76
ffe2
040a
01d6
f95f
01d2
fb55
0299
000d
fafd
05e5
0148
fd2c
fd97
05c6
0212
ffc2
0195
ff46
fe1e
02f7
ffea
fd48
0105
0423
00fd
f95b
00b8
043d
fe0a
0811
0361
0126
fa09
fd7e
febc
0324
fd4a
fc29
fbaa
fd92
fd8b
ff93
0628
01f7
fd4d
fe1a
0085
fdb0
025f
0378
0227
ffdc
fb29
fd02
fdd5
0376
040e
ff4c
ff96
01c7
fde7
00a0
fda0
0136
029a
ff92
ff24
ffb7
063c
0322
fcd7
03ee
fcb5
fbc9
fd38
fce7
0375
fec6
f97a
fdcf
02a1
035c
fe6e
fc15
012d
029b
0341
fe63
0126
fab2
fd6b
025e
fb51
01c2
0121
0638
02e0
fefe
0111
fc56
03ae
fee0
fa6c
fcf5
fd3f
0001
016a
0266
01c6
0224
0054
014b
0170
0371
fa46
02ef
00a5
fd06
00b4
fb3c
facd
060b
f9e4
008d
0050
fda6
fe2e
00e1
0013
014f
01c5
016a
02fe
ffaa
025f
fc43
02b4
023e
006e
00af
fc81
00ef
fe5e
f9a3
f89f
0066
ffb5
0094
fddb
0304
fc26
fdd9
0039
ff80
fce1
ff2a
fbe7
fb05
fea3
ff94
016e
fe9a
04ba
ffcc
ff59
0010
fe1b
0402
000b
fdf7
01b0
fcff
02bb
02db
f9ea
ff7b
0275
01d4
0186
fef2
0043
029c
fe74
ff15
053e
fc58
025b
03ef
0292
fd0d
fb50
f9b9
fe86
fee4
fee0
fcea
f5e6
01d7
00b2
0188
fa8b
f96b
fc9b
fe4e
fd4e
fcc3
ffdd
fb2f
059c
ff11
01fd
fe7a
0332
fed0
ff4a
0043
fdcc
0292
0174
feeb
0244
0087
0276
002a
ff43
fac1
fe44
009e
fc11
01d3
0169
030e
fbfd
fc68
fd4a
0813
fec5
fcca
0509
046a
fe36
0011
0206
ffb1
0aee
048f
fd77
ff44
ffc5
0102
01d9
000e
feee
fddc
0019
feb0
fef9
fbaf
025d
02c4
fed3
fa79
047d
02a7
0056
ffb9
fe5c
0023
f810
0084
03af
020f
0140
02bd
f977
fe11
feac
0177
fed9
0200
fe59
fc56
03c1
fdab
ffba
039f
01e7
0198
ff9d
fe24
030c
00a8
ff3d
0031
faf8
0580
0271
fbc5
02bd
ff1f
029f
0556
061c
01bf
00f5
fb43
02eb
0414
00aa
0084
0064
ffe4
f92d
feb8
ffd5
0091
fdd7
fde7
fe20
fdac
ff65
f9b2
fca3
06ae
01ac
0159
02cf
0519
0540
fefe
fc15
0355
0146
fe7a
01d3
ff22
0314
03eb
ff81
fff1
fccd
06ab
00c4
fb9d
00a7
01ae
ff55
02c8
017e
fd30
fc55
fead
015f
0223
fed5
fa5f
0382
fe0a
0023
fd8b
fd17
010a
0035
0330
00a7
03ff
00e0
fe19
02de
0136
fbf5
0522
0095
ff01
f896
011f
fb49
fa7f
0147
fe35
fe62
fea3
075c
fe34
031c
fd4c
02eb
fe43
0031
0070
032c
ff5d
fe55
0561
02f2
0033
f912
fd14
000d
0391
0103
fb6b
ffc7
fed2
fce5
fde0
ffe4
00f2
0299
00ce
fe96
0261
01b2
0140
0020
00b6
fd2e
fca4
0485
041f
fefc
06cd
fcf8
03ae
fd2d
ff6f
f978
fcdb
f8f1
ff77
fc68
fcc2
063f
06a6
0010
fc47
0036
053d
fd8e
0344
0495
0297
038f
fdb2
ff72
0127
ff6f
fd3d
0163
fdd0
ff0e
0620
ffc5
01ad
fdea
00f5
03a2
ffba
fab1
fb9b
fcba
062c
02af
0182
ff7b
01bc
036c
ffd1
03ed
fef3
0210
fb4b
fe34
048c
fd5e
0516
febd
ff7b
005e
030b
056b
022b
033e
fd35
ffdf
fe05
fea4
0082
01fc
feba
fdbd
019a
fe83
060f
0053
fe51
0129
fa5b
0152
0478
035d
0726
fc8a
f828
f7a8
0594
ffd0
fdf5
054d
fc59
008e
00f5
f9e8
0510
fe90
ff31
059e
020a
02f3
007f
fff1
ff6c
031e
fe27
fdf9
fef0
ffec
f9a5
0029
ff48
fc71
ffe5
fcb1
099d
0379
fdd4
fbcf
0163
0387
ff62
fa15
023c
00b1
04a1
04d9
02d6
