// memory data file (do not edit the following line - required for mem load use)
// instance=/Neural_Network_tb/gen_loop1[200]/FIRST/MEM1/weight_memory
// format=hex addressradix=h dataradix=h version=1.0 wordsperline=14
  @0 022a ff39 fdd1 fb50 00ab 03c9 03dd 0145 fff1 00e2 fe47 0140 041f 01a9
  @e fb93 fee6 0142 004b ff78 027b 00fe fca7 fd7a fd17 059e 0067 03fd fe7f
 @1c fea5 fd12 01ac 00ed feae fe51 fe6f 0215 fed1 ffe1 0096 f989 ff46 00a0
 @2a 019f fe06 01cb fa6e 0013 019e fd03 fe65 04d7 fe2c fd88 ffe8 ffae 0564
 @38 feb1 fece 0286 fe55 fc10 f7ea 01c3 0190 fd59 00de fbf3 0536 fb57 00bd
 @46 fd67 fa01 0288 0214 0420 ff9e ffb0 00a0 ff90 fdfc 0441 ff7f fbd4 fd2c
 @54 0327 fc1b 0479 fff6 ff46 00c4 fae4 039d 007a 0190 fe03 feae fa5f 03dc
 @62 fe81 fcc3 fe71 fd25 ff2b f5e4 00be 0261 fe8e ffcd ff9d fe6c 0371 fa98
 @70 fdd6 0302 f88a 00c3 fe64 012c ff4c fa94 fd8b 0266 0351 003c 043b fe99
 @7e 00df 051d fecd 0213 01c9 fe51 03aa 020a fbd9 fbe4 0018 00a6 fffd fcf8
 @8c 01d6 00b9 02bd 0174 02dd fe13 003f ff5e 056f feaa fee3 02b3 fc85 007e
 @9a 0390 00c1 072b 0239 0515 017d 0219 03dd 03e4 ff8c fb45 0114 fd4e 013b
 @a8 ff5b fb7a 0080 ff60 fee6 fe72 037c 01fb fca6 0368 047d fb0f 0274 fee8
 @b6 0718 ff57 fb54 027d ff96 00d4 feb5 fea4 ffad fe43 fd55 0169 040d fdd9
 @c4 00f7 f704 022d fced fde0 ff8b fbb7 f676 f92e 0179 041e f95a 02f4 00f9
 @d2 fcea 0334 ff9c fc8c 01cc 002b ff93 0007 fa6a ff96 001a 020b fc86 fd63
 @e0 03fb 0344 0046 038a fd5c 0750 0080 ff35 fbc1 fe5d 05e6 0074 ff0b f8f9
 @ee fd47 00fc 0255 fbde feff fb6e fd95 fd60 0346 fb6a fdcd fe11 fe4d fe6b
 @fc fe44 fb35 0186 fe26 0138 ff0e 005d ff09 fe3a fd9b fdc9 010c fcac 06fa
@10a 03ba fd78 007f fd4f ff8f 0256 0316 fdea 026d fd57 ffb7 02a2 04fe ff37
@118 0337 02ca fb32 019e 023d 01a3 01c5 036a 0043 0347 0100 00af fe88 0146
@126 002a f534 ff84 001b fd87 fef7 fdbe 0578 00ba 08d3 05b1 0163 fb6d fedf
@134 fda6 fee8 ffad febd 0059 fef9 ffa4 f8a5 0009 fb86 0032 fb84 ffc5 0177
@142 0164 fa5f 034e 051b f964 04a7 0239 fc6c fe2b fb23 0057 fcb2 023d ff21
@150 fa21 fc92 0024 ff1e 00c9 fe9d 0543 026b fb32 00b2 fee1 fece ff4e 09dc
@15e 0303 ffb3 fe6b 0002 fdb8 fb0f 035c 00eb 02f4 fe89 ff43 fe5f fc7f 0084
@16c ff4c 0096 fa5e feee f9a3 0260 04e8 fffe 0144 fdcb ffad f7d9 fe9c fbac
@17a 007a faca fee3 fe44 0331 fa8c fefe 0342 fdf3 0245 fed5 093b fce3 ff89
@188 0535 046a 0231 fe50 0291 ff5a fbe3 029b fcc8 021b ff4a 0037 febb fdc3
@196 01f7 00dd ff07 046e 0262 0035 ff3e 01cc 02dd feb0 0183 023e 005e f5fc
@1a4 fe71 006f 01d5 0713 01d3 fed9 ff7e fe32 0084 ffad 03e0 0026 036f feca
@1b2 fff6 fe91 fe21 fe62 fbe4 0187 fa76 fd5f 020c fbf3 03fb fc3e 0143 fc2c
@1c0 fe7a 00b1 026b 0706 056c 04af fc0a ff4f 05e8 ff54 0394 fe8d fb83 0034
@1ce ff9c fdfc 00a9 fe16 0709 027a 0381 019b 01ac 01a0 0539 fde4 fb21 05ae
@1dc 0451 feb7 03fa fbfa ff87 ff68 ffef fadd fe65 fd85 010b 02c4 fb9c fe94
@1ea fe8b fef8 fbe9 0366 fdaf 0026 ffca fc73 0590 0022 00ca feef fefa 0378
@1f8 02a7 007e 006c fe67 00d3 0251 0030 0267 02fa 00a3 fca5 fe04 ff9b fe91
@206 027c faf5 fec7 0174 0240 03d5 058f fceb fe94 fe0c 0055 0259 ff37 03c8
@214 fea4 f816 f940 fc72 fcba 015f 0137 fb45 00c6 0185 02f5 02a2 0238 0337
@222 0084 0012 0315 fda7 0482 0026 ffc6 ffdf ff00 0086 fe65 fb4c 00c7 faef
@230 0280 fc5e fec2 0325 0308 027b fdce 02cb 00e8 fd82 00ee ffde fe78 ff0d
@23e feff 0553 fe68 05f5 0314 01a5 01df 0303 01df f84b fec9 fd26 ff14 0171
@24c 02fc fc92 0371 016f fd1c 00e3 fcc6 feba fd49 01ee 005c fc31 00d4 ff6f
@25a fe52 ff01 ff63 fe49 0453 fe94 0480 0018 0121 01c9 005e ff8b 0198 0288
@268 017c ff17 0033 fc5d 04b5 ff79 0312 fac0 ff95 fdb6 022f 026f 0144 001d
@276 fff6 0161 fe0e 04ec f720 0198 fde2 0119 06fe 044c fe51 fde3 fc4d 03df
@284 0189 fdfc fca3 02eb 025d fdfe 03be 011f 02e3 0026 fee5 0145 06b9 fb41
@292 fbb7 fce1 ff86 fc1e fda7 fca4 ff5d 007e ffeb 01ae f8cd f80d fe2f 00c1
@2a0 0224 00b5 fae8 ffdc fbc1 02ac fde4 fe0a 0300 fe36 0189 f9e1 05d6 019c
@2ae 01ba 02cb 03cf 02e9 fec1 002b 00cc 0555 02b0 0237 0961 00b7 fdc9 fbcb
@2bc 094c 0282 ff68 fbe7 02f6 0132 01e1 010c 0019 0088 fe00 00be 0232 fa56
@2ca 0473 ffff 009f fe4e 008e 0154 0485 0218 feda fef0 fd86 02d1 fd07 0073
@2d8 f9ef fb59 033d 02b5 0034 0775 fe68 058e fa85 f764 fd9e 0a28 021a fed6
@2e6 0243 fd32 fd46 fd90 fe8d ffe1 fb6b 01dd fcd8 fa3c 0126 01bf ff42 010f
@2f4 fc8c 020f fd69 fb6c ff4e ff5c 03fb fc21 00bf 022c 03f5 fbb8 fd2d 0287
@302 006c 017d 000e fc27 fbba 006a ffd2 ff3c fb9a fcb8 fe0e fb7d 07a2 0643
