023d
ff2d
fd32
02cc
04d6
0233
fc6a
019b
02a4
0021
fec5
fa85
048b
042f
fe89
ffce
fef2
0556
fff2
fc48
ff9b
024d
ffc1
0096
0048
fb21
ff42
0078
05c9
fd1f
ffdf
0000
0225
fdc9
ffe9
f978
fcb4
fb8c
ffc8
00ff
03a4
ffe6
fc97
0594
01c5
fc47
ffa0
f95c
0174
070b
fd95
039f
001c
faff
ff62
feb0
ff41
01df
03f1
fdd9
0d3d
007a
f9ad
fedd
0306
fed9
ff74
ffd4
ff03
011c
fe54
fd5e
005e
fd03
fc1a
06c0
010d
0146
fe7c
f6c4
06b9
0361
fe8f
fbe3
fdd2
fd1b
fffb
038b
fce6
fa22
0194
facf
ffe6
ffe6
01ee
0183
01a9
ffd8
fef5
fdd2
fba0
ff3f
fbf5
013e
0161
fed2
044c
fe30
fe33
ffa5
0508
0933
02f6
fbd0
ff52
fee8
ffd1
fd61
01c4
fabc
fe7b
fea9
fadd
ffdb
0507
02bc
fef1
037b
fdc0
0481
079d
f78d
fec8
0174
fb14
0137
02ac
068d
ff5a
f9c1
fce3
ff0a
fc75
ffc3
04fc
fe9b
02bd
032e
0158
fdaf
0134
00fa
016b
fc1c
0160
0331
fc54
fe8a
ffd5
fdde
ff99
fcde
fbbb
fb10
01dc
01d2
025b
07c5
fcb0
0124
04f3
fa96
ff95
031b
002e
036b
fbc7
0345
ffe4
fb17
fd18
fde5
0385
fd8d
fae6
05b0
fef6
ffb1
feee
0619
032d
fdc8
00bf
060d
ffa2
fde1
fe56
fe22
03ef
fdd9
020d
00be
fb09
0019
0156
ff92
007e
049d
ff28
05eb
0381
0341
fb88
ff4d
fe94
003f
ff0b
0121
fd5e
044d
005e
02c0
fe1c
f599
fe4c
008d
fd5d
fd25
0329
01e2
0213
fea7
fc6e
06bb
0087
fb81
ffbd
f8bc
fd28
ff4d
02f2
0130
fc23
0051
0005
04ca
0408
ffac
fcf0
fc90
0198
feb0
fd8d
fd3b
01bb
0222
ffd3
ff9d
0127
fc91
ffa1
0518
fc27
fe4d
0237
ff3d
fecf
00b7
fd85
0419
fcc7
f9ba
0120
044a
fd0b
0398
0391
faf5
000f
0340
00cd
007f
fd32
022d
0208
ffd4
0090
fccd
fb04
fc67
fe21
fd51
03b3
0216
fc46
0181
0295
fbc3
032a
01d6
fada
00f9
014d
0050
01eb
00c3
01a0
06cb
0030
ffd3
fd84
ff75
005f
09c4
014a
ffeb
0191
0079
020b
0479
01a5
ff9f
04f3
fe9a
fce8
fd80
040d
ff07
fe06
ff29
00b8
010d
fb3e
025b
fead
013a
ff3c
fd28
00ba
fdf8
fd8d
fb0f
ff70
fe5f
faf1
05dc
fa38
049c
0457
0a8a
fd7b
0184
0764
0037
fc02
fe47
059d
0108
fa2b
ff6c
054b
03a4
001d
081a
0421
fdbd
fe71
00c7
ff91
00ca
0069
03ea
02d5
00fd
03db
fbb6
fc5b
00f5
078c
fe03
04c8
01b3
fd4c
ff53
00aa
0007
0205
fae8
fcea
0337
ff5c
ff77
035c
02bd
fe2d
fb9e
07bd
fd75
07d3
02f1
01ae
03cc
0505
fdc0
03d7
017a
fad0
00ad
0336
01c7
f837
043c
ff19
013d
03dd
02c4
fc96
00e2
0438
fdea
01a7
0421
fc89
09d5
fff0
fe41
029c
067c
fdf6
ff80
0190
fd8c
fe18
fccc
0007
0414
fe02
0465
f87e
feff
ff2b
0559
0087
fc89
fc3a
06d7
faef
0088
031b
00ff
04dc
0032
012f
031a
0145
01dc
fd70
005f
ff16
02bc
0222
ff4a
04c9
00f4
fed6
fb70
f95c
00e7
ffd0
075c
ff58
003f
0028
fa68
fd7c
01ab
0275
071b
046c
ffae
077f
fc28
fda1
0514
0028
fe97
01e9
fb2f
ff85
fc23
02c1
fded
ffbc
fa0f
ffea
fc1c
0053
ffa3
ff1a
0626
003b
02e9
fd13
0282
009c
01c4
0081
ffc1
025a
fd95
0019
fcd0
fe62
ff05
ff3b
fd47
063e
04ce
0054
0178
fef3
fa95
fdcf
fcbe
03e6
fd3b
01e0
ff42
00be
f9e8
01a7
fe44
04f9
002c
ff68
004e
fc8f
fd07
0189
0144
fed7
fd10
01f5
0338
00cf
fe95
ffc0
fe0a
ff71
0348
f802
fd24
fff3
fe2a
fbc5
fe3f
ff28
0201
fe9f
0211
fb6e
f81f
003c
fdd8
03b2
ff4b
03b3
026e
ff53
0151
026e
fed2
fc2d
fae1
0439
fee1
04f7
fcf6
04c7
ffcc
fecd
045d
00fc
001a
00cb
0150
fbde
0539
052b
fd90
fdce
feed
ff7a
fd3c
02f9
07ed
00f2
0063
fff7
fff6
02ba
fef9
01d9
fcaa
ffcd
fded
003d
0164
feab
fef1
0631
0818
fc4a
ff2f
fe66
fe9e
ff39
0051
fcc2
06bd
0319
059c
01af
0579
0401
fe7c
00db
ffde
0161
fdb6
fea4
fe6d
fc7f
ff4d
ff13
0390
ff4d
fdbf
031e
0094
fb86
fd3a
0309
fe96
fe17
0276
025b
039a
fe5e
fd46
fd10
fe71
fbf8
0299
008d
fe80
01e9
0031
016f
0006
fd39
fecb
00a1
022e
01a7
0264
00ca
0041
ff20
ff77
041d
ff8d
0062
070c
0184
fbfb
0040
ffc2
fd67
0148
018a
f9d6
0502
fc4b
0287
fbd1
04bf
03f2
f9c5
ff76
0082
058a
feda
007e
ff42
03f3
034a
0182
030f
049d
fba0
00b9
fe24
fff7
fe6b
04f6
0288
fdc4
fdab
fc87
0127
fdad
fe13
ffed
fec5
043e
ffbd
ffc9
0215
fee8
fe32
fe84
fd72
03a3
0335
047e
fc2c
ff91
fdf0
0315
fdfb
0132
ff7d
ff3b
000a
fd3b
f88a
fe89
fac5
fec8
018f
ff31
0489
02cb
036b
fd8f
003d
014a
fdf8
0010
0103
ff6b
0214
fda3
021b
05c8
03b8
001a
fc79
0113
fe9a
0050
ff99
fc85
ff31
038d
fc5a
065d
fe47
03ce
fe4a
03b2
fdab
02d0
054b
fb96
fe6a
0165
ff16
ffc3
fedf
0387
018b
0199
