ffbc
ffba
ff87
0410
fbe8
ff7d
fb69
fa38
01e7
01b2
0187
fee6
fb95
fd87
fc36
033e
0032
ff33
f905
fca9
013f
fda4
02f6
02b6
f92b
001f
fcf8
01ff
ff56
fcfa
007c
057a
f983
01e1
ffef
ffa2
02a7
039a
03a8
0685
ffe2
fe17
fe03
ff40
01ff
0617
ff15
004c
0290
f92d
fd2e
0318
fc31
ff38
fe83
02bf
039c
0340
0094
ff8f
00d5
007c
03ec
ff9b
fccf
070f
00bb
fd14
02a9
009a
fcf8
fbc2
fde3
0114
fd76
fbcb
029f
01f7
fa1c
0659
ffe7
fe5f
00b1
fceb
043b
ff6b
00b1
027c
051b
070f
faeb
ff10
01b3
fc63
005d
fc84
feca
03f3
fefe
fe4c
ff6d
fdbb
00b4
ffcd
fb10
fc5a
fd31
fcb2
fda4
ff3c
06cc
0228
fbcb
fde3
03a9
fe70
fff6
f850
fe2e
fc5a
01ca
fbb8
0043
fec2
fe9d
fb79
f8b3
ff97
0368
fc03
fc31
0073
0216
fea8
016a
0875
fa4f
0503
ffc5
008f
00c4
04e2
fd48
f985
ff4c
04ae
ffb5
fe44
008c
01d9
0283
fb4e
fb77
fb6c
ffb2
ff13
023c
062d
0095
fffb
f82e
0311
00c6
0476
0574
0094
00a8
090d
0097
0068
0540
fe77
ff03
0429
fed5
0172
fcf3
fcdf
030b
fcf9
020a
009c
028b
ff77
fea6
0043
0532
00ba
002e
0063
fba4
02d9
fee1
00f9
fe59
03e5
0444
fe51
0486
ff16
ff15
fb28
ff13
fcdb
fd54
0482
0182
014e
faa2
ffe1
0351
fe2b
fa82
024a
fd54
041e
ff23
0088
ffc2
029a
ff82
0012
fc28
0399
0512
0303
04f9
fbd7
fc41
f7f3
03ce
febf
fd34
fa9a
04d3
01a9
007d
ff98
fd92
0763
0297
ffb4
fbd4
0543
0204
00b6
02bd
fc7e
fa8b
05e6
0505
02ac
035e
0049
fd1d
012a
fc40
fd8b
00af
fc9b
02ba
0373
ff09
fa2e
ff31
002b
0190
feee
0251
00b5
facd
fd72
fe2e
0368
fce9
038e
fead
0082
ff51
f998
021d
0404
fd08
fec8
04da
fd52
fe9e
fe26
0089
0505
f92e
fce7
02a8
005c
0305
0029
fe37
fe95
0223
fbc9
ff9e
fc1c
0035
fe0d
fd78
05ba
f9f4
0092
ffc4
fcaf
fcc5
01b0
0180
ff8e
fe6c
fc22
ff2c
01d2
ffdf
01f2
fd3d
ff82
fe78
017b
ff8f
fa9c
010d
0055
fe28
0371
018e
010a
0319
faad
fa11
036d
0149
047c
01fe
ff47
fea6
fdb2
fe71
faa7
fd03
fd04
fee0
ff7a
00fc
0076
fbb0
0559
fe38
0419
003c
0144
02e2
038a
fe1d
ff2a
015a
ffcc
00d4
02a5
0020
fc52
03a4
fc4b
003f
ff4a
03ab
fbfb
00b5
ff28
0511
ffcf
fe33
0156
037b
02f7
026b
038e
04da
fe50
fe3b
ff05
ffc3
003a
011f
fec9
02fe
010f
0646
03a1
0199
fa9a
0194
0102
04a4
ff1a
0184
0022
fed7
0781
fe43
feea
0375
003f
0473
030e
fab2
0044
fdc4
0186
026f
fdc3
fafc
016d
00a3
01e7
fdd9
fe78
00de
018e
0307
fd18
ffc1
0537
0303
0250
fd47
02a0
06d4
ff95
fd8f
05d2
ff02
0002
febd
f824
057c
018b
f6d5
fda3
01e6
027b
fe2f
fd23
083f
037c
fe5a
0199
02b4
fc1d
019a
ff2b
f95f
0663
fb80
00b9
faaf
011e
0486
f958
0020
0100
ff29
fd37
fd46
0475
fa88
0297
0014
01a6
feef
0075
02fd
026d
003c
fa12
fc5b
fa8f
febf
ff30
04b8
03f2
01d2
03df
ffb2
06ff
fc23
fbd3
030d
ffd8
ff97
0342
0055
01ad
fddb
fd0c
0304
fdb7
ff78
04e3
01fe
0078
f9bb
0360
ffce
07ab
ffe7
fca7
fc7e
f831
fdeb
01d8
000c
fef5
02c1
048b
013a
ffad
fff4
fb83
fc1c
003f
024f
023c
fe99
fde1
0094
0344
fccc
077d
fccb
ffc7
f9df
ff3a
fff5
01f7
048f
028d
0174
05da
010d
fa9e
00bd
00e8
02cd
0495
03ca
fdf2
0691
01e6
fcd1
ffe4
0610
07b1
fd2b
fd7b
0255
033b
01e2
0000
fb90
ff6a
00a1
fdbe
04b4
f70b
0524
033e
fe9c
fe0f
0009
fd2f
017d
ffdf
048e
ff76
020c
019a
000b
000d
0295
ff38
0128
0216
0340
fe5e
0784
0283
01bc
fb47
f93e
fd7a
fe13
ffa8
00fc
004c
ffbc
fcb1
0011
fc34
fdc1
fee6
02ea
fe0f
fc03
ff90
040d
00a5
fdca
0541
008e
01b3
fe6e
0620
fe04
0493
fe47
fcea
057a
0493
011b
01f9
02f0
0264
fc08
fede
ff60
fd62
035c
ff91
fc7b
0021
000e
00be
ff06
0336
03a9
03ce
feaf
0608
fef5
03c7
024a
0126
f693
fce9
03f8
fec8
0690
001c
0601
fc2b
0496
fe31
ffcb
02c9
0112
0271
ff8e
0293
0001
fdca
f911
fd9a
012a
0140
fe5d
fe7b
048a
00e1
fb9e
fcbe
04cc
0263
f98b
ff5e
f977
0268
009d
033a
f91f
01ba
0216
ff3c
00a3
fe20
0180
fddc
fcee
0182
01e8
018c
028f
fd30
fdd4
fc8b
ff3c
fe54
0522
fd63
0153
01b4
032c
00a9
00f5
0224
052e
03ac
ffa7
fe5c
0324
fb21
05ba
f87f
f95f
0439
fcff
0040
035e
0569
fa8a
005c
0234
ffab
003d
fd60
fe40
04bf
fe5c
02d9
f8f4
fcea
000b
0463
fe0c
fc58
ffd4
0395
fe1b
fc7e
0126
019d
0017
0358
0121
fbf5
0211
f9e2
0060
fbf6
fe14
fc64
0509
0517
0058
0227
0393
fee8
fedc
0116
073f
0060
0363
055e
01f3
0609
01bd
01c8
fc0a
faa6
ff79
ff89
f76b
fd7a
fdfc
03a8
fda8
0000
029c
00d4
