dc50
0ed2
f261
f8a2
fe5d
c85b
fc7f
e5e7
f046
1cc9
1c53
d667
e5cb
fdb2
12f6
13f2
f8f1
f773
0c6f
081c
158c
142a
0d73
025b
cfdc
2f34
ef7b
313b
080e
0500
0c96
e6df
0575
fde4
1530
1909
29b8
3507
ecc9
0841
0792
f970
04ed
0c18
e462
1806
24a9
fda5
2723
1e2f
f18e
1134
f1f5
f8cd
fd99
1c6f
07b9
ca0a
e166
ef7d
e2f9
d9a9
ea33
08c8
f489
eeaa
fbf6
138e
2091
16e7
3e18
d3eb
079c
03b6
112e
e7b7
e80f
194a
10c4
0963
13e9
071c
19d5
de2a
11d2
04c1
2355
e068
0f00
c0ee
fa49
0220
00db
fa7b
fe34
0226
f8b9
244f
f848
0aa4
0c57
0a53
0fee
3805
0666
f7e6
eeb8
fd48
1a9c
ff59
0acd
e620
1145
ef43
f721
046f
034a
0632
f934
1576
01ec
ecd9
03c1
06b8
17a0
098c
1475
f6ce
0c07
25d2
da73
f1ec
270d
f462
e882
0981
de45
238c
ffb7
0820
280c
e54a
0eec
1d73
dbbb
1991
132f
fcd5
1816
0405
d462
1bdd
0600
0cdb
f55f
0b31
38cb
17bb
03e0
1dbe
fa67
e209
07bd
09c2
171b
1b90
1827
f4b4
1eed
0573
0b5d
e8d5
e920
fdfe
099c
e106
ef7f
f9bf
d30f
fb28
1d4e
f848
f715
14df
d970
0701
d338
03d9
fdba
1bde
fd9d
ff13
ede4
15e9
1133
2c05
f926
cdf4
cff0
20e0
d127
e958
efaf
3256
353f
10a1
0604
e229
018c
eda3
0cbd
1ec5
2477
dc30
1829
e55a
00a8
250a
22ce
0164
25f6
047a
0f39
db3a
f17f
04c3
e84f
070c
1618
fd74
1225
db77
162d
0d6c
e3a3
f9e6
cf78
266b
e67f
fc30
107d
2c1d
d999
0f7b
f081
ef34
0098
f777
e658
107e
1114
e4c4
f181
ff56
f8d5
05b3
