f861
393a
2b35
ffaf
1917
039f
cc27
2c2a
006b
39c2
ff4d
d77c
e607
0f4b
1d50
215c
f2f8
143b
da0b
07f9
f7c7
eb67
de6c
0089
f96a
b448
f14c
0246
04c6
fb09
0f50
1250
1765
f3d0
0772
fd5a
e6da
0a2b
28ea
209e
e44c
fc07
0e0d
060e
0775
fee8
d20b
1672
1d1b
f594
e2ab
f2f2
1e95
0a25
09c3
f0b6
f5a6
f77d
0e94
f15a
02d9
0f42
f810
fb08
d4da
e825
e38e
0fd3
dd79
eac9
ecce
f895
ead6
0bb1
f2ba
18c4
f49f
d751
f4a3
460a
1fec
f76a
e407
175e
ed45
e054
0227
217b
2439
4153
2f2c
fbd6
edac
f335
f517
0662
e824
03e7
e8f1
01e5
02a6
364d
0c15
09a4
fd19
02d4
cc2b
ec59
e33e
0ec3
d958
c3fe
02f6
f2b2
0a3e
236b
e585
0e58
0c5d
27d8
087f
0150
fd2e
d8df
f7e2
f21b
0e44
0060
17ab
fc33
16ea
f2f5
0510
ed10
2617
1b8f
de52
f35c
487b
fc6a
ee77
11d9
1a47
1a0c
2df8
2507
e7cb
ed6b
e61f
fdc3
fbc5
15c1
f2c3
f02f
ee6f
e1d0
0f79
e7ea
e28e
21fd
e787
db8e
d511
d276
0050
e758
ed5d
0189
f23e
ed82
21d2
2da3
1ee5
e637
189b
1d88
11c3
0cdb
fed2
eb5d
cee2
e549
1bd3
0aee
f473
2354
054f
f0ea
f4cd
b6ba
e7d4
f9f1
fe74
187e
dddc
d7e4
0eb7
ef33
0fd5
df26
0fc8
2df4
2dd2
031f
f39e
dc3e
05af
160c
e9b7
d6e8
0447
057a
ea1f
f3d0
0366
f1de
0429
f778
07b9
eed3
f295
ea66
136b
fff4
0195
fd34
26e9
01de
f2f0
1f77
0607
0685
f0be
de8e
0759
0bb2
f1a9
fd60
06d9
fd79
1d6f
f95e
1fe9
09fd
fba8
c1e1
fc48
056f
2a62
20ae
d6cd
e2e0
01e6
f511
174d
2bb7
