fe4e
fcdc
0067
0152
0107
020e
063a
fda1
0163
0239
0494
fca8
0418
fd07
0107
fddb
fe3e
fd53
ffff
fdbd
fdf2
fda6
fd6d
fe72
ffa4
02a1
fef2
ff6a
0375
0017
fde6
f9ae
0312
008e
007b
01b3
fe34
ffcc
fc62
fd43
0397
00a5
fcdc
faf9
00c2
049b
fcc4
0023
fe5c
fe4c
0245
0522
012c
fbc2
04c8
ffb7
0098
020b
fd19
ff26
fd09
fddc
fb7f
00db
fcfa
fe13
ff6d
00d6
fd79
fd72
01ba
f84c
0099
fcaa
ff19
fda3
0082
fa98
fe41
fce9
010a
0138
fdd4
0378
fe02
018d
0326
ffe9
0150
fd92
f7de
fb81
0231
fff8
fce1
fd9c
0274
ff9c
0518
ffe7
ff16
fdb2
fce2
0250
ffe0
007c
fe83
01c4
0581
06ab
0389
0327
0195
fbcd
fbc1
feb4
016a
03f6
04fc
0434
fad5
feac
0328
0343
01ef
0474
fcc0
057f
fe15
03bb
0175
027a
fb2e
004b
fb4f
fec1
fe3e
0205
02af
fecc
001c
feef
016c
045b
016b
042b
00e1
fb21
024f
050e
fb3e
00d8
0376
ffc6
ffc8
fff4
ff58
04e2
02d6
015a
ff48
01f5
fc41
fe30
02a6
01b8
0310
0169
02fc
02a5
0002
ff93
0150
05b4
0408
05c8
f9a9
fddd
fc7a
f9d2
029b
010f
0131
fd76
05de
ff57
01c3
fecc
0144
fbd0
fbc1
fead
0288
fc39
005d
ffef
00e6
0050
f9f9
02b7
ffd0
ff43
03cf
005e
ff08
fe75
ffd4
fc2f
0209
0122
fcc7
0245
034e
fd1c
00bb
fab0
ff31
0052
fb66
0596
faaf
fce7
fd70
0441
014f
fe84
0151
018b
0419
fdb5
02cc
fdd0
0226
0247
015f
0509
fd7b
0ab8
fe5b
06cb
0160
02a4
00ec
023d
fbd1
021a
0472
ffed
0321
0292
fa21
0190
fe99
ff36
fb16
fb22
fb00
0039
fc77
01df
ff34
00d3
fbb5
ff91
ff87
fa2c
038b
0450
00b3
fd56
0299
0251
fcd9
0393
0073
0389
fe8f
fa3e
ffaa
fc80
0321
ff90
004e
fd6c
0054
0062
ff56
00ac
007c
073c
0187
fe3a
0635
020e
071b
0255
0567
fc0a
01db
008f
0049
fd14
fb73
01a3
0128
02a5
fd63
f92e
0033
fdc9
03b6
040c
fa42
feee
ff16
0212
0117
03c3
012d
fe98
0154
ff6e
01fa
026e
00bd
0283
067a
fade
0064
ff97
fe4a
ff2a
fcad
fb1d
055e
0037
0439
02ab
003d
01f7
0380
02c0
fa93
023a
fa4e
0126
01b1
fe92
ffe7
fe39
fe53
0247
03c0
fe67
0366
0397
ff15
01f5
0380
fcff
ffa1
fddd
fe76
0317
01cd
ffd4
fdf0
0119
0407
0222
0041
0416
02b4
ffae
0102
fdbf
fcd1
046c
fe0a
fd36
ff7e
fed6
fd55
fb5a
0068
fe2e
f82e
0101
0301
fae3
0334
013e
ff77
fe7e
ff0a
fdff
fe21
0167
f978
0015
0332
0445
0014
0255
0113
fbab
0242
fd6c
ff84
04f7
ffe3
ff29
0143
fb88
f7de
fece
fe0c
03f4
04c8
0202
fd3c
ff6c
fc0c
0140
0256
fedc
fc7f
041e
0309
fd62
037c
fcea
0129
0178
01ff
02ca
00a8
fddb
025f
fe4f
fd1f
0148
0286
ffc2
0164
ff72
fe38
004e
fe55
feb8
ff10
fec1
fff4
fa77
fdf6
009c
ffbc
04de
ffe4
fdd7
00b5
0006
03a9
0313
0080
fdc9
01a3
fc0d
fdbf
00ab
0371
0118
fdd3
fddf
03a4
fff1
0460
fe77
00e6
ff19
fede
fdd8
02fc
0394
032f
0159
08a2
fd92
f8f7
fe1f
0200
001a
0432
03ee
00e9
fe5e
0276
ff43
fcb4
fc86
03f5
fdee
fddd
ff4d
fce4
0438
fcd2
0044
f651
ff29
fd06
01e0
0347
010e
fe3a
fd61
fdcf
05cb
00f5
fa93
ff3e
fcad
04e8
fe62
fe06
fa36
fcef
fb4d
fa30
fa89
02de
0154
088b
057c
02c5
fecf
fa84
0745
0461
02b8
fb49
feb1
fec0
ffce
fb0d
02f4
015b
feb3
0480
fd37
0111
fcfd
f976
ff9f
fcb4
0360
fde4
fce4
00fa
01bb
03e6
fcda
feb2
01a8
f98b
fbc0
00e5
01cb
00d7
ff98
feaa
0359
ff19
01fb
fed7
007e
feb5
043b
fa80
fd73
002e
fc5b
fe7b
fee8
fc6f
fb96
0674
fe64
007e
0196
0437
fbf6
0194
0264
01dc
feec
feb2
003d
fd57
0007
048e
05a2
fd8d
0113
fb58
029f
0261
fdec
ffe3
fddf
ffcd
fda1
0159
fccd
02f1
017d
feb3
fcdc
0310
0049
fdf4
01d1
fc56
f7bc
fb79
0236
0518
03aa
01b7
0177
041b
063a
f5e8
01e8
01eb
016a
000b
fa81
ffb4
fbfc
fd5c
fd48
0667
fdb0
01e2
ffd7
ff97
00d1
005f
f95b
fbcf
0205
01f3
00da
fc81
ff81
fe01
fd06
fbe7
0457
017f
ff69
039e
f984
00f1
00fb
f9b8
029e
041d
fe48
fef9
fc55
fbb1
ff96
00be
f9f8
fd77
fd12
01e6
050a
f9ff
fcd8
04ba
fecb
ff11
0129
0042
ffee
0138
00e2
03b7
fcee
0380
0526
ff10
f540
017d
0096
fc4a
0271
fe17
fe1d
0348
0009
01cd
01de
03e0
ffd4
01e5
051a
0508
ffc9
fc73
fedc
04e8
0825
fe83
0364
f771
0164
ff6b
009e
fc6d
f950
011e
0020
fe09
0288
fca6
01c5
fc13
0002
fbee
ff58
01eb
fc55
083e
002f
008b
00ad
01ee
0354
063e
02ad
0376
0210
fee1
ff26
02d5
ffb9
fd58
fd84
0354
fe1f
0187
0324
ff8e
fed4
006d
fe92
00d1
ff50
fab4
ff5d
0319
06a8
fb86
03e2
fde3
fda2
0117
fe97
fc0b
fcdc
fd22
fba1
065d
fed5
007c
042c
fa53
fc57
046a
ff73
