fd03
029a
fbe5
0054
fe69
fc3c
ff4a
ff83
fd95
001f
fe5d
fea2
04f6
fb97
ff19
fe6b
fda0
0493
ffe5
0101
fcd9
fea1
fd7b
fce9
ff60
fca9
fc69
fe21
f9ab
00a2
fcc5
fd7a
fe05
03c0
fcc2
0103
0249
0555
0537
0259
035f
01d4
027f
fa67
00fc
fe9c
fbea
fcc9
fdfb
fab7
fcc8
fde5
01b0
0518
0061
01fd
fee2
04d1
fc55
fd04
f97f
02a6
01d6
fe81
0361
043d
ff66
0000
ff4a
061a
fe9f
fe35
02a9
0031
fa84
0256
fdda
ff3e
feea
01e9
ff66
ff1d
fdf3
ff1e
02e8
ff48
0367
01aa
ffe2
ff2d
fd9b
fc09
01ee
0195
ff68
014e
faed
04fc
026f
05a8
0285
fe23
046f
fd55
0046
0620
03d8
0079
ff10
fe0b
049d
ff52
ffd7
ffa1
ffed
fc11
fed6
025d
feb1
fb75
0265
f99c
05b3
fe24
0363
fbd8
ffe1
fbd8
05b6
fea3
01af
029d
fdd9
00a8
00ba
061e
00e7
ff65
fc5c
0399
004f
fd7b
fc78
00b0
fefd
fdc2
02bb
015c
0034
fd7c
fe97
ff51
05a5
f91e
ff4c
0475
fe46
011a
fce0
fa6b
033c
019b
fe06
febb
fa48
0244
fd07
fdcb
fcf8
0442
fecc
02b3
fdae
ffbc
011e
0022
fb81
05a8
034b
fa68
0252
0277
fc46
028c
0233
fb9a
fc32
0189
faee
fcde
fe16
0078
0147
fbb0
006d
fdf2
02e1
00d6
fcc8
fe91
003d
fd8e
0234
f89c
fa92
01ad
02dc
00f0
fb3b
f7d4
006e
03e6
fda6
01e1
04b3
fc04
fcc4
0533
00ee
fd10
02a2
05fb
00ee
fe0b
fe3f
fe98
011b
fcdb
ffcd
fde3
02ee
0000
ff02
ffb7
ff93
fe4e
fc20
031f
ff57
0483
fee7
04f1
fb86
fca1
02bb
0007
ff4c
0111
fe76
fcf9
fa6b
0746
02a8
019d
0198
fd45
0293
fca7
fd32
04b0
025c
01b0
0176
fd2a
feca
fc8e
0010
03ae
fb19
fe5d
01e7
007f
03fe
0193
01da
020c
0218
03b8
0127
fbe4
fa1c
00be
faf1
ff57
01dc
0280
0161
ff7d
fc51
fe66
fe3b
fd5a
fbf2
fccc
fdd5
0353
00a8
0010
018b
fe48
030d
0236
031a
0264
041f
0472
feea
0369
0072
fd24
ff0e
fa35
fd2b
f99e
ff72
fe82
fe70
0129
fdd0
026c
00bc
feef
fe4d
086c
009b
01c2
027c
fd43
fe1a
ff0f
ff3f
fa47
0502
0661
fef5
0062
02a2
0304
004a
0206
fd9b
0358
042d
fa4e
ff08
fe1d
009b
02fd
046e
fedd
003f
02a5
02f9
ff88
fdee
f78a
febe
0148
fb87
fe5a
fed7
0a41
00de
00f2
010a
fc58
ff99
044f
fe57
0207
fbe7
f90b
0001
058a
fb2a
0553
fdc1
0097
ff4e
f99d
fb70
0290
fc32
006c
ff47
f929
020a
01c8
00b9
0339
fc3d
fe97
026a
02ce
0399
ff2f
fd9b
fe91
fd0a
fc19
03f5
0118
03d8
001c
fd32
fd2b
fd08
003d
fd69
ffe9
f9db
0467
0295
fcce
fef2
fe52
0171
014e
ff51
0681
0474
06e9
fd8a
fd30
fa20
0030
fdb9
fc98
0088
fdb9
fdf4
0001
0347
ffad
fe25
ff5c
fb31
0205
0052
fe4c
fe85
fa8f
fe98
02cb
fa20
058d
00af
00a2
ff90
0285
01a3
ffca
0175
fd93
0090
fda3
fb74
018a
fb92
0345
039b
00f6
066b
fcbe
fcbe
fdb4
fe67
0590
fb21
fc7b
02b0
0231
fea8
0019
03d1
0407
ff84
fdca
038e
0233
0002
03b5
0228
fcfc
03f8
fd83
fe21
0123
0732
00e1
fe43
0145
fd2b
fd5d
fd03
fa7b
0086
0559
fef3
0386
fd58
0079
fbfa
0421
fdff
ff88
02bd
01ab
0043
0214
ffab
004f
fe0e
f9ee
04f3
016a
01a6
fea6
fcdd
006a
00ab
fdfb
001b
04b0
0365
fcdf
004a
01a0
fcf4
ff85
ff33
fd4d
fe24
f773
0229
01a9
0174
fc27
02d1
fbe8
01cd
feae
03f2
044e
0295
01d6
0160
0014
fad7
fd9c
0040
0186
01a0
fb4d
fffa
01c3
fe96
04d0
fc3a
fd79
ff0b
fd77
04d1
fbb0
ff5c
0106
ffe6
fc25
fe2b
fda2
01ee
fee4
028c
f9f7
fbe9
004f
ffc4
06b6
051c
030b
0589
01bd
fe9a
fe74
03b3
05a2
02ae
0710
ff26
0593
0134
ff6a
fefb
ffb6
0269
fcb6
fce1
fba3
00ff
0038
03b5
025e
0046
ff62
0124
03a8
fff9
0563
fec9
0144
fea7
fdbe
fdaa
fea9
fe2a
01ef
fdcd
fedb
fcc0
fdc3
050d
06ae
fe61
0362
fb9a
fdfb
0278
008f
0200
fa8e
034f
fdf7
fff9
fcc4
0533
00bc
fbb0
fe9b
0243
056a
048a
005f
0372
04ab
031f
ff6b
0046
fc29
0241
07f3
fdc1
01f5
03fd
0488
034f
fbe1
0319
0449
ff88
0186
029d
fcf7
ffc4
03b9
00fb
0185
fa96
f834
0111
fa73
fd9e
01d3
005d
fcd8
02c9
fc1e
fd2c
0655
0373
0260
00d7
00db
08ad
fb38
fada
037c
fe21
00c4
019b
fb7f
ffce
ff69
fcf4
ffe5
0165
ffc3
fdd9
00fe
0169
ffdd
fad4
fa42
0176
f7b7
ff20
02ef
039d
fb25
ffd3
fd94
06fd
fde6
fd7a
0094
fb36
0395
fb8b
f96d
00cb
015c
fc42
fe1c
008d
fbd0
fef2
02ba
fd85
02d1
fdab
fe99
ffa1
022a
0703
0276
028a
fe86
f80f
feb2
fd3d
0429
fcab
f78a
fad1
ff33
005b
0080
0005
00d1
0666
ff6f
039c
022a
fe7d
ff7c
0025
fd8a
0056
ff7d
fbf1
fc09
028d
03ff
020b
007a
00b5
ff86
0332
fd28
feaf
048a
0052
ff18
016e
048e
00c9
fca8
031d
00ae
fbf7
ff5b
0043
ffa6
01eb
0062
