0229
fd24
01c4
0119
0210
00b0
fff8
f867
014b
fe05
03bf
006a
0280
0155
0064
00d6
fe9a
056f
ffd3
017d
0091
fc22
03d6
fdf8
02ea
fc4e
f978
0487
ffe5
fd6b
05e9
002c
023d
f6ac
068f
01bb
0340
007e
fd9e
fd8b
fd99
00f5
03d2
0129
031e
fcf4
fb04
04ca
0667
06dd
04bd
fd5e
008c
fcbf
fe01
fe7d
fc8b
01ce
017b
fd63
0668
00fc
0523
fcbc
fcb4
ffce
fde2
04b3
ffe0
ffe5
fb6a
02d1
0510
ff41
ff71
faa2
ffdb
01a7
fece
fcf0
fb88
05d7
0020
ffc0
fa29
fd30
fef8
04db
ff90
ffb0
00b7
0194
ffe6
01e6
fb3a
fd4c
003b
0174
fe35
0380
fcdb
fd69
fa64
ff41
02a8
ff3a
ffd6
0216
fddd
0157
ff06
f626
fd78
fc6e
ff6b
fd93
01fa
fcff
ff8c
02d4
fcf4
feb4
0486
009e
fa9b
ffb0
ff0e
ff64
fb87
03a6
068a
fb85
0031
fd3a
fd73
0096
0341
fa08
faf6
025c
ffae
fdbd
fd8b
fc8f
00de
00ab
010f
ff28
046d
05cb
fe34
004a
01c5
fe69
fe68
fee6
fe28
ffb6
00a8
033e
0557
0027
0250
ffc8
fb63
05a9
fef7
06a1
fe30
f86a
fbec
fed2
ffd9
f8f7
01ca
06a1
030f
034c
fe0a
01b1
0256
faf9
03b4
fdfd
fbc0
0137
0526
0377
01fb
fe83
fb94
f9c5
fce8
fd93
0261
01de
0200
009f
00ec
fdb0
ffb1
fc7e
fc1d
f9f0
fda5
030b
fe46
fda9
fc6a
0013
0154
0028
00e9
fdea
0370
fb3b
015d
027d
06aa
fcda
f90f
fee6
fceb
fd8d
fe54
fd68
01c5
030c
0239
fd09
01a9
ff31
0132
01de
00e5
fc88
021b
04f7
f9ca
01bc
fc17
fdf8
fdba
f5e1
f7c3
014c
02a1
01eb
00b7
ff04
ffbf
0082
f9e5
041d
0233
0350
fdbf
0339
f9c5
ff96
01e8
04bb
02f7
03ca
007d
0173
fdb9
0240
033b
016c
0070
feda
0286
00b0
fbe2
ffbd
05e2
fea2
01a3
0264
fe42
03e0
fe4d
0277
fe94
0602
02ca
0242
0466
0103
ff2b
fd93
ff17
02d3
02e6
fe83
fc79
02eb
070d
fda4
facc
0366
00cb
fbe8
fd60
fdb7
fafb
ff8f
fad6
fe0d
fb32
fe70
0013
fde2
fdc9
ff46
f9c9
ff48
fced
027b
ffd8
ff5e
fe61
fd47
0596
fbd8
01d9
03c2
00ff
022f
ff17
fca3
04e9
04ee
039e
043e
fff9
00f9
fbf3
00ca
ffaf
03ef
fe67
0189
06e0
01b6
ff97
0294
0387
03d4
0398
fa75
01de
fedf
02a5
0252
01af
fe40
002e
027f
0490
048c
fbee
fc61
fe2e
0210
fec0
fd5b
0652
00be
feec
ff98
fee7
fb74
0001
0195
0109
ff08
feee
fec9
ffa8
feb8
feec
0071
fc63
008d
fc88
0143
02d1
fee2
fe3c
03bc
fa4c
0119
ff02
000d
0208
fe6b
fd72
fc1f
ffdd
01ed
ff70
0055
000c
066b
0405
0036
fd7b
fce9
fe14
00df
ffc5
fdd2
fde7
fbfa
006a
f8fb
0093
0090
0051
0134
fe7d
025b
ffd9
0472
fca5
059a
01c0
00a7
fe0c
00e1
fddf
f93f
03a4
fecd
feed
fe93
feb2
fa9f
fe97
fefe
0197
062d
fc94
fa35
0211
0436
04e2
0060
fe39
013d
fe1c
040c
fe85
0a2e
fea4
0032
fc70
fc1b
0491
0192
f94a
01f9
00e7
0090
0007
f4a9
feb8
fdc0
f6fe
fb2b
008e
0043
fc69
fe28
fb4b
0503
00d7
fe6b
fc10
016b
008f
0006
0160
0100
0124
043c
095b
fcc5
ff54
ff0f
ff67
0386
fe55
006a
02cd
02de
fc0f
fc64
012c
04b5
0257
031e
ff43
0463
fe36
fc81
0492
0246
0247
04cb
fe97
f9d3
004f
0291
0325
fe24
006f
feba
0179
fed5
0012
0136
0552
0364
0034
00f1
009e
03d4
04e8
0473
fc42
052f
fbbd
0155
fa36
fe3d
0084
0318
03f2
015e
ff17
fc8b
0276
fa10
0257
ff10
ffa5
040b
fa67
fe4f
fd4e
02b3
ff8c
fdc0
00f8
fd7d
0105
fedc
fcf8
ff7c
ff33
fe68
ffb2
fec8
0196
05b4
ffed
fcd1
0063
fb40
fdcd
fddc
0134
0407
001b
00d2
f9ce
fef6
fe1e
0303
0392
00b9
0348
0375
fd78
01ae
0156
02cb
f9fe
005e
04d7
0084
fac8
fe5a
015f
0261
0462
0089
fe63
00f9
03b6
04bb
007b
01ce
00fb
fa0c
fc4b
fec3
0192
fc4a
fc5b
ff43
fbdf
0100
ffa1
0433
fb25
ff84
0313
00fa
fbf5
02cc
ff42
0812
0685
f839
fc90
0086
fc5e
02d5
0515
fc56
ff40
02b6
024a
fc85
03e8
fe04
fe82
02d6
0628
00ad
fffd
03ab
ff94
fd8f
ff8e
0029
01df
ff48
0771
ffd5
011a
0043
00c0
fe91
fe5b
ff51
0168
fe83
f931
01fb
0044
013a
0245
01f1
028a
0416
0118
035f
fe2b
03ba
024a
001e
ff0f
fd1a
01ab
fdab
ff01
0002
fce9
07e0
0189
ff12
0041
ff32
fffe
08d8
fa48
fbe8
02cf
fe7f
000b
fb49
003f
fe4b
ff3d
0827
fc61
fd74
fcc6
ff47
0605
fe0a
01c3
fb94
fe25
003e
035f
fb95
fb5d
04e9
008c
f946
ff85
014a
fccd
0486
febb
fbdf
fcf3
fd54
010e
fcea
0498
fccc
0515
fc34
02ed
fe84
054b
002b
06eb
ff89
ff91
0528
03e6
0102
fe59
fcbe
ffb8
0021
05aa
026c
00c7
012e
fe73
02ba
f751
027b
fb1a
003e
fddd
fdef
ffbe
0422
fcf9
fd88
0032
ff2d
fd98
00a0
0159
02eb
06e1
fed0
fe9e
fa2a
0149
02ba
010a
ffcd
0091
f7c5
ff0c
fc3c
01a6
f9b0
011e
014b
ff4c
fd49
