fc18
0042
ff1b
fe0d
fb93
fafd
04fe
fefc
0568
030e
01b8
ff9f
ff37
015a
0318
feaa
02e7
033b
ffbd
fd7e
fcab
fd14
01e5
ff0b
fd27
0327
0104
fcc5
007d
0259
014b
fe5d
04d7
ff72
fbe8
fe31
fe46
ff63
0054
021b
00fa
ff50
fe25
f88f
ff44
0058
ffda
012f
0181
ff9a
fd6c
faaf
01b9
016c
fee3
fcb9
0052
01d9
ffca
ff78
fe13
faf0
fcb3
0179
01b1
0350
0283
036e
fc85
fcc6
fe40
ffe5
007e
fe7b
0241
fd72
046a
0286
02f7
fd33
fe6d
01f2
00cf
04c6
0092
fe3e
fec0
fdd9
01ac
000a
fea3
fdeb
ff59
fb6f
ffb6
ff32
fe73
ff9d
fa09
fd1f
fc37
0381
0412
0013
fe20
04a7
036f
fde0
00a3
02c6
f973
fdef
0437
0aa4
005b
0526
fff2
fe6b
fd56
feb3
f9fc
fc5d
fe29
01ae
fef7
02bd
f91b
020b
fd8e
fe0c
fea3
01ce
f93e
0487
fd21
fd4c
ff6d
01d0
f819
0000
00ea
f8b3
ff5f
f97d
02f3
fe0e
fcc3
03a5
0034
ff1a
0588
0000
02cd
fe74
0285
fc25
00a2
fc9c
04dc
0103
020a
fd80
0089
fbb4
0266
034b
fff7
0109
0193
ff43
ff03
fb30
02d9
0073
00f9
03a1
005e
fec4
fc05
0243
f877
0356
fe46
fd55
0159
01fc
032b
ffff
fe8d
0115
032e
01fd
fdfe
ff9b
ffe6
08e1
fc94
0354
05d4
01e6
fad3
01c4
011a
fc63
ffd9
038a
0314
02ab
ffeb
ff76
02bb
05cd
fdab
02ad
ffa7
007a
fe72
062a
f892
00a0
fe11
0125
fcf7
fd46
fee8
fcea
ff69
009f
0089
0022
0412
010d
fe57
fe40
fe61
03c4
004a
fa7a
ff27
fd49
fdaf
0056
0321
0392
0357
059f
fdb5
fb38
000a
faba
034c
fdb3
0053
02b7
fbb7
006c
fcd2
04c8
0468
fe71
001c
0563
022a
febf
05f1
02ae
03d9
02e1
038d
0642
fa96
0459
0a69
0040
fd08
0167
fc5b
fdaf
00f1
feb1
01bf
ffb6
0231
01a6
fd69
0043
ffe3
fed1
fe8f
ffcd
ff79
ff84
fbfb
0434
fa29
fd7e
00a9
02e2
04d8
fe96
01c8
ff3d
01bd
ffef
00e7
031e
fe38
035b
0286
05a1
039e
0281
021b
fa67
056a
01a0
0407
034c
0465
fe47
039e
fecf
01ab
fd7d
fb72
0587
fb83
010d
013a
0079
01cc
fdc1
ff83
fedf
0023
02ed
fe8a
02c3
00e4
0239
017a
0009
015d
00cf
0531
0020
fab1
006c
009a
01bd
021b
0116
0068
000c
0362
0326
fd9f
02cf
fe09
fcd4
fe27
fe7f
0458
ffae
fecb
ff97
fdbf
0380
018d
fa60
0588
03d5
0847
01a3
0010
ff45
fb19
febd
01f3
0404
fdb6
007f
ff26
01f3
fcef
03ba
fd82
008f
042f
fdb9
02a2
ff1e
01c3
ff7c
fd6e
048b
fd8d
fb03
03ee
0336
fbba
0159
ffaf
0458
fcae
fcc9
015d
fdf9
067d
fdd0
ffd8
00fd
0113
01a0
024a
0510
0298
fbbc
fcdf
fcb3
fc30
fd6a
07c0
0083
0207
050b
fea0
ff85
0522
ff3e
008d
007e
0265
fe7a
fe95
0043
ff37
0423
ff0c
0085
fd6a
012d
fae8
004c
00ad
0088
03f7
006f
0153
0480
fc8b
00c9
fbc7
ff81
ff91
031e
fc6a
ff5b
029b
fe2a
ff48
ff53
03cb
fb98
fa9c
058e
006a
fd58
fef8
ffb9
06a8
0148
fba8
fc1c
01bd
ffa7
0315
feb8
fbd1
fee1
fd81
fbe7
03e1
ff0c
ffef
fe01
05f9
fe54
02f2
fff4
fc15
029b
fe7a
07af
fdfc
0064
00a7
ff53
04b8
f924
00f6
0ad6
ffd4
013a
0006
0283
ffe9
04d3
f83d
fde5
013d
fc9c
fda6
0543
ff08
05b9
00bf
fc17
fe07
0025
0198
02d8
fcaf
fc31
0050
fe89
ffe6
fdf2
02ac
0187
fa31
ffdc
fe83
fed0
fbff
fc7a
0072
0062
fd5a
ff96
ff6c
01ee
ffcb
03fc
ff99
fa45
022c
0136
0051
faf1
fccf
0248
fc4d
000b
fa4a
0464
0041
fe9b
0069
00d3
fd39
0182
030e
fe35
018a
0553
0055
0011
0160
00b4
fda9
fef8
ff28
f79b
0121
015d
060e
fe6c
fd4c
fdc3
05c2
051a
034e
02b2
0105
ff60
0118
fe82
03c5
03e5
fcc9
0140
ffb1
ff02
02eb
fef8
ff63
026a
ff34
fb5e
fbbc
01ca
02c1
ffba
fe90
066b
0087
fc56
002b
01c4
fcd7
033e
fd20
fe1b
fefd
0200
fc1d
ffee
0071
fce3
061a
0039
027a
01c1
0916
02aa
ff68
0173
01be
03e5
063f
fcf2
fdb2
00c3
fec7
0042
014d
000e
0115
fbe2
f999
f95f
fdfe
fbcf
fe8d
0692
fff0
fdce
0032
fd9c
fe57
0239
01c0
01b5
02b2
0035
ffdc
004e
ff7d
02cb
0683
000f
000a
0416
fc59
fd72
ff3a
fda5
fbcc
01a7
00c9
fdbd
febf
001b
fe5c
0487
0022
ff65
03da
ffb8
fd79
ff8b
0105
fad4
fecc
03a0
026a
0112
ff52
00a2
01f4
0543
002d
ffca
00e9
035e
04c3
0225
0192
fb0e
fd07
043c
0145
fc51
feaf
0244
fce7
f78a
045b
0210
fe0a
f8b2
0214
00c8
0467
f93e
fe7e
fa77
fed1
0503
007d
012f
0321
fd56
fbaf
ffe9
0503
03c9
02d0
fbf2
fc6a
02f9
009d
fc16
ff83
fd78
fda8
fb06
00c1
fbdd
03e3
0007
04f6
fe20
014b
fda9
fa6a
03b0
fd00
fd9d
fe6d
fed2
01bd
00ae
fe87
010d
ffeb
fcfe
fae2
02af
ff75
fcb0
0190
fe70
fcdc
fc7a
0067
00cc
03aa
01a5
fe2c
fc67
024a
0063
00db
fedc
00c0
fcd3
ff1d
025d
ff64
0100
0171
0128
