ffe5
ff7e
fc9d
07fd
fe93
ff48
fee3
fe2e
0258
0193
ff1b
006d
052e
ffc5
0267
fe1e
ff93
05be
fb5b
ff39
fe97
035d
fee2
fc24
fdbf
025e
ff03
05d3
fc30
fe17
ffef
fce2
ff46
fe4a
fd5a
fe85
f960
ff7c
fffa
f8e8
fa58
0010
0206
fb53
fc41
fcb2
fe37
0217
fde2
fb07
f98b
02f0
05dd
fce5
00f7
02e5
fdb6
fe75
fc5b
fd98
040b
0448
00d8
fdd1
0453
fe02
000e
fee8
fd67
01b0
0230
047c
ffce
0293
03d9
028f
fce2
0208
00d6
fd84
ff82
fec9
00ca
00bb
0573
ffac
05a0
01a0
018b
fd9a
007d
fee0
fe81
fd1f
fcdf
0147
023c
012a
fba2
fe02
0081
000b
fea5
0294
0034
fdf3
026f
008e
0234
fe59
0267
fbe0
050b
ff03
0084
0149
004c
0145
0307
026d
fdfc
fd8a
018d
0201
002f
0183
fe59
ffbf
fe03
026e
fe15
02e4
fff6
04dc
fdac
004f
00ac
03c4
ffa4
04c4
fca3
01d1
fca1
fdc2
ff2c
fcc2
03e9
ff37
fc31
057c
fe8d
ffea
0061
fdd4
03bd
0054
fb4f
fc9b
ffb8
0211
01da
fe25
029f
fec4
fddd
fe93
07c1
01e0
ff8a
fc0f
fc48
fc2f
fdf1
fd72
02d9
fa01
03c4
01c8
fdcc
0412
0029
fec7
033a
ff78
fa63
0159
fad2
012f
0070
fe22
01a8
06e0
fe4a
ffd8
0117
fbd4
fe65
fb1a
fcd5
fffe
019c
fd5c
00a7
0248
fc2e
0366
fc0d
01fc
00ef
053b
0121
fc3d
fcd5
fbfd
fee4
0155
ffc5
0309
0894
0427
007f
fe8a
0070
fcec
01f1
ffb3
fd50
0153
0094
00c4
03d9
0093
fef9
00bd
fd6a
02d6
0293
0252
02dc
029a
ff66
04e4
00bf
01ae
024a
0139
fce8
0510
0268
f974
045b
fb4a
fbfc
ffb2
01b0
ff19
fcb9
0411
ffd3
02b9
01c7
0646
ffc4
0092
029f
03fe
007d
0211
00c5
01f3
020d
ff5f
fa6d
01a4
0708
fe8d
fb6c
fc6a
01c2
0056
ff5b
f7e1
ff45
0174
0551
0317
01fd
01b8
ff69
081a
00a2
01e6
01b7
0035
feac
0307
fb23
0030
f80b
feee
0146
fd7a
fc23
043f
01dd
0082
07dc
fe11
ff7b
fe90
ffc2
010b
012c
fb99
fd49
0177
01b9
0043
ffc5
02ac
02cc
fcad
fe03
fd67
01fa
fdcf
fdd8
0518
0248
0218
04c3
fdb1
fd9f
fffe
019f
fda0
0223
0011
fda8
0210
fcc8
00f5
fdee
0151
012a
0268
001c
02cc
001c
02d8
0239
01af
01ec
0309
007e
f93b
0280
fe9b
fd93
fc59
f6e6
051b
0198
0172
030f
ff96
03f6
015a
012a
0073
0266
ff7a
ffe1
ff30
006a
ff65
0124
f960
036f
02a1
061a
05b4
fec5
fc78
00ae
03d1
fd16
fa7d
fca4
0046
089c
fd21
0426
f895
fc77
fec4
fb24
ff4d
085c
fd7c
0208
00b9
03ea
038e
fc4e
013e
fc79
fff7
fe3a
ff07
fed8
01fc
fb5a
030e
ff78
fd49
fd8c
03d6
f868
fb6a
fb6d
fed6
03fa
06d6
fc1b
009f
f925
0113
fb9b
f49f
04f0
fdd7
018c
028b
fe4e
020f
00c8
00d2
fe34
02f4
0159
005a
fff1
006e
fb9c
02df
02aa
02df
ff59
03d4
01de
0261
00a6
001a
020a
f9a3
fe25
0050
fe09
fdc7
fd1a
0042
fbb6
0398
fd62
02cd
0136
0119
074a
0190
f808
01e2
ff2d
01cc
048a
ff9c
0047
fdfb
fd63
ff45
ff09
00f3
ff64
fd46
0165
f897
0720
018c
ff32
03fc
fbd2
fff2
fe53
0049
fffd
010c
013d
ff42
ffdc
07d2
fcf6
03ff
fe7c
009e
02a5
fdb2
02f6
fbc9
0027
fff5
fc03
03e3
023f
f9ca
0118
ffc4
fafc
fe77
fac3
0320
00c1
0053
fcbf
00da
01e1
fff7
0659
00d5
020b
0199
fbe2
02d1
fe7c
ff5f
0219
fc4a
ff94
fd5d
fd84
febc
074d
00e7
fb12
fb76
ff0f
fc22
ff79
04da
00c9
0247
fdfb
04d2
fc38
06a6
0085
fab4
fff7
fa75
0115
0552
07ca
fb3f
0076
fad7
014f
03b0
0049
fe63
fcd5
04bb
0669
0353
fc7f
fda2
fb7c
0232
ffe3
0192
fb64
03cf
fa79
fcc7
009b
fd27
ff2a
ff07
014b
fe2a
fe51
ff6f
facb
022f
fc63
00cc
fd16
ffd8
02dc
0316
fc53
007b
fa7e
fdb2
0043
fd55
0154
0243
fe36
fe63
0117
036f
0132
fd2d
05fe
0073
ff7c
01d3
000d
004f
feae
f834
fd41
fedd
ffc0
fb7d
fe68
fd95
fbb1
0303
fca6
0396
fd7b
0448
00f6
fa5a
fcf8
ffe7
0568
feb3
fffa
030e
0160
02c7
0374
062f
fe0f
02be
007c
f9ec
fc7e
fe6f
ffda
020f
fbc4
002b
ff66
020a
fec9
02a6
fd30
fcd0
ff04
fc69
0308
031c
fc70
ff17
fd66
faa2
018e
fc29
0332
000a
00eb
fe8d
0361
01ac
0110
ffdf
006e
02fa
0491
fcb2
043b
01e8
fa65
00cc
02b5
fcbc
020d
fcd0
009b
012a
ff22
fce8
fc98
ff49
02ec
fdc6
051c
ff54
ff1f
ff3c
fc24
f93d
feb6
008d
0105
07f1
01bf
026f
fc7d
0218
0171
03ce
028c
fda0
fb58
0621
019c
f8e5
0220
03a8
ff81
ffb7
02ed
03f6
02c1
fb0c
fe99
019d
ff12
0578
fa61
0130
0030
040b
f911
f9f3
003e
0299
fee7
fc66
0005
ff4e
fee8
0138
0178
fe51
0352
fd14
ffb3
04fa
01b5
fc8b
04be
03f3
01ce
0384
0033
fd1c
03b8
ff7e
f97d
fefa
ffab
00d9
0393
ff2d
fcd8
fae5
0399
03d8
054c
fed7
fca5
fb4e
fd0a
007a
022a
ff24
ff89
005d
fcf8
f9aa
