1a11
fff5
f227
197b
1f0c
e17d
0547
23e1
febc
d817
fe41
17fc
f872
06fb
e515
d488
0143
f78f
1b3c
111d
fe0c
1426
fe60
0cbe
21a8
ff42
0706
e28c
eea3
e956
f7bd
10ef
144e
f509
dede
f51a
f2d6
fbbe
f004
eeeb
ce94
dd70
e8b9
f70e
040e
347b
0af2
0da4
db09
f0a3
0882
cf61
f793
1376
ec6a
03c0
0edc
fdef
17b9
df01
f54d
0bb7
059a
010e
18fb
105f
152d
fe84
ebd5
f06f
01fe
2094
1d95
ec42
10e2
068d
1a00
f8da
de8e
f7d7
0307
02da
31cb
d1f8
14ac
fa06
f7a0
0980
fb33
17a7
f931
d73b
f7c3
d2e5
0cf1
0a3f
1ac4
01c9
0022
11ef
017a
e2f8
e5d2
e326
da36
0009
e624
fb63
fc86
01e5
006a
09d2
0de1
0ce8
fc16
fa8e
fe07
ddad
0238
e434
0cbc
0954
dee6
059c
f432
f988
1f1d
f87c
f517
e8a5
06e2
09f7
e4aa
04f7
1cfd
0aae
1315
16f9
f840
f254
0ecb
f713
245d
e97b
0d9b
f3c6
edfe
1911
f60c
02ea
e8d7
fba6
fc44
0191
167c
f3b2
ee6a
0262
ed6c
d924
07d4
fdb9
0917
ee44
0e16
f962
0d33
09c1
fed9
fc30
ff91
0ff2
018d
f787
f1dd
18c0
e644
f235
1791
f06a
f739
0dd9
2a8e
f51c
1875
1859
0a10
e3a2
ed6e
063d
e3f0
f385
13d4
ee88
f4e2
e68c
0120
0386
1711
fcde
0f53
dacf
027a
e0e3
0582
0332
06ff
e55c
2432
002f
f46e
fed8
d105
f27a
16fa
fced
f3d0
0890
e9bb
00c1
f96e
e8d9
e2ca
0572
1439
e649
e42a
0e47
f1f7
eba1
15b7
090a
01bc
ec19
13f1
07b0
2454
a856
172a
0300
e4ee
d2a0
141a
0459
fadc
0ddc
0cc8
f649
ffdf
fc3b
f9ad
fb6f
039d
f15d
f7de
e6de
