0101
ff7d
0239
f6ac
0338
012d
0453
0145
00ef
0620
022b
ffea
02f9
f853
0281
0204
01b8
011e
f86a
0485
fe90
00c5
fef8
fdb7
063e
fdad
fb31
fbb8
ff59
04b7
fc16
00c9
fc5d
01c4
021f
ff33
fd1b
02a8
fb35
fb28
04b5
fc8d
0303
fdd8
fd53
fc51
ff13
fd14
0074
020b
f814
02b4
fe32
fc60
01b1
0096
fb6b
0017
ff7c
fcda
fd31
fd04
0396
0280
0103
00d6
ff3b
00a0
0316
0331
0453
ffe4
fbce
f9ec
0145
fdce
00d8
fd24
04fa
fe98
f99a
0137
03fd
0215
fee5
01db
ff29
012c
0294
033d
ff34
0075
fcf0
fb79
faf1
ff2d
00da
ff85
fc2c
ffb8
0082
0180
fc22
00f7
fe9e
ff22
00e1
ff7c
00a2
fa0f
01b0
fe4a
00d8
fba2
ff11
02ae
0425
0263
032b
febf
fe39
02aa
fddd
fdb0
fc35
fe0d
018e
0367
049d
fcdd
fc07
000c
fe22
fe01
0027
0143
01b5
ff4f
010c
0017
fe8a
0018
005a
fbff
02ca
f7bb
0130
fc85
ffe2
058b
fead
016e
fca4
ffd9
f780
f810
fc0e
0269
ff99
fa3b
0551
0091
00a9
fd7e
fda3
fc6e
ffb0
ff57
005a
ffcc
009a
fdc7
ff3a
031a
0167
040a
fd5d
0052
063b
0034
fc54
0164
00c3
0085
fb34
fc71
fd02
064a
fa13
0556
feca
fe96
01c4
01a3
fc06
00cc
fde5
ffb1
049e
fe7c
fe30
019b
034a
0259
005f
ff5f
ff57
ff55
f8d2
0315
ffe0
fc3f
00fc
fd75
00b4
fa5c
0505
0003
0506
0105
fdb9
fccc
0516
0133
ffd9
fb24
0187
0676
0111
040c
fd23
0108
fdb8
0520
fbc4
0544
fb23
fef7
ffa2
ff21
fca8
ffba
fdbd
ff5c
fe92
00e0
fc53
02b2
fdbe
faa8
fd3a
0035
0074
0271
fbab
fe8a
0033
0334
000b
fd08
007c
fee0
020f
03ec
0248
fd2d
004a
ffd6
f9c2
05f9
fa74
001e
fc7a
04a3
ff32
fdd6
ffd0
002c
0207
0207
fee9
02f6
fc33
0374
ffdc
f9f9
fc11
01c4
fa55
05d7
ffd9
f9cc
ff19
04f6
0467
fd36
fc11
0355
fc39
0274
fdb4
fd81
fb4c
0454
fccc
00d5
fceb
ff9e
038b
ff64
ff11
fe3a
fd56
ff23
0176
fde5
009e
fedb
0034
00d6
fb1b
0284
0126
054a
0025
fea9
033c
ff8f
0762
ff06
043e
fe1e
ffba
0353
0145
fc10
0092
ffa2
fe3e
0949
fd53
feda
fe84
fc0e
fe10
0108
00e1
fd4a
03da
fc79
01c1
04f4
03c5
fe8f
01ca
0387
01d6
fc4c
0098
fb5c
ff66
fe76
0624
fb7d
03e9
ff8e
03f2
fef8
0265
fdc0
febb
03b3
fda7
0490
00f9
fc32
0301
032e
0097
f981
001e
ffaa
01b7
fc47
03ee
02a3
013d
fd5f
05e6
03c3
001d
019b
ff1a
fd9f
019f
ffa2
01d6
028c
fb6d
01ff
04ea
016a
fa6e
ff5f
03f4
0838
ff72
022d
0046
036d
0402
0142
fcf9
fe33
fe03
0480
fca7
01c1
fd7e
fea2
0119
0021
ff4d
01f4
0227
0198
fc22
fa2c
033e
01e1
fee4
0027
005f
02bb
0227
fec2
fdd1
fc11
fc51
00a2
fe6b
ffb7
f9fb
042f
fd90
ff06
ff44
fe02
0513
04da
00ff
0269
ff28
072d
0232
00a3
0265
fa7a
013a
042b
02d8
0449
fc1b
fbca
015b
ff11
ffc5
0304
ffd7
fb26
ffbe
fcc8
04b0
ffb2
fd2a
ffae
0036
fbfe
066f
fea7
ffdf
fda0
fb4a
022f
0179
037e
026a
ff3a
fa92
00ec
fedb
0403
fc88
009a
fe33
fc80
04bb
fe2c
fdbf
fedc
fe70
fd6a
02a2
fbc8
0389
ff9c
fd84
f95f
03f6
049b
02a2
00b8
01f4
054e
f928
fc5c
fd9c
0193
fdad
0641
fdad
fa1e
01df
fbb6
003c
008d
0156
04e5
016b
fec1
ffaa
fa93
fef5
0157
feff
f96a
ff8c
0097
0441
fd83
0247
025e
0382
ffb8
ff30
fd2f
00b6
fa94
fe80
ff6e
01f9
ffef
00d6
02a4
002f
0190
0098
01bb
0230
00e1
0284
0081
fe7a
f845
05e3
ffef
ff16
ff31
03f7
03c7
0024
ffc8
ff73
fc16
fd72
ff65
fd6f
0228
002e
ff2d
fe3d
fe07
fac7
fc82
0255
fbe1
f7a3
0432
ff94
015b
0042
04c9
0293
00ad
fb13
fb37
fbbf
feab
0106
fec1
0114
007f
0189
fe53
fdda
fc39
03be
fc3b
fe84
fc0c
0032
facc
011e
ffdb
024f
fd37
05c0
f6ae
ffe2
ffce
fe5e
03d2
02c7
01a0
056e
fc45
fce8
fdbd
fc55
005e
fc3a
fe2a
f9de
045c
0362
fc1c
0276
fd30
0328
fc96
04ac
01d8
026d
0045
040c
002a
0586
ffdb
fd9d
00dd
ffb8
fc15
00f1
fd37
fd4f
f721
01be
008d
fadc
fb29
05ea
fd60
01e5
0352
03cc
fef4
0246
0135
0048
feae
fd43
0426
03db
0056
010e
ff3c
0023
fccf
01aa
ff89
0044
fe5d
05fc
0042
fe34
ff3f
f416
fca4
0375
fa9b
fc15
0052
fb55
0106
fe26
fe58
fd63
08ae
fff9
fc5f
0274
ffc8
01c5
09f6
ffca
fdcf
03df
f92c
040b
01eb
fc6e
00dd
05e0
ff21
fb46
03b3
0168
fd6e
01cf
03d3
006d
02e9
018e
0183
fe61
0238
02e4
072c
fc6f
0214
0009
00e6
fe9e
fd26
feac
0107
007e
f974
f953
01f9
fd3f
fa2a
0067
0247
0132
fa14
fef0
023c
fcb9
ff6a
ff64
0100
fbd3
fb9f
fd55
fd14
fec7
03b2
fe6b
fc62
fcc6
fd76
fdaa
fcdc
ff78
fb7e
fd38
031a
003e
fb8a
fe23
ff08
fe6d
022e
fc82
fa48
ff0b
fb45
ff42
fd55
ff76
0287
00c3
0713
