0013
02da
fc3f
fa81
ffa0
0101
ff21
026d
0364
fd94
fe86
fe1b
03af
ffd9
fd5f
03c7
fd40
007c
fb2f
fa58
feb5
ffbc
fcba
ff2e
feb9
01f6
fa00
0246
fd84
fe9b
0103
0298
075e
022a
f9b3
ff1c
ffc5
ffd2
0225
0064
0120
fe67
0324
01b3
04cc
fcc3
01b8
fc7a
01b2
00e3
ff76
fe7e
00f1
0359
0108
fe3f
04ce
fbee
fadb
020f
fcc4
0409
00a1
025f
fced
02c4
fd84
06d2
0410
fc13
0298
01e6
0466
0574
ff6f
0305
feb6
0151
ffb0
017f
ffa3
f93b
ffa1
fa59
fec5
01aa
00e8
010d
0244
fcf2
fe54
031e
ffdc
fe44
015f
fe47
0835
fe88
ffc0
fdef
02a1
01ab
ffb8
0200
fb89
fa23
f668
0498
01f1
fe21
fc94
ffe6
0032
03b5
0198
fffa
fc84
030c
01bf
00a0
0171
fc9d
00f2
ff05
fe3b
fe15
083a
0486
03a5
0191
feae
fbbb
fbc9
fe71
03fc
00bb
0106
0042
ff9a
0199
fdeb
fa58
fc69
0059
ff35
fd5d
006a
f9c4
0146
00b8
0473
fec2
fd09
07f4
fd18
0050
03c1
fee7
0082
fae6
0039
f87a
0609
fc80
fbae
fe86
fd1d
ff73
03f6
01cb
f941
feb5
0088
002c
0249
fe82
0315
fdb1
f971
ffb6
ff59
fdb4
febe
fd75
fff5
fb13
0204
00e2
00f8
02f7
fb72
015c
fffb
ffda
fdc2
0102
0690
0024
0630
fb0f
ff39
09fa
ffde
ff10
04a8
fdd6
00e9
fe22
fc90
fe68
030d
fe88
0742
f972
ff10
fd3d
fc4b
0102
fa65
fd16
0301
03eb
0033
fd1a
fea0
ffb2
05e8
fbd1
ffe1
02c6
fe25
ff83
ffab
fddc
033c
0201
02a0
fec5
feb8
00a6
fe27
fe4b
fc18
007f
ff91
ff4f
fb90
010a
fb1d
047c
0102
fe9d
fcd9
ffc0
fc2a
fcf7
fd6b
0301
fa61
011f
f9b2
00d9
fd99
0237
ff58
0486
0270
ff22
fe41
0090
0303
fe99
023b
f9b3
fe69
007b
01c5
fe38
fd72
017a
01c1
fedb
fef1
018d
0232
0078
fddf
fbc9
00cb
fe2d
fbe7
fc4d
00aa
fe68
02cc
00b7
00f8
034c
feeb
0157
0140
016a
fc56
fe5e
00ae
fa84
ffde
00f9
fcf4
fa9f
020e
07e5
fffd
fca3
fe61
0252
fe96
fd35
fe22
02b4
fe55
fd0e
ff5c
fedf
0488
049d
01c5
fd99
fe5f
0186
fc85
ff7b
fcf9
00bf
fde9
00a9
0224
02fe
fd96
000d
fdfb
fed8
0361
01bf
ff31
06e1
05d7
03fd
0137
fe81
02aa
0029
03dd
fe3f
faed
fe1a
fb6c
fbad
0106
0191
fbf9
ff99
ff94
fb70
01ac
ff8f
0711
0305
01ef
0341
fad4
ff96
02dc
fd34
029e
fcfc
ffa4
fe00
033e
fef9
0261
0055
03df
fb2c
fec1
fc84
0081
010e
0498
030e
0657
ff43
f925
fcaa
0217
03e5
01ae
060f
0145
fadc
fb7f
fc65
01c8
01ea
fbce
fd78
04bf
fecc
04f1
fbc2
f9bc
0044
fda5
fabd
0202
fcac
02fb
fd6d
fe15
f8e7
03c6
fb88
02e3
fcd8
006a
ff61
feb6
04f5
fcf8
0205
03ae
fbb1
fd4e
0067
ff77
0040
00cd
0135
fd37
fecd
fcea
ff30
00c1
fc98
0209
fadf
024e
ff63
fff6
fe1a
ff19
ff5b
fdba
ff0f
0393
fe7f
fdd3
01b5
0235
0306
fc7a
00dd
0075
01e7
fc30
fe11
045a
febe
0218
014b
fdf4
0019
fdb9
0322
0163
0135
0180
ffa3
fd30
04f3
fe12
03b3
04d9
0122
fd25
0568
f904
fcb4
01ba
ffb5
00c3
0102
fc74
fe04
fe74
ffb9
fe78
ff8f
fb97
ff61
fdbd
0236
00f3
023b
013f
fe27
0199
01cd
fd71
0132
fd51
0055
010b
0277
0040
0099
018f
0117
ff8b
0040
ff3f
fd95
035c
01af
ff93
fca8
0670
ffd9
ffee
0380
05b8
053c
fc62
011b
023c
fe3b
01ca
fe48
034f
00d9
015a
ffc1
fe00
0353
ffc0
fe7c
0136
01b6
fe34
0185
ff82
0011
040a
fc5d
0066
ff62
fee0
0252
fe0c
fe23
04a3
fc38
02be
07b9
ff6d
017a
ffa9
ffc3
0439
fdfe
013a
fd94
fcde
ff17
02c3
0157
008f
0424
fa61
00c5
02a6
0180
ff24
fe17
0090
ff8a
0360
02b9
fdba
085f
f971
02a6
f94b
0103
021e
fada
0090
fc9d
fdc2
008d
06ca
01d6
ffc3
fed1
0706
fc87
fbe3
0335
fe69
ffc5
01f3
00d1
049b
fd22
fe93
00ad
00ba
016a
00d2
ffce
fc84
fdc6
0517
fb85
035b
04bc
fcda
fd66
08bf
035e
05b2
ff5b
fd76
000b
011c
0260
fe02
032c
fa65
01ba
fb81
0064
fc21
0140
fda4
fe64
00eb
fc56
ffad
ffc2
00e9
0430
0356
00d9
0571
fdbb
fa22
fa57
ffc4
fcfa
00fa
fff1
005f
075a
0392
00a2
013b
f9ba
03f1
ff17
fd16
000a
023e
00a0
fd5c
fe81
fe0e
043e
0117
fcf7
007e
faf0
0017
f9fe
0393
fa2a
fa15
01d6
08ac
fa58
04a9
fbeb
ff20
01cc
0221
fff4
ff77
fc80
04e1
033d
0155
fd90
01df
0258
ff91
fbff
0374
03a0
ff8b
0624
011e
0073
fbd6
03ec
fd8d
00a4
fcf1
0383
04ac
ff50
fe5f
009a
ff3d
fb66
fcb0
fb90
fc19
fc78
fa9e
fdde
ffbf
ff82
fe0e
01e1
fe8a
fc27
0441
fdd4
0161
fddd
0233
017f
0261
00b7
fbda
0498
f9dc
feff
03a0
ffd8
fefa
feba
fae0
ff47
00a4
ffb2
f92a
02a1
f97d
0040
0236
fa92
008f
ff17
066f
fa23
024a
fe9f
0732
f983
ff5f
fa41
029b
fd83
ff0f
fd25
fe51
ff0b
f8cc
03ca
fd8b
015f
ffdd
f9ac
