fdb4
03d8
0163
ffd6
fc25
04ae
fe56
01aa
04d4
fe91
ff52
fe60
04aa
fc66
0307
060f
02e4
fd3e
0279
ffd7
0347
0048
fbc0
ffd9
fe86
ff8e
fe61
f8e3
02f6
faba
fd9f
fb3d
fdf9
006b
039d
0452
002b
fefb
fbaf
0388
fecf
ffb2
faeb
f654
00b3
fdae
0440
02f5
03c5
0060
f982
fce3
010f
fd49
fdb6
fe2a
fcae
ff73
03c9
fc31
0276
023b
f6ae
002b
058a
fac3
0102
0014
019f
025c
00f8
f822
fa71
046b
fa45
fe1f
fec5
ff44
fc1d
013c
fb08
01b2
03cc
fffc
ffdd
fd7a
fcb7
02ef
01a2
fce9
fdce
fef7
fa06
fe89
fd21
fcae
0067
ffde
061d
0592
05cb
fc2d
01a8
0009
fdd2
faff
0297
ffd3
fe4e
0121
fcbf
fe91
00b6
fbcf
fde4
0163
01eb
fec6
00e7
ff42
fe2d
f78d
fc69
016f
0025
013e
02e5
02f4
0086
0430
02c1
049d
01be
03de
046b
00a2
05c6
01eb
fd34
fe38
ffb5
0281
095f
01fc
00de
fbd8
0267
fe1a
ff2a
fdc6
0421
fddf
009a
fcad
021b
0067
0041
040f
03f7
002c
00e5
00b6
ffa6
fdcd
00fa
ffa4
fe6a
fbda
032f
fb13
fee5
01ca
fb29
ff20
fe46
fe46
01e7
ff52
fbaa
ff1e
035b
03c5
04c5
f954
fff3
ff73
0177
ff03
0174
02a8
044b
00fb
fd7a
ffc4
0135
01be
01bd
015a
08c2
fd33
032f
03d5
0063
0632
fdfc
0387
02a2
fde2
ff12
fe32
fa75
0286
058f
fe03
fdd0
008b
04d6
ffb9
faa7
fd56
fb9e
ff84
fb83
0623
015a
fe5d
0327
0028
fe38
0065
05da
fd60
01ee
0421
0357
fcfa
020a
0430
faad
016a
fd6c
0408
038b
0329
fdf5
fb53
0453
fd4d
f840
fea4
fe1f
00e3
fa28
01b7
00dd
00e6
0248
01c5
fb5a
fcd6
fb38
00e3
ff48
fbf8
fd2b
fb88
00ab
002f
001e
fe9a
00e6
ffa9
fd7d
01c4
020a
02ba
00d0
fab6
02f1
0025
ff05
ff7a
feb4
003e
0689
0747
ffeb
039d
fe67
03dd
fee2
0544
fd8f
ff46
fdcb
00cd
ff9f
fff8
fd6d
017f
fb8e
f9e5
00ea
fdb3
ff20
013f
ff4b
01a6
fe6c
0686
fd89
ffa8
fe36
fef3
fc83
00cd
fce9
fd3b
ffe6
0408
ff6f
fec4
fbd6
ffb0
ff2e
013b
03c5
008c
ff59
019d
fc1f
0331
019f
02aa
0104
01f4
fc42
fca7
02c0
0275
0020
ffc7
003b
027a
fc97
0068
015e
fd31
f96d
ffd2
02d3
0290
0638
0534
01b8
051a
fce6
ffc6
febf
0256
ff32
0126
fcfe
fe24
ffea
fa17
fe91
01bc
0432
febc
015c
0336
00da
fd9b
010a
012a
0354
03aa
f84e
0159
fda2
037e
0111
feb4
fd4d
032a
01da
030f
008c
0178
0018
012a
0043
fd60
0390
05df
fa31
fe19
0688
01d5
056d
fbe2
005e
fc3e
034d
02ee
0089
04c6
fbbb
01cf
fedc
0424
0046
02b3
fed3
fe07
010c
04b8
00e1
01ad
033f
022b
fced
fd8e
0247
07bc
fe6c
0436
fe10
03a2
ffb6
0270
02d1
fdeb
fbad
0525
fd28
fe24
0220
01ea
fff7
005f
fde4
0259
02ee
01bf
0644
01a0
fbff
ff6c
fdba
0247
fcee
fed6
fe16
003e
01e0
0150
feac
0b12
fff5
fe22
fffa
0120
ffa6
fc77
0295
fe42
fea5
fcf1
faa9
fa6f
fe76
fd00
fd88
ff97
0072
fe2d
03cb
fbcd
0217
0130
00b8
006a
f9f4
f9a4
011a
00ce
ff3b
fec1
fceb
0552
0447
00e2
feb1
fef6
fc01
ffd5
ff8a
0097
0373
0364
fee0
fcaa
01a1
fd2f
02a0
fdf2
04ed
fe17
0020
fd4f
00c8
02bb
01d7
fe8c
04a6
0225
02cd
039f
ff52
fd9c
0264
ff71
fd4a
0318
fc07
041c
01e9
02b4
032b
0396
0028
ff8f
feb4
ff76
fef8
fdf2
01a4
f8c2
fc5e
fe4c
0360
027c
fc78
fc9e
fc57
034f
fe5e
01f8
02d0
fad7
011e
fb8d
019e
fa90
ff05
ff49
fe53
fecf
fd1d
0338
fbff
ffe7
fde0
01eb
0198
0179
0115
0054
0127
fd09
001d
fba0
0090
0456
f845
fcaf
fe9a
02ae
01b1
007c
02f6
ff21
01aa
05df
feed
00f6
0066
059c
0286
fed9
01f8
feeb
fb96
0036
fd57
00ba
020f
febd
fcff
0401
0287
0323
04fc
ff0e
0090
ff05
00a4
ff96
fe0d
ffeb
ff6c
0006
ff9c
fe4f
fe8e
fee8
0080
00d6
0187
f969
0047
f935
07b4
0462
f9be
fe04
fc22
0076
fdcf
01ec
0044
fa8a
ff29
0108
fe8d
04f0
fd59
03f4
049f
00ad
00b9
0144
fe41
051e
02c8
0281
01cb
fb31
ffb4
03b9
0559
00eb
fa4b
00a5
04c2
fbb3
ff6d
02eb
009e
ffc5
02eb
ffcf
ff81
fdd8
fc65
017d
0047
0301
ff98
03ec
04ff
fe53
ff0d
05dd
fd04
0182
f9de
fce6
fff1
fd84
fe77
0340
0435
003f
febd
00a3
06be
fdbb
fabe
fc37
fa73
fd9e
fb59
04d6
fde2
0033
03d2
ffe4
051f
0013
0059
00fe
006f
fb6d
fd2f
00d9
0737
06c0
ffa1
00ce
fef5
004f
fde6
004a
03cb
006c
face
001d
010b
02fe
fc35
ffd3
fd8c
fb67
02d2
0723
feac
f781
0040
fedd
fe49
03f7
061d
ff47
fd1e
fc60
013f
01ff
fe7d
0240
fe33
01fa
fd44
01e3
060e
0186
0109
ff16
0217
ff3c
fe27
fb5d
0268
05a0
0712
0263
005e
0420
ff03
fe48
063c
ff90
fc51
ffd4
fc84
0449
00ae
04ad
fa56
fe8c
058b
048f
fc7b
fb9e
ff50
fa67
ff0b
ff50
01c1
fe3c
fcaa
038e
