f62c
fff6
03bf
0407
0274
fc10
ff10
0172
f965
0132
0228
fdf3
001f
02c8
04e7
fba1
021d
017f
01e0
00e9
ffe7
fd42
fc7f
fba5
02da
f962
fb9e
0482
0092
fff3
00d7
013c
0035
fdcd
ffe9
01d5
fbef
05c1
fcad
fd1b
009c
012a
fca5
0103
ff52
fdb0
039e
fd3f
fc03
f7af
ffd6
02b4
00ba
fe0d
fe48
0575
02b4
fbc2
01f3
ffad
09bf
0092
0217
004b
0251
0390
03ec
0374
ff2f
ff61
0166
0250
061a
fe7b
fdd3
fe81
fcb2
015f
013b
ff66
fbdd
009a
ff2d
ff96
0015
003d
0509
02cf
0564
02ce
fc18
009f
fe81
0221
ff51
fbbd
0297
fdda
fead
0038
0135
fde7
fda4
0327
0386
02c3
fdd8
fe9c
ffb1
003c
0258
ffc3
ff27
0077
fb9f
fcdb
fd2d
0118
06d4
06ab
0096
f9d6
fee1
fb55
0080
00f0
ffab
087e
02bb
fc78
fe00
00be
0047
fe4c
ff64
0769
fb79
ffac
fc6c
febe
fe7e
ff1d
00e3
fa6e
fd88
fd92
fdac
fdef
fdd3
fe3c
fc1d
012d
000b
0000
fcfe
fd96
0058
fca3
0158
00c2
01b4
fc12
009d
0219
01c0
fc1b
0652
ff41
01ac
ff66
0203
feec
032b
fdb2
fee5
02d9
f94f
fde2
fcfd
03a1
ff37
0676
fc4d
008c
0569
03fc
0055
04f7
02a0
fcd1
00ce
ffb1
fcfd
fdf5
0063
0377
02cb
04c3
ff0b
ff1c
fdcd
fce2
046a
f895
0457
05ce
02d7
fb09
028f
0321
0043
fc65
03d3
ff6c
0888
01aa
ffa2
01c2
fdfc
0475
00e7
fa6c
0094
0215
028f
0080
fff2
fc06
0233
fd34
0488
013c
fbe6
0302
fc3f
005b
02ed
fdc4
fe35
043d
041b
00c2
fe12
0145
00ac
002e
052f
fd85
fb05
f818
fdc0
fbb5
fc6f
fadf
0393
fe9b
fb97
04c9
04e9
feff
07e9
00ac
fdec
0190
f8c5
ff93
042c
01be
fea3
fe81
fea8
03b0
fe6a
fed6
fef5
0067
fd7c
fe7a
0089
fe3d
026d
fcf7
0243
f963
03b0
020d
02e9
fd8a
fc50
ff1c
0113
018b
facf
fc70
fff2
00e4
febc
fde7
0211
feba
0142
fd59
003d
fdaa
05e1
01ee
ffaa
fd2c
fcea
000e
fedd
0005
fef9
0448
0195
03d1
005c
0065
fe5a
0574
0230
fffa
020f
fcc2
0094
ffa9
fd71
0727
01c7
ff6a
ff59
0291
0090
0524
00f0
0739
fc7f
fb7d
fffb
01f4
fd1c
fe2e
0416
0189
0110
0131
ffe3
fa81
fd46
0268
f8ac
fe05
fd0c
ffd8
fea3
fd59
fa30
fd94
ffac
027e
00ff
00e7
ff9f
fde7
f9bc
006f
fca0
fdc8
fe9e
028b
fe7c
00a9
04c0
f9ff
0246
fe55
02ac
0091
fdbf
0739
fdcd
0768
01b6
0005
0273
00f5
fee4
0321
02da
0141
ff84
03bd
fa8b
019a
001f
0559
02f9
0102
fa2e
04af
0098
054b
053c
045d
01e7
024b
04cb
02ee
faf0
01ad
042d
fe1d
0310
011f
0355
0361
01c1
fea1
0049
04b9
0771
0464
03fd
fbfd
0414
fc06
05f2
f89a
ff2b
f5e3
fa78
00a5
00c7
015e
f750
fca1
fe75
04b4
03e4
fd8c
feb6
fdd4
ff27
018c
fbab
ff53
01b9
0122
01ca
ff89
fb13
fd09
fd00
ff48
fd6b
faf9
fc78
faeb
03fa
00ea
01a3
ff21
fa2d
01ed
fe4c
0246
02f3
fee6
0197
fe83
00dd
fcc8
00c3
016a
034e
0058
0391
0148
fac6
ffec
f882
01e9
024f
fd4e
fdcf
fb79
00c6
fc2e
fc39
fb50
fc09
f884
fbc8
fe3f
fa53
03ae
053a
fb97
029d
061e
01b9
0802
0002
fcfa
03e3
ff05
01d2
0458
fe2c
ff2f
007e
0261
01ce
f966
032a
0033
fe58
0197
ff6b
fc8b
fcd8
ffd0
fbe6
ff4e
01b9
025f
03b1
ff0d
0267
ff20
011f
005b
fede
0322
f836
032a
fe47
0512
03ca
0000
0121
f66a
fe8b
ffb1
f973
00f7
fe54
ff77
ff16
0a07
fe1b
00b4
015d
fefd
00b0
fceb
fded
06bd
fc60
01da
fbc3
fe85
fffb
0266
ff77
f883
fffe
03f8
ff75
ff59
01c1
02fa
fb62
fc84
021a
fed6
01f8
fcd6
fd88
03b4
0245
0934
ffc4
05db
ffeb
feb1
fbc1
01a1
020a
0256
f6ad
fdc1
037e
ff03
0555
0000
fb91
0259
00aa
0003
0044
0297
03d4
ff20
0283
0300
fe9b
0534
ff88
ffe8
fc33
fa68
0118
03bc
0208
fd48
fb7c
0051
01f7
fdf1
0185
00a8
fb92
ff71
0226
fecc
fd22
03f4
00ce
fe2b
0160
02f4
04fc
0215
063d
025e
0625
03fe
fea3
fe93
0169
ff13
00c6
019a
0175
01f7
00a9
0186
feca
fddb
fd2e
fe3b
fee1
0010
fdae
fc27
0505
00f7
fed9
fc54
0031
fdca
fef7
03aa
00d6
0055
ff7b
fcd5
fc1d
0203
ff62
f86e
fcb6
fc05
fdd7
ffc3
0174
fdaf
fdb3
fdc8
0286
01e7
0089
ffea
fe23
00a5
0176
fe15
0218
0004
fbb9
ff40
019f
0546
ff41
facc
00fa
0255
0048
fc6b
0130
00f0
fe01
00a9
0165
fabf
07d5
03cb
fa49
ff84
ffeb
fd44
fbf3
ff93
feca
fefd
014c
fe7c
fc60
089b
06fe
ff21
ff25
009d
06a2
00ba
02c1
02a7
00f6
02db
f73c
fa2e
005a
fb20
fd99
fc94
0274
03b4
fe6c
00ae
ff94
fd70
014d
0493
048e
0188
fe6e
01b3
06a5
fee4
ffae
05f3
01ac
ff04
064c
0049
030b
fd08
02b0
0213
fe5d
040c
fde7
03bf
ffe3
fa6b
fece
03f5
fc30
fcdb
01d7
faac
0005
ff4e
07f9
020f
ffe6
fc2b
fa82
00a8
04d5
0333
fe5a
0039
