fe57
fef4
fcbe
00a0
047b
fae7
fec3
062b
fe40
0150
02d8
035f
ffbe
04be
fdde
feec
ffdb
fde4
fd19
fcbb
fdce
fca1
fe17
f948
fc21
fa8e
0187
0146
04a2
fd57
ffef
f63f
0248
0549
0486
ff01
03f6
fc05
0684
01a9
0475
015d
ff23
051f
004e
fed4
0145
fc45
03ba
077b
01cd
03eb
0123
ff4c
fe3c
fdb7
00e5
0025
fce7
06ef
0037
fb19
04f4
030c
fd13
0029
ffff
0091
fece
ff15
0715
015a
fcea
fc1e
fdb9
0096
0279
f9cc
ff9e
ffe2
fb85
0418
0155
fd42
fecf
01be
0161
ff62
05d0
fd94
02b0
02e5
fed8
0176
01ed
015f
07f6
000d
000c
009a
fa56
ff16
02ce
f9d1
0226
fd92
f954
0004
fc8b
00a1
0119
fff2
fd3d
fc26
ff01
fe85
0143
01c3
fccb
00b0
ff71
0437
03e2
ff3c
fa9e
0466
0404
ffb1
fd44
fa8b
0316
008e
fe5b
02a1
00aa
fb61
0275
ff20
0102
fb64
010d
fdcc
feeb
030d
f937
0625
0295
ff4a
ff55
00a8
ff7b
fb99
0270
0124
fe0a
ffff
0502
fc01
00f6
ff70
fe99
ffae
0111
027d
0250
005f
0065
0180
001c
00d3
03fe
0212
04c4
fbb3
febe
fdbe
f855
ff17
041d
0075
ffcf
fb6c
022a
fe1c
fc19
03c6
fe44
fccb
00a8
fbc6
ffc7
0140
ff0d
0316
04b3
fa0d
01e7
0386
000c
ff36
ff5a
03c4
fc2d
00ff
06e0
02fc
ff8b
0615
0014
fddc
059f
05e5
fff5
fd5c
fc6e
0078
fdf9
fecc
fc2c
fb1e
01d7
04bb
fde9
0373
f9c5
fa8a
013b
04ac
ffa0
ff43
0013
0042
ff21
ff09
fe9d
ffdc
ff20
0037
046b
0105
fff3
fe07
0264
07c2
f889
02a0
0140
0642
fe8c
f998
fd7f
0277
fe0d
012e
01f6
fc56
049f
0185
fbec
00a9
029d
00f6
00a6
fb63
fefb
fb50
fedb
fc2c
000f
06d9
fed4
0154
fe35
fe8e
ff8b
0226
03b1
00ec
fac0
fea9
ff6f
fcba
03dd
ffd2
0118
03ad
fb5e
fddd
01b1
fea6
0337
039d
010e
02f6
fdfb
fdfb
0230
0170
ff9c
ff5f
fe37
048a
fe8b
0180
00d8
fd84
ffe8
0324
04d3
0075
013e
fda3
0560
ffe2
fd2a
ff96
fdeb
fe11
017d
013a
f971
009a
fdfd
0298
0414
006b
f816
00fa
fe97
01e5
05fc
feb4
f9c3
031f
03a0
ffa3
fb9a
0486
010a
ff03
fb7d
025e
0293
0023
03e2
ffd3
fb57
02cc
01fa
ff4c
0299
ff9a
0435
feff
fda4
051a
fedb
035a
fdf0
feb1
fdbb
ff93
02a2
0062
ff0b
005b
054f
02fe
011b
fccf
fea9
0079
fbae
fe4b
04ef
0051
fcb5
ff96
00d1
06ab
fbcb
faf3
0074
fec4
fb99
fe0c
ffc9
013a
fc95
fd68
00f7
ffa1
010a
01b1
fe7b
0546
fc44
feeb
0178
fe27
020b
013b
fdce
fd0d
0280
02de
016a
00fb
fed6
ffae
ff76
026b
02b8
004f
fe75
fc5d
ffd9
fe7f
0483
0384
ffa6
fb81
0372
fcbc
ff83
fd6d
0244
01fb
ffc2
ffb1
fb64
02a1
05bb
fd16
02e0
fdb7
fb91
ffb9
0338
0054
085c
03f1
0162
0285
fff0
fe1d
f956
0046
ff2f
00e6
feec
fee4
044d
fe19
0257
fea9
02cd
01a9
034b
fdad
fd3b
fcc6
fbe8
ff6a
fbf0
00c7
fee0
037b
045c
fea9
0337
04c2
fce9
fc67
05a5
0444
f81d
fd06
fc78
030e
0344
fbbe
0285
fe6e
feb0
0106
01cf
fe06
f9bc
fb05
046f
ffe8
fa56
feee
04af
027f
fefd
fe9b
03d5
00e0
0114
fb84
fb81
029d
ffcd
011e
0252
0071
ff39
fef0
034a
03b7
0346
fec2
050e
ffbe
fe43
0349
00f8
03e8
0327
07e4
ff1b
fddd
fc70
01c9
0469
fed2
ff30
03df
039e
0117
fd0b
fe83
046d
fec5
f959
fb96
ff04
f978
fa36
01b9
fcfb
f7b2
ff88
0102
000f
feee
fca5
04ae
fdb4
014b
031d
ff54
fe41
fc38
03ad
038d
fee6
fcab
0358
045c
fd48
fb11
ffac
fa63
fb7f
010c
010d
005b
0223
fee0
ffd4
01ad
ffc8
00b2
ff32
007e
0220
ffb6
05fc
061b
0238
faad
fffe
fd35
fd87
fe57
fcb0
faff
fe4b
f6ad
01c9
ff21
ffa5
0272
ff8f
fec0
005a
fe8a
047c
051a
0038
ffaf
fb71
0190
0051
0186
00bb
00ad
fb11
02a4
ff4d
04d4
fd83
016a
fa31
006b
fdca
fbd7
fdca
ff9c
0408
fed5
02b7
fcd4
035f
fdd1
0073
fff7
febb
0043
fd0e
ff66
005a
fed4
03b4
fbfe
0225
fb2b
ff40
021a
01e4
0090
05a4
0095
fe93
0025
ff8f
00f2
ffe4
f89a
00ca
03a5
ff0c
fdf1
03cf
fead
02c6
fd41
fdc2
fe0a
00a6
fedf
fa54
04ee
09df
0301
fc07
fef1
fe2a
0036
0121
f93a
01cf
fd97
0089
f9a4
067f
fee6
f962
0391
ff2f
01aa
01b5
027e
f9b7
feb6
07f9
fe50
fb88
0269
02f8
fb66
001f
f833
ff2a
fc13
fecc
fd32
017f
fda3
f955
f938
0025
fe3b
fcda
05f2
fe8f
0055
017c
fc01
04b9
ffaa
0312
fe8b
00a1
fe48
0545
0376
037f
fe4f
ff35
02b8
00b5
f9c9
ff48
fae2
04a4
0308
005f
04b8
ff6a
05f7
0278
03be
00c9
fecc
03c1
00b7
00ab
05be
fe64
ff1e
fe2e
00b6
fe23
ff0b
fe1c
01cb
fedf
00e7
00d8
fd48
014d
fd71
01b0
ff55
0176
fe10
ff08
fcf8
fe2d
fc62
020a
ffae
0219
00ce
fde9
fe7c
fe92
ff49
fed6
02c9
017f
fbd6
0245
ffbd
f8b4
fdf8
fd22
013c
ffb1
041a
