fe41
0636
035d
ff96
02fb
fbbc
0095
faec
ff75
fdf7
fcd4
01bd
0519
007b
fe05
031a
fb3e
03c3
ff12
fbc6
024b
ffa0
0443
01cf
fcd7
02ae
fcc8
fe8a
0673
ffdb
03fa
00df
0130
04b0
ffd0
0923
01a7
00f7
0583
0295
034d
fc08
014b
02c8
0191
0560
036a
042c
021a
0379
001a
0062
0085
060d
fc12
fd2b
02f2
f6aa
00e8
00be
fc68
0594
fb4d
fc61
0253
fe76
ff98
fec1
fca1
fe32
011a
0221
00ec
fa91
0311
0131
03f2
001b
fc80
028b
0580
01d5
fdad
024f
011e
021f
fba9
fee3
fdea
fc99
ff97
01a4
fef2
02ca
fec4
ff39
fe97
01c2
fcef
fe76
0166
fbf1
fad4
fdd8
feca
000a
0228
0560
04c1
0745
01d7
0856
fedb
039e
0040
f9b0
fed7
008f
fbf3
0067
0533
ff85
0083
03df
0265
00c5
0174
07d2
04df
fe8c
fa38
0035
01d1
feb4
01ec
ffb3
05f1
004c
fbe5
012f
ff5e
0bfb
fcaa
0082
017e
fca9
0405
05a0
04be
fcce
0124
f655
ff6e
06d7
fc4c
fef0
fd21
00f6
047f
fb48
feeb
0608
01c4
febd
fea5
fdf2
00d3
014b
0168
0180
fc0e
ff86
01b3
0260
f924
0704
0601
fe77
fecf
0700
fe40
02f3
fb66
ffad
00f9
04bc
0234
ff8a
ff42
fba0
faf8
fa0f
fe64
004f
f739
fea3
00f2
fe59
009b
03d3
fe2e
fca2
fff1
02c1
016e
fff2
02c2
fc48
fc78
fc09
0001
0019
0080
fed4
01a5
0082
000f
01af
fc39
0228
00dc
023e
feb5
05d5
fda0
00b5
0248
022b
f823
fd5e
0318
ff38
0766
032c
023e
fe79
febe
00c0
0540
010f
fae7
038d
0305
fe83
fb4e
fea6
ffec
046b
fd3a
02ce
fcf4
fad2
0190
02b6
03ef
fd9d
0602
ffc5
fc39
fef3
fe76
05cb
f944
fbac
0420
01f9
03b9
fc25
f89f
fe61
fffd
0277
ff36
00f5
025c
0500
fbfe
ff3d
04d6
fd17
0087
feb1
fdab
01d7
fc3d
fd94
0542
02a8
02ef
04a3
fefa
0140
023c
fcec
008f
fefc
03c7
fb1e
f969
ff96
fc79
fcc6
0068
0398
fcc1
0017
0389
f9b4
fc48
fecb
0248
feee
fdb8
fd59
0171
fc02
fe30
fc17
043b
fa96
00a7
0155
fb5c
0023
f8a4
fe0f
fe9c
0106
0184
fddc
03e0
ffb2
ff49
fc61
ffb1
02fc
01e4
fa75
fccf
0009
00bf
fe26
00a5
ff24
083f
fabd
fe84
feec
ff4b
ffb0
fd74
fdb9
01fd
00a4
01f2
0334
fcfa
ffd7
ffa9
03c1
fddb
0510
0201
0040
fdcf
fd89
fd81
fdcd
fea8
022d
fba9
027c
01ea
fc8e
033d
04a3
fce7
ffad
05b7
f911
feb9
f980
fd38
00d3
01be
fef6
fdc9
fff2
0057
0061
0128
0163
fb21
fdb4
0035
016a
fe0e
036b
fd70
034b
fa56
fe8f
00eb
fc84
047e
01c2
fcb4
01a2
fe9c
024f
fde7
0023
fedf
fddb
feb3
0594
fbe3
0287
fdda
fd4c
00d4
fc9d
01af
fe36
03ec
00e7
06bf
fe11
01c5
ff1f
0208
fe8c
068a
f850
fdc3
fedb
0019
022d
fe02
001d
fdb3
0250
02d2
fd31
ff7f
0193
ff38
05da
0130
00c2
ff57
feb1
0375
01fc
0313
fc88
02b7
fc30
03c0
0088
fe5d
f864
fca1
febc
0397
00d5
fd38
0010
019c
ff81
0156
fc36
ff4c
fd4b
fe92
ff6c
0387
04a2
06dd
fe15
01c2
02c7
005a
ff13
008e
fd39
fc88
0305
00b7
fcd2
0158
0126
fc58
016a
fe7f
030f
fc35
fde4
017f
0071
02d7
030f
ff3d
faea
fb3e
007d
022d
012d
fee6
fd9d
0382
00cd
0317
023a
fd63
f9d2
fc4e
02fc
fda8
035a
00e9
033c
0477
fe0a
006e
0282
ff5a
0357
fc62
00d5
fd70
0088
01cd
0752
ff20
feac
fc03
fe6b
ffad
fad9
fe74
0403
008d
fefe
febd
0240
fd46
01b8
008a
fecf
fdae
0419
ff76
018f
03c1
fd1c
fdfd
ff81
0360
fe0a
ff93
fb42
ff50
fdca
00f6
029f
03be
fd58
02c4
001e
fbe8
fb2b
037a
fb1d
003b
fbc3
fbfd
fdbe
ffcc
01e7
04aa
ffa4
0040
ff8b
0311
fdc7
fb63
0194
fd6e
01f1
08c7
fc1c
ff2a
048d
ffff
0138
03b8
00c4
0448
0199
007e
fce0
017d
009d
fba8
fe39
019e
0178
fda8
ff07
f99f
0471
fea2
04d2
00fd
ff46
017b
000d
fb54
04db
0326
0238
0398
00fc
04a2
fdbf
030c
0043
0289
fdf9
fcf3
fed5
0195
fc7f
ff51
03df
ff38
ffb9
ffb7
fc6f
03c7
0120
fe61
00b3
ff13
fd8e
0220
046b
00c4
ff86
0105
0096
fec5
fc8d
050a
fa9b
fd1c
016e
fe1a
03c4
0111
fc32
0122
fd37
02b6
027b
fe7a
009c
02a9
03a8
f9b3
0570
fe5a
011d
fdaa
002f
00c5
fc91
fb9d
010b
fe3d
01e9
ff61
feae
ffdc
02cc
0023
fc2c
ffbd
fcd9
00c0
0293
fd67
fb9d
0610
01e2
035d
00fd
f8b1
ff14
0079
ff2f
fa7f
0001
046a
fb2a
01d8
03a2
fa68
fe45
0043
fc00
036f
0396
0475
fed6
006b
fde9
0000
0059
00a2
fedd
0044
ffcb
01d2
feb2
01e4
0330
f91e
01bb
fd91
0268
fde0
fbef
fdcd
fbbd
05d0
05f9
0921
0086
00bd
f9e9
ff80
fee4
007c
fbab
04ad
ffbe
ffaf
0187
fc04
fb08
006a
05dd
00f6
02ad
0052
0233
fe2f
f9c5
0156
0401
004e
0445
04a0
0055
fdb2
062b
031e
0209
ff79
074f
084b
0048
025a
019d
01a8
027f
0131
0072
00c7
fec0
0415
0206
