ff4a
fbe0
ffd7
fc8f
f91f
ff7e
0028
017d
fdca
034f
fe15
0158
0077
ffa0
03c6
047b
02f5
00f0
0264
0285
03d4
00d2
0195
00f2
01ec
fbb4
fdd9
fb73
fe8d
020d
ff1b
fe97
fc33
fead
fccf
ffe6
ff76
ff79
0167
ffbb
023a
fe57
0557
0084
feb5
fddb
055c
042b
0521
001f
0284
f9e2
ffff
fe0e
043e
0047
0292
055b
ffc4
02cb
03d2
f5cb
fe2f
0307
02ed
02c0
00c5
020b
04a7
fcc3
0091
007d
fd6a
ff9b
003f
00c2
fd6b
fe9e
fda5
fd7d
01e8
fe49
fec2
fe33
fd76
025f
0208
05a5
0262
fd5e
fc5d
03d8
ff33
fb6b
0153
f979
fe4d
00b2
0395
0177
04a6
05b4
fea9
01eb
001c
fb61
fe86
065c
fd63
0014
0209
fc1b
01e2
0150
febc
fe77
05b5
02a3
03da
019e
0261
fc9f
05ed
ff50
ffff
014a
0269
fd30
ffae
0160
0113
fd88
fcd1
fc16
ff90
015b
029e
f931
ffae
fcdc
fd1d
fe9b
ff2b
fdb1
fef3
057c
fd87
0065
fe51
febb
0374
fdf9
0109
0087
019a
fdc7
fde3
fd81
032d
fd8b
02c9
ffbf
ff64
01d1
fdc0
ff39
fb1e
fffb
0275
fd13
ffd2
0005
0751
fef0
fe0c
f86d
034a
02af
f862
fed5
ff20
f9df
01e2
fb44
fe5a
fdc3
042d
00c4
0092
00d3
fe14
00b9
fe3d
0072
0127
fc6f
0470
00ee
0190
fa83
f62b
050a
fac9
f878
ff69
febd
0136
01ce
fc85
0115
03e3
ffe6
0094
fc21
ffdf
03c7
feac
03eb
0238
fe9b
0118
00e7
fb81
071a
fe37
0156
f987
fab5
fd00
048b
fdb7
01b2
01ae
0463
0428
fbf3
ffae
01f5
01f9
0220
fc11
068d
00c3
019a
fc05
0278
fe5c
0383
01b1
00a0
ffc2
fcb1
025f
fb4c
fea2
ffc4
0273
0433
029e
066d
fdde
fd55
fbc1
fc6e
030d
ff88
fc50
ff5c
fce3
03ea
09ff
01ee
0404
050a
007c
fa63
ff12
fcf6
fdb6
0207
01cb
fdff
0100
03c2
fb80
02ed
ffdd
039e
fe1a
040b
005a
02cf
05fd
feeb
02b1
0302
fb98
02a1
0174
fea2
0506
0214
0269
f826
048a
fc54
fbb8
fd2e
fec2
007d
04ce
018a
009d
fc8f
01ca
fd19
03c5
00d3
011f
fd1b
0318
ffc4
00df
017a
0521
fe15
0535
043d
fe3e
0271
fb2b
fb43
fca1
ff14
fac9
fd8c
fc70
fbe1
fef1
fe22
fd60
0688
0372
0187
fce8
fc1b
ff9b
0335
f90d
041f
02d1
022e
00b7
faea
01cf
fd05
008b
ff96
fdeb
0128
fd47
fd63
fadf
03b6
feaf
fdcb
0187
01e7
fda0
0409
f832
fc76
f8e3
01a6
02fe
ff34
03a1
fcfa
0435
fd83
fb1d
fc12
02b9
013d
fb9c
ff49
ffa1
0076
0360
ff23
ff32
ff02
02c7
0678
00c9
fc66
fda5
0163
ff3b
010a
000d
fcbe
ff76
04ef
fbd8
026b
031f
fe3d
fca1
0096
003a
ff0a
0206
ffa3
00fd
fe09
ff5b
011f
fea2
ff23
039d
fa2a
f9d9
0063
fceb
ffc3
00af
026c
027f
046d
fefd
ff11
0118
054b
f88c
01ac
ff55
0597
ff05
fbc1
fd57
fdbf
0741
fe89
003f
03ff
fcfa
fd4d
0412
fc63
0185
01fa
029e
fa14
ff76
04bb
fdbe
fe4a
00fc
0235
fb07
fc1f
fe3f
facd
ff99
0225
003f
0346
fa59
ff49
ff09
fb3b
016e
0119
007c
0017
033d
0041
008f
fd7a
ffeb
fe43
02bc
0005
04c5
036b
fc3b
fcd1
fe4a
ffff
fe76
ffe8
fef5
ff78
ff16
fff6
fa7f
01b2
08c8
025d
0154
fe07
fb88
fd83
fdf3
fd41
fdce
fb4e
fa1d
fffb
05f0
0252
ffef
ffdd
034f
007d
fa73
017a
02a3
006a
00c9
02f5
fec1
fc1c
ffb8
0293
004b
004e
ffcf
00ed
ff3e
fd8a
06ee
fd78
040d
00ad
0602
fcad
fe4e
0193
023b
fdb8
00ee
0298
0081
01ba
fded
fe00
00c6
00b1
0261
0024
027e
fd49
ff44
fd18
002d
03d3
02af
0020
fa83
fa95
02cc
fe69
fbea
f966
ffea
ff26
fae5
010d
fc14
03a5
0067
fafd
018a
004e
fab2
0264
fb16
00ae
febc
ff00
fbea
01ca
fc5a
fd97
f8f8
ff6a
fff6
0090
003d
004d
0282
021a
fd86
fd60
00b8
01f7
01ad
0070
fd9b
fe07
00ed
0014
0104
fd4d
fd0c
feef
04d2
057b
03f5
016b
fbc1
036d
067e
fd12
f9ce
fc28
0069
047a
ff6c
047e
00a2
fb4e
fe52
008a
fff3
ff64
03d4
0080
05ff
0321
017d
03d9
0067
034b
ff49
0167
feea
0359
f96c
fd41
fd11
fa36
fbf3
ff82
0243
0575
00a6
01cf
0275
fbac
fd4c
faa5
fab2
fd3a
fbf4
ff71
fdda
fe4a
ff60
fb40
fde1
ffaa
fe15
028b
fed1
fec7
0234
ffd8
fe38
ffa5
ff24
03f9
fdbd
fe8f
fe6f
ffb9
f9f6
00cb
fc8d
0890
fadc
022d
00f1
01a5
fc57
fcef
fdef
0243
fecc
0365
ffb3
fe13
fd26
010c
04ec
009e
00e8
0120
fc20
01e3
ffda
01a6
052d
ff32
081d
052a
fd46
ff6a
0560
00f1
fb99
0254
010a
05f7
fac4
00fe
021c
fe93
fdc8
ff63
ff1c
fee5
faaa
013c
029b
feaa
0242
04a8
002e
fd15
040d
fe71
014d
0112
025e
fdda
fe2f
0336
0125
f95d
f993
fe08
0044
ff6e
fa2d
0236
fd1a
03f9
0183
fe07
02a9
03a0
05cf
ffaa
fa8d
0535
fff1
031f
0140
02ca
ffe7
fce5
fd5b
0668
ff11
028a
0141
0656
0168
ff86
ff22
0112
ff81
fe62
fec1
0157
035d
feb0
ffa1
0302
0180
0026
