fdc9
fd01
0156
ff44
fccf
00ed
0202
fcd4
fd7f
0332
f7da
0baa
005a
fe33
ff1e
ffb5
01cf
fbc6
fa71
fc35
009b
01c1
ff3c
ffc9
fde6
ffc8
023e
01bf
ffed
0821
0028
fdd1
02ed
fbb2
02cf
07c6
0445
0494
fe4d
fc45
fed7
fbc0
fd65
0440
ff74
0946
fe3e
0093
fccb
fe45
013e
fca4
04c8
02e1
fcbd
0099
045f
0126
feee
fe92
02db
014a
0141
fa04
fabe
fa43
fa14
fc52
019a
03d0
01eb
fc61
fecf
ff7f
fdb0
02f9
fe1f
fe36
001f
fdf9
0436
fab1
fb64
fca2
f8b2
043d
fd55
fff0
07b9
0013
ffd5
04a6
03ad
fb32
ffd8
fe79
07b9
f5d7
0020
fb27
fdc6
01bb
030e
ff70
004e
0202
0325
04fe
01c3
fc32
fc93
0222
0260
055e
0324
0134
fc9e
fbf9
fe73
ff6a
f990
fdc3
fc73
04c0
0238
fa8e
0105
ff63
feb6
0322
0609
fbf8
0044
00d6
00ca
01ad
fe97
03a7
fe2c
fbde
fd77
fbea
ff2b
0011
fd7b
f9a2
048f
f843
fcc2
02d1
fd84
fb4b
04c8
0087
face
fd09
fe1a
0498
086c
ffdf
f940
f9fe
0112
0303
004a
fe6b
01b3
ff56
fd1c
ffb2
ff3e
ff71
00d6
01f6
fd68
014b
fe29
01cf
00ba
fd6a
06b5
fa97
fe69
00dc
04c3
f9dc
01f7
fd45
0156
0078
ff5a
0382
0365
fc35
00dd
fe8a
ff16
fcca
fd38
011e
ffd8
03e6
020e
fafc
00df
030b
00d2
04ec
015c
0099
0011
0225
0144
fe7b
0037
feea
041b
fedb
fcfe
0319
0023
00a1
04c1
0163
0080
040a
fe31
fd9a
0002
01f3
feab
00ca
fdd4
0179
fff8
fdbf
0145
0221
fd02
00c6
014a
f9c0
009f
01db
0058
0071
fb83
ff40
03de
fcea
0071
031a
fddb
fd05
052c
0233
0485
fbae
ff00
fcab
00f6
ff42
fd0d
033b
00a5
fa52
fde8
003d
fc57
0012
ff6e
fc18
ff9a
0226
ff76
00b0
fd90
0430
021f
f9b7
0004
00e2
0487
f942
fc8b
fbc0
ff51
ff2d
06fe
0329
0318
ff5d
ff7a
fba0
0300
fb42
0044
03e7
fd78
05a1
02b5
fd7d
0159
fb02
fd14
fe1e
ffe6
076f
ff55
0129
036e
fe71
0338
fdce
02b5
03f9
fe8b
0060
fce3
02e1
006f
ffe4
ffed
fa5d
012d
fea8
03cf
0179
0217
fc02
fe06
fe37
00ac
029a
00b1
021f
0209
018b
00aa
0144
0056
0372
0179
00d8
ffd3
02c4
fa29
00dd
023c
01f4
0278
0149
fe67
090a
02a0
fa05
fc0c
012a
feda
fff2
0089
f913
fc51
fb30
ffc4
fc37
fe70
f9a5
0365
00f9
08cb
00be
fec5
005a
00cf
ff75
fec4
fef6
fea9
0372
fc63
04a9
fcb7
004b
0165
0273
0a22
0008
fb39
028a
013d
fafb
fffe
fc2b
faeb
033b
04b5
f9a8
02f3
fd34
fef3
ffe4
fdee
025b
fcfd
0056
0260
fb86
03c0
0290
f9fc
00c1
05e1
03b3
feea
01f7
01a1
05a1
fea4
027c
fe9a
fc57
028d
fadc
02cd
ffd9
fa98
0116
ff3c
fbe5
ff7b
055b
fc5e
006f
068b
02de
027b
fefa
ffc0
0267
00e5
fb48
0408
ff43
fe39
0795
fcb6
fa2c
fe5b
fd36
0104
fcff
feb5
0790
0353
ff19
fd1a
fd5f
0069
05fb
0420
049b
fc5b
02d2
fdd0
ff1a
01d3
fec4
01a6
fd49
0507
03d4
fffc
fddd
fcbc
03e3
0339
02aa
033b
fe96
00ed
fd76
01e4
feed
fb2b
fcb1
fd35
0376
fdfd
fb7e
0257
0520
057a
ff42
00c8
fddb
ff8c
fdf4
045b
0119
01c0
fde1
0290
0276
01ab
fcd0
0610
0415
fba3
fe1b
ff36
fffa
fd28
00de
01fc
fe09
fe28
024b
069c
fffe
ffa3
fad6
02a0
0031
0672
fac4
fd98
fce0
fe96
fc9b
fde2
fc18
0118
0274
fe07
ffb1
0049
02cc
0006
ff77
fded
0031
0391
032a
fac6
fc4f
fd77
fa3a
ff0b
0139
064d
0230
fc11
fdac
0483
fbe4
02f3
fdf6
001e
009b
fee3
021f
065f
005f
0552
0540
0284
fb58
fe8a
fa60
0545
ffae
02f4
ffa2
ff82
fd27
fe3b
0484
fcef
ff8f
007b
0128
00d4
049a
fe55
ff8b
fcbf
fd3e
fbfa
ff3f
fdd9
ff17
002c
fd40
ff5c
fee7
00da
ffe0
0063
fc0b
fc03
06af
0261
fbe5
0381
fe73
ffbf
0158
00ad
0037
fd15
fe1f
fda7
fcb2
fe5d
ffe9
0206
fd9e
0249
002d
ff07
fe1d
03b1
0306
06dc
02ed
fd6f
029b
036e
00e0
fccc
fec9
ff89
fb69
0128
0411
0007
0204
02cc
fd6e
03be
feef
007f
00c6
0345
ff44
ff2c
0363
fd59
05df
01f3
03ff
fd82
0525
ff66
0269
f962
007e
052e
06b6
029b
02e0
fd1c
02c6
04cb
01b4
fece
0067
0006
feed
0402
fd04
ffab
fe2a
ffae
01d2
0166
00db
0345
02b8
fe44
0409
fe83
fc09
fece
fda5
fecf
fd0a
f978
fc73
fbcc
fefb
ff64
009c
000a
00a2
0246
ff3e
fe60
ff86
0567
0057
0228
05b8
fea9
01ed
005e
0102
022d
02a8
fdfe
fcd8
fcce
0285
ffce
0140
ff51
027e
021d
03a7
fde0
00d9
01c0
ffc5
0133
fbe0
0040
01f3
fe6d
01f7
fcff
011d
0254
0795
031f
0389
0167
0031
04f2
fe34
ff49
01a8
fe75
0049
fffc
fda1
0381
feb9
012e
00a8
ff41
fdca
03d1
fc4a
fa9e
0018
03f3
05bf
fa88
fce1
07f5
01dc
00aa
01af
0353
0608
0352
fe39
fbd8
01e4
05ff
01f0
0006
ffb0
fd1c
0108
05d7
fe86
ff87
017f
fc12
fdbb
02a2
fd20
