fe75
0416
0091
f8ec
fedb
f91e
fdc2
fcbd
00e2
0167
fde8
02b6
0404
fa43
0166
fdaf
f8bf
019e
0134
ffce
fb95
07ff
02fe
018a
ff21
f968
053c
0200
0265
fbd2
0008
018c
ffdc
0113
ff1f
feee
ff4e
fc7b
fb3d
054c
0290
feb1
fbc1
0125
fdc9
ff9c
02bf
f9f0
ff39
fe43
ff82
0136
fc5e
fb8e
fc8a
fe06
00b3
0065
ff3c
fe07
f80c
0212
029a
0515
ff4e
ff43
0187
04f1
fe9b
ff4d
ff84
f99a
ff9d
003f
fbd4
06ef
0287
f861
0058
003b
0366
fc16
fde6
fea7
ff50
fb02
0464
fe5b
fcdb
fa5f
0166
00a1
f996
0416
01c5
fe1a
00db
ffe0
ff06
fc8e
fe56
05d2
ff67
0449
fe2b
fcdf
ff10
fa2b
fc11
ff27
fd94
fff2
0178
03fd
ff19
ff4b
0515
0472
0143
fcf9
ff7d
0178
fdbd
033e
01ff
0290
fed3
f687
fa43
ffd5
fe5d
042a
0226
faf5
fd03
ffab
fa8d
feb4
00b1
012b
019a
01bb
fb99
fa80
01b1
fc79
fcec
011d
fc7a
ff53
0780
0252
f76e
ffb1
000c
03e1
033b
fb42
0053
0038
fd7d
f586
fdee
ffb4
fe25
03f0
0291
045e
ffc7
0241
013c
00cf
fd66
ffa7
fff2
043d
fff7
fa7a
fd2f
03f0
0241
0081
0415
00e1
fad3
ff4b
0079
03ed
feef
04b7
00ac
fe51
0885
03ca
fe3e
fc8b
04b3
fd2e
fca6
04c3
ff3b
01fe
fa51
01ea
ff9f
fe3c
fe8c
fbd5
00f9
fdcd
f84a
feda
0146
0b25
fcc6
f9ac
00ee
0072
fcac
04c1
ffaa
00a1
ff45
fa3b
029d
fe94
0245
0424
00a5
04e7
fe9d
011d
ff2d
0545
ff5e
0266
02e9
fe24
fc47
0869
00e3
0230
0161
faa8
fea8
008b
0213
fcbe
0184
fe9f
ffae
04ce
ffb4
fd98
0665
fd29
0045
022f
ff08
fbe2
ffbd
04f7
ff84
fbe7
ff1e
00ce
fff1
0359
ffc8
ff87
02ae
fef2
0156
0141
fe62
04e9
fef0
0021
02d9
012b
0344
00d7
043d
0220
fe70
ff15
029b
f83e
02b5
0118
0176
056b
057a
feda
013e
fc3a
fbde
fc90
fefd
000f
ff3f
ff24
03f6
00e2
fe05
042f
f9fc
fce5
ff4c
fde8
ff68
0169
ffa0
017e
fe08
0576
ff2d
fbf0
fe75
fe16
00f2
0155
04f2
00cb
0233
02d0
048c
ffd5
040d
fe6a
ff85
00dd
fdc1
0344
faf7
fe3d
f949
fbfb
fecc
fbbd
0036
fb6f
00f7
fc72
fd3f
fcf5
0264
012d
fa46
01bc
ffd5
fb51
03df
046e
fda6
fce7
00e5
fae5
fd21
00a1
0732
04d5
01ac
00d4
fc17
0193
0aee
f9a1
fcca
0343
0081
ffd6
00b6
0232
fda3
fa62
fa81
0498
fcbc
fc7b
023a
0102
0153
fe16
03fb
fe05
fc5a
fc17
022d
fd40
039c
001e
ff3c
fc80
fdf5
ff40
0233
0005
f9f6
fc43
013f
ffa9
fd98
03a8
0669
02cc
fd3d
fca1
fc70
ff5c
fd4c
fe60
fba9
fe16
0091
ffd2
033c
00e2
01b6
0273
055e
0614
fb54
fd7b
ff0c
fc1a
007e
0111
00cf
02a4
fdf0
04e6
0176
0138
0299
0056
ff3a
00e1
ffb6
fd1e
fdf2
0043
ff73
0231
ffea
feab
04b5
007d
fd06
fe4f
0258
07a1
fff5
049c
fe13
fe37
fd08
fe89
082f
fb74
ff99
0036
03ea
02a4
0362
fce8
01c7
00d2
faf6
0244
059d
0362
0532
017e
ff72
fe25
013c
015a
0107
035d
0056
03fd
fc03
055f
0208
fe86
ff9b
0331
03a8
0253
ff4e
04b0
044c
025f
0209
fe5e
fb8d
019d
fd8d
01c4
fbbc
fd6e
00ad
fea5
fee7
04d8
fc13
ff67
01ca
0375
f8f6
0050
fae0
00b6
0244
0326
fc16
02e5
fde7
fbb1
08c4
fe35
01ff
01a8
0147
065d
04f3
fe71
fdda
fb8e
fe98
027f
03a3
fafa
fc34
f98f
02a8
05f8
ff50
ff42
fe5d
ffcf
0353
fab9
ff98
0377
fd8d
01bc
01dc
ff94
0229
017f
fd32
0095
fae0
06cd
0364
fe12
fd7b
02f6
fccf
012c
fb67
fa12
031e
0349
0255
fdd2
055f
0016
fa72
ffcc
ff7f
0024
0358
fa55
0148
00d6
ffea
0199
fe64
0404
0569
02bb
ffb1
065a
02ec
fa6c
0393
fe7a
03ff
041b
ff5a
032c
fd23
0079
fe70
fa18
0063
007a
0332
0255
01fa
ff6e
f99b
0367
ffd5
0110
ff97
036f
ff51
010b
03df
0097
fc4d
024a
fc84
fd4d
014a
fef5
001b
fbb0
fc19
fc74
01dd
0130
fd37
00d3
021c
020a
00be
0267
feea
fd3d
ffe3
0054
fbb4
fcef
fcdc
ffe5
fc95
fffa
019a
fd6e
03d0
ffcb
0067
ff65
fe47
0081
fe97
037e
04d1
fe38
fefb
ff27
fc41
fd3c
046f
feb8
005d
fd98
0043
05dd
00e6
fb93
fc6d
ffe0
fb81
04ea
023c
03f4
fc58
0482
ff84
0201
0262
025d
ff1a
02b7
fe96
0287
ffb7
0119
ff5a
0292
fae2
04ec
03fe
00f2
fe64
0263
004b
021d
fff2
00f7
02c9
021a
fcbf
0113
fed1
fce1
ff89
0009
059e
fb72
f925
00d1
0221
01c3
fdbe
fe6f
ff6b
fd7e
0110
00f4
ff92
fd40
fdf4
fe88
09dc
fe13
04a7
0351
0391
fe01
fba7
000a
0302
fd7b
ff25
027e
0070
fa86
0125
0074
054e
0337
ff86
fefc
fdc0
01e7
fd99
fd1c
ff9b
02d9
00f0
0225
fd4f
030a
0444
019b
fe3c
fbb1
fd40
00b2
0239
fe20
0229
01f5
ff95
0067
06cc
ff52
ffb3
0541
0166
04a1
fef9
fa95
fddd
f9e5
fbd2
fadc
ff2d
fbbc
022a
fdc5
ffb2
fd2c
febb
0138
fedb
fb9d
