ff37
fd9a
ffbe
06e7
0095
fc79
feb3
fe28
01d9
0010
007f
fcdb
fc86
fe3c
ff99
fe58
f9b8
0231
fdc0
044f
fe4f
0371
fff9
fccd
fe7e
fde3
ff4b
fdbc
0305
0128
fb3d
02cf
fbc1
02a5
f9ce
ff69
039a
031e
00b0
0273
0352
0163
01f5
fd68
00e4
fe3d
0262
ff47
0021
00d7
fee0
001f
ff15
0123
04ab
feae
02f1
fa8e
0279
ff7a
0316
02fd
00c3
05fd
fdc8
fc39
fe56
02f5
005b
ff3d
010e
01d5
fd24
ff5c
feb8
fa95
fbd2
f811
03a8
03ac
024f
073d
f952
0402
ff56
0235
ffc6
fd35
0221
055e
fb14
00cf
0235
fb8c
005d
076c
0341
04c3
fb91
01f4
0027
fec0
071b
0190
ff4c
ff3d
fbf5
059a
045d
007a
ff84
fe41
0381
fb3b
04a3
00a1
0612
00c7
04a3
0129
048f
0121
fd6d
ff78
00cf
019f
02c5
ff0e
ff65
ffb7
028d
021e
06ed
fa09
0015
ffb0
001f
fe2f
02f1
004e
ff85
04b0
ffb1
0203
00d0
0461
f935
fe4d
0465
fc59
fd7e
0010
fdc4
fb7d
00d1
fbce
0677
05c4
fe17
fd76
03b9
02e0
0244
fa23
0485
fe7f
ff6a
03a8
0248
f9d7
ffa7
fdec
015b
0140
ff16
fcac
0423
00cb
01e1
0027
fe29
fe71
f8d4
05f2
014a
0064
0501
fe21
fa84
feb5
0401
fcc4
00a6
fad0
fd19
fe1d
fe01
f9f4
fe2f
03b9
fe0e
00be
ff04
0292
fd30
fa9f
037b
ff9c
fe09
fd45
ffd5
017a
0301
0284
ff87
ffa6
02db
0205
02b4
0087
01c6
fcf6
07b7
0093
fe6c
03ac
fcec
02bd
fd6b
00dd
0214
f9ed
0102
0042
ffa6
0485
0501
0199
03b6
002d
0234
ff27
fef7
fe37
0046
022f
0222
0234
03e6
fec4
ffb2
01fa
01a5
fdfa
029b
0490
0341
0078
fa5c
0177
fb81
0572
0177
f93f
fef0
062c
fe9e
ff56
001d
0023
fe21
ffa8
f906
01d2
ff28
fee3
036b
0362
0501
00a2
02a9
ff61
fc62
fc84
0207
feb8
02d3
fcff
fbab
f9db
0194
fdf7
ff6d
ffdc
02e4
fd6c
fbc3
03c1
ff41
fe7c
fef9
05c3
0420
fe40
fd97
ff9a
fdbc
02f0
fcbb
025a
ff45
feb5
0672
0258
ff06
028f
ff63
fea2
0418
f8d6
fe5e
0103
ffbb
fc76
fc01
ffd3
04ca
05ce
0332
fe18
019b
0099
0145
fff8
fad8
007b
0166
0035
ff31
0066
04be
fd99
fcfa
01b3
fea6
0199
ff89
028c
01ac
fdfe
fe6c
fed5
fea3
fc93
043b
0180
fd4f
0117
ff06
01e5
0040
04cd
fd06
fffe
0294
0148
042c
fcec
0066
00eb
0518
fa9a
0476
fcb2
fe2e
fe09
fddc
fd0f
fa81
fb2b
ff3b
033b
035e
0068
fdf9
01ed
fd7e
f8f9
febd
f887
ffc2
02a0
fcc2
01cc
fbe1
fff9
0157
01fb
ffb8
fe74
fccb
fece
0390
0438
fe7d
00dd
fd5c
0195
01ab
023d
fec8
fb99
fc27
fe17
0052
06e3
fb1a
0076
002b
fbbe
fd55
05a2
ff76
03b2
01bd
040b
00da
ff04
f939
0105
fea4
fff5
fd1a
02a1
fd1e
0104
fa79
014b
017f
013b
fe77
0208
00be
01bc
020a
fe78
ff50
0191
fe7b
00be
0269
0277
008b
fcca
04ce
fde0
febf
fcd2
fdf8
0500
004a
03f7
0174
0251
02e5
05e5
fedb
fecd
fc4c
024c
010b
0287
0316
ff7e
ff29
01b4
0084
0268
0089
06eb
fef8
02f7
0107
fefb
014c
ff76
00f0
ff82
02a9
ff47
ffa6
fde8
fdd8
fc51
069f
fe87
fec9
fee0
f73d
fa9d
03c5
0078
07e1
fc3e
fefd
0141
002f
feae
0364
ff3b
fedc
fc86
fecd
ff98
0103
f99f
02f1
fe4e
ff11
00a6
0151
0304
ffc8
005b
012d
00bd
01a0
fe7b
0577
0103
039e
f7c2
012d
0a67
022b
fef0
0343
ffc8
0672
00f6
01ea
fc31
fedd
fec7
ff40
fd04
0448
ff23
fc9f
ff22
ff3c
fc1a
fc37
024f
0064
0073
0381
0c01
0376
f951
fddf
0134
03ea
033a
0252
0435
01ac
fa16
fe5e
ff42
0585
0052
049b
fd93
03c3
03b8
01d6
fce1
fe12
fed4
0457
0140
0232
fed8
037f
fe15
ff47
04ae
fe2c
0312
fe25
fe49
ff8d
fbbe
0109
ffbb
fd99
0210
fc9c
fe7a
0329
fd27
fe99
01f0
fe06
fa22
ff0e
fb24
ff58
019a
01f4
fcd7
ff22
fc38
0005
0056
0447
00cc
fdca
051f
fe60
fde6
003d
faaa
febb
ffc6
01e2
011b
fa40
fdb3
019c
ff3f
0033
fcb4
fef7
0281
0070
fed7
02a5
fc86
03f5
0365
00da
00a6
08ad
010a
fad2
fdc4
ff77
0115
0083
fcc6
0247
0018
feed
fc5d
02b4
000e
00a3
0037
fd8d
01a1
fd9b
00a8
03d4
03e0
0026
0348
fe98
fee7
f798
0008
012d
0154
f93a
ff9c
fbd6
fd6f
0853
010c
0073
fea0
f742
03ea
fde7
fc6e
0143
02ca
fad4
fe3b
007f
fe0f
fded
01e3
ff6d
fd8e
007e
01cf
fd98
ff48
fcaf
fd71
ffff
fe4f
01e7
0234
0477
0665
fce5
fda5
f9df
00ed
006a
014e
094d
0478
fe6e
006e
fffe
01fd
0066
ff06
fbac
fe29
fc5b
fa7a
0104
fe0c
0122
0a7f
fd50
01e3
ff06
fcc1
fcc7
000a
ff9c
01da
00aa
fdc5
0285
0573
02e7
ff4a
fdc5
030f
fd0c
fbdc
03ff
fd9c
fa91
035e
0357
05bb
ff25
fcd8
002c
f9f9
04f4
fc51
ff2a
ff52
fc7f
05b0
f81f
01a4
007f
fe6b
00ea
fc2e
06ee
fd9c
041f
0574
0037
061d
fbd1
fcae
03d9
fc3a
fd7a
05ca
fd3c
0326
