fa44
fcbe
fe8a
fd47
f58e
018b
fd52
0059
00ea
fbac
02aa
f9e6
fe53
fed6
fc82
0164
0177
fc01
ff7a
fe27
fe57
0032
fae7
0442
ffaa
01da
fce9
fca5
fe2d
012d
fc96
fc82
ffd5
0062
05d9
f924
fa52
fb3e
ffe6
fe56
056c
0180
05c2
056f
fa38
01e3
02d6
f993
00cf
0140
faf3
fd9b
042b
00e8
ffe8
01b1
fa81
feb9
fd2d
fe10
fe04
00f1
fefb
ff26
fbb1
fd58
fdb0
ffaa
0103
04b0
fa03
ff4d
028f
0225
fe80
0060
fed6
fffb
fc00
fcf9
01d3
0122
fc0f
022a
052f
0511
fe51
fddc
fffd
fb44
02b8
feda
fbbc
fd2b
0080
fd52
ff0c
fd47
014a
0006
00d6
fcff
ff50
fb1c
04fa
fa38
fde1
027d
fddd
0039
fec3
ff8c
0133
0177
fe7c
fe1e
fa84
01e5
05f8
ffd7
fbb4
01b5
0054
00f7
fc83
ff86
fdca
fa26
02b8
fb9e
fd6f
fae9
fb44
fe7d
00fc
01f5
0235
fe06
ffd8
ffeb
fff2
01c3
fb69
029c
0255
fd2f
fe5b
ff59
fe6e
05bd
01ef
014f
0005
fe73
015b
fe55
fb7d
0965
0121
ff22
fb2b
fdd0
04b0
feec
0097
0016
feca
fed7
024a
fa0d
055e
ffd1
ffb9
fd6d
0287
f8c9
0511
fb1f
fa30
01fd
01fc
ff59
ff28
fe89
f88e
05e6
fb33
fd56
0432
00af
0478
00d0
f937
0248
fd0e
ff1e
ffff
06c4
026d
fe16
f7d2
0684
01d9
018d
f8c2
ff9f
fcd0
001f
ff81
004b
fcbf
03b9
fef2
fe72
fef2
0083
00d1
0022
fdd4
fb8f
fc7a
f95b
0007
faec
f9b0
fdc0
04ad
f7ac
fc3d
0387
fdb5
010a
0265
f8bd
f811
022c
006d
ff8d
0010
04af
02ae
fd18
041f
0588
026e
06bd
0178
04e6
03fb
01f2
0212
01f2
fdd9
ffd6
ff49
ff0e
0054
fc3f
03d9
fda4
f95d
009d
01ee
0310
ff15
0216
03af
fb4f
fe8a
0219
00aa
0461
fe56
fde9
0200
fc9a
ff3e
fe0a
fb4f
0256
064e
fd62
fe41
fd67
fa10
f951
0132
fda1
0039
0076
0033
fe17
0033
01b6
fcfc
fefc
0110
0234
fea5
fdc0
0486
fee7
fe61
ff76
01ac
ff39
fe37
ffb7
fc78
ffd6
002e
0326
fd11
0367
033c
0582
01a2
0136
0033
fbe3
0773
ff9e
fc0c
0476
010c
011a
ff2d
fda7
060d
0374
fc23
0385
fd23
fe4d
015f
004d
03b3
fd99
fb78
0187
fe02
fc45
0046
0126
002b
ffa4
03fe
0074
fbf1
03eb
00d4
feaf
fa73
fbfa
017d
febd
018e
f78f
0438
fc1a
fd1c
fd3a
02d8
0082
f910
fdb5
ff72
fbbe
01be
ff96
014e
fb10
01ec
fd7f
00fe
03da
0216
fb6b
0615
038d
fd3c
0045
0116
fa07
035a
00cd
fb28
ffe1
ff9d
0570
01e2
01c3
fe9d
fe35
fde0
ffad
0002
fec9
0028
0347
063d
ffc7
fecb
060c
00a6
ffa4
fbf8
f918
0195
0065
0205
03f4
ff22
ff0e
facd
fd3d
0017
ff9f
ff04
fc50
feee
0050
020a
ff99
fc80
002d
fc8b
ff95
fc35
ff7b
fe00
fea6
02ec
fd99
00e1
f9b1
024c
03ee
028b
00eb
fde2
fe62
016f
005d
03cf
00ce
001a
029b
ff35
ff46
032d
02ec
0539
0251
0428
0053
fdf3
f932
079e
01cd
fda4
fc6b
fc66
0152
fd7a
fb1a
fedf
fe68
fb77
fa51
03a2
ffa2
0339
fe1b
016e
0227
0054
00aa
04bc
0112
0275
0277
0006
fc5f
025c
fcf3
ff49
fdd2
fd96
ffba
fc9d
0461
fd53
fcb1
feef
063a
0031
fc40
04bd
fda8
fc08
fd8c
fef1
ffec
03a7
0279
03cd
0258
00bb
fdf6
fa88
036e
fd60
0169
01e7
04d2
03b8
fb5c
fee3
ffc8
fcc8
056c
0549
fe73
fd4a
fb16
00d3
ffd2
0235
fcfe
fe05
fc40
fe3a
fdc0
fff4
03cb
fa3c
fd66
0158
fab6
f8fb
ff73
011a
029a
ff37
04eb
0284
03d8
0299
ff0f
0584
011d
fde0
02b1
05e0
ff10
0253
fc43
0239
01c2
fdce
fcd8
fee8
02ec
0446
ffa0
016b
01b5
fc55
0269
fb1c
03d7
fedd
ff75
ff8e
fb35
fe08
fd04
0837
04e1
0001
fbb2
fd75
ffb6
0865
fb54
008a
ffc0
fd46
014c
05ea
01ce
f91f
fb4b
06f1
0325
0124
fe80
fb44
fe6d
ff83
fd05
0089
ff4c
01e8
03ae
02ca
fe66
fd39
fa57
0328
fb44
02ee
feb6
fd40
03e6
fdaa
fdf0
f933
056d
03a4
05a5
0381
fff2
fd96
0513
0018
0192
028a
fe7d
feb8
fce9
f856
fc59
059a
fd9e
ffa2
ff8f
010c
07a5
0264
fd79
0150
fca9
fd44
01bc
0282
fd8f
fd91
fb34
ffd5
fc8f
01d5
ff23
006e
0546
01c4
0564
0047
fe8d
0642
fecb
ffbd
ffae
018c
fe95
ff1f
ffdc
03ea
001e
0501
0292
fd78
001a
fe4d
fe01
0147
01b0
fc2b
0379
0153
fa08
fe5e
03d4
fb49
feac
0209
ffe5
0012
fba9
fa46
059b
011e
01ee
0345
fe8b
fdec
fa71
f8cb
04dd
fe83
00e4
fcdb
fd89
01f9
fde1
0078
038f
054e
ffc2
009d
fb7b
f7cf
ffa8
00a1
036b
fad9
fdc4
0570
0238
00bc
026e
fdad
050b
fdac
057c
fad3
0029
fe66
0155
0061
ffe7
03f2
02c1
0880
ff89
0113
04e7
040e
03c8
0083
fbac
0140
f96a
f9c0
014a
fe55
001f
05e0
fff7
013f
077b
00f8
02cc
0378
0250
fd03
fd20
016a
025b
0012
00f1
0187
febf
ff15
0136
02f6
0306
0359
feb7
03a7
019c
fb2c
02e0
06e4
038c
ff53
fb05
02f2
fc46
0366
0184
fe7a
0596
