f43a
f3af
0a80
fbe3
0043
f3e2
0a78
f679
13a9
ea3c
d795
1d43
027f
04a4
fca9
170f
b9a4
1041
0b34
f9d1
f9df
ff40
4208
1409
d5b8
0865
ee16
0f29
fa89
1d85
f7f0
f9b6
0c93
158b
19c6
0cff
e4a8
f6b9
05a4
08e2
f5ad
e637
efd9
29ce
f796
c9dd
0752
f88c
de95
fee9
0a55
280a
0aff
1de4
d0fd
e693
e5cd
fd50
03ef
e7ed
e9b6
025e
e0eb
0c61
02da
d3d9
de78
04b2
0f8c
f22d
2c15
ffcf
deb8
1860
ea6a
181e
e0a6
14d3
015f
16a0
12cf
ffff
0f72
09b2
ef62
2445
fd9f
ff69
123d
b851
e055
226e
dcf3
2621
fb4f
0b55
0a6a
f450
0ff3
faa9
214b
cbe1
f0a0
155b
e87f
0c85
0276
ef98
0bb1
f676
1ab2
1069
f1ff
0cb6
0c04
f315
02dc
1220
0cde
1fed
d85c
ec98
0a00
26ff
08f4
0e4c
f508
00c9
1645
1b01
d547
f9bd
0f05
0d09
ff2d
1025
28f9
ece0
0542
142c
ea33
0ade
f87c
0b57
e0d1
008f
f108
18ff
f332
e576
eb31
e094
fa26
f7f7
df02
2bbb
1303
f19d
e0b1
1093
1cb3
16ca
14f0
0822
f908
fddf
01fc
fd9b
3040
3725
d4fe
ed91
d45d
f91e
1706
fb11
f63a
f9be
f87a
f242
18c0
02f7
c241
f68b
e6b1
e91c
eb93
02ab
f4c2
ebec
155c
0340
e05d
1d3d
01c4
164a
2610
2323
e07b
f7fe
fd5b
1576
091c
f082
ef5d
2abb
0e53
f784
150f
0e90
f413
1bcf
30f3
dc19
0c11
03d6
0b7f
1c6b
e5f1
fdad
0d54
1d94
02ef
1e8d
0353
062c
f46e
ebdb
0ec3
140b
ed86
0337
05bd
1953
071d
f6cd
1251
dbd7
0396
e829
0b39
e1b5
f4b1
0460
00b5
3399
01cd
1634
e462
eb8c
e083
e428
075d
dc3e
cfba
d0e3
