05f9
fe49
fd75
fe3b
016a
022a
ff34
0254
0491
0040
03a5
fe72
ffa0
035e
049a
005b
fe48
014c
fb0c
04a7
0337
fe91
fbd2
fd98
07c3
03e0
fdda
0307
0221
fd09
fc88
00c7
042d
fe3a
fad3
f968
fd78
fa45
fb26
fdf9
0827
00c7
f9c9
021b
0126
ffd3
fcfe
fe84
035c
0264
038b
0137
0187
fd7d
fdb8
0031
07bb
015e
0150
02a2
010e
ff21
fe88
fec1
01a3
febd
0378
fec9
01ee
f7e2
01fd
fcd3
0036
0191
ff3c
fc52
ff72
ff98
0342
fd80
faf0
fe71
fdb9
00bb
011c
feec
fd4e
010b
00db
fca8
0622
03bc
fbee
0074
ff80
0345
0128
017c
fc97
03d9
ffb2
ff1b
fc8a
01fd
ffc4
ffc6
f9d2
02c3
fe54
0372
00d2
fecd
fa04
fcf1
fd7d
0258
ffad
003b
ff9f
fce5
fedb
fa51
0021
ff2e
ff86
0560
fee0
fc72
00c1
0382
00f7
0252
fea8
fe31
fd99
005a
012f
ffef
fe84
0118
fe1b
ff25
fb84
0050
0396
fd2a
01a1
fce1
02a7
0127
0058
fe61
f97e
01fc
0178
0450
ff0e
0314
0169
fd32
02bd
011c
fea9
0142
fe2a
fdd8
03e9
083e
fdcd
01cf
fb89
fd51
0413
002d
fd07
fa54
fdc5
fbea
ff5b
028e
fe2b
0259
fef8
fc4d
ffd9
04b9
0125
fef4
ffac
0031
007f
fc73
0554
feec
fe8d
0230
02f8
fffd
026f
fe00
0199
0411
ff18
0258
020a
fc0b
fd72
002e
01b5
ff78
fc7a
028e
055b
0283
f6a5
fcd6
028b
faa2
fbeb
00f4
021e
0251
fc45
03b5
0218
0161
fd3c
0435
fe15
fc9a
fc21
ff81
0343
fe95
0425
0310
fe49
0344
fd62
010c
ff03
0216
fec8
03b1
033a
02f6
fa8c
02f3
00be
0085
fcea
03c9
013d
fb3f
f990
fca0
fb27
02fe
04bf
ffb9
fc4e
002a
0147
01ef
fd94
ffff
04d4
fefd
01d9
fec9
ff12
fdb0
fd23
014b
0837
04f1
0485
0012
fffe
05fa
0282
0145
069a
fd88
fcbf
fbde
0273
05ae
0264
079a
00fd
faf7
fe3d
fa83
0001
fdcc
fe07
ff02
ff5b
fd98
03e5
fef3
fdc8
06de
054d
03b6
03a4
004a
fd57
fd39
03ab
fed3
fea6
ff09
ffbe
fe3d
fd21
00e4
04aa
f8b1
fd0d
01c3
ff8f
f9ef
fd97
024c
ffbe
04fc
02f5
0281
fd5b
023f
0366
ffe4
054f
041f
070d
ffe9
ff3c
fd4a
fd97
0242
0029
fd4a
fac2
0095
0189
ff28
006b
ff77
001a
0190
ff07
04b5
00ae
00ac
faa5
feb1
f9ef
0393
fce5
01c7
fe4c
0285
fe72
00b0
fe4d
ffef
020f
fdbd
fcf9
022e
0193
ffec
02d6
fa64
fddb
fd2e
000e
ffe1
ff69
ffe4
fe8c
043b
0623
0063
004b
ff2c
024c
fe4d
fcd2
ffdd
01ef
05f7
fdd8
03e7
fe72
ffde
ff0f
fd81
022f
ff8c
00b5
fae0
fe2f
0299
046a
fe94
fd41
0533
003d
039d
fe7e
feab
fe7e
fdbf
fa5a
0205
00eb
006a
01a0
ffb9
ff48
0352
0075
03b8
01ca
0332
03e6
fed9
0133
042d
fe05
fe39
fddd
fe75
0461
06ca
0331
01db
00ec
fd9d
0254
04ab
ffb1
0263
ff71
fe8f
0031
fc43
feee
fe2c
0042
02bc
0166
035b
0208
0376
01dd
0592
027b
fd22
fd66
02d5
f9c5
0110
02b7
ffad
002f
01d1
fd03
febf
03b4
fd16
fa76
02f2
fecd
fe63
fc14
0423
0104
061c
ff70
0126
00b9
005d
ff9f
0322
0127
fc47
02fc
ff52
0757
fef9
02da
0155
ffa1
fd5f
fc71
01b0
fb65
023e
00f8
fe5a
febc
0158
021b
0204
01b5
ff65
fcfe
0147
ff76
0045
fca9
fc01
000f
ff03
08b7
0202
ff12
fe29
ff01
fd5b
00c4
fbd6
fb57
fdb7
fdd2
f898
0015
00fe
fdf6
008c
00df
01c3
0296
0560
0647
02e8
0071
ffcc
01cf
0162
fe39
fde0
026f
fad3
fe63
008a
fef9
fb30
01a6
017a
023b
0350
014f
fca4
fbf3
fb98
ff9f
fefa
02e9
034c
f9c1
01af
0599
0029
0088
fc64
ff96
01f2
030d
fb47
ff43
fd97
014a
007e
02bc
f917
00bf
049e
0280
fdc2
00dc
fea4
fe02
03fa
009c
ffde
fe5b
0033
fefb
0352
fef8
ffcf
0328
01cd
0081
03a1
01e9
fdda
0196
0256
fdb9
fe26
fca1
04a0
febf
0160
02b4
fb46
0842
03b5
fdab
fd06
0454
0581
0183
fca9
fcad
01df
01af
0316
fef8
024b
fc0f
fe70
fe9f
0023
00d0
00fb
f942
047b
fdf4
0088
0020
0410
0078
0227
00a9
0067
0217
05ac
ff32
fd6b
fda9
05ab
ffb4
fba5
fa66
f99c
00b9
01d4
fe82
00ea
04ac
fe27
00f6
0430
fa6d
ff0e
0000
02c0
0224
ffa9
00b7
fd72
fafd
0928
f9f8
0408
ff6c
032f
f923
ff6b
fe36
0065
fff4
fe1c
0317
0045
fe7d
fd3c
fbe6
fc14
0622
fe50
fe64
0540
fd16
ff98
02c2
f896
f9b7
fe30
ff5d
fe08
fff3
004a
03ff
0237
fdc2
ff4e
047a
007d
02e8
fb1c
fd6f
008b
0245
fda5
0070
fc43
02f2
0324
00d3
0460
ff9f
fd75
ff4c
fe26
ffc4
fe89
0506
fcc7
0247
0208
ffbc
0205
0225
f720
00e5
fd8d
fd9b
047f
fe6a
00a2
0479
ff78
f9b5
f9cf
f97b
fe5f
00f6
040a
00db
0497
ffc6
f9e0
feb3
0027
0049
f8d6
0191
0575
034c
fc83
fd35
ffb9
03fe
fb7b
0496
ffa5
fda8
0160
fdb2
0048
026c
00b9
00d8
0127
017b
fdc8
009e
fead
05fd
fddb
0402
ff99
0214
0191
ffe3
00cb
