0223
015e
fec5
ffbf
f8d4
ff52
fdc2
0634
ffda
01d1
fe75
016f
025e
ffd1
fe28
0144
fc50
fa3a
fda3
000a
0565
0323
fbb1
ffe5
007a
0328
08a8
ffd4
ff1f
ffa8
fe61
f8ad
ffc1
fcbe
ff00
fded
ffe7
0193
04d3
0176
012f
02d4
017b
fe40
fa7a
051e
fd6d
04a2
0003
fe21
003e
069e
ff99
06a9
fdd9
01c4
032c
0125
003c
fe5b
024a
0156
fa80
ff21
fe97
00f9
02f4
faba
ff12
0104
fcd3
0201
0443
0615
fa64
060a
fbd8
03f8
01a7
010c
fd33
fec9
fc3f
fe4d
fcd0
0253
fecf
0185
fadb
fd62
fc67
fcc4
fe8c
fcee
fd84
0258
ff1f
007b
0641
0433
0255
ff67
001d
0130
0075
006b
f8a7
049f
01f3
01a8
0406
02d1
fcd8
ff64
002b
fee4
029d
fc55
fe12
05ab
facf
fd4f
fc8e
fd3f
fe27
fe24
fea9
00b1
feb6
fe14
0005
fee3
fe4a
00b5
0040
fc9e
fcf4
fd42
fd81
fcde
0297
f9b3
ff68
fa88
facf
02ac
ff89
0134
0029
fdcf
fda5
03e5
0119
f7a0
0078
0002
00f5
01d4
fe2e
05f3
010e
00e0
0170
01ae
0003
0095
00ad
f86f
fe18
035b
f763
ff62
fbee
fcdf
fb8d
0233
ff0e
0295
01d7
04b3
fba8
fe19
003a
fd00
fdd0
ffe5
0390
0319
ff02
04eb
03fb
fcff
fb12
0026
fd91
061d
000e
fb3c
fe1d
ff00
f93f
0096
ff7f
fd3c
0085
06ba
fba5
fbd3
ffce
fefe
0025
0109
03a2
ff2d
ffb3
fedd
ff8f
ff4f
0086
05cc
041c
fe25
fe1c
0108
03a2
014d
ff6f
0263
feee
fc3d
00a1
ff80
ffc9
fe5c
fd2b
fe4f
022f
fe89
0106
f7e9
0406
043e
fc84
ff59
0374
033f
01cc
007c
0440
fdb8
0671
fe6b
0208
fff7
057f
0105
002c
0034
0442
0601
0157
04cc
05c1
fdb4
009f
0181
03f7
05a3
fc12
00b1
fe37
ff66
fe48
fd34
0321
fde3
fb57
0365
01ec
ffb0
00de
fea7
ff98
02cc
031b
fa6b
039c
fe22
fed2
0127
0688
0520
fd58
fe4b
fd9a
02df
fd36
03bd
ffa4
038c
f692
fbba
011b
0055
0598
0431
05a5
faad
019d
011e
0598
f97a
fe29
01fc
ff5d
00ed
02ac
0524
013a
ffe6
fd64
0159
ff55
01c2
f9ba
feaa
001a
fcc2
01f0
ff65
ff7b
fe5d
000b
0262
0107
0039
fa44
04ab
f987
fdb4
001d
07c5
026c
ffd5
0491
fc5d
fddc
007a
fd7b
025e
07ab
fc77
f623
03b9
03c6
fde1
ffdf
0032
012c
00f5
01ea
ffbc
fcbb
059b
fcc8
ff9a
fcea
fc15
0285
0043
047d
ff47
fc79
02ea
fe9e
fac3
fc6a
036c
fd5d
02fc
fef8
0348
fcce
0200
fd0d
00ec
0239
0277
00d9
fe11
012f
fe51
ff9c
022c
00d1
fdae
0018
012f
fccb
ff63
0569
fe27
fc7a
fd38
fef9
01d0
ff69
fdd4
017b
f962
01dc
fe35
0107
01ed
0109
031f
0039
fd04
008e
040c
048b
ff1c
00ba
02dd
fd35
0040
050f
02e8
0124
fd5c
0473
026a
fbcc
fd90
0311
014f
fa46
fcdd
00be
0182
0778
04b8
fa1f
06fd
fff9
fe37
ffc5
06ab
026a
fb7d
fc7d
008d
fb8f
fd1b
0357
02d6
03f4
0138
fa27
fc6c
0078
f9df
0336
0323
0024
0727
ffec
0406
009d
fee8
fedc
0366
ffae
fe1d
feca
020a
003c
01b2
00b1
00d0
ff31
017f
fbfe
043c
ff19
0001
00eb
ffe7
02ce
f9e1
ff5e
03ae
00ba
f733
0115
fcbe
00ef
fd27
038e
0395
0406
fd00
007c
fe4e
0074
ffae
fe7e
fea8
ff16
fe21
00bf
0417
ff43
02bb
fd5c
faa7
f90f
0593
0141
ff2b
feba
fdd3
0432
01dc
fed1
ffd3
00cf
0226
fd58
fdaf
faa1
00aa
fbf7
fc36
feec
0256
019f
00ed
002b
fee0
036f
fcbf
0556
0078
fbc5
01eb
005d
fb09
ff6a
031b
0117
0040
ff5f
01bf
fc5b
fe63
fc88
fdd6
015f
feab
fc46
01b5
007e
04b6
fe24
009b
ff7b
fbe9
fcde
013f
fff3
ff46
fe18
0399
04c4
00b0
047c
0378
02e9
fdb6
fddd
03da
ff1b
01f7
0469
02a2
fef5
ffa0
fc3c
0221
077a
0079
0434
04b0
fc76
fd49
0256
050b
0118
ffee
fed5
027a
fe78
ff56
002b
00f6
0053
02bf
0554
0479
0156
fda9
06b5
05c1
0080
fd38
024f
fd1f
fccd
0018
f8dd
ff43
0106
fed2
01c1
ffb1
faee
fcfe
fe16
ff02
fe0d
ff02
fda8
0a15
00d2
ff23
fe06
f9ff
020f
019e
fd0d
02ce
04f2
fe8f
00c8
ff39
faa2
04e5
fed8
0208
fd5a
039e
fb9d
00a3
0055
0397
fbec
ff1e
012e
025e
00e5
ff9a
0256
00f4
ff19
fd66
fd11
0237
fabe
fe92
f87e
fd3f
fb7a
04c4
fe39
fc08
ff96
0168
0314
0279
006d
0291
0131
fb6c
ff25
fe67
fcbd
ffdf
043b
f785
05a4
058e
fb9d
fd98
0223
ffed
fc70
00a2
042e
ffea
012d
035a
fcf1
0067
010c
0043
ffb8
0047
ff2e
ffdf
fc57
fc80
0294
0273
fd46
0406
0370
006f
f98c
fecb
fc99
03d3
008a
00b0
ffdd
f988
024d
feeb
022a
ffd9
fa9c
0567
0047
fd68
04c0
fa14
ff01
fefa
03a1
0751
00f9
fe55
fe7b
065c
fe7f
02bf
fea0
00fd
fbd6
0039
0129
0169
0338
0287
02c4
02a9
fdf4
0018
019d
03d3
fec1
0654
feea
013a
ff2d
00f3
fd06
047e
fbb3
02e6
060b
fc83
02e1
054c
0042
fcc1
fe59
ff4a
03d4
fd34
072e
026f
03ad
01b0
