026b
1df8
ee39
ffdf
1a56
1bd8
07e2
106b
117e
1e6b
0288
d740
e72f
c9e6
dfd4
e840
115d
ed7b
feef
dd43
f280
fe81
f3c7
faff
2988
10ec
fd1e
02c7
fe4f
19f7
f347
05f6
094a
fd1e
0686
f77e
e1ae
f5ea
0ee8
0403
0353
f635
0c2e
e680
f04c
f508
0488
e59b
c046
0319
0446
0cad
188b
f73e
f1b4
fc8d
0d27
2a72
0437
eca3
21f0
1e76
0cb0
d73d
e6a6
ea39
fe9a
ffc0
f2aa
1b6d
01fc
170b
18ef
11e8
ea1d
0ae0
0a35
fbf8
0224
043c
eb03
27be
11bd
1b77
02d3
ebe3
10e0
20e9
eae2
3093
fcbb
dd61
107c
efa6
d82f
0beb
fcd0
f1eb
c1f8
0477
0f23
0b1e
da23
f7e5
0859
2011
ea5d
10a7
f9c1
0d1c
fb07
02a7
d7df
15b6
c90d
0657
f13c
ff01
02ed
1118
fbba
1c2f
f338
e54a
ebdc
0177
f694
0301
ffa9
1273
0dd4
11d4
034f
0924
f849
f392
13fb
3342
f046
35b3
bc5f
1489
125c
0f7f
1dc7
0719
00ad
f4da
e526
2361
10ed
ed94
f40e
fcfe
038f
fc2a
dea3
cccd
0594
0228
ed36
fc2d
4c8d
ec13
ebe5
1cf4
0a92
f8ab
0817
09c7
32ab
2883
0fff
0543
05ab
0729
22e5
1d77
0c32
1137
06f4
f304
fb38
13ee
e1fb
f094
14e2
1adc
0f3d
fb19
d993
206c
fa78
3dfe
f82e
e81b
3576
130e
e7c7
dc1f
f5b5
2182
00ac
f720
ef3f
f741
2252
f205
1b3f
d8f6
e101
fd61
da92
2b39
c251
f3da
0e76
14b9
ef7d
146c
fda3
1d7e
062e
0fa0
0b38
eae6
0dd5
e498
e5ff
e839
ee7a
1807
fb5d
18c0
fa94
f92f
d8e3
c190
f3ca
d9ae
00c2
0ace
19dc
e83a
1643
d616
f308
02bd
e5cf
0806
eb6d
3d64
0eb3
ec69
ee33
f9d6
