0369
fe87
fa24
fce0
fc25
00e2
0136
fb18
ff4b
02f5
fca9
fab7
0409
0169
ff0f
0156
fad1
f98f
fe06
fb78
fb7e
0599
ff7b
02b7
ff95
0016
0343
ffda
079a
ff93
01d4
008f
fcf7
03f1
0350
0308
fd2a
feb8
fb93
ff16
03ec
fda2
0219
ff99
036e
02b0
fcbb
0458
036b
ff42
0224
004a
0180
ff0a
ff4e
072e
ffec
0055
027c
fcb5
015e
01c0
fdc3
0396
ffa1
fb0d
0027
0188
fbbb
ff55
fc94
0037
fb18
019b
04d0
fd26
fe2e
fdc4
01dc
fb13
ff40
fe71
fafd
0108
0513
fbcc
0337
fc72
075e
fd4e
fcd2
028b
04cd
022f
005c
0302
fef2
05fd
fade
0565
f9b2
04be
fe28
01a2
012d
05ee
02a8
fd14
0458
05c8
00f0
f9d8
ff83
fd44
02ad
fe4f
04bc
0138
fe9e
01ac
00df
0448
023e
0030
04d2
008a
fc80
fd40
035b
faf0
0504
0042
fe4b
fd87
faa2
fc85
ffec
fe3d
0044
fc70
ffac
fbd4
00ff
ff40
0307
feb5
0464
02a8
feeb
fbe6
fc92
0253
0430
0185
ff7b
01aa
02a0
fcdd
01ce
00e3
0149
03a5
0361
008f
00ba
0268
ff3f
0284
03fa
0440
fdc0
ff21
fca0
ff5a
02f5
ff27
febc
050f
0348
ff11
025e
0336
fff1
feb9
0273
ffea
fc8d
0295
ffe2
00df
ff70
fcd2
016e
feaf
00c9
02b0
048d
fb9c
fcfd
0153
02ee
0372
0433
008b
03a6
011d
00ba
f68d
0228
06ed
0212
026d
ff66
020f
0117
01cc
01df
fe5e
02cf
008e
019b
fa99
fd4d
016a
01be
0198
fe1a
fe0e
03c7
fcd2
fe44
ffb9
fc82
0134
ff79
02ec
fee2
ff1b
f834
f7fb
0148
0462
034a
fe71
049a
ff02
fdcf
01bd
0202
0253
0513
fea2
044d
01b2
fe9c
021f
ff8d
0246
fb72
02ae
06a1
fc81
03d2
ff7a
0401
fd9a
01db
088e
013b
fc4b
05df
068f
05d2
fd39
02da
fce1
00f7
0160
fa61
ffb9
fda4
ff62
fdb7
fdf2
02de
fdaa
ffbb
fda3
04ea
fec3
01e8
fffb
fb37
ff30
fff6
fd68
fd1c
0063
ff14
ff05
0194
ff79
0103
fdbd
fabf
0228
fee8
024a
002f
008c
fb6a
fff8
02c1
00df
0019
fdaf
0443
ff2a
0694
0112
fbba
01dc
fd77
ff96
00ca
0232
007e
0037
015f
fda9
fdb7
ffcf
ffbc
02e4
00f2
0211
04a3
fed9
010b
0029
fe80
00db
fdc4
fcf6
fd31
010a
031d
fc59
fe3a
fdc7
fe20
fa7c
fd05
fac3
fd7b
01d6
0484
fd59
02ff
0443
fee0
fcd8
ff4b
fdd0
0538
fc1f
0159
00d0
01a9
fe70
003d
fd32
fc72
ffb5
faf2
ff57
fcc6
00e6
0300
00e4
0078
05f1
fd03
013e
02ae
06c1
fd6e
03e7
fbdd
00e6
fbcf
fae5
027c
020b
016f
fdd2
fdf9
fbdf
0061
fd84
0348
fb81
00f8
025d
fd40
ff43
fd39
fee0
f815
018b
ff34
fe73
ff5c
03d4
fe8e
fea8
0534
0374
fe92
0145
021b
feb8
000d
001f
011a
fe72
fbc4
01f5
0014
ff33
fe7f
00ce
006a
fa1b
0623
050a
0578
081a
fb11
0241
fe22
feee
0569
ff04
023b
ffdc
01d4
0242
ff0c
fe20
f58e
0574
fe7c
ff70
fe76
fe4c
fc69
fea9
067c
fed7
febd
ff97
000f
030b
0266
014a
fddb
fe7f
fe74
fc84
0491
ffd3
065f
fe9d
ff84
ff44
00db
f7bf
00e9
fdd2
fb9b
fe0b
fc1b
fa7e
0080
0012
0468
fbc4
037d
00dc
fb5d
0406
fd46
00f7
fedd
fc50
00bb
0273
003a
fde5
029b
ffd8
004d
faec
fd72
fcb3
fe67
037a
ff08
00cc
047a
04bb
ff4c
fcfb
f82d
03eb
01ab
ffa2
011d
fa21
06c0
fe61
fd53
ffb0
fe81
0453
fef9
0125
fc01
ff09
053a
fa8d
01a4
fce5
fc9c
fe27
fdfb
fb1d
024e
fe06
0101
fd9d
febf
04d6
fa4f
0055
fe2b
0215
fb21
01c3
fde3
02b4
0037
0177
0025
03cd
ffbe
0228
fecd
fd6f
012b
00d8
051d
fcb0
fd82
ff35
fe9d
0006
0361
ffa7
0164
03e6
fc3f
fcc8
facf
00bc
067c
fd5b
fee9
fce4
fdcf
fc1c
ffc6
02e0
0078
ffc6
fe6b
fe55
fb40
00b5
0062
0405
00e3
0390
011a
02ae
0022
053f
0002
fefd
fe92
0263
007e
026b
ffd9
ff81
0509
011f
fe5e
008c
005c
fba2
029d
ff4d
009b
fdf9
ffb0
0818
0570
01ed
00dd
fcf1
fd47
f925
02ac
fee6
0112
02e1
f9ab
fe06
ff33
fefa
02fc
04fc
fa7e
027b
fdfd
fde3
04f9
fe9d
050e
0376
fb18
fa66
fff0
0006
01a5
002c
fdef
f9b2
0220
ff0e
fd3b
002f
005e
021e
fe8c
fb57
041e
0095
ff9c
032b
000c
fecb
fe40
0217
fc23
0278
fcd9
ff8a
ff3d
0690
fc6c
0268
02c5
00a9
fcd9
0067
00d5
fd44
ff9a
fe0f
0412
01ba
fed4
00da
078a
fff3
ff2c
fdd4
fc24
fc1f
ffb1
0268
fbcd
0087
02ed
0545
0015
fe5d
02bf
00b3
ff16
ffcf
feee
fd40
fd6b
ff69
fd47
fcda
03e9
0910
fbdf
0410
fe8a
ff38
f989
ff3a
fdc0
f89e
fee3
015d
fcbe
0524
0172
fead
f91b
fc97
ff3a
fd4b
0035
f7ba
fa84
0413
ff66
ff16
ff74
04a4
ff58
ff57
fc16
f95c
0415
02e8
0252
02af
ffe6
0216
0418
0066
01cf
fe4c
fc02
007b
fd3b
0383
ffa3
00c9
0310
ff12
fe68
0073
fdbf
0088
0252
ffe5
020b
ffda
fd62
0319
05ae
0555
00b3
039b
fead
fee9
04f6
014e
fed0
00da
fe4a
f6d6
0034
084e
