01f9
fd93
019c
f9b6
ffde
fef8
00dd
feeb
fdd5
fc83
f8d5
0005
0117
feda
03d0
0403
fd75
fdb6
fff6
05ff
fe4c
009a
fa6e
0305
01fc
00bd
013c
012a
02f9
02b1
fa47
fef4
ff69
ffcb
f6ca
f640
0077
fb5f
ff68
f898
0224
0167
00ea
fd8f
fe0a
fd23
fe37
fdb8
018f
00fd
fc18
049d
fe3d
fe79
ffa4
053b
fc24
fc8c
ff30
ff51
0259
0263
ffc0
031f
00f6
03b6
fc3b
0046
0240
fc3c
fd6c
0231
005b
ffb9
0212
00ee
0309
0204
f9ef
fff6
0117
045a
04d8
ff30
02da
ff4d
03ab
0266
fd77
0358
fccb
037a
00dc
fc4c
fc8a
fcd7
011e
ff64
00a7
fbdf
05e1
ffa1
01ea
021a
05c0
ffd6
0299
04b4
02f6
0024
fea7
fd4e
0128
feaa
0545
fe59
fcc5
0038
01f1
f9cf
019e
ff98
002d
ff6d
fe1d
034d
fec2
023f
052a
0119
fa20
fbec
0139
01fa
fe52
01bc
010c
fdcc
fe9f
fb22
fdfb
0061
0059
ffa7
fe2c
02fb
ff42
012b
0351
fea1
fb20
0015
00a6
03dd
0059
0115
fe74
0299
0113
00b4
0505
06cf
0017
fe68
fe40
01c8
fcc1
fd20
0014
ffec
fdec
fd80
00e6
ffd9
fdb1
03a1
ff5d
fe7f
000c
0072
fe98
ff7f
0270
0175
fa62
02ee
02e4
fd9f
02ef
01a6
02c7
03cd
ffb3
0867
061a
fb34
fe07
0137
fa78
fa64
021b
0301
fcbd
fbe6
0147
ff2b
068f
febf
fdd4
03f2
03e7
040c
fb3f
fb88
00eb
ffdf
0161
ff40
fe52
ff14
0033
fd0b
ff32
0461
fb51
041e
03e8
ff6a
fa8d
0130
0051
0459
0025
fff1
fd54
fc75
fe27
00e4
fd96
034a
02d3
fd48
0217
feb4
053b
fed2
fe73
fac1
0347
064c
f92e
0450
f962
01a8
0171
018c
fc64
01a3
003d
feae
01bd
0459
010e
0630
fe6f
044e
0007
fe53
012d
00d1
02d3
0589
ffdc
fc55
fcee
ffcb
ff2f
0090
045b
008e
fbb6
02a5
fc5f
04fd
fd35
ff28
f989
fca2
01e5
fffe
ffbb
0001
016b
fef0
0209
fe52
02ec
00dd
ff11
fd13
ffb9
ff69
fc3e
0214
0476
0108
ffd6
fe54
ff0f
fe88
fbca
022a
0623
0052
02d0
fd2a
ff39
0260
fdc3
034a
fc55
fd54
ff41
033e
0925
0303
fad7
04ff
fcfc
048d
00c4
fdcc
fdae
025a
01f5
03e6
0430
fd0e
00a7
0676
fd59
0361
fe65
fed8
fe97
fcc0
fa37
01a1
fea0
fd74
fee0
016b
fead
fd8b
058e
02b9
ff72
f788
04e5
ff92
00fe
0406
0077
fed2
04d5
0429
ffea
ff5a
fe18
fcc1
0170
0068
02bd
013b
0194
fb44
fc04
fea9
fb63
0383
021c
01c9
feec
029b
ff4b
ff1c
fcf7
02f3
fac5
fd7b
01c8
0299
0190
fddc
04bb
f90d
fa7d
0577
0396
fe22
fde8
ffa0
fef7
003f
fb0a
ff34
0292
0109
fef4
0462
04fd
0131
fde3
022b
fd0c
fcf5
00ce
fdfa
ff46
0490
00b6
01ba
0287
feee
ff86
0525
0201
ff65
02be
ff8c
0201
fc6a
03e8
fe02
003f
04be
fe4f
03aa
00ab
fb42
fa15
fe7e
faaa
fcf7
fbd2
fd60
fee2
0086
0040
025f
021b
00f5
fd09
fdc7
0024
f888
0008
fed8
0387
000a
ff0a
fede
ff18
fe5c
00a4
0027
006f
00b5
03b3
015a
019c
011b
0080
ffae
fe29
032f
02cc
0044
03dc
fae5
007c
fd45
03b4
0103
fd67
fce3
fb9e
ff32
fad8
01e1
fe48
0092
01f1
012e
fd78
f8da
feda
ff27
fbff
fcda
00b8
045b
ff16
011c
f995
fdfe
fc07
01fb
fd55
0124
fd12
00dd
ff06
02aa
04ae
0104
00f3
fe68
0075
041a
ffe2
ff6c
053b
fef5
fd64
00fb
fbf8
016d
0321
ff92
0068
f98f
f830
fed0
0132
fdfe
fe68
fca6
0059
00e9
fe34
fcca
fbfe
fd7d
036d
ff54
0238
fe82
0196
fa7b
f7f7
02fb
fbf4
0187
fe94
fb3a
0038
04f3
fa2d
0006
fd64
fe04
0194
fb43
033a
0699
ff4a
fe9c
00d6
00a2
04a9
fab4
fe9a
fef1
fbfd
fc68
f9dc
0173
ff88
fa0f
ff5a
fede
0113
01a7
ffbd
00c0
0180
0140
fe15
fc32
0081
fb71
fddd
fefd
ffd7
02f4
00ed
00d7
0362
ff7b
ff7c
fe15
05c6
02fb
00e9
fe27
fe09
0341
0249
0118
0137
feb6
ffdf
082c
00f8
ffab
ff14
0179
fbdd
fca3
00ee
ff2e
fbd8
ff59
03d6
fd06
07d6
0117
001e
0101
0035
0095
0586
04a8
0205
0099
ffe0
0234
fcae
0107
040f
fbc9
fe3d
ffde
fff3
fefb
00af
f9f7
feb3
03ab
feb9
ffa3
f9c4
01f4
fbfa
00b8
011d
fbc7
0254
ff0e
fd1b
ffaa
0312
0055
01c9
fb8c
01da
0506
ff83
020b
010c
fb7e
026c
007e
009f
ffe1
0355
0069
fd9b
017b
fc28
fc68
ff68
04d9
fdf8
fbac
0328
fd80
fffe
0043
0146
0085
0142
00b8
01f1
ffae
0178
feb9
0238
fecc
01cd
02f4
fbd0
fb8f
fbb1
ff1b
0238
fe38
0174
00f5
01fe
fdad
fe48
0175
f98d
0187
fad8
fab8
fd35
fc37
ffdb
fe63
059b
f944
fe5c
fd7d
ff42
05d3
ffcb
0214
feac
fb3c
ff30
ffcc
0289
ffb3
01f3
0138
fc1c
01e2
fd55
0495
004f
ff07
fd0d
00f8
febb
046d
f9a5
0243
ff7d
0181
00ca
fcea
031e
023d
fe21
001c
faf1
0071
fe43
0892
02ca
0222
ff57
fe65
ff97
002c
fea9
ff38
fd00
048e
04a5
04dd
031f
00ee
0242
01d4
fb9f
0099
0216
fb98
fccb
fc7b
