01f4
04b3
044d
03fd
fb12
fea3
0356
fbb3
0083
fbe7
fd19
fee8
0389
fad3
fb23
072b
fee7
03ca
00ea
fc4a
ff0e
0122
03f4
0259
fd3e
fb5d
0078
0239
fe5d
0ce8
029c
02b9
fbfb
005c
fe29
06ec
f9a6
ffce
ff81
0420
03e1
ff3e
f9c9
0186
fd35
fee0
0091
0412
ff7c
f8a5
f989
ff9b
fddd
0117
feab
fd06
ffb9
fbb3
fbd0
fc39
048a
0196
fb3f
ffca
fe55
fc77
ff3b
0077
fdd1
020a
0125
0266
fec7
0315
0108
ff55
fdbd
00a2
fe74
0359
fe5f
ffff
022b
0320
fe35
fdb1
0619
ffbd
fac2
0559
01a8
019e
ff78
fcc8
f9fe
025e
0037
fa6b
fdad
fc2a
fea2
ff63
02d4
fff3
0459
fd6b
fcbe
023f
04dd
fed7
fee8
0615
00e3
fab5
fd01
0183
ff47
fd7a
045d
fd05
fc0d
036f
0060
ff87
0576
f8d5
01a3
01d1
0230
033d
ffb9
00b6
fdae
00ed
035f
f908
fee2
fdb0
015e
fe45
fa74
034b
fb3a
ff9d
02f7
032e
fda1
ff60
0140
0236
fd18
0195
01ce
0593
0355
018a
ff47
001a
ff39
0058
fe0c
fbff
011a
fc3e
014c
fe02
fcd7
fac0
02de
0225
f997
fce2
fe5b
0139
0107
02b0
fe9b
ff86
03db
0504
0196
01e3
0439
0087
0052
feac
032a
fc90
fe7b
fe33
fbc7
ff87
fe92
04af
0221
0150
fdb3
fe0b
fd45
0287
fe05
ffba
fe28
0229
f9a3
fd6e
0520
013e
00e0
04f3
ffe8
052e
0018
02a3
ffc2
0401
fce5
02ca
0149
fd4f
faf5
01af
0101
0127
0639
fe87
0547
fc6d
fff3
fa3b
f996
fcae
fe61
fe09
ff16
007b
faef
0175
0216
00f5
feb2
fc9d
ff75
ff7c
013c
016b
fc35
002f
ff69
01e5
fb93
00cc
fb22
ff48
05dc
fa32
000a
ff4e
02ca
002b
fab0
0267
0113
03fd
fcba
feaf
020a
fd62
fea6
00fc
034e
fed1
0357
05c0
0000
fb8e
fcba
05cf
ff78
ff46
021f
01fc
fc36
020a
0090
0136
0306
0751
fd97
02cb
0065
fe08
0258
01c4
00ba
048d
0486
08d2
007c
fc1d
ffb7
02b7
02d1
ffb3
0220
ff05
0086
fe82
ff05
ffcc
008a
0145
fd01
0219
01a4
0003
0488
0323
ffcf
0970
003b
ff61
fe99
fde7
fcec
009b
02cf
06d3
feda
046e
fe43
0094
febf
0252
ff64
fef8
0160
f7b8
fe3e
020b
0412
fd52
fcb1
fad5
fdef
fe33
fa7f
fcf3
fefe
00a3
fef8
031e
012f
05c5
04b1
ff2e
fd69
fcbc
ff04
04d7
fd82
01f8
feeb
0779
fc6c
02af
0387
fe4f
03d6
04a7
02c5
0152
ff09
017f
f977
01b3
0567
feb6
ffd6
fcd0
0032
f9d2
ffda
0299
feec
0190
ffad
04a7
fc8c
02c2
ffa7
fdb2
fef4
0567
fb2f
fef0
0428
fe1c
fcd8
0508
ff82
fb6d
0131
005f
0250
fd28
fba0
00c6
fc42
03ca
fbaa
fade
038c
06e2
ff26
fab3
fa51
fd2c
0077
fbf1
fe8b
fa69
0285
01d1
02df
fb68
fa7a
fc18
fc2c
fee5
0325
fdb0
03f1
0049
fbd7
f915
fdc5
ff41
0111
00a9
0105
07c0
0814
02ad
ff63
fecc
fa3e
01be
febf
fba2
fd8e
0334
fd47
013d
ff5f
fe5c
0223
fb70
ffa0
ffea
0106
fe75
ff4c
025f
ff45
03c1
ff34
00ec
015a
01b7
0233
fed3
0164
ff8e
fe51
fcbe
fea2
fdf8
fb61
fb0c
0199
fb9c
f7e7
029c
f981
fe91
0380
ff1a
fa3c
0880
fd36
0103
0395
0615
ff84
03fa
03c4
fe04
ff09
064b
fa41
f9ff
ff80
fefc
fdba
0473
0183
f95c
fd14
ffeb
ff56
04f6
0345
0140
0139
fd73
068c
0629
feb3
f9eb
fed6
0104
01de
fda5
02bf
015f
0331
019f
0244
faa7
0153
0112
00e5
fe68
067f
0404
01c6
06b5
0622
0276
fd83
008b
0067
fdea
01fb
0649
fd3a
f80a
0275
0293
021b
00d8
0022
01a0
febc
fdc4
0613
ff5b
fc17
05a3
fe06
fbe5
ff76
00fd
fe6d
fbf1
012a
f712
02c6
ff3a
fe43
045a
01c9
fc4c
fd00
ff68
00ed
fb60
ffc6
02d9
030e
01a9
0396
fdd0
fecc
00f7
00b3
0200
00a7
ff23
00ab
017a
fd9f
0139
0341
0141
032d
fedc
fdfc
fd01
fcfb
fbc8
fd87
0155
ff19
038e
01fb
0223
0019
0198
fe89
fb86
0a47
fe0a
03a2
0529
01f1
01f1
01cb
05b6
01cf
ff69
021e
024c
00ca
ffaa
01c8
0605
fd56
fafc
ffdf
fc36
fd1c
f9ce
04b8
fd70
ffc4
0305
05db
03d9
01b2
039d
0197
ff3b
01f9
0329
0102
febc
fd25
fb13
0473
ff99
00d3
02bc
0458
00de
00cc
fde1
ff60
fda7
000d
0130
019a
ff27
fd9a
ff42
0209
fcda
f9b4
ff14
0018
fcb9
fd8e
f769
fbea
ff9f
ffab
0182
02bc
fa0f
fcad
fa7a
fcd4
0015
00a4
fdf7
0125
fda6
fe9c
043d
03d4
0005
fc93
ff78
02c1
0161
0179
006c
fd67
0048
ffc6
02cc
feef
ffeb
fb99
025b
0319
fddd
0354
001d
fedf
0071
fc65
047e
03cc
0385
0308
fd9d
01b1
04bf
004c
fa26
fe7e
ff42
feea
ff88
fbc0
ffbd
face
0452
037a
fb48
0437
fcc8
0047
03ee
fa77
ff33
ff21
00d2
fdd6
ff13
0279
0002
03ed
ff1a
fe5d
0686
fe17
03b6
018d
fa5a
ff28
04e2
05bd
faf9
fc20
04d5
fd7e
004f
ff2d
053f
ff22
fe88
fced
fdd0
0138
fd51
072e
03e8
ffa6
fdb7
0208
fc21
00a4
fca8
033c
03fd
0151
03a4
ffe9
04a7
fd30
fe8f
