fbe8
03de
00c2
fae3
02b4
006d
0647
fe2b
02d3
0013
fd2b
fda5
01c1
031c
ffed
01ad
fe1b
fc8f
0376
02e2
fc0b
fead
0439
fe74
00d7
04aa
0111
ffed
fd6b
0325
fd67
0398
05c9
ffac
fc75
01a6
fdd1
fe8b
fd3e
fdc0
0760
fe00
fcf3
fb76
fc64
012a
00fa
fada
0108
0203
faab
facf
0136
04bb
fe29
fcf2
00d4
feeb
fe17
048c
0093
ffc3
fd22
030b
ff1e
0040
022d
fb9e
027a
ff87
018a
01b7
fe35
04cb
fcc9
fd8f
039f
01eb
0196
03fd
0078
fe7f
fd29
0230
fe77
0265
fc8d
015b
ff52
fb06
0433
0837
0360
fd9b
013b
fd7e
0383
03e2
0000
fbe9
063b
017f
01bd
021c
ffe2
037a
032b
fc02
fd93
0218
fb01
fb7f
ff5d
fcba
faee
03ee
0403
04e5
0253
0127
febd
fbe6
fd2c
0125
ff4e
ff6f
07de
fc7b
02a1
fdbb
ff48
00e4
03d2
fa3c
fcf8
ff64
ff66
0139
fc59
ff2f
fbea
0524
00ae
0386
02f7
fd2c
00ab
0559
0147
0222
fdb3
02f4
fccd
0319
02d7
0178
04c5
fe7d
0297
007d
ff1b
0298
fefb
ff0e
f932
ff24
fc44
fe43
fc45
fedc
fd09
f988
033d
02e2
f9c8
01c3
febf
02bc
031c
02c5
fec1
fb59
feac
fe9d
0550
fd20
fd38
0250
fd7e
0195
03b6
0140
06c0
ff5d
fd71
ff96
021e
fee3
face
0288
01f9
ff2d
0337
06f9
020b
fbf9
fae6
fc0d
02a1
00d9
fe8b
fc35
01b9
fbd4
0367
01f7
00e9
fc1c
ffb2
00c4
0077
03e1
0341
0346
fe7e
fe69
fc16
fd2e
fa9a
fd15
fe5d
f845
fb53
fee5
fe80
fe7d
fc1d
03b1
0023
0363
03d6
0015
fb06
0071
013b
ff85
ffc0
0140
fc2c
fcb7
00af
0307
036b
011f
04ad
03ad
fb58
023d
0378
027f
031a
ffa4
0490
0249
039e
fcef
ff59
fdd7
00bb
febe
0029
fc3f
fffc
007b
ffae
05a3
fe56
fc01
061d
025d
fb13
ff7b
032b
04c4
fd80
fe7a
f630
0617
0105
0236
0201
045c
00fd
01a0
fe8c
02b1
ff04
036b
ff42
fe9a
fe23
03ec
fa1a
fd04
fdec
fe23
fd12
ff89
023c
fd43
fb9e
fd97
01e3
fbc5
fc97
fd22
fe8f
02c0
fd05
ff59
fccf
00e5
fec2
fef8
010d
f983
ff0d
0203
02ea
060c
0139
0332
0149
fb0b
0228
02c7
0327
fa2b
ffe8
0233
040b
0197
fe1e
0683
0192
fd23
fc18
fcbd
00fb
fe49
ffe8
fcca
01f2
0337
003a
fa2d
0002
fe00
000f
0061
029b
0409
f9e7
0076
0368
fe6f
0792
00e9
ff51
fc5a
0164
ff3d
0142
006f
020d
03d0
ff48
06b9
0231
fb88
fefb
f986
024d
038b
03cc
01f1
00b4
0361
fcd3
03fb
fe39
0451
ff80
fc38
fed4
02e2
055a
01ab
ff74
018d
02f7
fea4
fe8c
0307
f944
f9bb
ff40
02a2
01ea
016b
febc
03d4
006d
0189
0298
00fd
04fb
fe01
01df
fef8
fb5b
fff3
00b7
016b
030a
0170
004b
0283
fbef
0299
0393
ff68
ff59
01db
ffe1
fefb
fdd1
07b0
02f6
003e
019a
04da
ffcc
febf
0002
fe76
01b7
00fc
fe85
0518
02c1
0153
ffde
0028
0582
fd36
0419
fef3
011d
fe5a
0080
032c
0355
04db
0617
fcfa
0046
fb94
f84f
ffe8
fe8f
003a
fb32
ff62
feea
fe4b
031f
fd02
0520
f988
f98d
058e
014c
0151
035e
ffac
fdd4
0300
fd03
fe6b
0193
fe2b
fc4e
fbc6
03ab
fca1
00d4
fc5e
fe47
ff6a
029b
fdcf
feca
fa91
04bf
036d
fad5
fef3
fef7
0098
00fc
fcfc
fefd
043c
febe
fc3f
ff95
fe88
fde4
ff98
ffd0
fd0a
03c9
008c
fac3
ff40
ff8b
0192
002d
022b
fc4a
f789
fc7e
00b8
fe6e
fdca
fc45
fea9
ffa5
010c
0261
ff88
0115
0320
fc3f
0070
fb36
00f0
fe38
f813
02fa
07d2
04c6
fed9
0234
fffa
009f
0536
fbf6
f821
0182
fadd
fd45
fcbe
fb97
0523
f933
ffa4
0246
0128
fc2b
ffcc
fa57
019b
fab8
fe81
fbf2
0048
00c3
038b
03ef
ff53
ff80
fbbe
0074
f9e3
0374
fdcb
fdde
fab0
fec0
fcc5
0221
0414
fc46
0001
00de
0720
03b7
032e
f84f
010f
02ae
0098
017b
0299
024a
0003
065f
0110
ff39
04ff
07c6
fbb8
0155
030a
0049
f87e
00c6
fe8b
fcff
023a
ffbf
0117
0172
fc64
0611
f955
fd23
fd5a
fc0f
fd7f
fbbc
ff3f
fee6
ff1d
0180
fd73
02df
fe4f
fdfc
0219
029c
007f
fc56
fec1
fd6e
0586
002c
0079
faa2
fddb
feeb
0626
fd91
005e
00c8
030d
01c1
01c8
fef2
0021
070c
ffd5
fbeb
fe01
0329
0026
ffa4
fb2b
fc0c
fa34
003b
034b
fb5b
04b2
fd6c
ffa9
017a
fdfd
0175
00fd
febb
fc86
fe76
fb98
006a
fcf5
0663
fe4b
015f
0339
fc13
ff1e
fdcf
fbbb
fba6
fe55
fdbc
0119
fbba
02c6
fe05
fc45
0179
0100
fca2
fe07
fffe
00aa
fe5b
fe13
fe3f
ffa8
0390
fc0f
00cd
fa4d
fe5e
ffb0
0348
ffc5
0185
0431
02be
fa20
02a0
0301
02d9
ff8e
02ff
fc6c
ff20
018e
0621
015d
02df
0244
02d9
ff20
0578
021f
fe6b
fc52
fd6a
fce9
000c
fef3
0150
fb2b
01ed
fe61
f901
ff44
fd48
0091
0607
0598
06de
fd3a
03d8
011d
ffad
0237
f9e3
047b
0537
fd94
fa8d
fc53
fb25
0743
05cb
fb21
fe85
ff2c
fd7b
fd27
ff00
00a6
fc4a
ffbd
fbdb
03c5
