ff93
f9e1
0561
fe35
00bb
02a5
fd86
06e4
0135
fe01
01a6
fad0
fb1f
03e3
01ab
02c9
fd2c
fdd1
fc04
ff1b
02c5
fb8f
03f3
fdcb
fb51
00fd
00c9
ffcc
fea4
021a
ff4f
fc24
0335
0187
0039
fc98
0124
0334
ffb5
0559
f743
fa94
fdd4
ff4d
ffb4
fa71
02c3
0243
fdb4
fc26
03d0
0127
00cc
04f9
006d
02c4
ff57
01ad
ff0c
04e8
04db
fbf3
01ac
fc60
019a
0323
ffed
fd77
fd86
0186
0011
01ab
ff99
0215
ffe4
fd6b
fa77
0455
ffa6
0045
fc76
fca4
fc7b
fb02
ffe1
061e
0137
ffb3
0379
0178
0751
fe4d
03b7
f8fa
011d
006d
ff9c
ff97
fec0
fbec
fd76
02ea
03f0
03a8
ffe4
ff6d
fdc6
0265
fd85
0009
00e3
f6c2
ff3c
0297
028c
ffcd
0712
fe03
005c
fe6d
fa3a
fcf1
0307
fdf8
fd38
fef3
fddc
fdfb
0265
00b9
02e1
014a
fc81
fc7c
fb2e
03a1
0047
fa39
ff83
02c6
03d6
fd49
fe62
fcfa
030c
02f1
ff92
05f1
062f
fe48
fe6b
feb5
ffb6
fef0
023a
04e2
fd1e
027d
02fd
fd82
ff17
ff9d
fca0
fd9b
04cd
fe72
ffdb
0294
fd7d
00e3
fea8
fdd7
fffb
fc77
fe5f
04f3
01eb
04bd
fec4
fbc1
0295
019d
ff32
0119
fc0f
fa39
0121
fce5
ff5a
ffbd
fe8c
010e
00cf
fbf0
ff96
014b
048f
fc8e
0096
000f
fcb2
00f5
00eb
009e
fcc0
fc5d
fa7d
fa39
ffa9
fe9d
0538
fc8f
013e
0093
030a
fee3
fe04
0237
0501
0010
0017
04eb
ff36
ff63
01e5
05c5
040c
feca
fccb
03ce
04a3
01e2
00c1
fe85
0010
0041
ff09
ffeb
fdba
0593
0347
0085
018a
fff4
02c0
fe9a
0222
028e
01bd
fee6
ff91
fe8c
fc58
fe76
04ac
fe50
fde8
fe39
fff2
ff76
fdab
0100
050f
02e6
0705
fcc0
00ab
04e3
fdf4
01c4
0055
012c
fe71
fee7
fed1
fa22
01a8
0030
005a
01ac
fe94
0160
0251
fef2
001b
fdee
fef4
0191
f9c1
fdcb
0083
fd3f
0073
ff5d
01b6
feea
fb3c
fc50
fc5c
fd20
0177
ff36
0206
fa8a
fc68
01fb
0533
0196
fadd
fe99
ff18
ff63
ff7c
ff28
039c
062d
fff4
04ee
ff15
0200
0192
0265
02e7
02a3
ffb8
fb77
0536
032d
fbdc
0205
00f8
01cd
0149
04a7
feb0
fdff
0012
fc4d
019d
ff11
ff4b
038a
fbde
fed3
0045
03a8
fc74
fdd9
fdfc
fd75
fafa
0316
0315
ffd4
024f
03d5
fea2
fb55
0199
fe79
0061
01a4
fb44
01d4
0294
fb0d
0076
0430
03c8
f76c
fd65
0243
fe6c
fee5
fb20
02d5
fda0
ff1d
ff63
fcd5
fd1f
fbc9
fd48
fcc1
0174
06a4
fee8
031c
0096
0233
03ea
04c6
03d0
fece
0138
0065
fc07
fe86
00e0
fed7
038e
ff2a
fef8
faaa
00ad
fea9
fdf2
0705
016e
ff7a
027c
fdf2
ff5d
00a4
034d
fb18
0177
01a8
ff97
fd12
0380
fc5c
026b
fed0
01ad
007b
01a3
00c0
fbff
0091
0259
0881
01c5
06ea
fca2
f97f
fe4f
034d
fef5
ff13
fdfc
fe84
0116
fed6
fc95
00a3
fd28
fd85
05a7
fd1b
fe5b
05a9
032e
0188
004a
ffb2
ff77
fb5b
01b9
0603
0070
ff32
04c4
f7ec
fdc5
01fb
0349
00fa
ff3f
ff14
008c
ff52
00bb
ff4b
fd55
0205
fdf9
0208
002d
fb96
00fe
ff5d
016a
fa47
023a
fe8f
fb15
ffc9
005e
fd97
0248
0105
0033
064e
fbfd
01a7
041c
0174
0036
020d
fd84
fa58
03ed
000a
023d
0648
0007
ff7a
fb00
ff66
ff85
06e3
faee
00e5
04b8
03b0
0439
fa4f
fb59
ff9d
fddc
06cf
0391
03ec
fee0
fe36
0032
085f
00c1
00e6
fc7f
0128
071d
fd69
00e8
04c2
faec
f8d6
05ba
fc5a
00e4
0115
fcb4
0512
fe49
fd84
0082
fd78
046f
fb88
fb23
fe83
fc42
fafb
000e
0483
fff0
fb89
01b6
016d
0127
03f3
044a
008f
01c5
01f9
fffd
f8e9
0593
fc40
0356
0022
046f
fd48
fd64
fb42
fc79
026f
fb3c
03cf
fd24
fe1a
f82f
013e
012d
05d1
f6bb
01ff
0272
07a2
0090
fff9
ffa3
0375
fe8a
fea8
0688
01b2
02ed
ff5b
0485
061a
0141
0273
f9c2
01df
feb7
fcdd
017e
fc33
fc90
fe11
feb3
016b
02a3
fd4a
0519
ff5a
05d9
fe6c
fc9f
0681
00d5
fb84
0218
0194
ffc4
ff2d
ff53
feba
fe53
0013
ff8a
0359
040a
febe
fd24
0309
f9d5
05c7
ff4f
fb4a
ff9c
03e8
028e
0426
fed5
f8c2
fe29
076f
fc42
0003
fbda
0241
0218
01db
fcf6
057f
0211
fede
0237
ff55
fa74
0145
f884
0158
054a
01b3
018c
fd5f
017e
0016
fc9c
0016
00f3
03cb
0047
ff51
00d1
fd4b
0252
febd
fef5
02d6
fce5
ffe0
ff1f
fc2d
0414
02fc
0450
02fc
019c
fe28
03dd
0128
01fc
0369
0106
fc31
02ba
042c
00d8
f9d6
005c
015e
f864
0140
feeb
0406
00c2
00f8
030a
fcc5
ff6e
f982
0605
0101
fbeb
feaa
0142
01b8
fd24
0044
0231
f912
febc
fd3a
fd10
ff9a
fd42
fe29
0209
ffb7
ffd8
028d
fffc
fbc1
0186
fec0
ff37
fe40
fd6d
008d
fe2e
febe
02a8
03ba
fd6e
fdd9
fbb6
075d
fb77
fbd6
0122
ffaa
feb5
01fe
0188
03fa
fdd8
0792
ffae
fb41
fac2
fd22
00e3
0332
fdee
015d
0120
0188
0015
033d
03dd
0140
ffab
05c7
ff8f
03df
fc24
025c
0532
ff5a
