fd87
045b
ff40
0212
0143
fa7c
fc7a
fea3
fbd8
0082
fd91
fcd9
0414
ff5a
fd10
fdf2
02bd
ff21
fecd
02e9
03bb
0198
fd21
febc
fa92
ff1a
00ce
01a6
00d5
046b
ffae
0119
005a
02c9
ff1b
0036
faf0
fd48
0067
ff15
fd88
010d
f77a
023f
fb3f
ff3e
044e
00ad
fae7
0263
053c
fc16
f881
ffcb
fc67
fdb8
fbe6
0022
fcda
0068
0312
fb45
fcb1
001c
0096
024f
014c
fcab
fc96
023e
fdf4
015e
ff33
0332
00b3
fd47
01d4
021a
f9d7
ff22
fe99
fff9
fa87
fe5f
023a
ff6f
ff18
fbc9
00d8
fed3
054e
002e
ff2a
01ad
fdc6
ffda
f9ba
fecb
ffa4
fc29
01f7
02c0
ffbb
fca3
0011
fefb
f97e
014a
ff18
fb81
f603
04d3
fddd
f897
085c
05b6
fd52
fccb
0183
f72b
fd19
fec3
01d0
ffe4
00f8
fe4a
fead
feda
066d
fdc8
fa5b
fccf
fe56
02ef
fb60
fcfc
026a
ff49
fd0b
040a
00a2
fbc6
0252
fd3a
ff0a
0467
044f
00c4
04b5
02a8
ffc4
01e8
fb76
fffb
fffc
fe30
fa05
006c
03a4
ffe6
01e5
00da
0117
ff4f
0089
0166
fc81
ffa2
fcbc
017a
fd6f
0605
0050
f9e4
01fd
fe99
ff6a
ffc2
ffd4
fe02
000a
0033
0047
fffc
0079
fec1
0525
00fe
fbd7
01cc
fd5d
fea9
faea
05cc
007e
03b7
008f
fe06
ff62
ff1d
01e9
0112
fe71
0123
02a9
fee1
fb8a
0190
ff5d
fb72
ff41
0254
0496
03af
f88d
fc9b
020f
031a
ff2c
ffa7
00a4
fe74
0213
fe22
022e
0062
0109
064d
fda9
01d6
0040
fb66
0139
0393
06d9
03f3
0414
fb59
ff54
ff12
f7be
00e7
f9d1
fecf
fb1d
0452
01bc
ff97
fd79
ff33
02a4
0143
f94b
fe13
0216
01e0
06d6
0411
010c
fbab
fee8
016e
0165
0446
068f
ffc8
0181
0095
0505
0346
0176
fe5e
fd7f
ff53
fc21
fd26
01e0
fe08
fdf4
fee2
01b5
ff39
0430
fbfe
039f
fe7d
0519
ff58
0069
fd5b
fc5b
fbff
04a7
0167
04e2
fc1a
00b3
f7d0
ffc0
026f
0186
02d0
ff7e
fc99
01e9
00de
007b
fd52
fea3
029f
fe5b
ff04
fce6
00cb
06b3
fe12
02fd
0332
fe6d
fcb0
01fb
0707
0327
02c8
f953
0206
fcee
ff52
039d
f995
025c
ff4b
04d2
078a
01f7
f9e6
ff8d
00bd
fac9
00ae
0437
028e
03bf
fe4f
007d
fc19
0022
0425
0040
040e
fddf
011e
fd1b
03e2
fa12
0236
0276
ff3b
fca5
03e4
03b2
fd0e
fc69
0163
fec0
ff65
00c0
fe4f
03c4
05dc
f992
ff9d
fbeb
0776
01fd
fdd3
f927
022b
044c
095d
0416
fdfc
0062
f9dc
fb33
ffb0
0350
000f
03f3
fc97
0248
fd90
00a1
fff1
fed4
fc2a
fc4b
ffac
003d
ff1d
0177
fba2
003d
021f
0253
015f
02f6
fb88
026c
fd62
fc75
02f0
ff69
04e2
fc56
00f0
0217
fe7b
fece
057b
feee
fd3f
0576
0714
0136
007f
03b9
0010
fe99
fcd0
f981
fb56
fd38
ff9c
fc04
0042
ff1d
0518
0293
f7b5
035d
ff23
01f6
007b
fd56
0189
fe7c
ffc7
fce5
fc4e
01ad
f91f
feb4
fed7
fb41
feef
0329
030b
fed3
0235
02ca
0397
01ac
01a4
0048
027a
fe77
fed8
fdf2
00ec
00fd
ff65
0578
0325
05ea
f8c4
fd80
fd47
0615
004d
fa0d
0426
fca6
0110
0039
0072
ffa0
fd06
017c
04fa
ffff
fb70
015d
043d
01f5
fb87
032f
fef1
00dc
fc5c
fd96
042f
fe22
00c0
fe4b
02bd
fb90
03ba
0153
01c1
fe0f
0457
fd48
0420
fec8
012f
fad3
08ca
01e3
ff51
018e
fb0f
fc16
010b
ff9a
034d
fe65
feb4
ff0b
ff2b
0316
01f2
0066
ffe5
ffdf
04a8
fdca
042a
0750
03cb
ff2e
fef1
04f1
0190
006e
0052
fb49
fe1b
047f
056e
0048
02ca
0981
0538
07a4
014b
021a
01ed
fc34
0197
0142
feb6
fc76
fc90
fe9b
faf7
fbce
03e9
fb8c
0141
05da
012e
006b
ff59
fde9
002d
05ee
02eb
fe9b
0250
0019
fdcb
00c9
032d
faa1
0098
fc52
01b3
fa4f
fdab
00f6
ff04
01b1
ff4c
028e
ff8f
ff0f
fe32
fef3
0205
06c9
feea
0219
ff12
fdea
008e
fc93
0321
ffc7
fffa
ff70
fc35
fd88
ff55
fe9f
051d
00cc
ffce
0212
f97a
038d
0199
01ff
00de
0164
fe62
00ac
fda4
0184
fe23
fefe
ffa4
ff77
fe0e
017a
fdd6
0111
030c
056e
fd72
00ba
0271
0080
0148
ff53
0524
ffe6
fd86
01c0
fbd6
ff0b
fcce
ff43
f9c4
ffe4
00b6
fe4e
fff7
fc9c
fc95
fc81
fe76
ff9a
ffc9
0024
00d0
f974
ff0c
fd47
0076
fbe5
03d7
fc3a
02ac
015d
f9a9
0092
fc08
0196
003d
fdfb
ff43
049d
0026
fd4f
022f
ff05
0184
0016
04f2
ff4f
07ac
07dc
fbe0
f7b6
ff00
fcab
025b
03ec
f74a
fcc5
ff1a
fbfa
feac
0010
fe93
0060
068e
fea5
0599
fc43
0106
0142
0058
0a00
0296
fa19
04b6
0367
0649
fd61
fcda
014a
03a4
02dd
fdb2
028a
fd5c
03d3
0079
0117
ffb0
01bd
fc5b
fa63
0529
fc50
0144
fe26
ff2a
ffa5
fedb
fe2e
0208
0342
02f4
01eb
fc1b
02ef
0070
04d7
fe76
fea1
0355
fe88
00d4
014e
02c5
0145
ff9c
06e2
0002
ff6a
02e0
0036
0034
03d7
03e2
01e9
01c6
0418
04ec
fb19
fc2b
fc9d
01c2
fd1f
02f2
0276
035a
01ef
0242
fb55
fec6
