03c2
ff74
00d4
023c
fe6f
fd7c
0219
00d6
03c3
f8ea
fffa
ffcb
013c
ff53
fec0
faf8
04fe
fec6
031a
0157
ffa8
faf2
0004
0379
fbae
fc78
02d2
fd0b
044a
fe94
01dd
04fe
fcd6
06f6
fa42
0051
0015
04e7
fd23
00c6
fd1c
fe40
fd7a
ff6b
fba4
ff38
023e
0203
fd11
fe42
04db
fdb7
fea9
003b
ffde
05bf
fe7c
0330
03bf
ff1e
0158
fe62
089e
0022
00de
0078
ff93
00d0
ff20
f956
ff4c
01eb
fbba
fbaf
050e
05a1
08c0
039a
0437
fcfc
038c
00d3
0622
02b0
fcdc
035c
057d
fedf
0004
ff06
00e7
fb4c
feed
027e
0118
01d2
fe00
fff1
fff5
02e4
ff1b
fcdf
0244
001c
fb6e
ff36
fed7
0157
017a
0306
ff26
0191
fde0
0100
006a
03cf
fdbf
01ec
00f6
03d0
fd75
fd1b
0519
fe03
fef8
fd01
02ba
0005
01cd
fc54
05d3
fd2e
007f
fe79
fdf7
fe1c
fd1b
050e
faa1
ff23
005f
fe5a
ff1d
fe30
00fd
00b1
fdb2
ff89
043e
0152
ff20
0856
0447
fbc3
f90a
f92e
0236
0315
0368
fb6f
fb9b
0295
0311
fe18
056b
fc0f
0519
02cf
0296
ff5e
fe54
0158
fea1
fb2b
0088
fec4
005a
036e
ff41
fd9f
055a
02b2
000e
01bd
fee3
0446
fbb1
fd11
039f
0181
ff02
001f
fc4a
fcde
042c
fb59
fdf2
02ff
f8a9
00ba
ffa4
0388
f9cc
f823
0012
01a3
0249
0083
ff88
fc15
ffe5
0152
0082
ff64
007a
fee7
ffd0
fc3a
ff2c
ff57
017f
fc98
fe02
fd8e
03f7
0598
fe87
fecb
fac4
01a2
fce1
0382
013e
02dc
fac8
fb66
ffaf
0276
00f4
044b
02ba
febc
08f2
0230
03f4
014b
02ac
0426
fb46
017e
f8aa
010e
fed1
05fd
fc21
fb69
ff0a
0264
0082
f998
057d
fe8e
fe1b
fea9
0771
fef0
05b5
05c7
fbf9
fe2d
00d2
03c9
f84b
03b5
067d
033c
04b6
ff5e
ffb9
0113
ffc1
00c6
fd52
fd18
fb94
03a4
ff26
fe99
0469
02f9
0067
ff57
fd8f
0433
00cd
fcf3
040e
0187
01b2
ff04
fdca
faf2
ff56
ff19
fbdf
ffce
00c6
ff82
fef3
035e
0190
fe2e
0051
fc8b
fdcc
0104
fbad
0095
ff09
01fc
04c8
01ff
faf7
0195
0209
0567
fdc2
01cd
01a7
006c
0377
02bb
fda0
05e4
009d
fcd6
00c7
00e5
fb9a
077e
ff12
0083
ff1b
fd7d
013e
fe6c
fdda
0210
01df
fe8e
0396
fef1
ff34
fc8c
ff53
016d
0157
00a7
010b
fcd1
ffe4
fc7b
043d
04a6
0098
02f5
ff4e
0056
0280
ff4d
fd49
001d
fbbf
017d
fd57
fc8c
ff3f
f714
fbfc
fd26
faef
fe93
ffa9
fb83
02ab
ffa1
0401
017b
040b
fc92
fc06
fcee
02d8
01c4
0046
fe1b
0130
030a
fe83
018a
fd92
faa0
01a1
fd45
fd13
ff51
fedc
ff7e
01b8
fe5c
fdf1
05f8
ff1a
f901
fc29
02f5
fde4
01fd
f963
fe6e
05dc
0057
0273
fd82
feb1
00f4
0149
fdc3
0070
029a
fbbd
005d
010b
ffb7
ff1a
0151
041d
0534
04ba
000f
01ba
016c
f992
003c
fab2
ffd4
0122
01eb
00e3
047c
fadc
0182
fdaa
ff19
0135
04bb
ff30
037f
009a
feac
ff51
fca4
fc0f
fb11
03d2
fd46
fa62
05a2
fdcc
fbf6
004a
ffd2
fd60
0061
fe96
02bf
fe02
00a2
02fe
0092
00ae
01af
00aa
032b
fd79
02ec
f9aa
04c2
fc40
00bc
02c1
0434
fd9d
03bb
0532
faf6
020d
ff5a
005b
fbaa
06bc
02aa
faf8
0297
fddb
ff61
0357
04a4
01b7
fff0
0469
fe0f
ff58
00ae
004d
0080
01d5
f9de
fd23
fba3
0048
0a1f
fdf5
03ae
0606
044f
00dc
ff1a
04fe
0490
ff8e
fefc
05ee
0143
fd17
0122
0209
fdca
0310
feb2
01a1
ffc2
fd38
0082
01cc
fd5c
00ef
00a1
011f
fe84
0287
00cd
fece
044e
00e6
fefa
0181
025d
0003
0154
f9cd
0771
0225
fea6
fb23
fd2c
071c
fad4
fe90
fe19
f972
000e
fe0b
fdc7
faae
fd32
fc07
0162
03f5
ff31
fd8f
0328
fc00
fe3c
005a
fe99
fd10
0342
fb97
fa60
0116
02a6
0138
fcf2
0505
0567
fc2c
0135
004b
0027
0341
018e
fec9
fd03
ff83
ffcf
fbc7
fe94
fe48
fed0
fe9e
00ee
0285
0144
fc37
0034
0080
010f
0244
018f
fcc4
020a
06dc
0637
f777
0301
fd0e
0309
fc16
fd08
00e0
043d
fb30
0190
0335
fc3e
fc94
05f7
0596
f6e8
01c5
0401
fddc
0589
fcef
028a
037a
fd26
01a0
01da
0730
00f0
fe4d
fbb4
05f1
04ff
02a3
06d1
013b
fdb9
0134
fba6
01bd
fd5a
0602
ffe6
fa24
0006
fb13
00d4
ff06
0091
ff83
00db
ffbf
0405
fec9
0105
0234
03d5
052f
034c
04f0
fc97
ff85
04eb
fed6
01fc
0142
fe8f
02e3
054d
00cf
ff05
038a
00b0
ff20
fc15
0643
03df
fda6
fe7c
fe09
fb10
067c
013e
001b
021b
fae1
0174
fb46
fe78
039c
07fd
fd5a
ff7e
fe6c
00cf
010b
01c0
fcad
0115
0387
ff54
04ef
0044
fe0d
005a
0428
0000
fe86
fde8
0303
0024
feeb
ff71
066f
facb
0218
fadb
fb86
fdf5
fc8b
fd98
0875
0340
ffcc
032c
00ac
0586
feaa
fdd0
07b8
fd7a
0143
fefb
051d
00f5
f9d5
ff30
fdc6
fdea
fc57
ffc2
00c3
0012
01cf
ff52
ff43
fd31
00f4
04a8
0256
fcf0
ff8a
0261
0135
03b4
013b
ff76
ff00
fcd8
fe50
fd93
