fcf5
00ec
f93e
005f
fa71
02d9
fa84
fe3e
03ea
fe5c
fe0a
01d3
ffc8
fd20
fe06
003c
fdf9
007c
0834
ff04
fb6f
0540
00d6
ff9f
0225
fe0e
032d
03f6
fdb9
0011
f998
01af
feeb
fc06
0079
0398
ffd1
06c7
03ae
049a
fc0d
fdab
fe10
fc1f
ff9c
0330
04df
002a
fd86
0294
fc09
fe2d
0082
04c9
fca5
fd47
fe1b
fe2c
05bc
008e
003b
fbc5
fc9f
037d
005b
03e7
0080
fe54
02ef
fab3
0568
fd9b
fa08
fc89
ff9f
0404
03ce
f89a
0046
fdaf
0483
02d2
fb33
0126
fe68
0156
fc21
02f5
fe1a
01f7
fc3c
fd59
fe55
0200
01ae
027a
0065
0127
fbd4
03fa
0174
0137
0381
f807
007e
05c5
fc7f
0165
02a2
fb1b
0330
fef5
01e0
fd51
fdd6
00b0
0158
fff9
0091
fcea
084a
fd98
fe53
0445
01ab
01ac
fccc
005e
ff9f
fb13
fe01
ff51
009b
0343
01d8
ffcb
0253
0023
fd78
00bc
fc33
fe9a
fdbb
0367
04f7
0129
0128
026e
0161
ffb6
fdaa
fa8a
0377
01a5
0184
0160
fe37
04e3
fcf9
058c
f7c1
05a4
ff0e
01a7
ff0e
f88c
ff4b
fe8e
fa98
fe50
fcfc
0063
004d
fcd8
fd2d
fe38
0390
fdb5
0526
fcd7
00fc
fd04
fd7d
028c
fae1
feb0
fe55
00a6
f8f4
ff63
fdd5
fbd5
fe6b
fca8
fc5f
0027
fbc0
fcee
0190
00e8
0568
0491
0866
01bf
fbf8
017f
01cb
f9b0
fcd5
fe6f
013f
ffe4
fecb
030b
fb52
fd67
0100
02ac
010b
02a4
05a7
0023
01fb
fc6b
ff47
fdae
fc7f
0153
fcbb
01c0
0104
fec9
026b
faef
ff97
fcf4
fc51
fee4
0582
05ec
fcde
fbc3
0139
ffc5
fc03
00af
fada
00c6
ff28
ff64
0527
0383
00d7
036f
fe20
0093
fe44
fe0f
fd54
fcd9
0707
ffee
fca0
0236
f993
fe5d
fe56
00c5
fe91
038b
f959
005e
fe82
fbb8
003d
0337
02f4
fe0b
ff73
022e
ff73
ff92
fe2f
fd94
fcf8
01cc
01ae
fbb0
0098
fb11
0021
fe23
fe77
fe44
f8b8
fffc
02b3
fafd
fd9f
00ab
06e2
fe7e
ffc1
0294
fdc1
fab8
0254
0454
fe8b
012c
fe2e
fd3b
04c1
fe53
00ce
ff85
0223
023b
fa26
012e
fefd
fe70
ff52
ff05
041b
fd33
ffec
ff4b
048e
0349
fae4
fe92
0327
fb7d
fe3f
f8a4
fdc5
06a1
033a
fdbc
0345
057c
0223
ff83
fe3d
fbef
02f9
ff03
02cc
00b2
ffd5
04ad
0044
0341
fd9e
fd86
0442
ffe7
0223
fce0
fea3
fef2
fa54
fd86
fd75
fc5e
feb7
feac
00d2
fc96
0127
0215
013b
fd42
03d0
ff74
036b
fdf3
fc43
ffc5
fe33
05ee
011e
f7e5
fec6
feca
01ff
fd78
fc68
ff06
022d
fd11
ffa4
fd53
fcd9
fe72
fba0
03fb
061c
ff7c
fc33
03fc
fe58
009c
00b6
01d9
04ca
0231
012b
f917
0132
016e
045c
fee8
06fb
00d8
01bc
ffc8
018c
fe21
fc82
fc07
fe8a
fe69
fd82
fc42
003a
026d
038f
0433
007c
00f1
011f
fe93
0053
ff1e
034e
faeb
ff09
00aa
031d
0095
ff0d
027a
0067
fada
0057
0013
fd97
038b
012b
00b9
fd4f
0407
0276
fc5a
00d1
010c
fbc4
007f
fed3
fbde
043c
fb21
000c
0445
0337
fee2
feed
0040
0181
023e
ff8b
fd3d
01d8
0328
feee
ff58
fd1f
fb19
005b
ff32
024c
fe36
005c
f80a
ff28
04fc
fde6
0286
fc72
ff91
0231
01bf
ff34
000d
ff4d
000f
0047
0021
fc0a
0228
fcbd
02e1
fc4e
fc71
0281
fc51
fd6e
047d
ffed
0188
fcee
0105
ff10
f6b4
fbe9
0008
0100
0099
02ae
f8ee
fe66
fde6
001b
04a4
047c
0147
fd7b
00b2
fc15
03da
0255
ffba
fdd4
fac6
0145
0002
0097
0246
04b6
00fa
03ff
0446
fdde
fd05
fef2
015f
0087
fefe
00a4
03e6
ffde
fa57
0043
01c7
00eb
fd18
fda9
02e9
0131
027d
03cb
fe71
feb4
0073
06ec
0122
079f
0193
fec7
044a
003b
007d
00ea
fe1b
0009
074d
ffb2
ff43
0244
ff6e
faab
fef3
00e2
fecc
fdc7
ffd9
ff6b
0292
0085
fd0b
00f6
0199
0101
ff3c
0129
ffe5
0113
03ea
023c
02c8
00bd
fbc9
0028
ff88
fd4b
001e
fe22
0436
032a
fb4d
ffce
fe5a
ffc4
fed4
fd6a
060c
fda4
0067
042a
fa79
0388
01c4
fe81
0196
fdc5
fc46
fe40
ffd5
0073
0264
01ad
fad0
0382
0098
0229
0213
00df
ff7e
feef
febb
0269
050b
016d
fdfe
0396
ff53
fda2
fb68
fdba
00eb
017b
fef4
0358
fd24
ffd1
075d
04e5
fed9
fc0f
03b3
ff11
0028
fe75
02ad
0207
ff77
0614
01c3
fb27
ff15
f919
0151
ff3c
034b
fa69
0342
003d
0303
fefe
fd1b
ff76
ff21
01e8
0707
0597
0128
01f3
022a
0503
fdf5
032f
0089
044a
f93b
0053
05dc
0122
036e
fd6a
0462
fb81
014f
0065
0353
01d5
0139
fc32
fecc
0115
037e
0156
faaa
0366
fd98
ffb1
028b
03ff
fbda
0213
fb79
ff40
02fe
0335
0018
00b8
0226
0036
fcac
fc81
feaf
017f
039e
ff3f
00af
00f6
05a4
feec
0063
fdf8
fd19
046d
fdc9
fe98
ffe7
fadb
0053
ffa6
fe1d
fe89
fd7e
01d0
00c6
029c
0524
0111
fdd1
0145
042d
0753
0023
fce8
fd6a
faf7
fdb6
02a8
ff0f
ff4a
fc0b
fcf4
fe92
fe16
fca6
fab9
fd3d
05f6
ffe0
048e
f7e1
021d
0194
0167
04be
