027c
03cf
01db
ff45
065c
0475
0350
03ad
fcca
fbdf
ff31
fe0c
0031
fb61
0695
07fd
fd84
ff02
002c
00b9
005b
05e6
0021
062b
0220
ffc1
ff42
0312
01d7
00bf
fd90
03d1
0042
fe25
040b
0290
fcfa
fb72
fef6
0179
0716
0041
f8e3
fd05
04d6
072d
fb1e
ff72
fc5c
0058
0190
000e
fc69
fbb5
04a6
fdc4
02dc
ffd2
fe28
0303
02d8
fe9a
030a
018b
ffc5
00b4
fd83
fe87
0657
fb9f
0305
ffdb
ffe3
fdb0
fbd4
027f
fbb2
03d4
fd80
ffb5
0128
fd9c
ff74
fe6f
fc66
fd59
03ba
fd22
fef7
fe70
0207
0215
0117
014d
0249
fad1
ff1c
0132
ff1a
00d0
fc65
060a
0591
fcb6
fdfd
fb32
0091
ffe5
03d8
fde3
fb96
0121
f97f
fc33
ff63
0170
f753
fd64
03a0
fbab
fe07
ff1a
ffc8
01f0
0280
fe78
fe7f
0197
fd7f
0653
ff81
fd37
fcaa
fc38
fcdb
fe27
00b7
fb73
fe8f
01f2
0657
00e7
014e
fcee
fc66
fa93
0213
0517
f5d2
00e4
fc33
0270
ffac
fcc1
fe39
fd85
01e1
fc5b
fe5d
fd69
0424
fe2c
02e1
03f7
ff0f
0426
fd8b
ff08
fe85
f812
fe8e
013c
ff6c
ffbe
0364
0180
ff36
fb5a
ffca
0449
0413
00cc
ffce
fe54
fff0
ffcc
fe31
fd71
01c6
fed1
002f
fffa
0212
fe85
ff68
ffa8
fc34
fe85
fc55
fb95
fb68
fec4
fd9f
feff
00c9
fea3
fdb7
fe62
fcb5
0486
0384
03ce
fe21
fc7b
fe5e
ff33
00b8
feca
fb3d
fa8b
fe04
0715
0b9f
012b
ff98
ffe9
03f0
ff32
fd4e
072f
faf8
00b6
f974
0027
00da
ffed
0668
0015
03e9
0102
0001
0023
0313
fef4
ff10
0341
048a
fb5b
0023
fe5e
fd9e
0146
fba2
fd76
fdf9
f65d
00e0
fece
02c7
0446
00f9
06a7
fe05
049f
02b9
00bf
0024
fe1e
fe82
0329
01ba
059f
0188
02ec
fe76
fd9e
ff49
ff9e
fe60
fe3c
fded
0095
00d3
fe9d
009d
f9a8
02be
fd02
fac7
03ce
fd29
fe15
fc04
0223
019e
021a
01d1
fdf2
01b3
fc46
0347
006a
fe73
02d1
0045
ff77
023c
0622
fd28
004b
0569
00e6
fec1
ff5c
01cd
051b
001a
005a
fc28
ff7c
0010
01e1
fefc
fdbb
0287
ff61
fe52
0137
f8e7
0136
0059
fbd2
fe57
009f
07d5
fe77
fe96
014d
0058
0393
02c6
00db
fcc6
03d0
fe7d
0360
fe44
ff73
019f
0287
00fd
fd23
0100
0152
f850
0107
fe38
fc0b
fe58
fc6e
fd9a
fe04
0143
fcf7
009a
04ed
0aea
ffdc
0424
ff6a
fb4a
0372
fd5f
f839
ff76
f949
036d
0338
ffd4
ff8b
0018
fd53
0110
0025
05b5
fafd
faa1
fcbb
fe79
0070
ffe6
fe7e
02c0
ffe7
02e7
0267
0584
01ae
0019
ff28
0000
015d
feab
046e
fb90
fb58
ff89
008d
034d
fecf
0198
01df
fe45
02fc
017e
0188
fc59
ff50
00cb
0064
003b
ff1c
ffa9
fdd8
ffd3
fca4
03f0
fcf6
07f2
fc05
ff5d
fec8
fce0
fb05
030d
fd53
02e0
fd54
f706
019a
fba2
01ac
0441
0357
01d8
00ee
fce6
01e6
fc31
fec3
fd31
faf4
0080
f84e
feb0
03c0
01da
fc13
fc19
ffe6
047c
01a7
02de
ffb0
f9d0
fd74
0211
0038
ffbf
0260
0565
02be
fba5
05c3
007b
0710
ffea
0315
03af
00fe
ff27
ff4e
fdf1
0352
00ee
fc3e
044c
fc8a
f999
fbcb
068f
0132
00d5
01b2
fc06
fd8e
057b
fdc7
0610
016e
0649
01d3
000d
000a
01c8
fbb1
fb77
017b
01a7
027c
f82d
ffaf
0063
033f
0433
02cd
0170
fa18
fbb0
0142
fd63
043b
017c
fedf
0268
02b5
ff47
fd16
0036
f98c
ff81
01a4
fa2b
00d9
fcdb
ffce
ff2e
fbd7
fc34
fc41
fa4b
0089
fff0
ffa5
fd8e
007c
0035
036a
022e
00b2
0032
fd80
0163
fed8
f88e
fcab
feca
0292
fc9f
00be
05c2
017b
01e7
f97c
fd97
fe2e
fb39
033b
ff17
015c
fff7
ffe9
025b
029a
00d5
fd3f
fe48
f6d3
fde5
fc05
fe9e
02ac
065d
fd60
0024
0047
fe92
05b4
fdb8
04db
fd36
fd59
ff81
fb01
fe50
fc93
fcf3
fda8
0776
fe1e
04f8
fd6a
ffd6
0829
02c8
0209
fadd
03a4
009c
0264
fec7
ffc9
018e
ff51
ffca
0211
01d9
00ca
028a
0220
024c
fdfb
fdcd
01f2
fae8
ff74
fcae
01b5
fa06
000c
fe4d
0001
fe51
0259
0284
0018
fefd
fe56
fca2
fe53
fd57
06b6
fe6b
026f
fff3
0015
0216
0312
fa3a
0444
fc54
01a3
05a4
fc48
fe44
ff73
01a2
0110
01c2
00c3
fda9
feef
fc69
009b
0455
fd40
02b0
03d3
01d6
fb56
01c6
03b7
fcb3
ff1c
fe22
fea8
fbae
fbb3
01fe
fa30
0054
fe67
0014
0714
0275
051e
05f2
0289
01ea
ff14
fba5
fab0
00bc
0408
ff4d
03be
038d
fb65
034c
fdc6
fefd
ff4a
063b
fdda
ffe3
fd4c
02a1
fb78
05fa
febb
ff30
feae
ffde
fc49
ff14
0353
fb75
017d
0237
ffa3
fbc8
0540
02cf
ff40
0313
01b2
fe58
007e
0112
0397
fcba
fc79
fd37
fb30
0060
0153
fd2c
fcdc
fe93
0110
fb2a
fc8b
ff9f
04fd
fcd4
0021
fa24
fb69
feaf
00ee
fc16
f85c
00ae
fdad
0117
021b
fd68
0222
fd81
fee6
0274
ff5c
ff60
fc75
ffb7
0018
05d6
0018
0038
fca3
fe96
faab
00df
000a
040e
03e6
009d
febc
0218
04ac
03dc
0057
fdc1
fb9e
