011d
03da
ff65
fd63
016d
ff6c
0022
ffc1
fe3f
ffda
fd68
024a
ffef
033d
fe57
015f
f9b5
f9a8
fd7b
fe61
048b
02da
0198
fe71
0312
024c
00c0
fb78
02fb
0612
0220
05c0
fa88
0694
fe77
00b3
009e
0407
030b
ff2f
fce7
002b
005d
fc94
ff32
f722
fda2
023e
fab0
fe24
028b
fde4
07f7
007a
0451
f889
02a8
0322
ffa9
fbcb
f9a6
fdb3
ff81
ff88
05ab
0265
034e
fdc7
018e
fac2
06a6
fdb7
ff76
014b
0083
025e
fff6
01d0
ff0f
0346
0082
fd67
fb54
feec
ff05
fe41
01f6
fda3
0265
0183
00ea
0136
ffed
fe2c
007d
fe23
ffe7
0166
0457
0044
047d
00f1
fcb4
f804
0219
0410
ff95
f9a9
01a3
0227
fce5
0615
f9ef
fba6
fc1b
fa75
fbef
0285
fff2
fdb7
fd81
fa04
ffd2
002d
0098
03be
fb9a
01bc
0726
ff90
fd74
fe8e
fd41
02a5
0161
0136
009e
ffa9
011e
038e
ffcf
0745
000a
04a0
01b2
fbd8
01cc
0108
fff9
fdcc
fd09
05a6
04dd
0311
fe41
fd09
00c2
05d2
0059
ffe5
0103
fc33
0127
fd61
fdbf
039c
fea8
fd79
fbe8
01cb
0103
0087
fd8d
00b0
00cf
02ea
000f
02c6
016d
fcbf
ff1b
01e3
045b
0024
fe98
ffbf
fb82
00cb
fb63
fa96
0651
01b6
fde8
fe96
0187
fa37
faa0
02c7
057d
07cf
0076
05b1
0133
0354
fe25
fa78
fece
fff5
0192
00e7
fc93
fe37
ffeb
fb11
fce0
00aa
fb37
02ef
fc04
013c
03d6
04e2
fdc6
0267
fdab
02dd
fa44
fdaf
023d
fd84
000c
0194
ffac
04d1
03ff
03de
fb32
0183
ff21
0091
fcc4
00df
fa2b
ffa6
fbe0
f97f
fd17
fd27
0225
03bc
0281
ffad
024e
0659
052d
03a9
fbab
fd14
fc37
fca6
fe09
01f7
06ce
01c0
0078
0450
fdf4
fad0
0178
fca2
fddd
f91a
fc42
04b6
0292
fc64
ffc6
fed9
fd98
066a
fc57
fc99
feaa
fdc3
0253
014b
014c
fd48
fdfb
fe8c
0009
ffb2
01e9
001a
fd4f
fa9d
fd3e
fda8
02a8
0148
0091
00a0
0218
fbdb
0257
fee5
0303
ffdf
03df
fedc
0440
ff18
006b
ff1c
fce2
fd8c
ff51
061b
fbac
fd55
ffc7
ff7f
fafc
ff81
fefc
065f
0117
fec5
ffd2
feec
fd96
fd7c
01a0
fbcb
fbe7
052a
fbf3
0299
fe39
fefb
0027
006e
f94f
003e
fea3
fba1
ff91
02cf
0358
031e
0726
fe0c
0148
ffca
fe10
061e
026e
07ea
01ef
fdec
fe3e
fda8
faa6
060b
ff3d
0331
04f2
fd5d
fdc0
012c
0091
007d
0210
0157
023a
00ca
fe4c
001b
0110
fd28
0446
005d
fd49
034f
fd9a
fc20
0370
ff3e
02d9
f82d
0091
084a
feb2
fdee
fd6c
fb3e
fd5a
fe59
ffea
01c1
fcb6
fbcf
00aa
fd7c
fc7d
01ea
fb37
fdf7
00a4
020d
00f4
01a8
04da
04c2
fbf6
ff09
ffc2
03c4
feff
ff7f
0017
0059
02f8
fd73
04da
021c
ff43
fe36
08cf
029d
03e2
0160
ff70
fcd7
0141
fea9
fb1c
ffb9
ff8d
fccc
0371
0167
02bf
0046
fbf7
01b5
00ca
f9bf
fff7
0212
077d
0183
0617
0002
fe11
f693
02be
fb10
fe8f
0207
ff21
02a8
01ab
0475
fee9
fd52
ffd5
04ac
fb35
0140
fec3
ff33
fc7a
00ee
fef7
0a7e
003f
fcb9
fe2d
03c5
00e3
fe30
034a
fc7a
0142
0751
06d5
040a
fc8e
fd4e
033e
fa55
fd79
0349
0538
fcaa
fe9a
ff45
0352
03d9
ff8c
fad8
0136
fed8
ffc5
fe79
fe50
0393
fe53
0642
ff6d
028b
0084
01f9
fdd3
ff8f
fb06
ff92
0019
fc96
fa72
fee9
fd19
ff38
03a3
ffd1
03c9
ff81
0663
ff43
044b
06c7
f8c7
02f7
ffa1
00cf
02c5
ff57
01ed
029e
00b4
f940
f7bd
fc1a
fde5
0270
ffc4
0063
015b
04c8
0498
ffe2
05a5
fd0a
01e3
0006
feb4
0436
0699
ff01
fbe4
0290
00ba
ff2f
0525
fe01
00fb
03d1
035a
0106
0183
0213
ffba
fff1
00c9
0288
fc11
fb56
fe17
07df
fe2a
0514
0244
f9d5
00d6
062c
04b9
0220
01d4
01e8
fd92
02ea
fdf0
fb9c
fd5b
ff5f
0342
fe95
0200
0706
01f0
feba
fcc6
fd6c
ff56
0281
ff40
019d
064b
06fd
fd45
0199
ffa5
fe92
fd02
ffef
0043
0101
0194
fe56
0203
ff5b
fe9e
fad3
008e
ff6d
00ee
0095
062b
fda6
065c
fd11
f8bf
019b
fedb
fee8
009a
0570
fe6c
0062
0199
fd5c
fdec
ffb6
02c4
0041
00ac
fdd2
0756
02fb
fd8a
ffa8
ffde
fea3
fbb7
019a
0129
01fa
0079
001d
febc
ffdb
fa2e
f9f2
039e
fe9f
0291
0542
f804
fc4e
037f
f9c0
0104
ff3d
f7cb
fc29
0251
f8e4
fb2e
00b4
0063
0187
0089
fee9
0538
0072
fbd8
00c0
0354
fd39
fce0
0070
01e5
00b5
ff59
032b
0250
fe53
03a9
0292
02e1
0146
f7aa
fcef
fe91
fa34
0291
fd70
fa3e
fe83
008b
03c6
fe20
fbb6
0169
fc79
03b3
01f2
0224
00a3
f8b1
006f
011d
fd73
03a9
04bd
010e
026c
ff49
fc9d
fff7
0322
fcee
00e9
003f
fdb9
0263
00bc
fef2
faf0
0302
022c
02ed
fe2f
01e1
036a
010d
0093
005a
0592
0581
febb
fbb9
0007
0511
022f
04c6
ffb0
ffa3
02bb
01c4
01fb
fe5e
05df
08cf
fecf
0056
fdc6
fe05
ff8b
fe7e
f9a7
fe59
fde2
fd42
0296
005e
fd12
fda4
03d4
0165
fc21
fbdd
0009
