0117
fe9e
02b2
0277
05d4
010a
00cd
fa60
02d2
f9e9
fab6
fe8f
0518
fdc3
0005
febd
feb3
febc
009b
0016
045b
00ec
037c
044b
02bd
fc48
fd62
fd67
ff6e
ffa1
0220
01c1
fb9d
00b3
0290
fea6
00bf
017e
0298
0070
0000
00a4
007f
fd9c
00f0
0242
f641
fd2a
01c3
041f
05e7
00b0
03af
03aa
ffe7
00a1
ffdd
fd04
0250
02e0
01a5
053a
00e9
fbef
fd04
02e8
fe23
03ec
0279
0559
018d
fcba
fcd8
ff97
ff36
0315
00dc
fe80
0016
09a1
fb33
f8e5
00fd
f98d
0096
00ba
ff07
03bb
fe73
fd60
fc0f
fbf4
fd35
0206
0651
006c
0281
ff23
0115
ffb4
02c0
fd38
feed
ffdc
fde8
feff
fd67
0574
000c
fa01
fda8
0333
057d
022f
fa68
fd01
0092
ff83
055d
0141
02c5
04f7
fea5
feb2
feca
fc81
013b
fbe0
06b6
006a
fff0
ff13
fd5d
050c
002a
fef4
037e
fe0f
0537
fbfc
0583
00f4
fe39
fdd1
fde7
fda6
01e2
fdce
0436
feb4
ffb3
01f5
011b
0301
025a
fdd6
fb02
ffb3
0050
032e
fb8e
ff57
fed1
fda4
fe0c
fc9c
fde4
faab
00a6
003c
0032
01ac
fbc1
fb7f
fe84
0026
f940
0198
00a0
02ce
ffe4
fe12
0329
feb2
022c
0290
ff1f
036f
028e
01d9
01a0
000c
0032
fca1
0191
032f
07b7
fee9
fd45
fd56
06b4
ffbc
fe5f
028b
0005
fc0e
ff76
fdcb
028f
f820
0089
026f
0033
02de
fb05
039a
fabb
fbb0
fdb1
ff95
0087
feb5
fdbd
fe01
f908
01fb
fcc8
fc64
023b
01c7
015d
0347
ff5d
0509
02c6
fd61
036d
ff38
01c8
01ea
feb7
fd87
0323
fdcb
00dd
010d
0504
ff3d
fe22
017c
0213
04d9
002a
0052
00e5
fd1a
0406
00fd
fc5f
00f6
feae
005a
01ce
0031
fafc
f9cf
02a1
fde1
feb2
ffa3
00c7
fee0
feea
ff0c
0067
0303
0269
fa4e
01bf
f8f8
fcad
fa06
03dc
00a9
fdbb
00be
019b
00ae
007d
032e
0099
0162
04be
01ea
01ad
02b7
fcf4
fec0
fb28
ff40
0006
04b9
ffdd
fbd3
01ba
03c5
01fb
0066
fee4
fb39
008a
fe27
0383
fea2
fcb2
0080
fcfc
03a9
002a
fcd3
0227
fde6
febd
01e9
feea
0017
05a0
ff42
fe95
025d
062a
fcef
fb91
fe35
fe61
fe0a
079e
fc21
01d3
fe8e
fe31
fa94
fad5
03f2
0448
0245
05e9
fe93
fd8b
0021
fe9a
fa01
0072
ff42
03f9
fe3f
fc46
ffab
fe71
001d
018a
0633
fd62
fef4
00f0
ff1d
0295
05f2
0367
f9f7
fbda
fe36
fd33
0415
fe5c
fd07
0213
ffec
ffac
0153
0188
fa41
ff49
fa1f
fde3
f843
fd36
fde4
fcc9
fffe
029a
ff57
fd64
fa83
ff47
03d7
fe71
fe2e
03c2
027c
fdaa
fec4
0176
fd89
ffb0
fd58
ff66
035e
fdeb
000c
fd26
0320
019e
fb5f
fe82
ff6d
00b2
fec4
fea2
01e4
0064
fcce
fbde
fed9
fd8f
fab9
01a0
fd7a
ff74
011d
027b
0376
010e
fee5
f8b5
0044
fbff
010f
0027
011f
048d
fe99
fead
03cc
fb1f
0218
fcba
0106
fbd7
0405
02c4
fef4
ffc2
fd6c
fef4
070c
004a
fcfb
ff15
fe6f
fea1
fdd9
fbb0
fc09
02f9
03a1
fb5d
fae9
0285
ff9d
f759
fe05
0093
ffdb
fcb8
02d7
fbee
ffb5
0276
ffdf
030b
fe38
fddd
ff2a
fed6
fe30
ff99
001f
000a
0353
04c0
003b
fe84
0384
0233
ffa1
ff7d
fff9
fc77
ff44
fd2e
0184
0203
fe90
fe91
fcd5
0105
fd77
0509
003d
0240
05a5
f92e
053a
0241
0500
0007
0239
0093
fcd8
fcd2
fdeb
0435
fccb
069c
fbe5
fd1d
00d9
fd12
051d
fba1
01d9
fe2c
0699
022f
026b
ff53
ffca
0269
ff78
ffac
fe03
016b
04c5
0109
fd66
0121
077a
fd68
fd6e
00cd
0047
fe93
fcc4
fd4a
ff0a
07ab
fdb9
fbc3
0315
01c5
082f
01ab
0003
feff
fc38
01a2
001c
00e5
002b
fe2f
feb3
ff26
06d8
fff6
0608
ff5e
ff13
fc11
01fb
045b
025f
0166
fae1
fc93
03a5
04b7
00f2
0208
fcc9
fe6c
0282
0350
0026
fd9b
fff9
f785
fdc0
0064
fcc0
fd0c
ff86
01a5
00e9
fa37
0269
035a
fab4
02f6
0086
fc51
0161
01d2
03f8
fce1
fedb
fde5
fb5c
fa73
ffac
03a7
00e1
020a
0181
fdf2
00df
0227
00b4
005e
04b2
ffbe
0168
0276
fcda
008f
050d
ff00
00b9
019a
fca1
fd1d
fbea
0030
fec6
fe13
00da
032a
0000
fe19
047a
f7d4
ffd4
01c4
ffb5
004f
fdbc
0096
0029
012e
01fa
fc35
06a1
fb39
0379
fbc8
0518
014f
003a
028b
0149
ff17
fe78
fddf
fe0a
0384
0134
04b3
fa3e
00cb
fc38
00f4
fd07
0023
03a7
01ea
fd04
0108
fb94
ff13
f994
fd85
ffe1
fd2b
05f7
fb57
fed9
fe26
0013
0093
fee2
fee5
05a4
0166
f86f
0165
0137
fc3f
fce4
fdd7
04a9
0120
ff7f
f60c
0214
ffe3
004f
01c7
019d
0239
01ba
0094
fb5f
02df
fdd4
fd17
ff27
036d
feff
074c
ff04
fb3d
fe6b
fc87
ff62
0299
fc88
00f9
007a
ffe0
fe8a
fc2b
fb75
03a0
01bf
fe21
feba
fcb2
fd7c
fb79
0387
008f
ffdb
025f
0131
01c5
ffe6
0289
f835
0420
fcff
01de
fead
008e
fcfe
ff4c
ff1f
fcad
fc32
fff1
fba6
024b
0020
fd62
0041
023f
fc40
02ac
0189
01e6
0014
ffd3
0614
023c
fcd2
