ff9e
fec3
fde2
fc82
fcce
0099
0097
0238
014f
fd6c
045b
0155
fe67
fbeb
fd64
fea4
016f
02a4
022c
03e4
01ac
fdbd
ff63
02e9
03bd
ffde
fb47
00f8
0366
022d
fdc2
ff2c
fd9f
03a4
03cc
0250
00ed
0219
fb5a
fef4
01f8
ff12
04fe
fed6
ff1a
02cd
0186
fec5
0711
021d
ff34
04ce
fcf4
fded
ff60
07c5
02cd
fe96
00c1
fc78
02a9
fa44
fe24
f887
027a
006b
feb9
0328
0313
0220
fe5a
0338
febe
044c
fe78
0003
02cd
fec3
f9c5
0123
fc5e
ff8d
0256
0363
ffc9
ff02
ff72
faaa
05a7
ffb0
fc07
fd71
0438
face
004d
ff41
0173
fce6
feff
0436
ffac
0585
030a
fe53
00a4
fc54
0075
00ee
fdce
000a
fe9c
fc02
039f
fbff
fcfa
02c5
01a5
f9c1
ffc5
0096
001e
06f6
0377
0199
fe42
fc91
06bd
fbfc
fee9
fd5f
f95a
fd35
037c
fed9
032b
01e8
0323
04d1
02f3
0224
0116
00e9
fc30
0036
fd77
fcc7
ff6f
ff0b
02e8
ffb5
0338
fd52
fddf
0489
ffc1
ff77
02b0
0033
fe2e
004a
feab
fcc0
ffa4
ff0c
02ba
00d4
fddf
fdb3
0255
ff08
00e0
ff59
0060
0160
05ab
ff11
033f
05cf
fd55
02d3
01ef
ffe4
03e4
fb27
008e
fba6
00e6
0073
fe7c
ff60
0004
fc8f
fe98
fa39
fe65
ff18
025c
ff0c
f916
00de
fe8c
ff41
013d
fd24
fe1c
ff71
0338
0269
f864
033d
fc8d
019f
01bc
fdff
fad6
fdbf
00b5
fb4b
00c7
fac7
fff3
fe31
000b
0368
00f5
0339
fe54
0306
ffaf
fe86
042e
ff24
fa67
017e
fc53
fff5
feea
fd0e
013c
fd42
fb3b
034f
fdaa
ff76
0110
fb6b
0111
fd34
02fb
0096
ff7a
01e2
f7b7
0278
fae0
fefd
fdf1
006a
0058
fd74
fad9
ff50
007e
050e
00d9
ffc7
01e6
028a
fef9
0065
0525
ffad
fb31
03a1
0126
fba6
fd33
0314
02ae
fee5
0351
0283
021d
fb59
015e
0166
fee2
fc45
fcb8
07c5
fbad
f876
fef7
fece
033d
ffc6
fda7
ff05
fd2a
0701
f95f
ffe9
01b6
fd21
0587
ff7f
0392
fe54
02cd
053f
00b8
fed7
0044
018a
0164
fc45
fb07
ff59
037e
ffd7
feb4
fd39
ffa3
065d
0179
fe3e
fe8e
0238
059e
04d1
fc5a
fffc
f987
0391
fd98
fcf3
0127
ff00
fca1
0771
01b8
0338
fb34
ff47
04e2
0691
ff38
03bb
ff3e
04da
fb8e
0048
f92d
ff30
ffd7
fd2b
0287
00aa
fa5c
03ac
fe44
02fb
fec1
fa18
fc7a
ffea
00a8
0217
fd21
0bc8
ff44
015b
021e
f7d1
fca0
009a
0105
03d7
00a4
fcbd
fbd4
011d
026c
02ba
0032
03a3
02a5
029a
ff26
ff07
0350
fc46
028e
0130
01d8
ff82
fbd7
fc5d
005a
01e5
ff06
fb16
fcc5
fe0c
fbec
024d
0428
0095
f77b
fe21
ffb2
0245
042c
02ba
fee5
02c8
fe8a
00d1
ffc6
fec6
ff8a
fe63
fbee
0498
fe8f
f9dc
fbb1
ff77
fb50
01d3
0538
021e
0531
0225
fdcc
fd33
0101
0158
00a2
fd98
0126
fd63
fc36
fab8
f9a2
fcb8
00dd
ff42
02e7
02f2
0012
0342
0130
0513
fa36
0387
08e4
0189
fdc1
0486
fc11
0223
fa56
ff39
00fc
fa17
01fb
ffaf
0114
fe15
0123
fed1
01a0
fb90
02e0
fe0e
fe21
ff66
0459
038c
fbe4
013c
fa86
01cc
03b2
00a3
fc96
022e
ff21
fb50
fca2
ff9b
03f7
03f6
ff7e
01ba
0000
fd47
fb85
fe9c
fefe
045d
fe5b
fd10
01bf
0199
06c4
ff1e
0081
fbe1
0160
ffab
04b8
07f6
019d
0114
fc26
016a
fbb4
ffda
fd1a
02d0
fdf2
fce1
01ff
fdd1
ffd0
f9f8
fe80
0053
fea4
f91c
0328
f866
00ce
015f
0443
ffca
fe52
01c8
053d
025b
0003
fd13
046f
0282
0172
f9ce
00e5
fdb5
03d4
f8ca
009a
041b
fe18
fe5e
0204
ff29
fe61
fcf5
fd30
0191
0149
fd50
fe61
fd87
fd2e
fe84
fb85
026f
025d
fdcc
ffb6
fa04
0246
03be
fd95
fcfc
0039
035f
fdd0
04bf
fd1f
0144
040c
fee2
fdc7
0186
fb47
fba3
037f
017f
ffad
0133
0497
022e
fe1e
02d3
0706
f6d3
007a
0462
0531
0184
fb36
0542
ff6a
fdd2
0223
fc5a
fc6e
ff7a
0066
05fa
fd89
ff25
009d
ff41
fd31
0248
0519
02b6
fff4
ff4b
ff6c
0361
fce1
ff7f
02ea
0a4c
0155
fe39
0564
0070
fd05
fdbb
01c7
0333
ff09
01d0
fecd
060a
f9e4
ff04
ff26
fd8d
0214
fc26
00d9
fd90
fefc
fa04
0450
ff0a
fc46
0249
0357
0029
ff89
00b1
016b
fb8f
fc7f
fdc3
0636
ffbf
fee9
01c6
025c
02c3
fe2c
fdaf
00b4
fe52
0373
030d
ff26
0143
ff46
00f8
013d
03d3
0152
ffd7
0282
04bb
016b
fd9b
0508
07c6
00da
022b
fb3a
01ca
03ff
fe72
ffdf
0399
003d
f986
041c
fdbd
000f
0409
fe7a
faf1
fdc8
01f2
0010
024e
f9ca
fd24
01de
035d
00c6
ff77
0538
fd76
00ac
034d
0519
ff47
fdb6
fc7b
041a
f823
0111
028f
ffc3
0007
04a8
fe1e
fcf5
fe31
fe5c
0222
0070
00e2
0179
ff17
00fe
fd67
02d3
fd20
0396
0050
0100
0294
ff3f
024a
031e
ffac
0530
0006
fdcf
ff70
fab9
fee7
fd9d
01c3
ff62
ff0e
fcc9
03eb
fdc0
fe04
fd86
fae1
014a
021c
045a
fca0
fee0
fd84
fe70
ff19
f9e9
011f
fe81
fe91
0066
000d
02cc
ff78
