0546
056b
01e0
f8d1
fbb6
f992
011e
fe91
f98a
f9a0
01b1
0190
fcec
01f2
0494
02c2
ffb8
fa88
fd0e
0609
01d1
00bb
083c
0339
0204
fd98
00cd
013b
001c
00be
f9c4
fe51
ff04
fe9f
fe8f
00d7
02bc
fd56
0000
fc9f
faae
00c8
fbd0
fce2
03e0
0271
0351
fae2
ff00
ff8e
fe80
0188
0563
fcb0
fdf8
0252
fd14
075e
0335
0481
030e
fd47
fe3e
fc7f
00e1
ff67
02bb
fbbf
fa9b
ff76
fca4
fc99
0556
03ef
fa14
0166
018d
fa84
fdf8
012c
01ba
05aa
0188
fdff
01bd
029c
0281
0130
fbcd
fe20
fce5
0040
021e
0094
0197
fdee
02e0
fbd2
00a4
0352
fb4f
0336
fe27
0021
fd03
fd73
0140
ffef
00d2
0090
048b
fb4e
ff03
feb6
00e0
fdd8
fe61
00b0
0719
036d
00af
ffd3
00e1
fed5
fca0
fe8c
fce1
0116
fbd3
0011
ffd8
fdff
fdfe
00f3
022c
fe11
011e
02ec
ff47
04f2
fe5a
f97e
0229
01ef
01d1
0111
0350
feb6
0482
0488
04e9
f968
0220
01ec
01f2
fe3c
00dc
0404
02f6
0280
fcfe
08e4
fe63
fc95
fdf6
0255
0157
0087
00cd
ff41
fc6b
034e
055c
03af
ffdb
00fb
fee3
0391
0061
0511
048b
ff60
0198
fc45
fea6
fefa
feb9
f95b
fff9
fead
fb15
ff7a
0191
f9da
ffc0
0295
015c
fbe4
fc6c
0034
ff69
00e8
ff83
fb6e
fef3
066b
ff31
0104
fd5d
ff4a
0459
ff9e
0113
fd8d
00f7
01f9
0014
0165
fe2f
008f
fc19
0268
fe9b
fca4
fb9c
085d
fef9
0189
fcc4
fd7d
0331
00a0
fab6
fbde
ffaf
fb1f
fefc
0105
016e
ff92
04c5
0203
fcf9
089f
01d4
0053
01d4
ff56
030e
027e
ff99
0497
fd98
ff39
03ba
01e5
0252
fde1
fa7c
ffa2
016e
ff65
0227
0081
ffe7
fca6
0987
fc34
00ed
0129
fd10
fb5e
0369
f677
ffd2
017d
f8a8
feae
fc28
ff35
fc74
00cd
01ee
01a7
01bc
07f0
015b
fda7
0287
05dc
0460
049b
04fa
0216
00b3
008c
01b2
01ea
0086
00c8
fe2d
00a3
0525
fd56
03fd
fff3
02d5
fb6d
fe92
fead
0489
04b1
fdca
05fb
0009
ff28
ffd5
ff46
fbbd
feea
0088
043f
01e4
0a93
fc41
ff86
ff65
010d
04d7
ff1b
067e
01ef
00ca
0058
0339
01e1
01e9
fe98
fb1d
fdc4
ffa6
0013
fc7b
0401
035d
028a
feac
fc22
0882
fa2f
01ac
008d
028a
046e
fdc1
0088
fe77
ff07
ff7d
01d4
0183
fe29
0318
0349
0314
0193
fd92
070e
03e5
fc94
fffd
0193
fc5b
027f
016c
02d5
fe53
0557
004b
fa32
fcc3
0177
ffbf
055f
fa2e
018a
ffde
04f5
0291
fb44
00eb
fffc
fce2
008d
ff4e
010a
fe5f
ff44
01e4
030a
02da
ffa4
0071
008e
026a
fe7f
ffc4
013e
f71f
0426
ffb7
0416
fc09
025e
003b
ff16
fb54
fc91
ff9c
ff49
02e4
ffd9
fe86
feac
05e7
01e4
fd94
faf8
fcb0
03d8
01c8
029c
0092
0092
fec8
fdef
fee4
fd94
0105
0545
fe7f
fc4f
fec0
ff2c
ff2b
fd66
ff9f
0324
f9ac
fd5e
fd7b
fdbf
ffbf
0223
fb78
01bd
fd4a
01bc
02f2
ff32
fbfe
fc8c
0097
fbd3
fbcc
01a5
fe5e
02af
0312
fff3
0295
0199
ffda
fe45
026c
fdc8
015c
0023
ffd4
ff60
ff2d
ffe6
fd44
0106
fb8a
ff18
fdf8
ffed
ffb4
01e1
faba
fdb3
00cd
02e7
02d2
0054
014c
06a6
06c0
054e
062b
fa00
0418
01ea
0007
00e2
f9c6
fe4f
018d
fb7f
fe2f
ffd6
0117
00e5
fad2
fedd
fc83
0079
fe2c
02dc
0070
ff59
fc10
fd70
00bf
0574
0823
023f
0113
feeb
fd14
fe93
fdc7
f6db
027f
ff51
023b
fd6c
ff50
fc23
fce6
01a1
fd2c
fea2
02cd
fa67
fe90
027d
fe17
fffb
05b7
fde6
ff47
00f1
fe5b
006e
0011
fcbf
fedd
085e
fddf
fca9
01fa
01cc
0321
fcf2
0081
fdf8
0180
029a
02f4
ff72
01a9
0377
0156
0014
049a
00e5
013d
ff75
fba5
00fd
fe87
ff78
fb84
fcfa
ffcc
fb1b
f92a
009c
037c
0068
fcfd
00b7
fc8e
fbbb
ffcc
fef5
fed3
ffed
ff3f
fe3f
fd9c
ffac
0140
ff4b
0132
ff9d
009b
069c
01b9
ff6f
f67a
fb88
fd70
fece
0059
fce9
ff1d
fe7b
00bc
060a
fe0a
feb4
0056
fe01
0129
fdaa
fdd7
ff3a
0271
ffc4
010b
0117
00cb
0314
fe20
0568
ff53
fe5f
feb8
fef3
08a0
01ae
0300
fd3b
0498
044b
fec4
039f
fff1
008e
feb6
037a
fc7d
fb08
fc2a
032e
058b
ff50
0234
0302
fd77
0411
0409
0239
fe03
03cd
fa4d
0027
fd9a
05b3
036b
ffbe
02e3
f801
fca0
0168
01e1
fddd
ff13
0664
fd0f
01e1
0012
fee9
f81b
03ba
0562
ff0e
fee0
faba
002d
003d
fddf
fe1c
fb52
feb0
fbee
faab
fb40
036a
fb7d
f98c
03e6
00b2
0317
fca6
fd9a
fd8f
0673
01b1
ffdd
019c
fde8
0066
01b6
0471
00fb
00e1
01d9
03de
045e
fd24
fd39
fb96
0116
0302
fe0c
ffee
0690
0717
03db
fd0b
feb7
02dd
fc95
ff90
febf
0350
fd49
fc17
044d
00db
00a1
007f
fd2e
fe42
fcdf
0872
0314
fee3
fef1
ffd1
fd56
046f
04e3
fdae
ff0b
fe53
fe0c
01ff
02fa
fee3
fe54
fc6b
fe12
0295
ffc4
002a
fbfb
023c
fbe5
02b2
facb
0522
fc73
0053
ffbb
02ff
fcc5
01e7
fc59
01bb
