fb89
00bc
0061
feb1
0443
fe58
fd63
00f7
f9d8
0012
0279
fc6d
f9a9
0143
fef4
fe91
feab
fe62
011d
fc8c
fffb
0179
091f
fd8f
0104
fb29
02aa
fefc
ff1d
011f
fddb
fd7e
faf1
0133
fe44
fd82
feeb
0224
fc24
031c
fff7
f74f
015f
fe31
0651
02d3
fea4
00f6
033d
023f
fe6a
fb88
ff9b
0200
ff28
fe8b
010e
0137
001b
0227
02d6
fb82
fd4f
fa35
ff2a
003d
0130
0448
fe46
052a
00ff
ff11
0348
05fe
03da
ffce
fe50
0004
039b
051d
fbd8
ff45
fa2c
ff98
00e5
00ad
fca6
029a
004c
fe84
019d
fd6d
0004
020c
fa91
fe7a
fab4
0298
015a
050c
fcd5
0140
fd6c
0312
fffc
00ca
02bd
0474
0043
ff49
ff85
fdf7
0022
03b2
fe4c
0223
0676
fd53
fd2e
01c6
00d6
fb9d
0235
0283
0800
fed3
0178
fc28
080c
02ec
00a2
0185
006e
01f9
0437
01f6
feac
ff7b
0342
f5da
fb2d
0483
01b5
0243
01fa
0244
00cd
f864
ff1e
ff15
02aa
fd74
fe1a
fbbd
041e
ff3e
f891
fb96
fde2
fda4
fb42
fec0
0087
fb88
05fa
f9c1
fd68
fc8c
03ad
0052
feac
fedc
ff18
0036
0171
fe5f
020f
0174
008e
fbaa
0197
0093
0008
fc88
fb7f
fbbc
0000
fd03
0223
fe3d
fec5
0159
ffb9
fe56
fff4
03c3
fc5a
0072
fd4d
0260
02e6
fd87
00da
02e1
022f
0422
007e
0112
fdc9
02fe
0231
fd39
0009
0483
fed9
0231
fe3f
03b2
05a4
ff2f
025c
fddb
0323
fde8
fbc5
fd36
01e0
ff01
fffc
fcb2
fab4
fec2
ff49
fe16
fb2f
02a0
0289
05d0
0167
04b4
0180
fdce
03e3
ff16
fe7c
013d
0040
fdb6
fceb
011c
ff74
fc9d
02c3
04b5
010c
fb40
0242
0090
02d9
fdee
fd4a
ff89
fff1
0420
02ec
f701
0414
0736
01ff
00ea
0254
0521
001a
fb75
0578
ff64
fe92
faf5
0632
00ee
fbac
fd05
04f6
f782
fe53
0011
0155
02ed
ff7f
023f
0443
fe31
01b5
0094
fe17
01b9
0155
ff16
fc7a
fd3d
0133
fd76
fb48
01d9
02db
fceb
05f3
016a
021a
ff88
ff48
fc87
014e
ff49
ff22
fd58
00c1
ffe8
fcdb
ff34
027d
0586
fa6d
ffac
feca
fce2
04a4
fa46
034f
fe6c
fcce
fcc4
04be
fe75
05cf
f783
fdfb
039b
fc7c
fd5a
f910
fddb
ffcb
005f
fd57
fb69
0102
01c4
019f
0048
06eb
0271
03c5
fa03
033a
f9c7
fc32
01aa
f84e
fd31
0071
00e0
062f
ff51
fd14
fde2
018a
032b
fd31
03ea
fbc1
ffdd
02f6
0199
00ce
02bc
fc75
fea5
fbed
01de
0236
034a
fb19
fa59
0157
0397
0358
04a9
0563
01e9
0161
fb03
facc
fd02
ffb9
fd9a
fe68
febe
fed9
01f6
0630
f937
0079
fbc6
f64c
fc05
0358
ff23
fb47
03cd
001c
fca2
fbdc
fe05
fdaa
003f
fe92
fc56
ff62
fb70
fe77
ff1c
07b1
043b
0186
011d
fed3
00a0
fe29
ff78
02e7
fead
0487
f9f1
fec0
011c
08ee
009c
fa5d
faec
fe9d
ff16
fa0d
fc7e
00b2
fef2
035e
fb92
01c3
08a6
fee9
02f9
fecd
f955
fdc6
fe20
ff54
0044
fee5
00d1
fe88
fd66
0009
027e
0308
0666
0483
fea5
face
01b9
02dd
fc4c
00e9
ff20
fb2e
006c
fda1
03ac
0240
fd56
0165
ff7d
fd62
0220
03b0
0180
ff64
00a5
fc67
fc62
046e
02e0
fce2
041a
fdd6
0216
0032
fff8
ff83
f820
02ec
ff9e
057d
0484
fde0
0292
01a8
fc93
fff5
ff28
fdd1
00e0
010e
fee8
01e4
035a
ffbe
fb68
010a
03d7
007c
fe41
051d
ff50
02df
fce1
044b
0048
0478
0793
0076
ff72
0420
05ae
fe83
fe0f
ff94
0020
0096
fbd1
0082
febf
ffee
0440
fe38
ff1f
02a9
0287
ff7b
030d
021a
faa7
0351
ffe5
fb83
feb6
03f5
ffec
fe2d
008c
0070
01b6
000e
02be
ff68
f962
059c
07f5
fe15
f93b
0278
fc6d
0161
fcce
fc61
02ab
0190
0098
00e7
fd28
feaa
fe0c
0333
0215
05ae
02e2
0290
023c
fffd
ffb5
017a
04cd
fede
ff0a
fdc7
0108
03d6
fb29
ff53
feef
fe57
fd94
fdc1
04d8
06f2
fbe7
0100
fe2a
05a3
fe2a
fbcb
0349
fc74
fb91
fe98
029b
fe58
faa8
03b8
f652
0400
fdb6
fcd9
008a
0263
fa34
0123
fcb6
fe31
0014
0444
fe3a
0125
04c9
ff09
fe13
ff79
05ee
01e6
05ab
065d
fff1
0645
026a
fa37
03a4
0550
04f3
ff28
fdd0
ffd4
fe85
fd6b
ffde
00c7
0238
0109
0317
0203
fee6
fdee
fe37
fc3c
ff93
04c8
04c6
026a
0457
fb34
fcd7
fe34
0435
059e
00cd
016c
0739
01b5
fa0c
02b5
088a
025f
ffa6
0018
fe68
023c
0392
01d7
0179
04c6
ffa1
05e7
fdb3
0055
0022
fd08
fe56
00e2
fcb9
fbec
02a2
fb0d
0263
ff13
000c
02e3
fea9
ff96
ffd7
0034
0040
fdb3
00b5
ffdb
0359
04cc
ff9c
f5e7
ff3e
ff25
048e
fd5d
fd1a
fef0
feea
01a5
0328
04c1
feaf
fe57
fcc7
fd6a
fb24
02e9
019e
fbc6
fd21
05ac
0190
0139
f7f8
ffb7
fb8b
034f
01c2
ffee
feb2
022d
fe0d
0606
0087
033c
0074
ff94
03b1
fe37
0161
0130
fc2b
03fa
0225
fc5d
f919
fe9c
01e5
0118
ffc7
08b3
ffe9
fc15
02cc
fa38
03c3
fc2f
0437
f98e
0111
0103
ff6b
ff49
fc2c
0236
0444
024e
0402
