0147
00ce
ff0c
023b
fd7f
fbfa
0806
fdf4
fe7d
ff8e
ffdc
f63d
0194
0077
fe92
03c8
ff28
05f2
fc2a
0350
01cc
fbf7
0727
fcc2
ff24
01ca
fe88
fd4e
fcf7
0295
fcdc
fd74
041d
0160
032a
f96f
0105
01fb
07a1
017c
fcc7
ffd7
fc26
fd14
fcdc
0498
ffcb
fed2
ff0f
0425
fee2
feb8
fbf4
fd4f
0062
04d4
ff76
02a0
006a
003f
fe92
0033
ffb3
0110
03c5
00d5
ffe5
feef
0539
00de
febc
fc92
04e5
016f
00bf
0275
ffb7
fa55
022e
ff18
0045
ff3d
ff99
01ea
fe2c
fef5
0330
008f
04cb
00c4
ff77
0792
fbc5
fc44
fce6
fde4
05a3
01b1
01b0
01d2
01c1
0141
fcf2
02ca
fe38
044b
fe01
fd1d
03f6
fe84
0063
0696
00c2
03fe
0769
f8c2
fed1
02c4
0263
0228
035c
0496
0456
003c
ff39
01e5
0046
0061
fe63
029c
0305
ff57
02ad
fd0d
fd90
fee0
0026
04dd
fe71
0044
00c7
00d7
ff2e
044a
fe82
02e8
04c7
fb42
0294
0007
08e6
0287
09d8
0267
fcd5
003f
fedb
0135
05fb
0175
fa76
fcce
04d2
fa14
0566
ffb0
0278
ff5b
ff2e
0610
0355
02b6
fb0b
05f6
ff4f
ff72
fed5
f99e
fd01
078d
03bd
0426
0209
fe4a
046a
fe1d
fecc
fd3b
fe3d
fdbd
050d
0207
fc70
051f
fdee
05d6
fb7b
fe76
ff2b
ff58
f889
fbf7
014d
fcac
0021
03a9
01e4
030d
01f5
f951
fba5
fbb2
0421
0480
0342
0327
ffcc
05ed
0175
021c
0456
fedf
00dd
0193
fff0
00b1
ff1f
ff8d
029c
ff1b
f8bb
ff3f
fd47
fffb
ffbf
066c
fe36
ffb6
01a3
0304
051a
00f2
027a
fdee
ffce
03d7
04a2
00ea
f9ae
038d
00d6
fc7d
02af
fe40
fec8
fb52
fb7f
00fc
03cd
f938
fd10
fe0a
028e
fd9e
01a5
0171
ff2a
fd2a
fd57
0343
ffa3
fcba
faab
fb69
0316
03e5
0281
001e
002d
fc92
061e
fe6b
02c1
022b
fb7e
0346
0850
fbae
00f7
0311
ff60
fe9b
00fa
ffd3
fc2a
0095
0208
003b
02f7
0187
02b6
faa6
fec2
fed9
fecd
facc
075c
01cb
0105
fac7
015c
feee
00e1
fcf9
032a
ffa8
fdbd
035a
0449
fa59
fe58
00df
06da
013e
003b
018e
ff24
0125
003e
02db
0040
0134
0383
fd9d
fb31
02c8
03cd
00be
f868
fe67
0086
0424
ffcd
fcbf
ff27
01b6
00eb
ff24
02e0
ff8e
fe16
00a2
0104
03e4
fd50
02fe
02bb
fccd
015a
0177
fe26
fa84
f821
0178
026b
fe57
fa8f
fe35
ff71
fd63
0465
feb0
fe53
fff5
0157
0372
042d
0390
04ab
feba
fe8f
fd40
ffcf
00c8
fc58
ff09
0209
fee8
fe25
fac5
0124
fe45
fd0a
0157
feba
f7fa
fe6a
fd83
ff20
fb38
f9b8
039a
02f9
019d
02c9
fc6e
009b
ff71
02f2
ff3a
0116
fe41
0384
fd0e
fbc5
fb97
0225
0046
001d
0091
0229
00f6
fb8b
067a
05d6
ffec
014e
003a
0389
008d
fd36
0243
fdb8
fb4d
0049
fb09
fe3f
fb0a
0142
013a
f430
003d
0677
fe30
fcb1
012d
fced
fed3
003a
f94a
fc39
01b6
f98d
fe56
ffef
fcbe
fe5f
f9ba
01b8
03de
fe93
03a6
0154
043d
0114
fd38
fde0
ff6f
0240
01c7
fdde
fe61
fdce
016f
0200
041c
fe4c
015c
fdda
0002
04e1
0403
fb30
fe8a
fff0
0368
00d0
ff56
ffd5
0347
fd35
fd4f
0072
0127
fe98
fca7
fe96
02ac
0194
0167
03d5
ffc2
fb92
0383
ff44
fee4
f903
fe6a
f7fb
01cc
029e
fff3
fd62
003d
fd89
0250
0380
017a
fd22
ff3b
01b5
fbdd
f9ce
fc4f
ff6d
019a
fea3
faf0
fb40
019b
ff98
ff8f
022a
fb84
06d6
0081
0236
fd53
ff74
00ff
0426
fac9
ff9b
001c
0273
ff9c
fc1d
fb8c
0c93
00c9
ff90
07ad
0344
022f
0121
014e
0067
fde8
fe8e
fb28
00d2
0208
0262
0326
0189
0191
fb16
fffc
0099
ffda
fda0
0299
fd70
0199
fbc1
02d2
01b7
03eb
fdf7
fdc9
ff12
0260
fdc4
fb3d
0119
0346
fb9e
fb78
0179
039c
03b9
fd3f
0632
ff1e
fcfc
0083
0261
ff22
0261
0009
ff4f
0265
fc74
f9f0
fb51
04f5
00a6
faca
0301
0210
fedb
fe76
0044
ffa0
ff26
0067
fd4b
0140
0459
011a
04a0
0741
0464
0323
fd9e
01d6
fa06
003d
00a5
faa8
020d
04d3
fc8d
0449
0436
0542
fc9a
fc47
0191
01c8
f889
fdd5
0089
021b
fe7c
021f
0292
f8fd
f40f
fc53
fd0a
fffa
0098
fc3f
fdb2
01eb
00ca
ffcc
0411
fffd
02b0
036b
fc34
058e
03f0
022f
fa9a
fc8b
021d
fdd2
01c7
0071
0443
fd84
04c4
fca1
fdef
04a4
fd4d
0141
fd46
fbd8
04dc
010f
0166
fff2
0442
ffd7
0172
00a6
0192
fd3b
f9bd
0449
fd2a
037b
0339
f4b0
016e
ff64
024d
02fd
0239
055b
fdb0
fde3
04aa
fd71
fd8a
fced
fe6a
0063
0053
0068
ffbc
045a
f7c2
ff95
ffb4
01bc
fbf8
ff26
01b9
fe13
006e
fd74
025c
fd38
01a8
0283
fe30
002a
fd3f
0212
015e
01d2
04f5
fe43
03b8
0177
ff85
ffd6
fd64
016d
0122
fb58
027f
f8c4
fec7
0185
0168
017a
f9d8
fec1
0084
ffd4
025b
065e
0360
fc69
fb14
01ce
fa86
faaf
fec7
ff54
fbb8
ffa1
fbf6
fe83
ff5a
fe8c
ff2b
00e5
0031
0413
0094
fd30
0656
ff06
ff16
0429
fea3
fdb8
