fcc8
ffd6
01a7
0425
fece
03ac
0337
082b
ff8f
03a5
fdee
0342
fd8f
fecc
003e
fa1f
fd3b
01de
febb
fd99
0472
fb8c
fc41
ffbb
002c
012e
ffe2
fd99
ffc8
fdf5
facb
fcd6
fc1a
03e8
ff15
00c0
ff24
fe00
00a0
fb68
01da
fe57
feab
0070
0250
fdb0
fee3
044c
00f3
0527
0541
02e8
ff99
0003
fea7
ff26
fe6e
ffdb
0720
ff8e
022c
029e
fff2
00c2
02b0
fe24
0183
01b0
0764
0289
0223
02bb
0077
fe8d
01a8
fde4
0211
02c9
0256
02b5
fdb4
fbfd
0478
fd91
fdf1
0112
fac8
fb2a
fe66
f931
fd5f
03a2
fd59
0186
03bf
fd8c
ff4c
002b
fd66
ff7e
fbd0
fc9a
fd41
02bb
fd52
feac
ff39
00d0
faef
005c
fd46
01bf
ffbb
ffe7
fbcf
fe5d
ff14
ff75
fdc0
f983
fc0e
0346
fcf8
0426
fef0
fc5b
05b9
000a
02e7
fa83
02fc
000b
feb9
0443
0006
ff44
f99b
0418
faa1
ff85
ff1e
fee6
fd23
fc89
035a
ffc9
00d9
01ea
0202
ff13
fe15
f9db
0000
0250
0345
0082
043f
0030
fdc0
0047
feb5
fc67
031b
022a
0099
0339
0286
063c
0155
00f2
024f
fbe0
fe0e
fdbd
ff7f
0219
ffe4
fbb9
02e3
fbb4
01d4
011e
fe87
fe2c
fb75
0104
028e
0226
03c9
004c
020f
031b
0485
ff52
001f
fca3
fd31
003f
fb96
003b
0481
02d2
00fd
03fb
0106
0095
06cf
028f
0736
0022
066c
fd13
fd47
0141
0288
fca0
feeb
fc97
fe39
04c6
00c1
0092
0488
0006
fbfe
0370
fbe7
04f9
0000
0284
fd50
0127
f943
fbc7
fd31
046e
023b
fde8
00e1
01ab
fef3
05ba
01b2
028a
ffa2
fc9d
fdd3
0433
00ca
00bd
ff6d
030e
ff96
00f0
ffb1
005e
fdfb
fd64
000f
fcd1
0187
0070
ffe2
02ad
030d
fe48
fe52
01f5
f83f
fba7
0001
ff9b
0011
0368
ffd3
012c
0251
fa98
04e8
fd01
023e
02a0
0069
fea2
0158
01a2
01aa
fbbf
ff63
006b
0016
fea1
fda9
0118
ffa0
0362
011f
0411
fc75
0250
0329
fe50
0068
005a
032a
0320
0019
fff9
051d
fdf6
0084
02d4
fdaa
fdc9
ff2f
ff82
02d4
fe75
05b6
0380
00a2
feb9
fe2d
01a8
ff0d
f95d
fba5
0589
ff57
003a
06be
00eb
fb18
0137
fe95
fe3b
0124
fd26
059e
fea4
fff3
fb33
03cb
01d4
fddd
ffc8
ff96
009a
069b
01c0
fece
fc6f
fef9
fbf2
fcfd
0052
01c0
0066
032b
01d4
0123
0017
03a2
ffd4
fdec
0373
011a
0179
fde7
fff9
0275
04ff
ffa5
fe06
02d1
006d
ff92
fcbe
fbad
fe49
02e6
fe42
0507
003a
04df
00c9
0119
012b
fd5e
ffdc
fa6b
04d7
fdcf
00fa
fcc2
ff87
02c1
0075
0011
0661
0574
fd60
007e
fccf
fb23
ff70
0059
ffff
f8d3
00e1
fe7d
fc47
fc52
fd3b
0549
00be
ff7d
0214
ff18
fea7
ff45
0052
029d
010a
0424
0330
0047
feba
0438
0357
0185
fcad
015c
ff0d
09d8
fbff
03ed
03d1
0512
025c
032d
fd16
ff50
ffd7
ff56
008e
04dc
fdff
00a8
fb62
0394
fb5e
07f3
00ee
013f
fd6f
00ef
00c4
042c
0304
fdf6
ff73
0013
02f2
01d8
fe03
ff0e
0210
041d
0495
fd2a
fd56
fff4
0107
0233
ff58
01eb
ff3f
04f5
012b
fc07
0315
fd43
02a0
fee8
fd99
fed1
02e5
03a9
ff1e
011a
03cc
0369
0463
fbf5
fafd
fedb
0188
017c
00f3
01fd
02cd
ff62
fc0d
fa23
febb
05b2
017d
0232
0181
fb30
02c9
fbe1
fce5
ff88
01bf
0274
036d
fdd0
0145
04f5
fafc
012b
02dc
00f2
03b6
0125
020b
055c
feb5
fe79
05ed
fe53
fe82
feaf
fdd6
fe25
fde4
0568
fee0
02f3
02d9
ffdd
f868
fde0
fd4a
ff47
ff05
fc50
fac9
ff27
0090
fef0
029e
0464
fc95
02fa
fd79
fdb6
01bf
fd1c
fa32
fe7d
0204
fd5c
fe01
012e
0200
031f
0033
02ff
0434
fcd7
fcd1
fcac
fd01
ff1e
0316
01a5
0231
013a
faf8
fe19
00a1
fe8a
0470
0579
ff17
feff
fef7
02b9
ff5b
0404
01ad
02ca
01df
fff6
fecc
ffdc
fe9f
05f2
0257
0082
fd61
02a5
04b3
fe51
0563
feed
0073
0419
034e
fc7b
0207
fc00
fe4f
f988
01ad
feb2
fb03
020c
013d
0180
fe23
0081
fc7f
040f
ff15
04e8
fe8c
ff0d
ffac
fdbf
01cf
0210
fd20
0069
03ba
01e3
ff14
043b
ff8f
fd05
0007
fed6
fcd4
fec1
022f
fe1a
045d
04d5
fe9b
01d9
fea6
04f1
ff10
00fb
00bb
0232
0922
ff91
fc6f
fb32
0096
ff58
fea8
fe24
0473
feaa
fed1
0045
0174
02db
fecd
027f
fc25
04d0
025e
04c4
fcd6
0441
fa0f
051d
01f4
fc04
00ed
0409
0237
fba3
023e
0498
fdb7
fe35
0043
fe9e
fcaf
fd32
ffbd
0068
026d
03e3
0252
fef7
03e7
fed3
078f
fabd
05bf
fd18
0136
0423
0342
fc29
fa99
fe05
04b8
fed1
feb8
01c1
fc57
fd6d
0330
fe31
fb66
030a
fc6e
ffe7
ff8c
04bf
ff20
081e
fcf9
fd18
fb03
0633
feb5
0173
00c5
0625
fdc2
0081
fc57
01de
00c5
fd0b
fc8f
0022
0117
0164
fdc6
0149
fc45
fe1b
fce2
fd5c
01c5
0205
fc77
fd79
ff5f
0398
fbcf
fa7c
03d5
fbf3
fdf0
00d2
fc24
f720
fd49
fd4e
fe8c
004b
0191
0273
fcb5
fd22
02f9
00df
fc81
0343
ff5d
0088
f5d8
