0144
000a
02e1
feaa
023a
feb5
06b8
f884
fa24
0441
0084
0599
00b2
00e4
04ae
0516
fe35
fd31
0292
fb93
073f
fec4
fdaf
fe63
fc18
ffa6
0728
0100
0633
fffa
fc59
faed
0340
0715
0131
fa78
ff17
f835
fbc1
0527
fdfc
03eb
f918
fcbd
fdd3
043c
0293
00de
fcb6
ff19
fb2c
f762
fbd6
0011
01dd
ffc2
0366
fedb
0112
fd5d
003d
fc77
05e0
04a6
03c7
038b
fbe6
ff31
01e3
00ff
ff96
fd9e
0084
048d
038d
ff34
0645
fe97
ff36
fa67
02a0
03bc
0189
0360
f852
01b8
ff28
ff23
0048
02db
00f1
04b1
ffab
052e
04d1
005f
0297
039a
016e
03fb
fccf
004e
0415
038a
ff1e
00be
02bc
fcdf
f8c8
fd5d
02ee
006e
014c
fce4
0588
fcde
ffe9
0521
f9c0
ff8e
fbf4
fc87
01a8
0337
06d6
fb39
02c6
fb82
08d2
fe50
005d
0653
fc35
013c
fc3b
01de
00bc
02f1
ff5d
0137
05b6
02b3
053b
01c6
044f
0094
fdb8
fe36
fd1f
fffe
02ae
043d
01dc
fd0f
fbbe
fc04
ff6b
031b
fdfa
0427
fb37
0376
0227
fed3
fd62
fd3b
ffb7
00e8
0391
0344
ff72
ff1f
0367
ff6a
fe3e
ff98
fdf0
fe6c
0645
fe56
ffab
f849
010f
fc28
ffd7
029a
02cf
ff83
fb80
04d3
0364
f891
05c4
f8a9
0528
ffc8
02a3
053e
010a
0121
00e3
feee
f94d
fec4
0175
fdcd
020c
fd38
0429
fd2f
faad
009e
fc24
fd6c
fe36
ff9f
0636
02c2
fdc7
fc71
0351
0161
fa70
ffa1
fc86
ffb5
012b
fd18
01fe
f9a5
03db
01fa
0155
030f
03e7
0004
fd67
022e
00b7
fe3e
fd07
008b
0142
0035
fce9
feb3
febe
ffe1
01e9
016b
005e
ff43
fd0d
fede
ffb9
006e
0095
0456
ff7e
02e5
0267
0000
fe30
023c
fe74
0088
00d3
0062
fc16
fe87
fe47
fd93
ffc0
0331
0030
0360
068b
020b
fe2a
0267
fba3
04e3
013d
01a5
03a3
03d5
034d
0345
fe89
0148
fdfb
fff0
ff4e
fffe
feeb
ff45
01b7
031d
001a
0939
ff6f
00fc
04e7
fa0f
038e
ffd8
0077
03dd
00ac
febc
00d4
fc99
fdd5
03dc
00bb
0513
0405
fdf4
f859
02ef
02ba
03cc
049d
0185
fe8d
feae
ffd2
02c0
fc12
fa0b
fb22
fd5c
fc09
ff38
fd39
ffa5
fc42
fef7
fa68
0270
0590
f77b
00f9
fced
0348
065d
fce5
0154
013b
fffd
fc34
0002
fbd5
fe81
ff97
01dc
0203
0489
fea4
feb5
fbf2
032a
0483
04fe
feb7
031f
fa47
ffe8
fa79
0053
fd88
03f6
04fb
0110
fabe
00dd
ff1d
fc99
ff34
fde7
fed8
004c
0277
ffd6
02b7
fcf6
ff33
026a
fd66
fca4
0122
0019
ff6d
0318
01b2
fb33
fbfe
ffcf
f972
01e4
fcd9
febc
fd55
fcc1
0701
0467
00ac
fd22
0193
020f
00ec
0000
ff0d
ff3c
03e9
ff1f
fcfa
0156
04ff
05a1
fbc1
ff2f
ff64
ff4a
fd22
ff2a
ff4d
fe14
fe5c
0043
fc5b
fdcc
04f4
020e
067d
fc18
02b3
04e5
fe8e
fe67
0268
02a2
ff7f
fd45
fdcc
ffd1
015e
05db
ff02
0024
fe43
01f1
f9cb
fd6e
07cb
fa65
fcaf
fd4b
07c4
fe3d
ff2b
021c
02d9
fc51
fdb7
00af
02e8
0083
fc73
fb09
fe1d
0310
febc
fd48
fecd
00be
017f
0455
fe0c
05e2
fc8f
02e7
ff47
0284
f8e5
0583
00dd
03af
fed4
0159
06d2
0083
047a
043a
02d5
fc69
0065
fe46
00c3
023d
ff97
ff0e
ff1b
ffa9
fb9f
fe68
f990
fe54
005d
fd2f
fe3e
00eb
0094
fc21
fe48
fcc3
fd62
fe7c
0652
ff76
0451
fba0
fe6d
005e
041a
0502
04a8
04ba
03f0
00ac
0182
07e3
0362
01ac
0336
0582
ffd3
ff71
fb80
0068
fe70
00e4
fa52
0132
ff4a
fe83
fd9c
fcfa
f862
095c
007d
016a
0523
fe01
fe54
fa01
0587
02ff
fe86
ff7a
001f
0071
0047
037a
fb6a
01e9
0235
001f
0563
05b3
0015
ff83
fa15
fe8e
fe50
033f
00e2
ffc4
ff6d
fd96
0210
fc3a
023e
fd09
fd73
003f
029c
ff27
038d
0312
fc5a
fff2
fcc0
faa9
03ce
02d7
01a8
fd4a
fec1
fe07
ff46
03a9
f9be
00ca
fafb
0336
0192
01bf
fce5
0253
006b
f931
0121
fd2e
03cf
fcfe
fd12
fbff
fe9a
fd72
000e
00b3
03ac
0306
033e
034d
06ef
04f5
fdec
02d1
039a
fe3e
0218
0112
fce0
0125
0197
fe52
0055
ffe5
00ef
0169
fd9b
0295
fa51
03e6
ff0d
ffab
fd91
0193
ff94
fc22
fec9
ffd5
068e
0557
ffa8
fda6
fc81
fe7d
febe
fc02
fb42
005a
02f5
fbad
029d
008b
fc9f
fe05
0150
014f
fe6c
0312
048c
05dc
fed5
fe4c
f8ee
fd6f
fb79
fb1b
f9b1
ffb9
0650
fcd7
fa3a
fd6e
ff7a
04e4
fe14
fd5e
0145
02d1
faf3
02d8
028a
fa3b
037b
00ba
fd71
ff2f
0073
003d
feb1
04b4
010d
ff31
fc40
0072
ff05
fd1f
fc54
0127
ffef
007e
03ba
ff2e
00b8
00d3
02a8
fe16
01da
ff57
0595
ff6d
0483
00d8
008e
f888
fccf
fefb
03b5
00a9
ffb3
fb72
fd29
ff32
febb
fcb4
029e
fc40
015b
f965
fa60
03d7
02fd
ff2d
fe6f
fd5c
fee6
ffbb
05be
01f4
0117
0493
f85f
ffd7
005d
01d4
01a5
ffd2
0123
00ac
fd75
fd1f
fec2
030c
fee3
f7fa
ff5e
fdc3
fd3c
fe7c
feac
fc96
013b
fadb
fd92
00a6
faac
021f
fd0b
072f
