ff2f
fead
0159
0263
fd9d
fcaf
fe9b
00cd
fde5
0172
ff0d
00c6
01e6
fb1c
fb16
0314
f7fb
fccc
ff60
013f
056b
ff4e
0456
0009
04be
0583
0343
fe49
fbe1
0214
005b
05a3
00ce
fe55
fff9
fbaf
fbbc
f958
fecd
fcef
ffc9
ffdd
faf3
01c0
ff84
fac9
0232
fad5
fe10
fb36
fe65
04b8
02fa
00e5
02bd
fe3d
fddf
fedf
0023
0031
fc23
f7ef
f89b
0217
fdb9
ff7b
009e
037f
ff6d
0061
05af
0328
001f
fba7
0284
0267
00c4
02d9
ff94
ffb9
01e5
fc5b
fe2e
008f
02b5
01f1
fee3
0000
fd52
03d7
02b4
0402
ff07
fd33
01b0
ff0d
f899
03f2
ff63
fefc
ff13
fc85
0198
0283
07ec
0129
02b8
fc93
0028
fef2
01d6
fcbd
fe6b
074b
fe43
fe22
03e1
fc1c
fe31
fe8c
004d
02b9
02d6
fd9d
fdd5
fba9
0224
ff4d
fb28
fdf4
033e
feea
0061
fecd
ff02
fee8
ffcc
0453
fe4a
00d7
fc21
01c3
016b
0176
f9e5
0074
02b0
042c
fba8
fe48
fcd8
fc37
fc3b
fc68
0000
f795
015b
fedc
fc26
0131
001e
ff7d
016c
fd49
fa09
02c8
ffe6
03c0
ffba
fcfe
fe13
fe5e
fc4f
056d
01d3
0060
003b
0580
013d
05d3
0084
faf6
ff9e
ffae
fdce
0150
fac3
fe55
0165
f994
fc23
002a
fe54
034a
ff65
06a2
0389
ff60
f8db
01f2
01e5
fe86
fb2f
000c
fce9
fdf8
fe8e
fbd4
0117
0375
039f
fada
0683
06d8
fe6e
0030
022a
fd35
0473
ffda
01af
054b
02c3
00ab
02ff
fc8e
0019
00ca
0062
0265
0018
fce8
fe1d
0288
fe04
ffa5
0117
ff4f
01a6
ff6a
fe29
fe7f
015f
0097
0437
fcb5
fed7
039b
fe2a
ffd8
f8c9
ff50
046f
fe7f
fcb7
0003
023c
0203
01f9
fb41
fb43
ff3a
04cd
fee5
0289
03dc
077f
fed2
0003
fa51
fd98
01ee
fe3e
fca1
021a
fce4
fc1d
03fc
fc1b
02d6
fb3e
ff7b
fd91
fd0d
fde5
015d
ff52
02d0
f6c2
0746
024a
0539
fde6
fd10
fcf8
02f4
fd2f
026a
fc5d
016f
0149
0015
01db
0117
02cf
030c
002a
00a0
fdf6
02dd
007a
fbc4
0481
01e5
fe31
fb20
021f
0004
ff76
fe17
feb4
f8b4
00bd
04bc
00d8
040a
fc5e
ff44
01b7
0105
004a
ff49
fb3b
fe8b
05b9
0394
ff0b
03dd
04b3
ffe7
f82a
ff4b
faba
ffad
02a4
03e6
0085
fee3
0868
ffeb
0339
fa1a
ff59
f707
033d
fc19
02e8
00ce
0145
07dc
028f
013e
ffcd
fcfa
ff13
049f
042d
fa64
fc63
ffce
fb29
01bc
01c0
0087
fe9f
fc2f
005c
0232
0135
013a
0108
01c5
0469
039b
fd8f
ffcb
02e6
f986
ff6b
045f
0040
014e
ffbb
0057
02ff
00bb
fe13
fd94
ff27
02e6
fb62
fff0
f913
001f
0031
02bd
fd73
fcc7
049f
fee8
fe97
fe6b
009a
ffee
0039
0109
063f
0293
0067
0223
02f0
01f6
0044
fcd0
fc23
ff05
00a1
fff1
fcda
fedd
feba
0405
fcef
ff04
ff43
0153
01f9
fdfe
fbba
02a6
fcb1
fb01
fc6a
0272
ff04
fcc6
fde0
fddb
f99c
0167
02e9
fe22
0313
0074
ff35
fac0
098c
0078
fcf8
0161
fdaf
fb7b
0484
07a5
ff57
0192
ff33
01df
fca0
00af
fe60
0255
016a
026d
fe51
ff50
05f8
fd01
fc66
fd9d
00e4
004a
fd07
0403
fcc7
009a
044b
fbc5
ffab
018a
fa52
ffb1
0565
02c7
01be
00d2
f9fc
01a7
febf
ffba
00e2
f7a4
fefb
0055
fa31
0471
03ea
021f
fec6
fb56
009b
0005
fe6e
0397
0020
0091
ff34
00be
0069
0362
fe01
ff63
0414
0093
ffeb
040f
f982
0000
03f9
fc4d
f72a
fe21
00a0
013c
ffa4
0073
fcc3
0030
0417
0099
0010
0618
00a1
0714
f721
ff55
fd60
fdc5
fe43
fc1e
01ec
0093
0170
ffdb
fe1e
ffe0
f9b1
fc0c
04f5
0044
02c5
fed3
027a
fdda
01fb
03ed
0078
02f9
fe75
00fc
091a
fdc2
fea5
fadb
fe40
011b
ffea
f95f
fe16
00be
00e7
012a
0186
ff51
0216
f9ff
044f
fb54
f812
fe6d
fc59
fbae
fcec
ff62
fdaf
fd8f
ff10
ff8f
feed
fcea
01f2
043a
fe4d
fd52
02e5
00d1
fc96
fc77
023f
0441
0134
01f5
01ad
0307
0258
0044
ff2a
0199
0224
0337
02d8
ffeb
02fb
0392
020d
0185
fec3
05a1
feac
fa4d
01c6
035b
ff0f
0146
0026
0130
00ff
0081
006f
0087
fed2
0312
00dc
ffcb
fcf4
fb6c
022d
025c
fdea
03d5
0083
0077
fbfd
024e
fddd
015a
018f
fdba
01e8
fe04
fb37
fff1
07ff
0133
fde7
005b
0a23
fe53
fe75
01ea
05a1
00c7
0196
f908
0125
ff51
00a8
03a1
007a
ff58
ff79
03aa
02d7
fbcc
fe29
fa6a
ffc3
0286
ffe8
fdeb
fde1
fafc
017d
ff98
0439
0356
010b
fcfb
fd5b
fe1f
0362
0198
ffd4
00f6
03a1
fac9
fb95
028d
ff61
fcf9
f9fe
ff67
fcef
073c
0123
0492
fded
00e6
0256
0274
fe6f
01d0
fe97
00d8
014c
fbf1
ffa3
059f
ffac
0563
028e
02ab
fdb3
01a1
fbb8
005f
0306
ff03
03e1
ff7d
034d
ff8c
038a
fbc3
03e1
ff8c
fbe4
03e3
fa13
014d
fd65
ff96
018f
0333
0612
0139
ffe9
fda6
ff2e
ff30
ff82
fecb
fe43
01a4
045d
fd70
01ea
fd30
0145
0596
fe33
fae5
00f6
00c7
fd25
fcf7
fb27
fd63
011a
01bf
04ec
0138
fee0
fdd2
