fc03
0191
fcb4
ffff
0079
fe70
048a
0400
fc97
fc69
fe79
0133
fe05
fdbf
ff58
ff00
006e
fe6d
fb61
ff35
ffd1
0034
ffd7
0076
fe02
03a8
ff9d
fc64
053e
ff10
fa04
ffd7
fde9
fca4
fa4b
fc17
0170
0302
fbad
0078
0140
fd40
01a4
044a
fcc6
002e
02d1
fe03
fe6e
ffdf
03f9
033b
003f
0271
0182
00ba
fd15
03c4
fb63
ff90
04e2
01b0
04cc
02b2
0285
fd25
fcdd
038f
00fb
0682
049d
ff40
003a
fb33
00e3
fd18
026f
fb49
0674
feae
fd5f
fad8
048b
0521
fda5
01ef
ff25
0213
0214
fcf1
01a8
f8a2
0293
fdf1
f9a4
fb79
0111
0228
fa44
fdcd
05e4
fec3
fc2a
fe7b
ff81
038f
025f
01fd
fe08
0313
fff5
02fa
0036
014b
01a5
019c
00c7
05da
02a4
fb4b
00c6
0454
fb4a
fd78
fdac
fafa
0166
ffd3
03bf
fb85
0035
0146
0611
fd9a
faf4
0206
00e1
fe58
0168
0254
0167
02c2
fd3a
04ab
fd72
00a0
017b
fcea
fa49
02e7
00a2
0429
00f8
fc07
03e2
fd9a
020b
fe6a
fee6
003e
fcaf
02d9
0724
04c3
01e3
fe5a
01c2
00cf
ff6e
029b
0479
fd11
003c
0563
012c
fd57
fa3b
fc9d
fc16
0033
0106
00c0
01ca
05fc
fb13
014e
0241
fa42
fba1
002e
fbf4
feb6
ff1e
fa31
faf6
0095
fc9d
ff77
026c
f621
fed8
fec7
003e
fe80
fc7a
00ca
0263
fbf8
0053
ffaf
ffa9
003d
0225
f8b5
01fa
011c
0076
fed9
01ba
fd5d
0219
034d
fdcf
04b9
fd23
0348
fb0b
01fd
004e
0182
03b1
032a
fb0d
006e
063e
01f7
0020
02a9
01da
057f
0025
fe11
ffd2
0231
00d8
0545
0337
fb09
002b
fc2a
ff5e
01f6
0138
0592
0768
0061
fcaa
fa8c
026c
02ec
028f
fbcb
fb63
fb97
0141
0056
fbf1
fc65
fe5a
01f3
0290
04a1
fea1
feac
0287
fd39
fe3a
fd81
fe78
fd84
fa5d
0120
ff47
fe26
0102
02f0
fc7d
fe75
0008
fcf2
fe13
00d0
01b1
ff44
012f
0180
fd46
fd3a
0204
fe95
fbcd
ff0a
01fa
ffae
019c
0099
fbb0
00fd
fc88
fead
0036
04fc
00de
fad9
000a
fe02
ff84
008b
02a1
fc8e
fbc9
ff92
fce4
fb2a
0184
fb76
fcd5
ffa2
fae9
fd0a
ff8e
0216
07b8
feb9
fc72
0382
0148
00e7
002d
fe6b
fd33
0248
fd59
0277
fc21
fe40
fb6a
fa9c
0640
fe0e
fba5
fbe2
047e
03dd
ffd6
fd2a
ff5e
fb4c
008d
fe9f
fd62
0001
fe5a
fd47
fd3a
027b
fce1
fe25
ffe0
0340
fae9
019f
0054
0357
00d7
fdbb
feff
fd4a
fed3
040f
0a75
ff25
fe9c
fdca
ff24
01d1
ffc6
058e
033b
0100
fbc3
01ed
00eb
01fa
fdd9
027d
0549
009f
fe63
029c
fd8b
ff09
02d1
0478
0005
034f
fb52
013a
038d
035c
032f
ff2c
fddd
04ac
001c
fee5
013c
03cf
008a
0328
013b
fe5d
fd79
055f
0252
fd91
f9ad
fc5e
0568
fe6b
f99c
009d
fcff
fd8d
fe45
f994
fb27
03c8
0288
005d
02fe
fd98
0154
0245
faba
fd73
fe88
f7b2
0214
faf9
ff67
01c2
029f
ff01
0193
ff95
fda3
0401
021b
fc8f
0122
0567
fec4
03ee
00c4
f8ca
0499
fffe
04ca
fd95
fbda
03d0
ff1f
03de
0307
007f
02fe
002b
0228
ff6a
00b8
0459
00fd
fd8d
f9aa
fe90
fb58
ffde
fd36
fc9d
fed2
009d
01cf
021f
0360
fd83
fd81
068a
042b
fc5a
02b9
00f7
fa46
0620
fec9
0496
0010
01a6
035e
0339
0002
0059
0143
043c
0114
0376
052a
03d7
003a
fe0c
0727
0099
032b
ff60
ffb2
0477
02f2
01a3
0417
0151
04fc
ff02
fdbf
fc69
fe0c
f9ba
fc95
ff98
fe9d
026a
0142
014b
fd41
0341
fb51
00ab
025a
fff2
fccf
0728
004a
004c
fcaa
fddf
0c3e
f823
05d8
022d
024b
011d
ffdd
fe5b
fe97
0069
fc08
016c
0360
fc68
ffc1
ffd6
0289
0292
fff0
ff57
0198
028c
fe26
01c5
0494
056e
00c8
fad2
0244
0188
01d7
fddb
06f6
025b
fcd4
fe4b
0653
005b
ffb2
03dd
fb3c
0128
fbb4
fc19
fbc6
fe86
ff33
01fb
fc44
fa30
0120
fdbd
004e
ffed
fe8a
0a27
fbdb
020e
031f
036e
fe25
035d
053f
030d
ffea
01ad
03df
ff60
03d9
063d
ffc6
ff45
fb8e
00d7
ff37
feaf
03e5
0414
0173
fb36
fcbf
fa58
037d
0076
f59f
fccf
0012
fd86
ffed
00e6
002a
0177
ff87
fe10
0015
0381
03eb
06eb
fc0f
ff21
fc00
0416
fdc0
fe1d
fe1a
fd37
0466
fe11
02b4
0376
0203
05ba
fbf8
ff8d
ffc7
01fd
f86e
fd94
ffb8
fd64
008a
016b
0028
00ec
fbde
fecc
ff21
03c0
056a
fbe5
fab7
fb90
ffcf
fe88
01c8
fd73
fda8
0048
0420
ff83
ffe6
04a0
0084
facb
0470
0188
0293
ff24
fd80
fe14
0051
0312
0563
040d
0427
fb3e
fdb5
0166
ff66
fd13
0737
0073
0007
02a3
ffc9
0107
027a
ffe0
01d1
00c4
015f
00b5
ffeb
f7c9
f98d
0180
fcc6
fdfb
09b5
04aa
01d7
017a
fe1a
00b8
01df
03e4
0123
fb7f
faae
0134
0108
f962
011c
0028
025a
0066
05ba
06b3
017d
f9a0
fecb
021b
ff14
fca4
0761
fda1
0259
fe59
08b3
fe02
01ca
0299
05a3
fc24
0212
fcaa
02b9
04f4
0066
ff40
fbd6
02ea
000b
ff32
fe16
0213
fa32
020d
0321
fe44
