00db
031a
0202
0162
05a6
0221
00aa
017d
fd93
0006
0000
02e2
0094
fc06
0086
ffd4
01a8
01e6
ff01
010c
001e
0041
fe35
02bf
fff2
0139
fcfa
fdc6
fccd
0049
fdbb
fb85
0176
fc22
0557
027e
0331
04ee
ff3f
0334
019e
fcf1
fedd
ff52
fd72
fedc
ffb5
fb47
07b8
ff98
fe85
fdc7
01db
02bd
f91e
01b0
00b1
ffab
f9ae
01c0
022f
0251
0202
fe3a
017f
fe85
010c
ff76
feda
00b0
0130
023a
0304
0281
ff0f
fb2c
00e0
ff68
ff45
ff01
fe7c
00e5
01d0
fd8c
fb96
0227
fba5
0124
ffeb
0390
fbdf
010c
0261
03e0
fff2
0000
ffdc
fd35
fd7e
013b
ff95
fc74
0149
00b6
0143
fc15
fca7
000a
ff2b
05f4
0078
00bf
fc33
0287
00f3
00ff
01b6
0584
fef7
fcef
03aa
0027
01a1
06e2
00c9
0420
fdfc
0377
0533
ff5b
0343
015f
fe30
fa61
0342
00ca
04ca
0040
044a
faca
ff25
f8d6
fbec
03d4
01a7
feed
fd88
ff13
fb3b
0183
ffe7
033d
fac0
ff09
01d8
00c9
ff59
fc94
03ed
02a1
ffda
0461
0036
ffb5
006d
0322
019b
027d
04d3
fc37
03a9
00fb
fee8
0586
04a6
00dc
feea
0324
0386
ffd6
fe90
020b
fdc9
fe90
0057
02e5
02aa
027b
0244
feee
01af
03cc
fd05
0178
02bd
005c
0580
ff75
023a
feb9
017f
fffe
0043
fcfd
fbcc
fd7d
ffd8
fdba
021f
0487
fbb1
fe89
fc31
0368
fd85
047e
faf2
05c2
0106
ff26
ff18
fc5a
04e9
014b
0185
fb1b
f920
0169
fe7d
fdff
016d
000b
fb4e
01b2
0333
065c
014b
fbfd
0349
fdee
033e
ff69
ffe8
01c3
fce7
020f
ff1f
04f2
02a5
fcb8
00a3
02c2
02b2
fb4e
0683
fd20
fe64
fd40
fc35
fe47
fed2
0290
fe2e
0275
046c
fea9
fc37
fe3b
fef6
fdeb
f9d1
05bd
000a
0347
015d
feff
024c
02b0
01e1
fddc
00b2
fd8a
ffad
feff
02d2
ffa0
0342
fb12
0371
0139
01ed
004a
fe99
004f
fb19
fe67
03a5
017b
feae
016b
0229
02ac
0430
fe73
0347
01ef
fcf5
fe44
fe42
fd78
0755
fbf7
0292
fb60
ff67
017d
fd16
fcbd
0312
005f
fe69
0240
007a
ffd7
0726
fcb9
fef2
008b
fead
01b5
fdd0
02f0
fea3
0109
03cc
fefb
ff29
02d1
ff68
033b
fe22
fca2
0468
02d5
ff96
039c
053a
0763
04ee
03d1
021a
0388
fbed
0117
04df
0130
02a5
00fa
fdb8
fd07
fd9c
fdee
0205
fe51
feaf
05eb
04be
01e3
0240
ffda
fe97
fd4e
045a
004d
fe26
01d2
03af
fec8
fefd
01c6
00d6
fe9d
0415
004e
fb60
056e
029a
ff51
ff82
0423
036e
02c2
03b9
fe25
03b3
ff51
02b9
01c3
fe2d
fd21
0000
fd55
fc3a
020d
f9fe
ffc7
fec5
0105
fe26
fd07
080f
fd64
012c
0276
00fc
f935
fef3
fe4e
041e
05ed
fce3
fcb2
0256
0104
0037
fb20
f41c
016d
016e
fcca
fb79
fe7c
01a3
febf
fdcb
03c7
fda7
ff77
fbb0
fd58
fec5
05fe
0694
fd78
f8b2
fc27
0250
fd71
01fd
02e5
fba5
007b
fc06
00f2
fd5e
fdd3
fc88
fc50
f9fa
00a3
0382
00b6
fbd9
001e
0195
fe4c
051c
fdf7
f7d4
fca1
00cf
fd97
f7ca
ffba
03ab
0179
01ba
fef4
fdcf
fa0f
fcaf
003e
0088
fc3f
0160
fadd
003e
fd30
fef5
fd4a
01cb
ffc8
fb6c
fd90
0244
ff7a
0100
052c
fc2f
0227
f792
0165
fae9
0093
fae7
05d1
fce8
fd0f
026b
ff56
0335
04f7
05aa
01c2
0176
0491
0409
01bb
fe75
0237
03a1
ffb2
011f
009b
fffb
0352
fd0a
f797
069b
fb8d
fe85
fee2
ffdf
fddb
02e0
fe87
0455
01f6
fecf
faa2
0246
fd1d
fd69
014d
0173
020f
0813
f703
fdb3
fd13
fc84
fee1
06b6
02d2
04b7
faaf
0248
fd23
012d
00fb
fb9e
fc41
0387
06be
0014
0330
ff3f
ff58
02b6
0140
fdf7
fc3c
fed1
fe1b
fd0a
01f5
0394
0548
fd06
fcba
f90c
0563
fb21
005f
ffab
00fb
018a
0168
fd97
0291
0096
ff00
fd34
fdbe
fb62
ff51
02c0
f708
ff57
fcef
fc30
00bc
fe7a
0652
0001
0086
fa62
fea4
0493
00af
ffd8
fc55
001b
f9a2
fd7d
03c8
fda0
fea2
ffc6
fc9e
ff6e
fb47
fc66
fec7
fd6e
0328
f75b
0458
fd13
ffb7
feb8
ff6b
fed5
032c
05bd
01c3
ff00
0578
fcc1
03c5
ffba
fc30
ff33
ffaa
00d2
ffc5
fdba
00ad
fbfb
02e6
021c
fcdb
06aa
fbda
0361
fbde
fddf
01ac
fdbd
fd6c
fdee
0054
fef0
fedb
fd61
04a0
feef
fefd
0480
fce7
fe25
05ac
0529
04f4
fa7c
fee3
0367
fde5
f9eb
fc42
013e
ffeb
0021
0223
0103
fc4c
06f7
fdcf
f918
ff01
033d
fe32
ff0c
045e
fff0
02f2
026d
fe34
02f3
fd1c
fe86
008c
fd0d
fe0f
04ad
046a
0309
fdc9
0253
fff8
03ef
fdfe
0774
0366
0123
fcc5
00c9
ff63
053f
00d8
0031
0420
0107
ff11
03f4
04bf
fa14
ffc7
01e1
fe54
ff50
fe34
02f4
fe31
019f
fc66
fd6f
fd45
00fe
ff83
ffc7
01d9
0234
048b
fd3a
ff40
f789
0162
022d
0090
ff30
fbfa
0063
024f
fc43
fea5
fe0b
06e8
fcb9
fd0f
003e
ffa3
fc17
f6e6
0044
fcad
f3bb
00af
fe23
fb77
0144
04f3
fdb4
ffc6
fdac
02d0
003b
04ce
01b9
02a6
034a
040d
ffb3
041f
