fc76
0188
0088
0060
020d
fe93
fe39
004a
ff54
fcea
01c9
012e
fbab
02c3
02ba
ff1e
0458
fc3b
ff26
fc69
fbee
fce2
fc7c
03a8
0092
02d1
026d
024c
0361
0146
007f
011b
005e
fe96
0560
fd4b
0350
fe6b
fea3
02fc
0412
0455
ff3a
014d
0426
fea9
f9e1
011d
fe1e
fff7
022d
fffb
05d2
0206
00c1
06c6
04a3
fdb9
010d
ff5f
fbce
fda3
0551
fb0a
03ba
fe5a
070a
fbbc
fde1
0076
fe18
ff74
005f
0431
ffbd
fcff
f98f
02a8
0394
00a7
fdb3
038b
fcb2
0164
fe41
024f
feb9
fe8c
fabd
0028
fe2c
fef5
03a9
ff69
fc27
fb6b
005d
fb09
035b
f747
fda4
fe03
04a1
fa58
fd14
094c
01cc
01b3
fc20
fcbf
fb8e
febe
0801
f9b5
ffd4
02d5
fa47
05f6
006e
fb58
0004
fb88
056a
0488
fdd9
0257
ff6e
fe0f
023b
fc0a
0047
fe1d
00ce
00ba
03ae
f9d8
fef7
04bc
fe4d
029b
ffc5
fca4
ff39
f8bd
fe1e
fa9e
025b
fcd1
fb2e
ffb6
02b7
0572
02b2
ff56
fae7
fe9d
01d9
ffe3
027d
00b5
0079
ff41
03e6
fc7c
fd47
fcf5
fc75
ff3d
ff21
0451
fa5a
fce3
f9bb
fe4b
fe94
fbee
fbf5
fdc6
0281
fc7b
fc72
fc6c
ff7c
fc4b
fcf0
fbdb
00f6
fce0
004c
026a
fa53
0087
fa69
fee8
fff3
01c1
02e0
fe0a
02c3
019a
fc5d
0139
fe64
0035
fd0a
0058
0379
02a2
020b
ff4f
fc84
ff11
0154
ff9c
042c
fe16
ff45
00b5
0279
fffb
fdb4
0412
fbe7
fc49
00d8
fd39
0268
ff65
ff42
00f5
033e
0157
00e7
0106
0017
fc86
f949
fdb1
0002
fde7
0360
fdc0
ff68
0710
0091
fefa
043b
ffc9
fd84
fa77
021f
06d1
fff0
fe56
fc06
02b6
0268
fe30
fbda
fdf9
fd4a
fc1c
023b
0069
fb6d
04f9
fb70
007b
014e
0094
012b
0403
02a9
0566
fdab
fbd2
019e
0227
00d3
04cc
ff4a
ff57
0011
0267
fc5a
010d
045e
05fc
0169
0170
028e
fde1
ffd2
fb63
06a6
00d0
02f3
fca1
ff3f
fe25
fc73
fefa
ff40
ffdd
0496
fdb5
0056
0032
fef3
071c
fd59
0315
0321
feed
02b3
fe16
02e3
018d
fe02
fed9
fda3
f8c9
0403
004f
fffa
ff27
025e
02e1
010a
037d
fcdd
ffe5
0054
00e4
fce9
0236
fb38
fcfd
fcfc
fe40
fd2e
009f
ffe3
025b
00b1
ff8e
03ae
fe7a
fe91
0079
0316
059f
0368
fef0
012c
fc53
ff2b
febc
0044
0267
00fe
fd41
fce1
ffb6
fde0
0457
fee5
fdcd
fbc9
fe9d
0514
02ba
0203
ff25
019e
fdee
fb6c
f8c2
020e
0159
0001
ff43
0088
06d2
0136
00bc
00b0
fe2e
ff32
fe28
faa2
feb8
fe4b
fedb
0529
fa7e
fe42
009c
ff9d
fd41
055d
0204
0168
fffa
0083
fb38
03c9
01ac
00d5
025e
036b
fd1b
feff
fb9e
00bf
0299
01fd
01db
fe6c
0324
01db
0463
fd56
fd95
fdcd
fe8c
fd9c
f854
fbb1
feb9
ff09
fcb9
fe48
fe64
fe6b
091f
fe2c
ff10
fb78
04f1
fee6
0210
0372
fa97
0288
0149
038f
fe97
fd34
0039
0321
02c6
fbc0
fe05
fdc0
001e
0187
fe07
fef8
017d
00ce
fc67
009b
04ba
fe23
fd80
fe57
0322
0149
fac7
02d7
fdfb
0145
045f
ff49
fb4f
fbfb
fb50
fbc2
013e
0395
0099
fc25
fc7a
020e
0162
00a2
fef6
fd48
fae9
0144
0618
fff1
00d4
038e
00bb
ff27
04ee
01a7
fe75
0319
ff6d
fe28
fdf1
01ec
ff62
096a
fe03
024f
fed2
0434
00e2
fc33
fe35
fd98
089b
0384
0144
00d0
0165
ff7a
03e8
0046
0179
0186
00c2
048e
0961
0056
fdff
fffe
04e1
04f0
0460
fae5
0150
048d
0435
fe88
fab3
0617
ff85
030d
0198
014f
fff8
ff02
fd1f
ff63
0712
0209
022d
05b5
f955
0472
0024
fc3f
ff2d
fe48
fec4
0736
0258
0214
0366
0066
0273
0341
0649
00a1
03b9
0260
019a
fa5e
fef7
fff0
fff6
fcad
fc9c
ff2c
fded
0123
001d
ffb4
0108
fcd1
ff41
fd6d
011a
01f0
0404
ff33
ff3e
fedc
f92a
0504
0445
fa7f
0078
04e1
03ae
03e4
fa08
0162
053b
001c
ff4e
035c
05d3
ff8b
fff9
01de
fdae
fe5b
076a
0322
03f0
ffc6
0069
043c
0062
03a3
0040
006e
fdde
fd26
0084
fd3a
0444
0199
02fa
ff2d
fe6f
0074
0287
0035
ff60
fbee
fd23
fd51
ffef
ff7c
fb96
fd9f
0118
fc8e
0372
0257
025f
0202
0054
0391
0469
f9f4
ffea
0013
ff58
ff34
fc6e
019f
fc15
05c2
059a
04e2
fe7c
0226
fff7
fe27
fe76
02f1
fd40
032a
fe2e
03aa
05b1
03b8
0275
fdf8
fdab
fd6f
01fd
fe1b
024c
fb79
ff3f
fad9
fd1c
fe89
fc41
fb5e
0032
0225
008c
feb9
01d0
fca9
03be
0062
02e1
010e
00b0
072d
011c
0875
fe01
fc6f
fb85
00bf
03ca
ffc5
0244
013d
fc9f
051d
fffe
003f
0275
fc62
ff7f
02a7
fc81
0127
fd72
0523
0165
0019
ff32
042a
0024
0252
f96e
045c
0252
022f
0033
03d4
fbf9
fc29
fe9c
fcb2
06d9
0109
fdd4
0256
fe6a
ff6f
fd44
fae9
01d9
0063
fb28
01fa
0553
00f0
00ed
06be
fbc9
004e
fcc0
02f7
fdbd
06c0
03e2
0140
fd98
0325
00a6
ff5f
fced
feeb
fd93
020c
01ab
fc8d
0053
fe1c
feb8
f849
ffd5
ffc5
0323
04c9
fe73
fcdb
0088
