fc6e
00a1
feef
0074
06cb
0524
027b
00af
fe39
fe17
0389
0174
f50b
fe0d
0116
fe17
fc5c
02cc
ffab
fe06
0743
047a
047b
fee6
007b
0232
00c0
fe6a
ff54
0123
fd5a
ffc4
ff1f
f9c7
0036
fd2a
018e
02e4
05d6
00a4
ff0b
fec7
0441
0530
fd35
00f1
034b
009c
04cb
ff2e
0301
fd36
fe21
00f7
fe39
01cb
0191
fff8
0338
ffb1
006a
f998
fc0f
ffa3
045d
fcc8
000a
0532
fd61
00a3
0444
03e7
ff37
0297
fd0c
ff23
0000
02a8
fbd7
fd67
0289
0353
00ed
0108
fdac
07cc
ff12
fab0
fd86
fd7f
037a
fd3d
046d
01e1
0762
0109
0883
0173
fdf9
ff2e
ff8d
0405
fd75
fda2
fea2
ff85
028b
facc
00d7
fe6d
010d
fdfd
0059
00c7
0629
05e0
009b
080b
ff58
ff97
02b5
faa9
fe47
016f
0208
03f3
fe8d
ff4c
fd59
fa24
03b2
000d
02df
008c
070a
fb2b
048b
00a1
ff73
ff69
fef9
0200
ffec
fe8d
fed4
0281
ffeb
00b0
0076
fe2b
022a
fe94
fdac
0303
0201
fcec
040c
02f1
ff69
fbef
01d5
fc7b
02cc
017f
fe29
fc50
f8f7
02d5
0314
fd29
00fc
fc60
fd93
0242
f5db
04c9
fab5
019c
ffe0
fb6e
021d
0103
0111
02bb
fd87
03ee
fc13
fa00
023d
f838
fb96
006f
00de
0064
fba2
0102
fe35
0362
02da
015d
fd0f
0699
035e
ffbf
fef6
fd31
fd42
009d
0330
fe0b
fbd6
0557
fa35
0024
02dd
fec9
feb1
028a
0268
0162
0095
00d5
ff7d
fe1a
0017
fff0
0027
0123
01ab
fde3
fb8b
010c
0509
0515
ffb6
0036
fdb6
025c
0137
f92b
01c8
fe0f
f6a2
fc01
fdf0
020a
0069
fa9c
0187
feb0
fdff
fee7
ffb3
f851
0090
fd4b
ff90
ff10
003f
ff99
fd8d
074a
ff95
0143
fea4
01df
0357
fbbe
fe41
fe80
03ae
013b
fd71
fe3f
fa5c
fdf6
04af
024d
fecd
fde9
01e6
ff14
fbb8
0117
0589
fa61
00ff
027c
fe17
fce0
02ec
0427
ffb9
0446
fec2
02e9
fd48
01ef
0523
fe6d
0663
00c1
fd18
0737
02cf
0496
fe49
00f0
fc8d
0007
ffa7
fce4
fcc7
032e
ffd1
0244
ff04
00b1
016b
fd6f
02be
05d0
ffd7
fe53
0142
fac1
0503
fa84
ffd4
ffcb
fd32
035d
fa84
fffe
fecb
0453
fcb4
fdf4
020e
0130
fe32
0436
00c2
ff06
073e
006d
04bd
fdb9
f8c1
0289
fe32
032b
fdbd
faf1
fbbc
013e
fc89
fe09
fb2b
02aa
fdd1
fecb
0100
fff8
ff97
ff35
fe27
ffc5
053a
fbaa
02e2
028b
0260
0051
fef5
fee6
fd9d
fe85
f620
fbe0
fdf6
023c
fd5e
fc6f
fe57
fe22
fee6
01df
f9d0
fd6c
0448
fbfe
fe69
009d
037a
fee7
fff7
01ef
f52e
062a
ff7a
0249
028b
01d7
011c
fe85
00c9
00ad
005b
ffa2
0554
fffa
0056
fffe
030b
02fd
ff31
0162
ff89
ff7b
feb8
f67c
fe00
0095
fc59
fa98
018c
fb82
fdaa
00fd
fe55
002f
fd03
02dc
0023
fd94
000b
fe09
feb0
ffc1
fdeb
fff3
fd80
057d
fde2
fcee
f95b
fce9
0106
fec1
fc77
fe3d
02f9
fd4b
fcd3
0284
fd17
fb1d
01a0
faed
fe2e
0257
fef4
0370
00a4
ffa4
fde2
fef2
fb40
046e
00b8
01a6
fd8c
feca
ff25
03d1
04b9
03eb
0095
01f2
fbf4
0084
fa0c
fc8b
04a5
fa56
fc9e
ff33
fde2
00fc
00cc
0014
0454
0166
07ed
01e6
fd5a
fe9a
0246
0352
012a
ff96
ffbf
f99f
fd87
0097
006f
fded
02df
fd45
01c7
05d9
fb42
fec8
015c
00c3
ff23
ff56
01ae
fd88
ffbd
021f
0392
fe7f
04b7
faeb
001b
fe55
ff37
0302
fc6f
0163
01f6
0466
fb4e
f886
fc50
0256
029c
001e
0093
072e
fd28
02cf
0146
02c7
fe2a
fc86
0021
fe42
fe40
0307
011a
ff4a
febe
febb
0041
fe74
0842
ffad
01d1
0295
fddb
017e
ff71
fb22
0618
fd30
fcb7
034b
016a
fd66
034f
fe64
039b
01a8
fe98
0148
0051
008f
0a96
014f
fbb4
040c
02c4
0067
022b
045d
faab
01cd
0172
0335
fe09
0683
faff
f9a0
0193
fba2
05af
015c
fcf5
026c
0340
fc0d
ff78
ff5a
017b
ff2d
ff8f
053f
fbf6
0051
ff4d
019e
ffa1
01c4
fdf1
ffd3
0206
014f
020b
fb6b
0212
fd8b
0295
ff71
fe98
01ec
ff7a
ff57
02c6
0119
023f
fd75
00e5
00ac
03e4
f853
017d
ff54
0664
fd41
f9d3
ff17
fc1b
fdad
ffd1
ff56
fa3a
fe18
05f3
0a61
fe10
02b5
01f9
f9da
027b
0785
fad2
fcbf
fb4a
faf9
010e
fc32
fda2
0789
0282
ff8d
fcf4
f5d4
f94e
0561
fef7
0153
fe97
01e3
fecb
fb5b
0112
0239
fe32
fdc2
0136
01c1
0396
feb1
0080
0102
03b7
0056
ff94
022a
fdfd
026e
0225
0284
0058
0086
02d4
ffc8
ff9e
fe94
0179
0402
05b9
fe77
f89e
0142
014a
04ea
0106
04f8
f90b
01e8
0008
01b8
0111
fe54
03cf
031a
0148
fb33
ffaa
fefc
0546
02df
0674
0285
fd48
fd9d
fdcf
ffce
0312
ff1c
fd47
07d9
ffa1
0042
fa07
feb7
02a5
fa81
fe3c
0075
028f
fe59
04b5
0739
ffc4
043e
0106
03b7
03f1
0234
ff46
fad7
fa55
fc0d
fc98
01dc
ffc4
01a7
fefd
0510
00b7
fda8
ffe8
0261
fff3
fb2c
feea
0219
019c
02ea
0050
0114
0306
04ae
02f2
fc5b
fe12
0103
042f
fbf0
