0522
0215
05c3
ffa1
ff1f
fdec
0230
04ac
0539
fd47
fe3d
fa36
01b2
00ea
ff94
f9af
fe0f
fb5e
034a
fcb8
fcae
01c2
003b
fda8
ff5c
02e3
fb35
0359
025e
03f8
055e
fc39
0192
005e
ff80
fc65
021c
064d
fe2d
001a
fe7d
001f
02c4
018c
036d
016d
03fd
053f
022f
fc97
fbec
001b
fa9d
001d
fdbc
fc10
0219
0098
fe6e
ffd4
febd
00c1
ff62
ffb6
059d
00d8
fe4f
009e
03b4
010a
feb1
fc1f
010f
03a1
fe95
fbbc
fd55
037c
0722
03fa
015a
043d
ff20
0220
fc55
0404
02b6
000d
f7ab
fd9d
fbe4
ffdf
0079
0061
fd6d
0506
fd3e
0154
ff65
00ca
028c
fdca
00fe
02f7
07b8
ff5a
fdc4
004b
024b
004c
ff44
fe7c
ff42
0177
0434
fe49
02c2
06c4
0399
fc39
0048
0024
fea4
fe9a
fcdf
fe5f
040c
ff63
ff28
fe7b
03a9
00a0
01ab
005f
ff8a
fda6
f687
fc89
f8cd
feb3
ff3f
fd65
05b6
008e
0167
016c
00d0
002a
02cd
fa52
0229
0233
fa34
fc6d
018e
0157
fd6e
0047
ff0d
ff87
fd2e
0120
01fd
0561
ff7b
ff2e
035a
fb36
ffb4
0050
fe77
010c
028a
023d
ffa1
0115
02fb
fe70
fda2
ffa5
fb1b
fe16
0363
0515
ff2e
077c
01cd
f9e5
fede
ff72
0084
ffbd
ff46
0258
02fb
021a
016a
0192
fc93
fce0
ff39
ff38
0414
fdff
fb0b
03d9
fe5a
056e
04c6
0596
fa85
01ed
0172
fa4d
033f
0209
07e4
fd1f
fe98
0161
fe90
019b
fd09
fce6
fabe
ff5f
0145
fd6c
fddb
ffd5
fc78
0192
0516
ffd1
fb04
fe4a
03f0
fdbc
fcdd
03dc
fe69
0353
033c
0242
0148
fcc3
fd00
0195
fbc5
fbb7
0005
fdcb
ff94
0018
fc0b
fe9e
fcb3
007f
ff30
fd2e
0371
0366
fbea
01f5
0215
0518
fdc5
ff76
05af
01db
0030
021e
fd1c
0219
00b8
fe46
ff47
fc0e
fc2e
005c
ff55
0394
fc8d
0426
fdff
03e3
030e
fd0e
fac7
f876
010a
fe81
fbfb
002f
fc13
fec2
0055
0349
036d
00ea
0404
fb43
0407
004f
0108
0335
0749
027c
0110
ffd9
0296
fdee
fd9f
fc2a
fdca
fbc1
ff3e
ff56
00aa
fbdc
0187
fdef
fe76
02a5
03a5
0143
febc
0266
fc10
fcc0
00bd
0081
ffa3
01e7
0069
010e
0125
04b5
f9b5
fc87
fd18
fe98
0086
0121
049b
fae3
0223
fe2d
085b
02da
febd
fe07
004b
0143
fb18
fc4e
06b1
0149
061b
017a
0055
018e
0151
ffa6
fd8d
01de
fa91
fef8
0120
01f6
0107
02a2
022b
01e0
0247
06a8
ff07
007d
04a9
fd25
00e2
fed4
ff42
0265
0051
0061
031a
fcce
fc6d
fe4e
fe47
0412
ff02
02ef
fe04
fde0
fe2f
fe6d
01b7
0185
02aa
fecb
fbdd
05d7
fff6
ff0a
ff5f
0012
fbcb
008e
0412
0543
05cb
0028
0194
fd02
025c
fe8a
01c5
01d2
0629
0318
019a
00a1
032f
0315
fc4d
0237
f77c
0194
008b
01af
fe1d
fca4
fe0e
fd45
03ba
ff56
fff5
0558
fe47
fe10
00cd
012f
018e
ff66
0362
0106
fa3f
fcae
0025
0313
fba2
fbaa
fb9d
ff53
01e0
018d
ff3d
fb83
fe60
fdea
02c2
012e
fd91
04d4
01ad
ff63
01ba
fe65
04f6
ff3e
ff2b
fb84
ffeb
002b
0314
04f4
00b7
0260
ffff
f937
ff5f
02ab
ffb7
02ea
fd8c
01de
fb6e
fe1d
ff3e
03f7
03fb
0028
ffd9
fbd1
ff1e
0180
fff5
fd2d
fdb9
039f
0121
01b1
fd12
fc17
08a0
0195
00c6
fdd7
0121
fe2c
0252
0053
ff28
fe7c
01e9
ffca
000a
00f5
fe61
003e
ffb5
0037
080b
0a10
017d
0231
04e7
feb4
ffb1
01f1
01aa
fcd2
08d7
fd54
fcf9
fd6d
00a6
fd8d
fc18
faee
0144
0318
fba1
fbec
0300
025d
0440
ffd1
065d
01d1
fdd8
fd21
0454
0391
0216
ffc3
0427
fd28
005e
fe82
fd56
016e
0283
00c3
fea6
f825
ffa5
00bc
ff81
fb80
ff72
01ff
02ca
0363
ff69
0301
063a
ffbb
07b8
fb7a
05c5
0294
fb54
03f3
002f
035f
fd00
ff8c
04ca
05f2
f768
f936
ff97
030b
fff5
ff4d
0091
facd
fd49
01a9
fc8a
fb61
ffd1
0278
fc24
fa0a
00d7
fdf3
044f
fd4f
01ba
fdc4
0318
02c8
0351
fe8c
00ec
f8b6
0117
0156
feeb
ff60
01ac
007e
fca9
002b
0621
0085
fdfc
00c9
00c3
f9c3
00f0
fcc1
fd64
fe8d
01fe
00f1
04d5
050a
0397
ff14
055b
fb5c
075b
0400
fc87
fe42
fe88
03b4
01bf
04dc
fe15
f93f
fd06
0179
f9f2
0513
fe36
0461
fcf6
025d
ff5d
faa2
fe8b
016c
fc79
018e
fe0e
00c1
ff8e
fe11
fd59
fde8
0155
0200
0699
060b
0043
ffc9
0292
0549
ff71
019c
0195
ffcf
feef
017b
016b
01c3
05ec
02cc
0708
019e
039b
fae7
0221
fb0b
014d
ff44
01d6
fd75
067a
ff7e
01ad
fd6e
fbfa
032f
0062
05ba
fc8b
0247
fd9d
feb4
012d
0478
00aa
0225
0467
fc92
0165
fbfe
04c1
ff00
f742
01a2
0187
01e7
00bb
fc09
0136
fd9e
0132
01de
0338
fece
0169
00e7
0164
fe35
00ce
ff1f
fcbe
015d
0609
faff
ff9d
fd99
fa83
ff6f
fde6
0136
fe68
ff95
0088
fca0
0046
fb0c
fd70
01e8
f934
fef8
fffe
ff0f
fa94
02f3
fcc3
fb29
fd36
fa0e
fe4a
064c
0458
0000
feb2
02c0
f919
0767
fe0a
007b
fc38
f9d2
