039a
02a2
fe42
fc25
fa8d
00e9
fdb3
fe2b
fde8
fcbf
ff81
ffd4
fddf
fe23
00af
fb2a
fddd
ff98
01a4
fa20
0016
fe2f
f9a9
02c9
f9c0
0034
0040
fcc5
01fd
04fa
fe73
fe1e
0030
0088
fd90
0313
0778
0380
fb65
fbc8
fff7
fc8f
ffd1
02cd
018f
030a
fc3b
0316
019d
03fa
fce6
fcac
fc45
014e
ffd2
0167
00c0
0049
ffca
00ef
0492
fc4c
fff2
fde7
01f8
fe39
0490
01c1
043c
007b
ff44
f937
fb18
0539
ff40
fc53
077c
02a3
00b3
06d8
fea8
08df
00a7
fd38
feea
0118
ffad
04f9
fc96
00c3
ff0e
fb11
ff31
04a4
019d
0275
fe8d
01a1
fb54
ff0c
fe4a
031a
0075
fe92
fe7b
0318
0478
fa61
002e
f8ae
fd8a
faa2
fed8
fc29
02c4
0319
fda0
0387
014b
00ec
0364
0124
04b9
fc4f
0876
fd44
fb14
0361
feea
ff33
f703
03b5
0003
fb16
fee0
fea6
0033
04af
fe61
fbc6
01ff
fdac
0073
ff07
0157
ffe6
ff1b
0055
fa6b
fbba
fac0
fe6a
fbcf
fe6b
fea6
0364
fd1d
07bd
fcc7
02b8
044c
fd28
0552
fc62
0062
0065
fb9d
fed2
01f4
fd0c
ff9a
0009
0298
fb44
006e
027c
019e
0015
fe99
048b
fea0
fd96
fc74
fa03
ffa5
fde6
042b
037e
fa0a
0246
ffa1
fdfe
fe1a
feea
fcaa
fa4c
030a
0175
0000
febd
fbe4
0013
01b4
00f2
fd9f
0230
fe33
0561
f87b
015d
03bc
ff98
01c4
011e
04cd
0292
05d6
fed2
03fd
fbcf
0108
013e
0509
ff4b
ffca
fcfb
fe79
ff42
fc06
fd3d
007b
fefe
025d
01bb
fd9b
03bc
fef8
02ed
fbbd
006c
06f8
fe65
0069
fed9
00da
0490
fb57
facd
fe59
fb53
010c
029a
032b
f9ef
019c
fba5
02d7
02d1
00ce
00d5
ff71
00dd
ffe8
008c
f7a0
fd55
fda6
f909
f9ad
031f
02f9
fef4
fd3c
05df
031d
fc47
0623
0173
fe09
f9b0
0209
0404
fdd6
0092
ffdf
00fd
fbb1
0398
ffc9
048f
fda0
fdaa
fd48
01b9
f8c9
0026
fe6b
fd82
ff73
fd54
ff2f
feba
01f5
ff43
0086
fd62
0079
fa44
fc98
fea2
fc83
feba
0145
fec0
016f
0235
035c
0235
0037
ffea
ff83
0264
ff16
01d7
00ce
fdf6
fbe1
ff65
fed5
ffbd
fe67
fe08
000e
0135
fa71
fc30
03e6
0136
fb54
002d
01f2
fe1a
fa46
0062
fecd
025f
fd44
fe93
ff9b
039c
0059
04ec
fe10
fe4f
004e
fe49
fdac
feb9
fe76
03a4
fe0f
ffc6
04ba
02d8
01c2
fe41
ffe4
00b7
fd28
fcad
073d
ff5b
00bb
faf3
0171
fd12
fd66
fd15
05b7
0129
015a
fd7b
012b
fbb8
0312
0000
01a6
fecd
00e3
0176
0042
f8dd
fbcc
f819
febe
00d2
fecf
fb83
feab
0135
ffdc
04cd
fd25
0316
04cb
fb13
f855
0014
ff1f
01e3
03f6
fb3a
fa72
015c
ff0e
022d
020a
0312
0431
0029
0182
04eb
0037
fc45
fbe7
fde7
001f
0339
fee0
ff20
0160
010b
02b4
ff7f
ffce
fd77
028a
ff20
fcbf
018d
04fc
0424
0567
019f
0230
04b2
ff96
0237
feb6
ff9f
fe47
fa88
010d
00a1
003b
fc30
ffa5
0305
0205
fea8
fe9f
fea5
0127
fca1
0090
ff35
ff64
01fa
002f
0520
003b
01aa
fd43
fc07
0431
fcec
ff52
06df
0141
0589
ff19
0267
fdee
04cc
fd49
fd25
ff31
02f7
0261
02ea
fff2
0544
04ae
ffbd
fa61
01f6
0117
fe21
fd7f
fcec
ff5f
fefe
fdee
01d3
0207
00fe
fef7
f9c7
017d
007a
fd71
04f3
ff93
02ed
0213
0962
0326
ff21
fbb8
012f
00bb
fdc0
0566
fdd2
fe56
fd1b
fbc5
031c
fa74
fbae
0231
0055
fa7f
fd56
01ab
fe95
0069
012a
042e
0195
fd35
ffd3
051b
003f
fe6c
0048
fed9
ff10
0413
fa10
00f6
ffef
022a
fec2
0131
ff35
03b5
fe47
0425
fd04
0142
00f6
fbec
003a
03fd
fec7
fbbb
00c2
0307
011f
fdfc
00b9
0027
f6e8
02d0
fcf7
00b6
ff0f
ff06
ff72
0663
04de
0389
0718
fe50
02a0
ffd6
00d6
fe63
00ed
fe62
ff5f
016d
05c0
fa49
ff14
0007
fe67
03c4
08dd
00ce
04ff
f5d8
fb43
0445
fbf1
fc4f
01dd
f934
0050
0254
04fc
fe13
ffad
01e5
f8c6
0110
00be
01be
00dc
fe36
00d6
0338
ff7c
ff1e
0895
0158
026f
fcfc
015e
0627
fdd9
fd18
021d
fb9f
0273
02f7
04ab
fe41
015a
003e
00ca
fd8f
052b
feae
04b3
fb94
007e
feb4
026c
08b0
f9ce
f9d7
fde0
017a
000f
fdbf
fe39
ff72
009b
014c
fde4
fbad
0006
fcba
02aa
fd02
002c
ff6c
03cf
fe7b
010c
044b
fcd8
f7bd
fe42
fea5
f6d2
fb7d
fa7d
fd7c
face
faf9
fd97
ffdc
fdc6
007e
fdce
fc7a
f889
02ab
fecc
00fb
00e9
fc4b
fb45
fcc7
018b
052f
ff05
fc08
fd0b
047f
07a0
06da
ff87
0083
00a3
fe0c
ff22
fee5
ff5d
fd7d
fe59
02dd
0393
fee2
fd98
0387
022d
001c
fde8
007b
0131
040e
0055
fb90
0391
06c5
fcbc
fc34
02e3
fd68
0119
0240
015d
02c5
fe7a
0059
04c9
fbf1
0277
fc42
01e9
01ff
03fc
fa26
0152
ffcc
0445
0250
02bc
01e6
fef7
fe24
0585
fc2b
009b
fd5a
0844
0204
fbac
fc98
fe4d
06b0
0338
01d8
00e7
fba7
0199
fb97
fcbe
0232
fd90
0152
fc19
0580
0197
00fe
00ba
fd26
01f8
0432
06db
