ffd2
0126
0370
fa3a
01a3
0af4
fc53
0155
fdf6
ff28
fdac
ff78
ff7f
feae
fced
ff17
fee4
0691
028c
0019
0004
0396
04af
015e
01d4
03e9
fdb8
031a
0540
007d
fbaa
fabc
0129
ff70
075e
00d0
fe43
ffe3
0277
0091
0226
02f6
fa54
fe1a
021c
08b8
fbc5
027a
ff92
fdc0
025d
054c
ff22
01c4
00ec
0361
f64d
ffad
fcbc
fe46
03ad
fa8c
0384
019a
0063
ff32
0478
015c
00c1
fe51
fd18
ff1f
0182
0184
fdc2
fc7c
0140
0421
00bd
f7a2
ff2c
ff0d
fb9f
ff13
ff91
fa56
ff6c
fec5
fdcf
fe8d
fef7
014f
fe98
ffc1
fd56
ff07
fcda
03e9
00be
0209
03a3
facf
fef7
02af
01bb
fded
fec8
00a4
ff59
ff83
062d
064d
fa32
0881
fd9c
fc14
037d
00b4
0174
00df
023b
ff28
fbdd
01a1
fd8b
fd07
00e7
fe64
03c6
01f6
fd2e
fb51
fce2
0130
fb96
fad3
fc68
02e5
012c
0008
00e5
028b
023b
049d
00c4
fddd
00d6
ff70
00bd
fadc
fe0e
fdbe
fc5a
fd2e
ff23
004a
00cc
007d
fda0
fe6f
0128
0586
024d
ff30
feda
02f1
fc35
007c
0466
0136
0170
012b
ff1b
0269
0350
fc94
03b9
fd86
fce4
0285
ffa6
03bc
fbc9
fe7d
0193
0653
f828
fc6f
ff30
fb88
00cd
ffa1
02c5
ffe3
fcd0
fecb
fe9a
fd53
0749
0038
ff15
fccf
00ff
ff18
fe66
fbc0
fff3
0233
faa4
fb9d
0232
fc55
fe8f
04ae
0019
04bf
fd22
03fa
0138
ff75
00f5
fe8d
0346
0206
fcae
006f
fea1
fda3
05c3
02e5
00af
fe4c
fd50
071a
01f7
0013
02a4
0791
0075
0304
f9e4
fc28
0012
04ef
00f3
fc84
0417
0405
02b7
006f
05c4
0132
ff30
0187
fb47
01c1
0290
0361
ff2c
fdd0
00aa
042a
fcc8
fdf5
02da
fd18
027a
01d4
01e1
fe44
03b3
fecd
03e6
fdcb
072c
004e
02c0
fb86
006a
02ab
fe23
004e
fb98
00b0
fac7
00be
fa4e
0488
fbfe
fb4e
054b
ffd8
fe4c
00e6
fefb
0222
05ef
fd98
fd91
fd98
00a6
fe05
fd16
fcf3
003f
fc00
f95a
012b
fd59
054a
0116
013e
f9fe
ff63
04e2
03ad
fd53
021b
fffc
03cc
fe0c
ff75
005f
fa09
0697
ff12
fe3e
fa1a
fd20
06cd
fdce
fecf
fba2
fedf
fbb3
fbe0
019b
02f9
fc05
fd01
039f
fc21
00db
02d7
fd58
050a
02a1
02a2
02e5
fc86
fd8b
01e8
02de
fc49
ff61
ff93
0113
fae2
fc79
fdeb
fb5a
050f
00b7
fe1b
f9c1
0177
ffac
0aca
014d
fdca
fdf6
ffaa
02de
fee0
0192
016b
010f
fc97
0111
02a3
0436
045b
ffae
fa05
fd3d
fdba
ffa9
00b5
fd3d
faf6
fb11
ff35
01e7
045a
016f
ff97
03fd
01a8
ff8e
0135
023f
fd88
033f
fd5d
01f7
0252
0484
ff45
0578
fd9f
fdf9
fad1
fd68
feab
fcdf
00f1
0456
fac5
ff65
fbfa
0237
0111
fef4
fd35
019d
fc5f
fe45
021b
0256
0326
fff6
01f6
04e8
fffc
049d
00c0
fcf6
fdc0
ff99
0597
fff8
0021
fbbd
fda4
01a6
00b7
010e
fffb
01e1
0015
02a2
00e1
04e5
ffe2
fd38
009b
0026
ff4c
fbb3
fee0
0565
08f9
fa37
013a
0073
023b
ffbb
000d
fe6b
0268
ff93
01f0
0193
0217
0390
fd80
fd99
01af
0093
021e
0527
ff81
fb35
ff3c
fdab
012f
0474
fd0f
fe23
0195
0182
f6f1
03da
0018
fe38
ffbe
0641
053b
fe3d
fd59
fb8e
fdd5
01df
fa8a
fe08
fb8c
fc54
fa4a
fa4e
fc8f
fd62
fe29
00d3
fbbf
fbc4
0309
ff24
0114
fae3
fe75
fcc6
0453
fdef
ffda
018c
041c
00c4
00e3
008e
0083
003a
fd34
ffcd
fb49
fff6
02bc
ffeb
0228
0543
fb3a
ff7b
01d4
02ef
ff73
ff43
0069
01ec
fd0a
fcd5
0719
fdc3
023c
ff17
0084
0348
fd08
ffc1
f9ab
faf8
ff14
fd19
065e
ff90
fc17
0251
01bb
feec
027c
fed1
fd7c
017f
fe91
01fd
ffe3
fc8d
fc6f
ff9d
feda
fd98
fb9c
0253
0253
05c8
fc80
0041
f94d
ffdd
fdf8
fa7a
020d
feab
fec1
fd4c
f855
fcd6
022a
ff48
03db
0352
faf4
fdba
01b6
fa44
05bd
002f
013e
057b
fee5
05f0
fe10
0069
ffd3
ff68
fc3e
fcf5
049b
fcfd
049a
fd91
084e
ff93
fdbc
fbbc
fda6
ffd6
00ca
02f8
01c2
fc94
0251
fe93
fefa
fd78
ff63
012a
fcf4
01e4
fff2
0261
ffff
ffc5
00ae
0245
fb9c
fd5c
01b3
fdf9
02f9
0134
0166
f968
fce3
fe6e
034b
fe93
fcf4
fdd9
ff69
ff03
03a8
fb2f
fd00
f9e4
f96b
04ac
005b
fd79
fc4e
007a
007e
fdc3
0433
00f2
fe76
fba4
f8e7
fc35
fe46
fd83
0329
0158
fd7f
0116
fd9e
034b
ffd0
fea3
fbbe
f9f3
0062
007d
fea4
03ab
016c
033d
0257
fb7a
007f
03bc
018c
fa74
01e5
0066
06b1
0290
fdf6
fe8c
0312
03ae
01c5
fddc
fbbb
fe50
fbf8
fd2e
0381
fea5
febf
033c
ffc7
0089
0075
fe0e
0167
04d8
0337
fc1e
0012
023b
02d5
ffdf
06d6
fb34
019d
082a
0460
04e8
0324
034c
fd28
fd87
0036
00c3
ffb0
fb4e
fad8
0152
f82e
0309
04b6
fc10
fccd
fcf6
05c8
fadc
ffae
0141
fce7
feb6
fef3
ff34
00e3
045e
02d6
ffd1
fe63
fd6c
012b
03ff
00a0
ff48
faba
019c
fd4c
01e6
fd49
fea7
fcee
0258
fc31
04e2
ff75
fc92
fcdd
