03a4
ffd3
fd52
0291
fb30
0584
024e
01bf
fe14
fb73
fcb9
f8ba
fc7c
04da
0127
fa98
0201
fe88
ff98
00b2
01c5
0256
02c4
0024
040e
ff4e
fd6f
fe18
fcad
fe99
0292
01f9
0230
fd6a
fdb1
fb19
fd12
ffbc
fe50
f9d2
06fc
fcdd
fb4e
fcfd
00a1
faf6
001f
f7ed
fd2b
fd9a
015d
fa95
fd72
fe3f
fb2a
042f
ff64
fc2a
0522
fea9
fc7c
ff1b
fe92
fc92
00ed
ff61
004d
ff13
fd82
0224
02cf
014a
00d7
ff8d
027e
033a
00f4
fe48
0006
0228
00c8
00ad
fff6
fff7
fe75
00e1
0695
0074
006a
fb27
0016
fe08
ff3d
ffa7
04f1
f9fa
032a
ff55
feca
ff84
02e7
04ca
02b7
04ef
05a2
fdc6
0106
0086
021e
ff09
0178
066a
fdd3
04b4
00e1
00e0
03d4
fc4a
0028
fe46
0602
01e4
015a
f8c5
fdeb
f9ce
fdd9
0081
f9a8
037e
012c
0350
0506
04df
fc82
00d2
033b
feff
00b6
ff8d
0234
0597
02f3
029b
0229
fef7
fc6b
00ad
ff42
0320
0071
fdd9
fcae
fc8c
006c
0113
fe36
0070
fc2f
064f
ffeb
fca8
049e
0059
0097
0343
fd2e
fbb8
0530
fe28
fd64
ff09
04dd
ff47
010e
fced
fc32
0095
f909
0282
0162
fee1
03ea
024b
fe3c
fbc3
fca3
01c8
fbc7
0490
02f8
00a8
fb9c
fd81
fa5e
fdd2
ff68
03b6
021e
0013
0402
0167
fb4c
0297
fc58
ff45
0243
02f2
ff18
fe3d
0048
04e5
005b
0303
ff9e
ff47
feac
fefb
0554
fa27
fe21
00ba
fade
046a
045d
000c
fee4
fe49
fb83
fde7
00d4
f97b
0654
ff31
fedc
0094
fc47
048b
f673
03a2
0604
029f
023e
fe57
ff8e
017c
fa7c
0102
017a
02e9
ff87
0048
feff
fc56
fb12
01b6
01f3
0205
00d8
fd3d
ffcd
febb
f633
fac5
fd5b
ff31
ff69
ff8d
0241
012d
f9d8
041b
076a
0161
0293
0688
06aa
0572
043e
02c2
0012
ff90
013d
f972
0509
ffe4
fd64
fc3a
ff92
fc97
041e
01ee
fff0
f9c5
fae9
ff05
fd86
012f
0162
02d1
fd7f
ff50
0318
04b7
03d1
00de
feb7
fc0e
0447
fb60
02c9
fffe
00b1
03b4
016b
ff79
fec4
fa77
0198
00ea
051e
fe71
faed
fedb
ff06
0806
037e
fcc3
fc78
0133
03b7
0400
0098
0331
0436
ff53
f83a
03b9
fb5d
fe82
fe51
f9ed
03ef
feaf
ff3c
03d5
ff16
0066
05ad
ffc6
0269
ff88
00d5
ffd0
02bd
040c
03bb
06b8
fe7b
0616
00fa
0859
01a1
0483
01ef
fd98
0051
fafc
ff70
faf4
0190
fa40
04ad
056f
020d
ffaf
0048
fe26
ff24
01f0
fee6
fe5f
fafc
03a9
f9d8
fdf6
02a5
fd6d
f94d
fce0
06d5
ff45
ffe8
fd8a
ff6f
00c2
ffa2
0078
0228
feaa
fbb4
0033
fdce
04d1
fd8f
038f
028f
021a
0287
fee1
0132
fd3d
fa3c
fec9
0323
0564
046f
013f
fdac
fe4e
0566
fe1b
0247
ffcb
ff43
fee3
ff7d
fe8c
00ee
0499
02be
02e1
030c
f857
ff5f
0184
fd92
0203
0204
fbf6
037f
029e
ff85
fc33
00d1
fca8
fb2d
01e5
00fb
fbcc
02a4
fcfd
fc54
fb71
fbcd
0277
fbb9
0203
fd23
0363
0003
03b7
fd0e
ffb6
00a9
fc14
ff89
ff31
fd09
fd9c
00df
0711
ff52
fff8
01b3
fc58
fffa
fe64
fed7
047f
0016
ffdf
fcc0
0448
fd89
fc72
033f
04d9
02e5
fea4
0230
0285
fecd
0322
02f4
fe38
00dd
fb36
fe1b
fd47
fbd6
ffb5
061e
0035
fe13
fec3
ffd1
f955
011b
01b8
02c8
fd40
008c
fb71
fef8
02f7
009e
01fe
f8b1
026d
0046
fe84
fedf
01d8
064b
fd92
06d0
018c
feb3
00ed
fd7d
004c
fea8
fc96
000f
0889
fde2
fdf3
ff50
fcf1
01df
fe0d
00b4
ff2a
ff2f
fab1
010d
032a
02bb
ffe7
04e7
0003
05e5
00ed
fd5a
047e
0180
fe68
fe96
0184
fb2d
fe19
ffb3
04f6
02fc
0219
027c
030d
fc1c
0532
0169
016d
031a
04a7
0186
fcb4
0128
fbf3
fde8
00e1
00bb
fbbb
025f
0092
f64d
fee9
00ce
fabf
00bc
0094
0258
041f
03b7
fe28
fbd2
0599
f852
0133
fe3f
03c7
fd65
ffa2
01aa
fed0
03e0
00d6
ff34
0323
0140
fc91
02c2
005f
00c2
08e3
033d
fecc
ffd7
0202
02e2
fb1e
00e9
f832
014f
fb75
0326
fd21
ff28
0177
ff85
fed0
fcce
fe82
025c
019d
04f0
01ad
003a
05ae
0327
0742
0329
fcac
0225
0175
00a0
01e3
02f9
fc64
0491
014e
070e
f95d
062c
fb65
0213
f9d2
fdb6
0528
fd98
fead
0373
fb4f
ffda
ffc5
055b
ffc9
fe48
fac8
0006
fd8c
0453
fcf9
00cd
0239
0484
0250
03b9
fca0
03ef
005a
f9c7
fc7b
ff59
fc53
0024
fb71
fdf1
04be
02bb
01f1
fce6
0436
0380
00cf
ff4a
06a3
fbb8
0119
01c7
ff03
fe1a
fe09
fd3f
041f
fe06
fcdc
025e
fbcb
fe6f
ff2e
036a
fb22
039b
ffc4
fae3
0552
febb
02ba
01a2
fca8
fded
ffef
fe22
ff5f
03f9
fd12
ff36
0092
fff2
ff1c
fd62
0305
fb02
ff45
fdf5
0277
ff58
fef6
fbff
00f2
0033
01d5
0043
ffcc
fdb4
ffe1
fcd5
00bf
00c2
0084
02cf
fb58
019c
ff21
f786
00a3
028f
ff12
fb93
01b4
049e
0742
fcf4
ff2e
003c
065b
01e8
fec5
fdb8
0334
fd59
ff1b
0166
f9d3
022a
ffdb
fe35
fef2
fa65
fcd4
0462
02d4
047b
ff19
