fb38
0541
00e2
03e7
fdc5
fc28
fcb9
fff9
ff1e
fd29
fb80
0272
ffbe
0116
05d7
0461
020c
0038
0347
01c9
052b
0227
00c2
ff49
0267
f8c5
0466
02bc
fdcd
00b5
01c9
0408
05ab
0262
fc6e
fc9a
02bb
fe82
02be
fb94
02bc
fd0e
0023
fafa
feb8
fcb2
009a
026d
ff31
ff84
0392
fdc5
0663
019d
0188
f8af
06a6
fc72
01f7
fd7a
fefe
fc2e
00f7
fd39
0167
007c
fd70
f969
05a2
feec
ffbf
014f
09c5
fe6d
ff3d
0012
ff33
ff1b
fead
fda7
feed
fe65
0452
012e
00b5
0327
0073
ff7b
0053
00cc
fad0
fd07
fbfe
f959
fb76
fb6d
0006
fcde
018d
009d
02a7
fd42
024d
0129
01ba
0048
fef0
fa77
fdde
036c
fd69
0234
ffc0
fded
0060
0427
fe96
fdc3
054a
fe20
feac
fd80
fea4
fb9a
fc92
00bf
01bf
fdb9
fb32
05ea
00a9
0226
0198
fa6a
fbd3
fc27
fed7
fed3
01f0
fc90
ff7d
fcd9
fdb8
01e3
02cf
fee4
049d
02b9
feab
07c6
02c3
056a
fd13
0296
01d2
0731
01f6
0036
0009
01fa
0336
fd1c
0256
0173
fcd1
010c
f9fc
ffda
0075
0000
01bc
00f9
ff59
0009
f9de
00db
05f5
fd5d
088e
0120
fa85
fdf8
0462
02b7
042f
fa48
00c7
fc3f
00b2
0111
0230
fb6b
021f
003b
ff13
00d3
fdda
0308
0463
fd0a
f7fe
fb5e
f7ff
06dd
fe68
03e4
030d
fe92
0254
fff1
ff93
fddc
010f
0227
feb2
0652
ff88
022b
fd86
ff61
00a4
ff56
fe92
0177
fd0f
ffc8
0280
ff81
0165
fad9
fde3
03ed
ff16
02a7
010f
026c
fda2
fbd2
03e6
fb00
ffca
02a8
02ba
fca7
06db
01d9
006a
fed8
0182
ffc0
ff30
015d
02e6
0207
febb
02c5
fe36
fff1
0483
05db
fb6c
f9b6
031b
fa5d
0253
0244
013a
038c
fd4a
ff80
ff6a
fe1c
0148
ffb1
0743
0672
fa06
080f
f82d
0444
02ba
06ab
0042
fec1
ff32
fc0c
0970
024f
fb28
fb62
0402
0072
ffd9
fdd7
f994
ff53
fe46
0766
0038
fff7
0166
0024
016c
045e
02b2
fdcb
fb52
036c
ffa4
00ca
fe3e
01a0
fdf7
060a
fd9e
0361
0139
0160
0413
fa0e
fd54
01cf
07fe
041e
02c9
fd2d
ff41
faf5
fbb8
0191
fc9d
fbd3
ff5e
05ff
fce1
fb1a
0232
0301
015e
fd37
ffd6
00fb
fd1a
0180
04b9
f8d6
fe63
ff8f
fe90
fd8a
012c
02bb
00e0
fe97
0185
ffb5
0683
ff6b
027e
f884
fb53
ffa2
0683
0105
045e
fcd3
fc9d
fb73
0413
06c4
ff66
0118
00b3
0061
09c2
fde4
01d9
0279
0203
ff6f
f822
02aa
fd9d
fce1
ff8b
0199
fde5
00aa
01a0
00c9
0185
fe39
01c5
00b2
fb12
0016
fb9a
fde8
02ff
ffd4
ff3c
067c
fe3a
fe21
febb
ff53
ffff
fd89
ff64
01a3
0517
0234
ffeb
ff75
089e
fc14
0042
ff2f
fd44
005c
fd64
fe0f
01bc
f8ff
06ea
01a9
0164
0838
0231
fdf4
0005
fc30
03e5
0362
0136
0322
f9b5
ff09
00ed
01d6
0743
0170
0353
fb9a
fb95
027f
fbc2
fed6
031d
03e2
fed2
fcdd
ffac
03dc
0419
0771
0086
0893
036a
00ba
faca
fef2
fc3a
ff2c
f957
fdf7
0033
fee4
01fa
0195
011f
fe56
fb80
02e1
000b
fe7b
fd72
0064
0344
0209
ffff
fc2d
fba8
fa91
044c
03dc
0398
fcea
fd51
fdb1
0268
0323
feab
03bc
ffb7
00c6
05ca
036a
04ea
003e
03f0
0b79
0235
fff2
fa43
03a9
fefc
0365
03a5
ffcc
fbe9
fcfe
fe4c
fa4f
0229
fdf1
fff3
0490
0035
0a5f
0582
fc71
fcbc
01a1
01db
0239
f981
fc59
fdea
02c0
02ed
0194
fac2
0086
02c6
01f6
021e
02f7
0391
0120
fcf5
0210
02ef
022a
fac4
0499
fe8d
fa7a
01f4
fb87
0422
03c5
04c9
fe6c
0259
0025
01ef
06b3
fff6
0287
00ee
05d8
04bb
033c
024c
0093
0147
041d
fb9d
0420
fe24
fd77
038a
fc89
ffe6
ff65
fe28
0344
01d7
fd3a
036d
fc8d
f76f
0198
fffb
fddd
00ea
ff87
03ee
05a7
fd68
fdd9
fcdd
039d
03f6
fe9e
ff6d
062c
0083
fe11
fcaf
011c
ff29
00df
fd6c
0347
03e1
003e
f9d9
fef6
fec2
ff68
0053
002b
fc17
fe76
fdc9
fed4
ff35
0028
fda0
fff8
fcc4
fe9c
ff20
0490
01f9
0a1f
036d
0269
02a5
00f8
fd57
076f
054c
00a8
fc71
fde5
01c7
fda9
fba5
fb98
0364
fec8
02e3
ffb2
033b
ff3d
0434
03e0
0187
fd37
ffaa
020d
0043
ff3e
03ac
0610
0031
0136
003a
0413
0335
f8f7
023d
fe0e
fe2f
06c3
0272
012e
01f3
fda1
00f9
ffdc
07a7
fc33
058b
0158
01e9
ff30
fef3
ff53
0151
0456
ff24
04cb
ff80
ff7f
0292
0120
fc62
fd6e
fcac
04e5
f966
fd62
fdad
fc78
feaa
ffef
05e2
fc85
ff5f
0158
fece
fe70
fc75
ffa4
0012
0199
fd40
00dd
ff83
01d0
01da
07ec
0500
ffbf
01ae
fdd7
00f2
0222
fb9f
fd8f
fee6
01a2
0100
0122
0160
0008
033f
047f
ff76
05c8
011f
0395
00b4
00d2
0364
fddc
fd55
0220
fcbf
001f
00b5
05fc
067f
fea3
fd27
02c3
0432
ff3c
029f
02ed
fdea
fe6e
ff35
0071
fd59
fea6
fc37
fef2
0339
03ba
061a
f91b
0324
f999
0085
ff70
048c
fc37
0439
02e0
06df
feb0
00ee
0032
fd66
02e2
0114
01ea
fba8
ff1b
