fd3e
ffc1
00a5
fee7
0289
02f5
006f
0157
fc74
007b
fdc2
02ca
0004
feab
ff0e
029a
005c
0249
04ee
ffac
fe48
fc92
fa9d
fb98
0236
ff4a
fe14
fd2b
f8f1
01ab
fea6
fc95
fffa
03e6
febd
014c
003c
fbab
ff79
f875
045f
fe1e
f5d0
fc58
fd0e
fd42
04f1
ff6f
030c
0492
fe39
fc05
ff31
00f8
01dd
fc56
fc5d
010d
f997
0107
0484
01e7
fe5e
fdef
01d4
fdf4
012a
fe07
0581
f8d6
03e2
006a
fd5f
064f
0073
ffc6
05a1
ff34
0286
fd4a
017e
fb74
fdce
fabc
0215
054a
0017
fcfe
0106
0177
fba9
00bb
03ed
001b
00df
fd48
0171
ff89
0832
faf0
fedd
0101
ff62
06cd
0478
0578
f9ba
0862
fe9b
ffc3
fd39
fb42
ffcf
00cf
0412
fd5b
005d
05d9
0233
0248
0176
fdd8
01fe
02c3
ff7a
ffab
01db
fe23
fc8b
f7a1
fba5
026b
ffab
fd36
050b
0292
024b
00cf
fbf3
fc21
fcaa
009c
fb88
02bb
021e
0490
0120
fa20
fc3d
05ba
fd56
fdc7
07e9
0150
0265
fab9
079f
0090
fb80
01eb
0024
0248
0240
fe24
01fb
015e
fe34
fea8
fdd2
00c0
fc5a
032c
0080
f956
01e2
fdb2
ffa5
049c
0237
fe92
ff65
015b
ff63
fe02
fde2
014a
fd7d
fd34
ffcd
fda8
ff07
facd
017a
f8fc
02a5
fd81
017f
fadd
feef
ff87
fe12
f9aa
0232
fde2
0472
01df
04c4
05ce
fde0
01a6
0264
0412
0056
0180
0295
ff73
ff4c
fcda
fe33
005c
0150
fec8
fd40
fbd0
02bb
fb26
0054
0332
fd84
fcee
fb2a
01e5
fd31
fe43
007c
093e
0118
00a2
fd9c
ff15
0239
fdf9
fde9
00f1
ff61
028a
02e0
0040
f8c8
ffec
fff8
03f4
fe22
0657
fe2e
0040
ffec
0436
0014
fd61
fe99
fed9
04a0
0238
fe68
016b
01bb
fa4a
ff49
ff83
fef7
fbb4
fb5a
ff6d
ffe9
03b8
008e
fcbb
0185
00f8
0046
ffb2
015d
fefd
025a
015a
fb8e
04da
008e
ff2f
fcd4
039c
ff94
fa64
057c
fbf9
0097
fd93
ffa1
04bc
063b
feb1
fe9a
0132
04dc
fd2f
002d
ff28
fb65
fe96
0717
fd36
fd68
02d0
fdf1
fbb8
fd77
03d2
fffa
01aa
fcd8
fdf5
fc2a
02e5
ff34
0012
0073
0239
02af
fb28
0521
0186
fe58
0603
03b8
0108
0137
035d
0139
020c
fcc5
ffe7
fc5b
fc3e
fdf1
0024
0374
06e0
012f
0035
fcff
fe9d
ff0c
00ef
fdb7
f91b
fdd4
00a9
fd94
00d3
fc8e
013b
ffa8
00c2
037f
feaf
fe71
02c1
02e6
fd97
fd51
027d
ffa0
ff3b
0019
01de
fe13
005e
fd8f
01a9
fbe3
00f1
ff0b
fe18
ff40
01a5
fb77
04bb
03f9
012a
0046
fbf0
ff02
fff7
fc62
013d
ffa6
0041
fcc4
02b6
fdc6
0556
fb34
fd56
046d
02cf
fe37
f98d
0167
fde9
f957
fc9e
ff78
fed2
00c6
05b2
04ca
0308
ff2b
01ed
01ee
0130
022d
fb22
00bc
0050
fa10
052d
00ca
fd06
0134
fb59
ffa6
fd73
0000
04ae
fdd3
00a2
0205
0084
f896
0246
fdbb
fa5a
fdfd
fc3e
fdbd
00c3
fecd
fe1b
fb3a
fe44
fd30
0049
ff25
ffd4
0150
064d
fdac
026c
01d9
0172
027d
0295
fdd9
0173
0103
0146
ffb9
fecf
ffe5
02c6
fde4
feec
f6db
ffac
015b
0228
0006
0165
00bf
ff5e
0436
001b
0180
fdf7
fdad
fef7
0492
01ad
fce0
fff9
0076
03e1
00af
0018
050c
fdf8
0351
02ce
fd07
fe76
fffa
fe77
fa4c
022e
faa2
fd6d
0273
fe09
00cf
0121
0313
026b
fedc
fc3f
fb0a
019d
0365
0793
fabd
01d1
fdaa
fede
0583
fea9
01b0
0103
027b
031e
003a
fb6e
fefa
0329
020f
031e
fdb8
0612
fc3c
0006
fb1a
00a6
01cb
08b7
fb53
fd79
01fc
fdad
fdaf
fbdc
0060
fda7
0046
0020
0184
fdc7
01b0
fefc
ff39
029b
046c
0393
02d5
fda8
ff73
ff60
ff5b
fe89
fddd
02f5
0244
035e
fb86
fa3e
fcb3
fc30
fcfd
0134
0064
fb97
fed3
00f1
fbda
050b
fb74
0136
f8ad
fef2
022b
f8bc
ff32
04db
fca9
fe1d
fd23
01ef
02fd
fe74
0661
064b
01d5
02b4
0685
f9e3
ffe3
fbb5
feaa
fc5b
0332
0103
00fa
fee4
0011
fa64
fee2
ff71
fee8
fd44
0013
fda3
ff3a
fffc
01ed
0143
0393
019f
0295
fb7b
0326
ff9f
014d
0372
04d2
01b7
fb67
ffab
fd06
0297
04cd
fcea
ff52
feaf
03ae
fdf5
fe1f
fc20
fdb4
fed2
fedd
049f
04c7
ff71
f995
fe83
0269
05f5
fc37
fc62
0800
fa0d
ffcb
fcbd
fc8a
0435
ffb0
0532
00f2
03db
fc7d
01ae
0690
05b9
fed5
0458
00d5
feb0
fdf5
01ce
00b3
fab3
fd44
0117
fdeb
0287
fd71
0093
fd7d
01c7
0496
04b4
ffbc
fe68
0516
ff0d
080a
009c
fc14
fe55
0202
fc7f
004a
fff8
01d9
fb1f
0145
003e
060b
fe13
ffee
0313
01db
fde7
fa23
01fb
fbe2
008a
ff4c
03af
fe55
f867
02d9
fcad
fdea
fcc8
0177
fdaa
0138
00d7
009a
ff30
02b0
fb91
fd56
0124
034c
fc0c
02bd
fd6d
fc44
fb35
fefe
0242
006d
ff41
0234
0000
00e4
fbd9
06d6
fe81
fc12
0431
05c6
ff65
fbbb
fc0b
0023
fd05
fd87
0091
fe67
0419
0136
04a1
fa15
fd96
02d3
0164
fefc
011c
ff2c
00e4
01ad
0026
f996
fcbb
0431
02a2
feab
0389
0153
055f
ff1a
fc1d
