078f
02d5
fbea
fe42
016c
fec8
01e1
fc78
f702
011b
03fe
0440
0399
ff71
faca
ff1d
00f6
fdbe
01f3
fef0
01b0
02b1
056f
035e
02d5
0105
00c7
02ca
02dc
fce9
ffb6
034d
fff2
f9e7
00ae
0064
0173
0232
ff3d
ff9d
fef9
080f
0297
fff6
fd71
fa69
fefd
ff74
fc24
fc82
ff4c
f7ff
06bc
02be
0313
0719
00f2
fc11
fbff
f84d
fb77
fb2c
fbba
fd15
fffc
ffaf
fc23
fefb
03ed
0008
fd39
04a8
ff1f
fedd
0367
fbea
03ec
fdd5
fe86
fe2a
000d
fb68
f993
0364
ff66
0348
04a0
fd43
fd57
008e
fe00
faf8
f887
fe3c
fada
043b
fe91
ffe8
f9d2
ff80
00d8
ff2d
005a
0116
feb8
0411
ff89
0155
010f
0030
02df
01fb
fdef
fdf6
0262
0713
02e2
079d
fd53
02ea
06a3
ffeb
016d
fe90
fe42
fb5d
006f
047c
fe88
f8df
053a
0163
fc03
fd0d
00dd
067e
0068
fdf6
00b9
08d8
0898
fe42
ff71
0195
0039
00dc
0629
ff25
00fe
ffc1
0310
0190
fdf6
0300
fca0
fb1a
ffb7
fea3
fc9a
0335
ff7c
055b
ff67
0179
f8c6
ffbf
020c
fc4b
fd7c
07c9
fe19
01e7
0241
fcf2
fb47
051a
fe88
fb1f
0270
05d9
fc27
fe96
0009
0205
ff6e
fff7
ff8b
036d
0449
01be
0047
fd11
0285
fce8
004f
0485
fc2a
fbd9
ffad
002d
fc89
011a
006d
fd97
fd48
0101
fe19
0123
fea7
fd7c
0244
fe81
fd60
fbe2
fbf9
fb6b
ff08
0331
fde0
fdc2
fb07
fd39
ff1c
fd1f
0098
01f1
02bb
fd22
fdf1
017b
00b9
0104
0066
0060
000e
0533
0302
feb4
fa7d
00b8
0487
ff62
0595
0560
0498
fe5f
fc73
ffca
00e8
0441
03d1
ff8d
ff9d
fec3
041d
0025
0088
00d8
fda7
fa21
fb74
fb1b
0530
fff7
fd98
02d8
fb91
fe64
f5fe
feb6
04ac
021b
fe3f
0279
ffbb
0236
fcd9
ff65
fcca
00ba
07fc
0028
f9b5
0225
ffe6
03ce
029d
ff0e
0554
fae8
0460
fba7
0163
0022
0317
05bf
0281
0294
ff09
fe69
fe33
0035
fc98
0034
fecc
0083
0040
03a7
02a0
fdb1
0243
077c
ff76
ffd9
0166
fd12
0287
00bc
0145
018e
0259
fd41
fe6d
0153
07e2
0167
04b3
fcb0
ff4d
00c3
001e
fc25
00d6
fd0e
fb72
029f
ff5b
ff51
fc2d
fd57
0113
05c7
f9e4
fcbe
0171
fb9a
faec
fff6
0485
042e
01eb
fbc0
ffbe
025d
04ef
0211
010c
fd28
fd77
fb96
ffe2
fcd0
fe6e
039a
0160
fc81
0109
009a
f9cd
0330
fc2d
fef2
0210
02a8
0499
fd9c
00b1
0276
fda4
ffe9
037d
0005
fc48
006e
f8b6
03b3
fdc9
ffc2
fef5
fc30
feba
fd10
061b
f9cc
fd88
fd52
feaf
00a5
02da
fc6f
fe27
01dc
032b
fd4e
fc82
01be
005f
0197
0063
0580
0279
0000
fbbb
fa68
fda8
fb8c
04fa
fef1
0427
0107
0088
03b0
01a9
ff80
01b7
fcdd
fc74
ffbb
05b6
014d
0682
02cd
0160
0063
019b
030b
fa50
00bc
ffe1
0187
006d
ff20
026a
fbc0
ffb9
fb14
fb20
fd8f
fbd7
03d5
0065
0089
ff87
0019
0583
00fe
fbf0
fd90
fcf9
ffd1
fb5e
008c
fcf7
ff8e
008b
faf1
ffce
fb15
0258
fe50
fe9b
fe27
0368
fd6a
fef8
ff7a
fdba
fed8
00fb
01fc
0773
0149
fa84
fe59
fcc3
033b
02c9
fe81
020b
fe55
003b
04a4
03e8
fb87
fe5b
001d
fe2f
0299
06a4
fd6f
fb73
03e1
ff98
fffc
fcc7
0175
03ae
f95e
02d1
00fe
0038
0806
fd1f
fc25
0107
ff8d
ffe6
fea8
03ad
04c3
0314
fc54
036e
fd4b
0112
0324
005c
02ce
fd96
fd06
fdaa
fa5c
fe67
ff56
0033
00b4
0274
050e
ff34
019a
ff81
0104
07a4
0193
00f4
fdf3
002e
fff0
fc65
00f0
fdeb
fc7a
029f
0295
0050
017b
fdad
ff41
ff4b
03af
fd27
fec3
00d3
fc47
fe6e
0220
fe23
fd87
0098
030e
020c
feca
fe37
fc18
ff1c
fc4b
ffb6
04fa
0569
fd47
02b2
fe79
ff4c
fe01
fdca
fb45
fe1e
06dd
ffd0
0761
fabd
017d
fe71
fdf2
01c8
0126
00ed
01ce
0416
01b1
0493
02b0
027a
012a
fb8d
ff10
fe4a
fdbb
f3f0
fcce
fdf1
fd11
0634
fa0b
007d
fb78
02c7
0122
f9fd
fb8b
066c
ff67
014f
00ec
fff1
00ea
feb9
ffaf
0270
fff4
fe45
0481
02a8
ff93
04ac
015e
fb62
040b
015b
01c2
01c1
0049
ffa7
0525
f91a
fcfb
03c6
ff4d
fcfc
fe89
00ee
fca1
004e
faae
0169
0080
ff49
fbb4
0115
03c2
febb
043b
ff3a
0071
fd60
ff09
fee5
ff48
fb00
feac
00d5
feb5
0335
f98b
f920
0252
0282
ff15
fd8c
ff60
05ff
fc94
0915
032e
fd63
0114
001c
fc52
fde4
0087
00e6
022a
fd73
025f
0095
01bf
ff42
ff71
04e7
0304
ff8f
fee7
003b
f891
0336
022a
0012
fda7
021c
fdde
064c
02ce
feef
0058
ffa1
04e1
012c
01d3
00d4
0149
01a5
00ab
fc82
020c
01f2
fd82
fede
0357
ff3a
fe86
0240
03c7
fb8f
03e4
012d
035d
02ae
0294
fd7c
0146
ff98
ffb1
0006
ff81
fde2
fcb6
0805
fffa
02bc
0143
fdaf
ffc5
fcbe
0491
ffaa
0141
00f5
fb88
03ce
fb35
01be
fd45
fd63
013d
0097
0109
fd8d
005c
0314
0a0c
00ac
031d
04ff
0182
0160
fba6
ff55
03c0
fa40
0337
0359
fda4
fbf2
ffab
