fefe
005c
011e
035e
ff49
040f
fec7
f98e
fd8f
fbe0
008b
001c
0058
02a0
0564
03f1
ff0d
fe98
fc45
fc1c
fc46
018e
fc38
0070
fe24
feab
05df
fda6
ff19
feba
002a
ff0b
000a
fb9b
fb97
ffdb
ff37
fdfb
ffb6
f916
0290
fcaa
fb8f
fde9
0167
0003
fe7c
ff7e
fd57
fea4
fab4
fe24
0360
002a
0304
0000
fb27
fd03
fe5a
fe2c
0460
0175
001f
0316
01f4
fde1
f9b5
014e
fc58
0477
fedc
ff29
019a
02f8
fe57
02d9
ffad
fd14
0115
00f5
fed3
fa18
0155
0323
ff71
0230
05eb
fcb6
fd25
058d
fde2
fdeb
fef5
004f
fe5b
fde7
ff5f
fb0f
0361
fdab
076b
0335
00b0
0542
086f
02be
0266
fe41
0052
041b
047e
0216
014f
0562
0730
0060
fbfd
0563
00a2
052b
fdcf
fec7
ff65
0193
fcff
024f
0705
030e
fef7
004c
01c7
fcac
0416
05d5
fb78
f6fd
0031
fbc6
feef
0120
ff1e
f9b2
fbe9
02e6
0077
01e0
06ef
fe97
fd11
05cd
fb1f
01e4
fbd0
ff79
fe4f
0295
fca6
fc4a
ff43
0306
038a
fde8
044b
0390
0391
fb8d
03d4
faef
0023
ff31
fc4a
fe21
01f6
fcbc
fb1c
ff3f
fc72
ff41
01d9
00a1
0004
fd80
01ea
f9fd
ff46
01fe
fca4
0074
0175
fb11
fe29
f8a9
00b5
02c8
0353
fd4e
0081
02a5
f69a
ff6b
0244
01cd
fcbc
fe13
fef8
01b4
012e
01b5
fd5d
ff16
017e
014b
00f3
00dc
fbfa
f78a
ff42
fc3e
0081
034e
007d
fbab
0046
fd91
028a
fdf6
ffd7
fe80
fc82
fd8b
0299
fc7e
0453
fd5a
0083
fe76
04e5
057b
0254
0301
fc9d
0206
0040
01ac
fe2d
01b0
04c4
026a
04ca
fd7b
0323
0021
fcd9
fcb5
ff0c
fd20
0093
0273
fd6d
0330
fb30
02b9
00b5
ff84
0242
01e0
ff55
002e
062c
02a0
fe8a
0134
fa2a
ff5a
fc0d
0120
00db
fe33
0162
007a
feb7
feee
042a
01ab
ff8b
056d
0544
03f2
ff65
ffeb
fceb
0220
00d5
01b1
fa5e
fd1a
04a1
fb34
00d0
fe9f
0386
042e
f9c2
fdaa
0362
fd4e
ff8e
015a
fee6
060f
000a
fb1e
018a
014a
fd46
0051
0523
02d0
0178
fd86
0402
02ad
f881
00e3
fbff
0512
005c
ff24
fd8e
04ee
0029
00a0
02b6
ff61
ff88
fd7c
00fc
fdc5
fe05
f904
0188
010f
011a
fec7
0360
fdc6
0003
fe10
021f
fd55
fc5f
0061
fdc2
fa02
fbe2
0232
faea
fe9e
fae8
fe67
fc57
02d4
fe3d
029c
0375
00f4
fac2
ff36
026b
ffba
fe07
003b
03da
07c9
0064
fec6
fe38
0071
fed4
04a6
ffe1
fd36
f9ca
004f
fdb6
fef0
ff5a
ff28
fdf1
00f5
00c2
ffb0
f98a
024d
0023
ff84
ff24
0468
0007
fe1e
ff6c
0297
0248
0085
fc87
fcee
fe19
0244
017e
fa0d
0448
ff86
00f0
ffb5
ffa1
fd60
03c8
0061
001a
03be
fcd3
01ba
04ef
fb70
01cc
ffda
0000
0193
fe57
fddd
ff31
fde8
ffda
fab7
fb12
fdb9
00ea
0261
0164
fe4c
002f
05b2
ffd8
fcf1
0687
ffdc
0597
0592
fadd
fd95
fff3
fb1a
fe1e
03ae
f7fe
014b
fc7c
fb90
fc5a
03c3
fcfc
0216
fa51
fb41
f9ef
023a
00a0
0175
0076
ffe9
0278
001c
0094
033d
ff64
02d9
fcd6
0053
fe9a
0229
feb7
fa10
05da
ff7d
fda0
00b2
0468
0443
014b
026e
fe4f
fd36
fbc8
fee6
0208
ff48
f993
ff1b
0144
04d1
0852
fd53
02fe
01ff
019a
ff20
fe5c
0300
0219
fff3
fffc
02f7
fad2
04ba
fd3b
028d
fad8
fc33
0029
fe8b
01d3
01ae
0273
02bf
fedb
0216
ffbc
0029
06b6
ff0f
ff90
ff28
ffea
fbd1
fe73
fc2c
035b
01e3
fec7
fd0e
fa7d
038f
03ef
00ef
fe50
fd47
fcf1
0228
0120
fcc5
0098
fe60
04be
fd9a
fcda
05a1
fef1
fe49
00d7
0175
ff26
045b
ff9b
039a
01d0
0033
fe2c
0156
0b29
000f
0316
01fa
03b1
004a
fd27
0526
ff92
ff79
0358
0151
fd35
fdbd
013a
00f1
fbd8
fc5c
ff0a
ff46
0027
00fb
fa77
02b8
fbe9
f785
fffe
fd05
fd6e
ffe1
ffbb
005b
0007
0308
fe76
feba
03fb
05c1
fe8b
fd5d
03de
0402
027f
fcee
0132
0455
fe47
01db
fd18
03ed
fc6a
00b4
ffe6
05ed
041e
016b
fa0d
02e4
0142
045e
fa56
fb3d
fef9
fc53
fdca
0257
01ae
0155
fbc7
02f4
fe75
f8d3
ff9a
012f
0462
fd4f
0425
00bf
0343
00d0
ffd5
fb50
03ac
023d
0050
fe80
0038
ffc8
0156
0483
fcd3
022a
fd2b
fe9b
fee0
ff46
002f
ffef
ff43
fefc
00af
fd2c
01cf
ffa2
02e7
05ac
0437
fdcd
0293
ffaf
fc22
ff33
033a
ff07
fcea
000a
fdcd
fd5f
0208
fedb
04bb
ff6a
05c4
fe33
01e6
feae
fdd5
fcff
ff8c
fccd
005a
ff12
fc8c
01d9
0369
00f4
feba
05eb
0049
049c
0477
f7b4
0813
00b1
01ad
fc2e
028a
ffeb
00ab
fa68
ff69
feec
fc61
fc68
026a
fc55
01b9
03da
05ae
fccb
feef
fdc3
fbf6
014f
0054
fca3
ff86
ff98
ff8e
fa0a
fe6e
0302
026b
fdef
0368
fdeb
f92a
fd24
fe59
02b2
05b3
0216
fd9b
06ca
f9be
fdc5
04df
0286
0008
03c5
ff34
fb29
02bf
02ce
fd3a
0483
0159
ff57
00ad
0375
ff62
0049
02e1
faa7
fcb6
fed6
0418
fdf1
067c
fe92
02b9
0203
00e3
06fc
0055
fe2e
