fe93
fd05
fda1
0606
fcec
0398
049f
ff15
0355
fa8d
fe3a
04d5
009e
fe5e
fe7c
ff91
0234
0211
fe45
0091
01c1
ff84
fb36
029e
024e
fdea
ff97
ff50
ff8e
01f3
fe35
027d
ffef
fecb
004a
fc1a
ff6e
00d5
028b
f9c6
ffd3
03ba
0017
feac
00c0
fa7a
01d1
fd5d
0189
003e
fd3f
ff5d
fd64
fb24
01dc
ff38
fafa
05c1
008a
0051
fa49
0482
fda1
fd1a
00aa
020d
fd33
0320
0228
fc98
01c1
fea8
f8e5
00bb
0324
008d
fe59
0086
03b3
fd0a
ffcf
016c
023d
ffd4
02e4
fd98
0383
0176
0060
ffd8
0123
fdcb
feba
fc03
01ee
026c
005f
004e
fc6b
fd3b
03d3
046b
ffdb
ff92
0395
feef
fec2
ff5a
ff19
033f
fd8d
0440
ff48
ffbf
0305
0264
029d
01fc
ffae
f93b
037a
fe5c
0198
fd1c
0419
003c
02ce
0528
fd60
fe14
0491
fdfe
fd8d
ff9d
043e
0310
ff3d
ffdc
ff93
0159
ffb5
024e
fd0c
01d4
0075
0305
022e
0048
0661
ff72
0104
0261
02fe
0216
fe17
ff6b
0274
001d
ff4f
fd15
f949
040d
fad9
fd7f
fcb7
00af
fedc
0130
fde4
0600
00ea
02f4
fdcd
0066
feef
050f
fb1d
fe64
fea0
03eb
02b1
fb45
fda4
057c
010d
068c
01c7
fe02
034d
fd14
f93a
0275
fc42
fa0e
017a
01eb
fee6
035f
0242
fff2
fd65
fdfc
fe11
ffa4
fe86
fe19
fe65
035b
fe2d
0417
0326
fedc
02f6
fefd
feb2
037d
fe61
004b
094d
010e
fb4f
ff9f
02dd
fbf8
0491
0122
fb4d
0180
ff07
fdd1
faff
0438
0304
0445
00f1
fa5b
f94a
0190
ffb8
0135
fd6e
0324
03f7
fe0b
0077
02f0
0431
0320
fdc8
fb3f
0393
0336
03fb
01ed
fdf0
0143
0091
0448
ff3b
fcb3
073f
fee5
01b4
fcdd
064b
f966
fedb
fe4b
0406
03b8
fc38
018c
ffd4
ffef
ffb1
ffd7
ff80
fdfa
f99a
04cd
0443
fa29
0101
ff36
fe37
02d8
0292
f8f5
fa3a
ff61
fc99
fde1
fb52
feb0
0326
02b6
021d
feee
00b1
019a
0608
fcf7
fea0
01e7
fbc3
ff15
012e
fde2
017f
ff45
001f
fac0
faf1
0215
fbee
fdd5
fa91
fee8
0492
0408
009b
fd10
00ea
fb00
ff03
06aa
ffaf
fb78
02be
fe56
ff31
fa9b
006e
fd64
0395
fff5
fd7b
fe32
fe19
0038
04ea
0545
ffbd
fd88
ff0a
f9de
ff77
ffbd
fe2c
026c
fb51
ff87
055e
03a2
ff42
fbce
0519
022d
0173
ff1a
fe72
fe59
fe67
0452
fcb7
04c7
01b7
fccd
0203
f932
fedc
ff2b
0045
0049
fa2d
fcf3
f872
fecb
03ab
049a
01dd
0082
fbea
02fa
0548
ff33
0060
0280
fc9f
008f
ffaa
fe71
ff56
faff
fe1b
ff7c
0355
fb84
fbac
fc38
00be
fe24
042e
fa49
052f
0004
f7af
feab
fcff
0402
ffe0
fe40
f859
feb6
050b
ffe4
0159
fbe9
fe7a
0034
ffda
05f4
fe96
0331
0648
01ea
0354
0001
fe5c
fcda
f84d
03b9
fddc
fda8
0163
0469
059c
fe48
00dc
0174
fe30
ffdb
fecf
f9b9
0184
0421
0157
01e8
00cc
fcb1
00fd
0015
03b1
00f0
02de
fa43
035e
014b
00a9
fda9
fdad
051a
fcaf
ffdb
fd4c
fd6e
0253
fffc
0532
0326
ff1e
f97d
0381
ff5f
0422
fdac
fcdc
ffb3
fe29
00e8
0524
004b
fa14
ff2e
fcad
ffbf
ffe7
02b6
00e2
fca4
0462
fc6d
f87c
f798
0213
fead
fc35
032c
fecc
0003
fc9d
fdb9
03e5
0816
019d
ffc2
00c8
ff28
fd47
fdfb
004f
fe05
fbf3
fdb3
ff67
0184
fd95
fbe4
ff86
fb20
02d7
fcfe
0054
02a5
ffd8
01a3
0244
ffd0
ff87
fe4b
fef4
055a
fef9
0148
010f
ffd0
fe95
025b
fffd
0214
ff56
fcf8
0347
02ad
ffd1
fd65
fccc
003c
fbed
fff9
fd78
0280
03a9
0609
fbbb
ff24
0802
feb6
0139
fabb
0098
fb7b
faf9
0218
029c
0256
fef1
fe7f
020f
03d0
fff7
ff3e
050c
00d7
0042
fe72
fe4f
fd9f
0158
0396
fdff
fe77
fe40
051b
0481
fe9d
ffd1
faca
0099
007e
fcac
fd42
ffe9
fc84
ff09
02ab
f5b5
03cb
fe15
fa27
0047
ff14
0052
028e
ff99
0113
0263
0244
02c1
ffa0
0352
fde7
0022
febd
000b
fd96
03e8
0080
faf5
ff17
0194
feff
ff28
05eb
fd5a
060f
0624
ff5c
00e9
0317
fe80
fddf
03fd
fc69
0098
00ff
0506
ffab
fe03
02f0
0451
fcdc
fdf5
027f
0776
00ca
078a
fee6
fbe9
047a
fad2
fe89
fd29
fd2d
fec4
05d1
024c
030e
fde6
fd21
0063
0304
fefc
0276
fef0
00d1
fa75
01ad
03e9
fb70
fd57
02cb
0388
00dd
0006
fe1d
0200
04e9
fcdd
fd94
0194
ffa1
fd9e
fccf
0284
00bd
fc59
f91e
01d6
02b9
fea8
0264
0077
0401
01a0
00e1
0026
fb16
03cc
ff34
ffa1
fd2b
fd9d
fd0a
ff78
0354
0378
03e6
0225
fca2
fd9f
ffbc
feaa
005f
00f5
fda3
02e1
0642
04b8
04fb
034d
02f4
ff5b
ffaf
04cb
ff14
fa66
000c
0242
0190
fe5d
0487
01cf
0182
f915
fc64
fe72
017a
0072
0157
ffde
fd3c
f996
fa4d
0649
fe5b
040a
fdc7
0139
fe8e
01e4
0350
ff8e
025c
0479
01ba
fdd8
04c0
0038
021a
0494
fccc
ff01
fe2f
01c3
fc46
fbcf
fda2
fe62
fea6
f779
025b
fd3e
036d
fe29
01a5
fe5c
0136
fba2
fd1b
031d
fc83
0391
01b4
