fbc4
04f6
02b8
fb99
fccc
ffd2
0284
000e
ff7e
0198
01bd
fe0b
fd8f
008c
fdf9
fbe1
fee1
0495
fcf5
0281
00aa
0081
0381
fca9
fd0f
0513
fcc1
0521
ff93
fe6d
0153
06db
fe5d
020a
fefe
fdeb
0060
0183
ff96
fef3
fbd2
0178
ff03
ff18
033b
03b9
ff3d
03db
ff48
0389
0577
ff4c
f736
02c8
01d8
02ec
fd38
ff6e
f95e
025a
0524
00bb
ff9f
fd30
05b2
0744
fdd7
017f
feb8
05e6
ff90
030d
07b4
0179
f99e
056f
048c
fc1b
fc47
0115
fce1
fcd4
0105
0629
02b5
ff1d
02ba
fbd8
0059
0042
fca1
0289
ffbe
ff15
0285
052c
0085
fa0c
002d
0154
fe83
ff1b
ff0d
fa05
ff40
0455
00e9
0058
fdb6
06e3
f96e
0147
072d
0225
0968
007f
0440
fc48
ffed
0617
ff12
ffa9
fab0
02f1
fff3
005e
0312
fca5
01db
024f
0003
0293
fe7c
fefe
fbac
03d0
076f
fdea
061e
fd31
05b2
0107
0391
fb1b
05da
ffcc
0211
0420
fef8
f912
fd32
ff78
fc3e
feb4
fe69
028c
01b7
000d
03bf
fda2
fe7e
014e
00da
0067
fdf3
0072
01b5
0427
fef3
ff30
001c
0379
fc1e
03b2
fbf2
fb48
fea2
fd73
06f0
fdec
fb21
00fb
0274
fc8d
0108
01ed
ff40
fb85
0433
fcd6
0b83
fefe
006c
fe43
058a
ff46
0139
fbb9
fcff
00c0
037e
fe36
fded
0108
0066
fd6a
fc52
fa8d
fd86
ff29
fe81
ff08
0239
fb60
fd9d
fd4c
0372
ff2a
f892
fd6f
071f
f873
fd7b
0118
04da
ff51
0212
fdfb
031a
fefe
00ca
0255
ff09
fe4d
fa36
0355
01e6
fff6
03fd
fcb0
0048
fddb
ffaf
fd6c
044e
fcf4
01bd
02d0
fd92
020d
ff8f
02b1
f8f6
fdb6
ffa7
fab6
0020
0022
fc63
01df
f951
00c5
fd05
01e0
fdf3
fef5
0348
06b5
fb5e
fd13
fde2
ff62
fd2c
fd49
0108
03c6
ff81
fef0
01d2
027d
fdb5
ff12
004e
02eb
fd55
fd2c
fcf9
fe37
f919
0561
0269
0374
fbf6
049a
fbcc
fb2c
fc9a
fee7
fe06
ff4e
0364
01e7
02f9
0400
ff12
ffb1
ffc4
fdb4
fc8a
045e
033a
ffb9
001c
0140
0235
005a
fe8c
05e0
01c3
fa00
0191
002e
ff52
0179
00fc
fb2a
fe1b
032a
fafd
00ba
0166
fb67
f798
fc48
00bd
ff5b
065e
0284
fdb1
fd15
fe2c
fec4
00c7
02be
f9bb
fd5f
0051
0221
ff47
fff2
ffb9
0560
fc9d
fc08
fcf4
0479
00c9
039d
041f
fe53
ffa1
ffe8
fff4
fec0
04ac
fe07
038a
fe31
0197
0205
fbc7
04f3
05df
f974
fd36
fb73
fcc3
fd3b
fd06
05a6
007d
febb
ff96
0471
fa31
fd07
03e7
04ea
fc1d
008d
fb53
fc8a
ffa2
097a
fe89
fca5
ff0a
0461
f631
fdac
0393
fde4
ff2a
fedd
01c6
021e
ffb8
fb8a
ff34
03de
02f5
025b
fcaf
fd83
f79f
ffb8
0224
fede
f969
0039
01a2
048d
ff1d
04f2
0305
0162
fcd3
fb39
fd0a
fe0c
0529
0170
ff6b
02a7
fb1a
ffb4
fa05
ff19
fdc0
022e
02bd
086b
02c8
fe7a
031e
fd31
00da
ff1c
01fc
0566
fad3
fed8
01df
f847
fecd
ffc9
0116
ff4c
027e
ff81
fefd
ff67
fc6a
ff89
02c4
fe9f
fd63
ffda
02fd
ff7f
0135
fdd6
fd58
000b
fe8c
fec8
fe8b
0399
0025
fd52
03a5
fb3d
03f9
01ba
08f1
fbd0
0136
06eb
fb05
01d0
fe0d
017d
0285
03b0
fd19
02cf
fdba
fb0d
0186
01d5
fdcb
02d5
fbcc
ff70
014a
fe82
fe65
00e8
0166
05cc
069b
0424
0457
01c3
00b6
00eb
0414
0869
027f
fe38
fefc
0310
fee5
0516
0406
ff59
0347
03d8
0488
0393
01af
ff0a
fe11
f9ff
038c
00a0
0126
018e
01b5
ffcb
0441
0281
0305
016b
fff0
0190
0315
0427
02c6
03d8
01e3
feca
fa80
feef
024b
068a
0394
0008
01e7
fedb
ffa0
046d
ff11
014b
fe0c
fc40
fdf3
ff35
00a4
01f1
fb89
026d
003f
0442
ffc0
fc5b
06ae
00f4
00b6
fbde
0261
00fb
0070
0271
fd8b
fcd3
0644
02cb
fe4c
f9e4
fb03
009c
f807
ffe4
01f7
01d2
03e0
0448
fd92
0537
fef3
ffd7
0382
fde4
003e
fc36
021c
035d
018b
fe43
01b1
0201
fa35
0223
ff38
00c9
fd94
fdfb
fcae
064c
fd56
0432
fcb5
012f
036f
03ed
fdcc
024d
0384
01c4
01ef
0451
03d9
0502
00fd
01aa
024a
f9c9
06a8
0250
fc8f
feb4
ffc6
fdf5
01b8
fe29
0478
01ae
fea5
0121
00c2
f929
ff5f
fd7f
f9e5
fe73
0252
02de
0196
042c
0183
ffb2
02c7
fe5c
fcd3
0557
0188
000a
fc4b
0454
034b
0135
0271
042e
02ec
0786
fd72
00ee
fecd
fd58
012f
0241
fae5
fd9d
fd64
0a3f
03ab
0201
0247
faad
091c
012a
00d2
f87c
004e
035f
01eb
fd22
041a
0064
fccf
02a4
0667
03d3
00de
fda5
fc28
0318
05a8
fd70
002f
0181
feba
03ea
0365
fdb1
020d
fb0a
0079
0238
043f
0314
045d
019a
ff1c
01e8
fd9c
f8af
00dc
ffdd
0336
016c
0040
00ef
0578
005b
057d
0364
03eb
febb
ff85
0040
06cc
05aa
fe50
00f3
fe4b
0077
f866
fe78
fcb7
03d3
ff4f
fa8c
ff63
fd0e
ffeb
ff06
044a
01b2
013c
ffae
04b5
fd91
fd19
025b
fcca
03f7
04d1
021b
0281
0060
fec4
feb5
0811
019b
fe56
04f4
ff27
02bc
fe53
ff22
fe10
027b
