01a6
f9e1
ff9c
0046
fe4a
0489
002b
fb74
fdbf
fb45
ff10
0501
0047
00bd
fca5
fe42
00a5
ff7b
0041
ff29
ffea
fc2f
fe7e
fe40
003f
0239
0418
fc18
01a9
ffa8
06c4
ff1c
fd1f
ffc2
0061
026a
0320
0565
03f7
0177
0337
fbbc
0061
fefb
0010
0358
ff24
047b
fdd6
000a
005d
0386
fd66
fa2c
ff33
00ae
fffb
fc78
01d3
029b
01dc
00f1
010e
04e2
0166
0063
fd6a
ffed
ff51
fb7b
02ad
ff8e
ff80
033a
00f6
fe52
012f
008c
fe2a
f7e8
030e
0273
0353
fedc
ff61
fe7e
0338
0165
0149
06e8
f946
ffe9
faa9
fdd8
07ce
03fa
fe45
fcc2
ffd2
feb0
fec8
fcaf
feb6
fc74
01f1
fc44
fbe2
fb52
0047
ff1d
fe4d
02fe
06d5
0057
03fe
ffef
fe78
fc89
fedd
039c
fdc6
feb0
02e4
fc76
fdce
fb2a
fe17
f97c
02a5
045a
ffd5
043c
ff77
021e
05fe
0171
fe9f
ffcc
fe00
fe87
0075
fd9f
02ff
fe87
00c4
058a
0488
fc07
f917
0473
049a
fe00
014e
01be
00dd
081c
0394
01de
ff04
fdb2
fcc7
fb50
029e
fb01
02e3
ffc5
02d5
fce6
fd96
0351
fffc
0222
007d
fdcf
f84a
fca7
00c8
00b4
fe55
0340
0176
fc3a
fc80
ffec
0060
013e
05f8
fcd3
fe32
fea2
01ec
fed1
f819
fcba
0413
00da
ff70
052a
fc29
0022
fe4e
ffb0
0098
fa83
fd3d
029c
fe43
ffb7
fd06
fd5e
ff42
01ff
fdbe
fc3c
ffad
0012
fd7c
01cf
fe60
ffed
fece
0242
fdd0
005e
01b4
02e1
0131
0157
001a
006b
008d
011b
0084
04df
fa47
fe0f
02f3
00da
011e
ffdb
fde0
fa21
ff3a
0440
fca3
025e
0196
febe
feea
035b
002a
ff35
fc1c
fada
0272
febb
0193
fbd9
ffb0
fdd8
0344
0457
ff24
05f4
fe45
0340
ff0a
fee6
f81a
01e3
fca4
0302
fe70
fd8e
fcae
01a9
fd0a
01dd
004d
055c
046d
0533
fff9
ff76
02e1
fb47
052d
007a
008a
01b4
0358
fef4
fe60
009a
fc9a
fa8b
f6c4
fc1b
fb41
0138
0419
fc8e
0673
0195
006e
fd66
fb58
0313
01a2
00e3
0309
ff8b
005e
fe18
f9c0
ff5d
fdaf
03c3
fb53
067a
048f
02bc
fac2
0037
fc82
02fc
030b
057f
fb9f
007d
fcd6
0350
02bd
00e1
ff06
f793
ffea
feae
01b0
0109
fe3a
fe8f
061c
fd2b
ffa8
fd9e
faed
0497
016a
f9f7
0289
00b5
fb6d
fdab
01ea
04ae
fcf6
fe7f
0594
0527
fdbc
fc43
feb1
fdf2
fce3
0322
02ff
fe13
025f
0510
ff46
fd23
fe5e
01b8
fe02
025c
0049
0612
ffd0
fd41
fae0
034b
0187
fcd6
ff54
03d8
0548
0025
0664
0203
0383
0202
0439
fc1a
0296
046c
00a3
0373
03a3
fed5
009e
fa83
066a
0011
0054
fc4c
064d
0421
0007
fd87
017b
0130
fb6f
0082
ffab
04dc
fb96
fe41
fd6f
021f
fe41
fdd8
002b
01dc
fb16
051b
fe1b
022c
046b
0453
0190
039a
fcc6
0412
054a
feab
0124
fc46
0274
f8b3
04fc
fdce
033c
feae
fa28
fde6
fd69
fcb0
fbb2
fad4
ff2a
fc01
f84f
ff48
0177
0240
fb6e
ffd3
fef7
fe46
0417
ff5e
fd4b
0023
04ff
044c
02bc
f7ae
0658
f903
0413
fe84
012c
03d9
037d
015d
009f
013d
fe5b
f951
0592
ff2e
04ba
fce8
059e
fda1
0294
00bb
00ed
009b
ffeb
023d
ff44
0221
01a0
08c1
00ed
0054
fd61
fefd
fefe
04a1
fc18
03bc
017d
ff9c
fd67
02a4
fc72
010b
007e
fe50
f6b9
fd8d
01ca
ff10
fdd8
0256
ffdb
0338
fe80
ff1c
fe09
fea5
fa66
fd3b
04d3
01f3
fd7e
00bb
fa4a
02c2
fef3
01ad
04bc
0325
01f9
0241
fe60
03c7
f9a7
0174
fe67
015a
049b
fb68
fe2c
00b0
018e
fda4
ff69
ff8e
fade
0372
ffd8
fc95
ff62
006a
fc96
00b9
fd09
02ba
fece
05bb
fca3
0094
ffa4
00f1
ff68
0031
ffed
fe83
01a8
0196
07da
03c6
fadd
fb81
fa36
0614
fe8d
fb9e
facc
0168
0036
0314
012d
ff99
fd98
fd42
f9c9
fc5c
0117
fed1
008c
02f0
0059
001f
0080
0536
fc57
fe09
01de
0006
023c
000e
ff68
fe59
fbf3
ff48
ffc9
fa14
fcc5
0047
0451
042a
fca3
fcb6
fce2
05c4
0051
013b
f9c2
fb9a
035a
06f4
01d3
0583
0457
04e2
025b
fcd8
fdc8
00de
ff40
feb2
fee3
fe12
fe51
01fe
01ea
0283
02ee
fff0
0358
0212
03f7
fd01
fe6c
002b
ff15
014a
f8e5
fdfb
0053
ffd9
0022
fbc5
006b
fd53
0067
0083
fe4f
fdd9
fd7b
feb2
02e9
0946
fc01
012c
f931
0355
fe2a
00c0
fce9
fd44
ff4d
ff87
0274
00c2
fd5b
0003
fef6
0290
fc42
fedb
0146
01b9
031f
02b4
ff71
059e
f9ba
0131
0506
0262
feb0
feda
02d4
ffe0
fcb4
0065
0406
fd2d
06ea
fdbc
fd14
047a
fe70
fca0
0405
fe83
f967
0449
02ad
03e9
0201
0054
f9fc
0259
fb6b
0033
0520
0072
ff03
00d9
0299
034c
045c
ffde
ff81
016f
022e
fc9d
038a
fb47
ff78
fad5
0206
08f0
0412
fb4a
fb99
0487
0076
0713
fdaa
fea0
fea3
034b
00ff
fce7
fda8
03e6
ff95
01e7
013a
ffe1
027f
fca6
feef
03c5
fdfa
f982
ffaf
007d
05a7
0578
0374
fe62
0606
ffbf
0316
0112
fabb
03db
017d
fbe9
009d
ffb7
0226
009e
fed3
ffcf
