026b
0457
0454
03e3
0538
0004
04ce
fecd
fdfe
03fe
ffaa
0365
01ac
fbd0
fe5e
fb7c
03ce
0622
fca3
f9fb
fdc8
0579
00d8
0187
fe29
0473
fcd3
ff54
03f4
fdc8
fd7f
0031
0260
fd3a
05da
fee1
01ae
fcbb
02d2
fceb
01bc
01dd
fdcb
0154
ff64
04da
faba
ff0e
036c
ffc7
fede
fe20
01e4
fce8
f885
04d3
0281
04a3
fdde
f805
02ae
fa04
067e
03ce
fe65
0094
068c
face
fd52
0405
015a
ff00
02bc
fdf7
02de
f97c
fb64
0231
049c
fc74
f9a6
fe68
ffdb
025c
0346
02a5
0038
04f0
01da
000c
0122
ff4b
fefb
034e
fe12
fdf5
0095
fd53
011b
fe17
019d
02e2
00d8
fba0
017c
fba6
0126
fce2
0096
04db
0264
fc86
01cd
fcb3
ffa8
00de
02a5
0251
fd34
f8fb
fd11
0004
011c
0122
fd25
ff17
0251
fd78
047c
01d2
0035
fe43
00f5
ff3d
fb63
fdec
fe32
fd3a
ff8b
feae
fe79
0283
fdef
030b
faed
0164
fdae
046f
fcf9
0208
056c
0350
00ec
fe79
00a0
ff3d
fd5f
0138
0451
0194
00b6
fe82
fb35
0639
0412
fc25
0503
0320
00c3
0335
fdd6
fe37
00a0
fe35
095a
ffd1
fd8e
fdae
017c
05d1
0224
ffc3
0428
fe8d
018a
0065
f9ec
fd84
0061
0069
ff7a
f91d
0125
0316
0329
03df
f90c
0278
028a
fb04
040d
0284
fe4c
fbbe
0567
fd1e
fffe
f7c8
f941
fffb
fda1
0222
0136
fc6e
042b
01e5
ff96
ff3d
01e1
fe96
feab
0566
ff1a
0154
fe8c
0527
025e
03fb
01b8
ffbc
fd50
0059
0062
03c1
fba8
0001
0054
0402
fdbd
0089
00cd
fc0f
0023
02f3
0229
ffa2
07af
0344
00fb
fa73
0088
f94f
023d
002a
0202
00cd
0008
fc29
03da
04b2
fd36
fea8
fa6a
01c4
fffd
fbe5
023e
fa1f
005c
00a1
020e
0449
0270
fe91
fe07
0101
04be
ff10
0260
fdb1
fa3e
fd2c
ff44
fccd
008c
fea5
fe2d
001a
ff71
0434
fb9d
fcf7
00f2
fdd7
051a
02ef
05f6
040b
035e
fd78
fe17
016b
fd04
ffa8
013b
fe99
fb28
01fe
f932
06d9
ffce
fc7e
fd0b
fe5e
00a7
0359
00a8
0108
fe57
fda2
f9e1
fce0
0378
ffa6
015d
ff15
fd94
ff38
0264
ff3e
ffc4
fe17
0077
073e
fe0d
0436
0280
0009
014a
ff57
ff18
f75e
ffaa
0383
0328
fc4d
0227
fef6
031d
024e
fa98
011c
037d
03e2
0184
fd2f
fc45
00db
f6e5
fb34
00c2
0561
01f0
049e
01d1
01eb
02d7
fca6
02e2
02e5
fed3
0121
ff11
fa0e
fc7a
ffa8
0154
fd02
02cd
0007
fc92
fcb7
fd90
0527
01ac
ffbf
fc24
fdc8
fd14
fa5b
ffd2
fdf4
fea2
ffbb
fe7e
00b7
028f
029a
0a88
01c5
fa86
f807
0451
f6f1
0679
022e
026e
03e7
faf6
052d
0255
0494
0265
fe77
fbce
fade
0678
02dd
fd45
fe10
028a
fd07
ff7e
fd08
fb44
f875
fc47
000e
fd64
fef1
fab1
fd09
fd7b
fb8e
fd18
fe25
0096
04c4
fed8
0421
ff94
04e2
01c5
0074
0342
066e
f9bf
fd55
047e
ff6b
0134
fc9f
fce4
fdf8
0091
ff65
fe1e
03a0
ff33
fd67
ffe2
009e
fff0
fd29
ff50
0158
fd43
fedc
fc7e
0388
002a
fcd7
038c
0370
fa9a
01e4
034f
ffff
ff2f
03d1
003b
ff4a
04b0
fe03
0294
0241
fd30
fd2b
04ca
fc88
fcb2
0507
01c8
f85e
079d
f92d
00cc
fdb2
fea7
fb3a
0083
0069
0416
0096
fbe7
fe21
03df
fd6f
001b
000d
019e
fcc6
f97c
fd6a
f9d6
fb8d
fcd6
0309
0646
fe77
ffd9
0006
ff6f
fd60
ff84
039c
f7f5
0248
0061
015b
0252
068f
040a
f94d
01fa
0278
fe34
0110
02a2
fd4c
fa7e
fab5
0478
ff91
0022
ff14
052a
01b6
fd1d
ff05
0102
048e
0528
fb2b
fff0
03ee
04e0
fe10
fc8c
0011
fe8c
02ea
0272
ff2f
fa0c
031d
0491
0017
ff36
01b8
fd6f
0260
01d1
fadc
ff05
0581
036a
ffe5
fdfc
fece
02ec
0421
001d
ff0a
017a
0083
ffc4
0154
04f8
01b1
fc8c
fdef
036b
ff47
003c
fd3d
fea2
fe6e
fd4d
005b
0383
00b1
02ef
0304
feae
0450
006f
ff29
022b
0155
0182
fcba
fec8
02b1
0513
03ee
fe34
fe9e
0556
fe31
033b
fd48
0292
fb08
fe13
0523
ffa0
ff89
065a
05a1
ffb4
011c
fe8a
f870
ff74
0553
02f8
0088
02a4
fc8b
0146
ff66
03fd
fc21
006a
0724
ff6f
fc67
03ac
0286
03a7
fe0b
ffda
0777
ff24
fe7e
fd68
fb49
0239
0084
fdd2
0287
02be
f9d3
019c
01e6
f997
02e9
fe98
0102
ff47
ff83
ff54
00ae
fda3
fd9a
ffec
02a9
0415
0503
02a0
0091
fff6
0453
fedc
ffea
074b
0732
fe1e
01b2
0375
01ca
0115
02be
0065
fb5b
01e2
ffbb
05c4
019a
fe64
ff4b
03f4
fc6c
0134
fe04
fabf
0230
fc13
009a
f97b
00b5
ffd6
06d0
fd59
017b
0570
0487
fb42
fd3c
feed
fb9b
024d
fbc4
029d
ff3b
fcb2
0108
fd71
024f
ffae
fcfb
036a
fda9
0657
0135
046a
ff7f
f9ee
fccf
fdd0
fe75
fda5
fa9c
020b
050f
001b
feb1
00c1
ff78
05f8
0605
00c9
fa65
fdad
ff32
fe21
fe76
0036
f856
0183
fa67
03d1
05ba
0178
fe58
01d4
0678
00c1
049d
ff5d
fb8d
01a9
ff5d
fee2
fd1a
fedc
0253
005d
06cb
0304
fe76
0196
fd25
