0043
026d
048c
002c
055d
fcec
01dd
0bb8
002a
0041
fefd
f839
feb8
044c
fc40
fcd0
0278
fe67
fc57
fe7d
fff4
0028
fd3c
02a2
ffa2
02e7
fbd7
ffa2
0170
fd59
016c
01f3
fa36
03ef
0380
fafa
00b4
0328
022a
fc07
ffe4
021e
0306
fd31
0140
fd08
01b8
ffec
feb8
0248
fe97
0135
fe00
fdbe
03a6
fbbc
009c
0304
fde9
fc7b
0296
012c
ff35
0256
fde6
ff22
ffcd
fd31
002a
0217
f9a2
ffec
ff42
ff4b
fbf4
fd2a
ff96
04b0
05dc
026f
016e
fec5
fe9f
0007
0082
ffaf
014f
fc33
f887
fa5a
fe9f
fa6b
fbb2
ff15
f9e1
faec
02ca
febf
032b
faab
040a
070f
fe5e
00e6
fe8b
0179
ff8b
fc0c
01d6
02d9
002c
0089
00c0
ff00
fda6
fec3
00ef
fd38
fea8
0081
fab5
fd10
012a
fba2
0036
fd9f
fdec
f8f6
062b
fe31
008d
0279
fdb5
fd84
00a4
0619
fc6b
01a3
0107
05a6
06fd
fbf9
ffc2
ffc6
ffa6
00af
fdfc
0759
fdf6
017f
0436
0164
fc21
fd3c
00c6
fb5f
037b
042f
f92c
fd0b
ff61
031d
024f
fd05
feae
0023
035b
0170
fe94
fbe6
fec1
05b9
f931
00ef
ff8b
02de
ff0d
02ed
007c
ff7c
ffaa
fcc1
012f
0908
03d5
0344
07b5
0347
fd1e
fac7
06a0
00ea
0348
0592
fe7b
f90f
02fc
fbf0
0371
ffe8
0225
0505
ffb9
fece
fdc8
0469
0254
0030
fd17
f9f8
fe6a
fa4e
03fc
f8c2
fe4b
ff7d
02ff
fe9a
ffe3
ff23
0273
f8a0
fd1d
ff82
055d
fd97
ffcd
fe36
0365
ff0e
fd96
0088
fc0b
feb8
03c0
0128
fd7b
fcdd
fed4
fea5
fc62
00e4
fe16
fe5b
0144
fd48
0334
fc02
fd98
0502
0261
00cd
fc4a
055b
ff2b
ffd9
00fe
0106
fe64
fbfb
02a6
fe19
fc56
fbf5
0447
ff9d
0082
fe09
ff00
ff7f
febd
faa4
0167
0531
0247
0349
f9eb
0127
ff1d
0105
fd60
fd96
0074
030a
04e3
fb62
ff95
0435
0062
fc3d
00ac
0091
04ef
0081
0318
fbe7
0537
00b3
05cc
0550
fef1
fe95
0044
fdb2
fffe
feea
f819
05fc
007b
020a
ff00
fed8
fd32
013b
0089
0214
02c2
017d
00de
fc60
ffba
fe8d
0176
fcee
fe1a
feaa
041f
fdbc
fbdd
0025
009d
0135
0171
fbcc
ff41
fcce
fe4b
016d
016e
fcb9
0328
00ab
02ca
023c
ff17
0009
0260
0302
07bb
fffc
005b
00aa
fd67
0233
fee1
00fd
facc
fecf
0702
0526
0434
020b
00f3
fc84
00db
fe00
fd5d
004b
0368
fc04
fe5f
0454
0184
0466
0007
0719
0243
057b
08a6
fa89
0439
070c
ff5d
022c
08b8
021b
f78b
0002
fa50
f866
0154
fcb8
feff
03a8
ff4a
fd99
036f
01c3
030f
00d6
fa14
0a11
ffbd
043c
0302
02ec
ff6b
0065
0342
0187
05a7
fe18
02fd
fcc8
00ec
fbdc
fe18
f881
028a
0030
fd9d
01b0
046e
0212
f8a9
0258
02ac
06cc
0588
0397
01c0
faf3
0156
0446
ffe2
00e8
015a
02bb
03c3
02eb
f6ee
fec3
0156
f872
fd5f
ff01
fdb6
fc6c
01be
01ad
fd6b
0038
038d
fd7d
0338
061c
02da
0b8e
00a1
0017
06a9
0364
0255
008c
ff84
023d
fb77
01fd
03b9
f8b7
fe40
fda1
f7ef
feac
0241
03ec
0106
047e
0015
0012
0424
0383
fefa
ffba
01b9
0318
05c2
fd00
fa96
01bf
054c
ffb8
fe3a
ffcf
fc15
05c3
f834
0548
0018
fc4f
ffe5
fb44
fb90
014f
fa91
01b7
06ae
0772
006e
fc4f
fce8
0202
0299
fd66
020c
ff8d
fc3e
ff8c
050b
0047
fdd1
ff51
ff75
fd02
fed2
fd0b
ff24
fe69
fb2e
057c
01b3
02b7
fce4
01e3
0377
fa12
0350
0622
01c4
00cc
fff8
02ce
fd76
fbc0
01a3
ffb0
0074
013c
0135
fe89
0295
0314
02a9
feab
0187
00ac
0238
ff11
fda5
0478
fee3
fe80
fadd
0703
034c
fa44
fabb
010c
0029
ff64
0239
01aa
016a
02ca
03c1
04fd
feed
03a6
0001
fc5a
fa6f
007d
ff27
03ee
00e0
fc7a
0118
005e
0055
ff5d
fd1a
fe01
fbef
fd60
0005
00d4
01c7
0283
ff74
fbfb
001d
0204
022b
fdf8
05c9
fec4
fedc
045f
feca
fbb4
004c
fe55
fef2
f806
fded
fe63
06d9
03b4
0428
01fb
0080
0080
fdfa
fa25
03cc
01d7
0096
0235
fd30
0225
0165
03b4
fc49
0178
0292
febd
00bf
026c
0242
ffd7
01c3
fa4d
0595
fff2
08a9
feeb
ff7b
01ec
030b
fe68
02ec
0127
0698
fefb
0304
fec5
0126
0773
01f7
f83e
fd48
ff9a
06af
0031
00a1
0396
fe8a
0460
fd3b
fd6e
f975
0404
00c0
f90c
0569
03d4
fbab
fb95
fdf9
0239
0568
01a3
06ef
fe24
ffa9
0248
04e1
ffc5
05f2
ff5a
0215
0625
059e
0593
fd87
02c3
03c3
02b5
fd49
0456
0066
fd3a
035d
00ac
ffd1
049f
fbad
feec
fc00
0150
fdd8
0375
0082
fc2a
fa05
0788
ffc9
027a
0349
fc21
fe4e
fc7e
fa42
022e
fbe5
fcd4
0338
030e
0388
fe03
0223
fa9e
02e0
ff06
fe98
0321
0409
04a3
00b9
faec
fed9
03b6
fecb
0163
02df
038b
01a7
01e2
0212
04a4
fef4
fc71
0537
0064
02d3
fec2
01ad
0069
fd19
fff2
fd09
fdf7
f819
fe51
005f
ffc0
050a
012b
02ac
fecd
fbfd
fc07
0222
02fa
fe56
03bb
0039
009c
0149
fbbf
063f
fe77
0045
00ec
