061a
fcde
0092
03a2
fefe
011f
0105
ff30
fe54
fce9
005d
04a1
ff84
fcbc
ff27
ff5d
fb3d
fe31
054d
0226
fa1a
0206
fc39
00c4
0106
002e
05dc
03dd
0572
ff7a
02e5
0137
fb1e
0095
fe9e
036a
0018
fca1
fe81
048a
fd12
0428
00af
0177
0404
04a9
fe89
ff0d
fec0
0586
0096
051a
fc9d
03d7
020c
051c
fc01
fbdb
f7e1
009a
fd2b
f963
00f5
fdaf
fd6c
fc55
0004
03e0
024e
0731
08a4
fc47
fa87
fe67
ff42
faab
fe81
06e1
fdd6
ffc2
0154
014b
fdf0
fb30
02a6
ff4e
fec6
0270
009f
02d2
0317
029d
fbb5
017c
fea4
03b3
02d4
0066
0156
fdb0
01ea
013d
fddb
002b
0214
0617
ff98
faec
fe20
03ed
fee5
01b4
fbb2
fbe6
ff85
0324
ffac
fc05
00a3
fa13
00cc
0046
004b
002f
03c2
02f4
fd15
fe1f
fd9d
01d9
fdfe
00c6
0486
0077
047f
fb95
ffea
0082
fcd3
045b
0939
ff6c
fe16
fe02
012b
ff8f
fb2e
0388
0293
01e0
038a
ffc4
ff82
0148
ff34
0666
fab9
01cc
fa54
0792
ffe6
015a
0147
fe82
feaa
fd5d
fcb3
0240
fd0e
0461
fcb1
fe94
05e3
0317
ff15
0072
ffbf
0443
0486
ffb5
fd77
fdba
feef
fbd7
006b
fceb
030e
fd30
fad0
05f0
02d7
0006
039d
0278
0423
ffd2
0291
ff96
ff63
ff89
fcc7
fe9d
fc88
013a
fd41
0299
fd45
039a
fdd3
f8ba
023c
0134
ffd9
ff10
0358
fff5
ffcb
fb47
0491
0491
fc17
f994
00e8
04bf
005b
fccd
f996
0132
fd57
00d2
fc33
fcf3
061c
fb66
ffb5
fd9e
0051
01f0
0291
0274
0004
feb5
fbd9
fc0b
ff2d
fdde
000f
fff1
0348
0008
ff7c
fc26
04e6
0029
ff79
ffcd
fe48
fba7
f970
ff67
fe40
0082
0377
0150
0232
02d3
ff22
0282
022b
05cf
0065
fdb0
fd45
fa5f
ff4e
fd9e
0063
00e2
004a
0089
ff2d
fc58
fd39
fc42
fc46
02c0
002d
031a
ff90
ff5f
00a2
fd78
fe6a
03a8
00dd
ff53
00f2
fe6b
faa8
036e
faf1
00ab
03ec
ffa1
010c
fb77
0077
0226
01b0
016d
00ad
02f8
fc5d
ff3c
fa13
ff58
0044
fb3b
fce5
fe9f
fdc7
fc06
fd9a
ffb9
021e
fe69
fb0e
013c
fe80
04e5
ff9b
ffe3
ff33
0164
ff63
fe50
00c5
fde6
0228
00f3
0089
001d
f982
0042
ff01
006e
fbb4
fb7e
fe41
0162
fb8d
fd6a
05c9
0395
fe16
fd18
007b
0153
feab
fec4
ffcb
01d7
fdbe
03ed
00c6
0354
07e8
0068
ffec
ff93
fe4f
0314
04f0
0128
ff6b
01d8
0282
04c1
0531
ff6f
ff94
fd7a
00cb
fedd
0224
03f8
feef
002d
ff11
fd34
0023
0594
fae1
ffce
02ca
046d
fc36
fd6e
fffe
fbb5
f77e
fea5
05ad
fd81
ff90
003f
fde9
fc27
0041
ff5a
ff13
fe5f
fbbc
ffbf
fb02
fb06
fedc
fe50
02d9
0026
fe76
03bc
fcf7
fafb
026a
0468
fa96
fda6
fc76
fbb4
fd3a
0081
06fb
00a7
0491
01fd
fb86
029f
fd90
0226
04a1
008e
fe15
02ef
0312
fa8e
fba5
0066
0292
f9b5
ff7b
fd86
0676
ff81
00ce
038f
fc7e
fbfa
fe25
034f
038c
01a0
f979
0789
00cf
fd08
00da
fe70
001b
fcaf
fde6
03ba
0137
ff5d
fe08
fd7f
0150
02dd
fb6f
002f
faec
00c7
056f
0489
febb
ff39
0562
03c5
fc66
fece
fc6e
0092
0152
0397
0163
fdae
0706
fad4
fdc2
ff4c
0109
016e
fb73
fe60
00aa
fb90
04d2
0210
ffab
04c8
00c9
fcc6
ff50
fc9c
023d
034e
fb88
000b
0621
01af
0281
fcb7
fcee
0462
00ac
0200
f9d4
fa78
018d
01cf
0352
00de
0060
00a9
046a
fb42
fba2
02c0
013f
fffb
ff5c
fea6
001c
02d1
fd3b
fbaa
fe4b
03dc
fffa
0549
ffa1
007f
ffaf
0023
fed3
0588
019e
fcbe
fddb
0318
02b6
01bc
0179
fd32
00d9
fa4b
0026
fe5f
ff0c
f9bc
fb59
0100
006e
ffdb
ff47
fd05
fdad
fe2e
013c
01c7
0019
0075
feef
fc71
0633
0335
05bd
01ed
00bb
fe5f
01c2
fc8f
0377
ff28
fffa
0079
00a1
035e
00ae
05eb
0117
fce1
04d3
028d
00e1
f9f5
0075
0505
feb5
00ba
013c
0412
ff92
fec3
05e9
013c
fad6
0035
fd27
00da
fb90
0614
fd2c
03c5
f86f
02b1
05b0
fff4
026e
fe6c
021c
fdc7
01d8
fef0
fe00
02d0
01ac
00fb
0110
ff8a
fc8b
01cb
0593
04fb
0383
0007
00a7
03e3
fe12
fff3
00c4
03c6
01be
fb49
fcd7
fa3d
ff4b
fc3f
fd6e
ffda
011c
03ae
0051
01c2
fe75
0130
02ea
fc9e
fa9c
0109
ff43
05a3
fe14
fc79
027c
fc3f
03c6
046a
0068
0284
fef8
fe58
03df
02d9
fe3b
fdb6
010e
fd58
fcfc
fc00
fe64
fe8d
0110
fc4f
035f
f971
fba7
02c9
0438
021a
fa81
ff30
ff7f
018c
fdff
ff85
fda3
0163
0168
02cf
fde2
fc28
0195
008c
00c4
fcc1
fef3
fb2e
0185
fbd9
fd6d
fe16
0270
fd96
ff3c
ffdf
0287
fd96
0234
ff99
00d4
fed4
0149
0088
04b1
fbd5
0168
0491
0209
022e
ffa8
fc8a
00fd
fa63
018f
03f7
0182
fec8
03c9
fa63
0167
fe5a
008c
feec
0072
fda0
fb08
07f5
ffdb
ffb3
fa25
fe5b
06f6
039e
032f
00f7
00f1
fd34
0295
fd00
030c
fd2f
faea
003b
ff3a
024e
001e
ff75
fd04
0028
fe03
fd2b
fe27
0459
