fbc6
facf
1232
02f2
edbc
2cbf
137e
065d
e539
1d91
e060
2136
f972
0fce
0ab0
142e
4248
2437
ea91
d0c8
1830
1034
f8dd
170b
0468
f120
0dd6
e2af
f4c7
21a3
0507
35a1
f178
0249
176f
cfe2
e5f1
f2cd
c2e4
0e05
f79d
d454
0f18
e18e
f48c
2584
0df0
fa39
4133
0878
05a3
048d
ef0b
eee8
257f
f40c
1347
39e4
f585
112d
17c1
ddb5
280a
0eb7
f4b8
17c9
0575
0239
f4b0
ded5
dc71
02e6
0f13
028a
02a4
f6b4
fff8
f53b
06da
e021
e165
eb5a
ea56
1bfe
0fff
fd1a
fe01
1197
dcf1
1fb6
0a27
e674
0cad
e0c1
175b
df35
f5a8
03bd
3526
2ad9
dd0f
2d3f
05a6
d670
471e
f6ce
48e7
131c
1ed0
005a
cfae
0e8f
1e46
03c9
1d48
e064
f482
306d
efb6
c1ca
fadf
e2cf
fd28
065a
1ac1
0de2
fc0d
fe6f
e19e
f346
0138
f620
0a14
f5eb
fd15
dac4
ca19
f630
fbc1
f0be
eb15
06e3
b17b
ec00
24b6
e6a6
faf2
eccb
0ee3
03ef
245e
0415
e9bd
d9e4
0150
ec81
ecd1
07e5
44eb
017d
f171
f7f0
1082
0ecd
0f9f
fec6
f364
eed4
f1d5
cd99
f9a9
e47c
0390
15f9
1c03
0423
eede
004b
e8c8
2d58
e6bf
1642
09bf
0e97
14d9
f4ce
082e
0694
0f3b
ffd0
c451
f4f3
f584
b6b6
302f
ffd9
f35d
f79e
1630
f7bf
0d9a
f70e
b773
0ac8
11b5
d938
11b4
1f4b
ef66
097a
1423
fe5d
02c4
fdc6
fb5a
ef4e
dd0e
f6c9
1f72
fd21
bc9c
dd47
f8f9
0b2e
fa8b
1716
16bc
0dea
0fc3
0b3a
0625
fbc7
05a3
0575
b771
f931
e3bf
2686
1368
001e
061d
fb89
0017
1134
189b
0504
2e84
2171
ea7a
f3c8
2ab8
eafe
110e
2c69
0863
1c16
