ff7a
fb62
fe1d
fe81
fde0
fe91
fd1c
020a
03d4
04ef
fef3
0197
04e4
f9d4
044e
faa3
f6d1
fd0a
fefd
fcac
fcc4
00c7
05e2
0321
fef0
0450
fe0c
07aa
fe26
007f
00a3
fcb5
0236
0227
0197
01e6
0934
febc
016c
feb4
fcfe
00cd
fdba
fcf3
fd2f
fb45
fe4b
fef2
ff54
0135
f978
01e3
0300
035b
024d
f93d
fe81
fcd0
018c
02f0
05a2
fd4f
ff9f
fd41
0031
fe59
0217
f8e9
fe92
05f0
01ee
02bc
013b
fcba
0475
fc35
fcc0
06e6
0342
fe9b
01e9
fcc1
fa6d
03c2
00b0
ff12
fb46
00dd
0117
0441
07a8
01fa
02a8
05de
006a
00d9
fcea
052c
f904
000c
039b
ffaf
0135
0712
ffe0
05a8
fa99
fd25
01d9
fe67
0353
fb1e
fef0
0426
070e
fda8
0020
0642
fbc9
f8e0
01d2
fdc5
00af
00aa
0364
025e
01ea
0029
ff43
008a
f93e
fe13
fcf8
014e
03b1
fdbf
feab
02fc
f7ea
0039
fc9f
fe93
fd77
fdc3
fb71
fff0
0327
ff94
fce8
fdbc
fba6
fdee
ffb5
08df
01f9
ff16
000f
ff8a
fd34
01a2
fdb7
ff3e
fed5
f9e4
010a
033f
fd87
081f
019d
fd85
0886
fc96
00e2
f936
0045
02f5
019c
fef3
fdaf
00c1
00e2
feb5
0490
fc16
fde6
fcf6
fa99
fe3b
fe66
fc3d
02a1
fc95
067a
fffd
fb84
01e9
fea4
fecc
fe4f
01fd
f728
ff0f
0363
fe17
034b
00df
04ff
009c
ff4c
009f
02a2
0021
fc89
04cf
fc07
0304
f940
fb61
fddd
0010
fe8c
0108
fc5e
ffee
00d9
fe83
0919
fc91
041d
fe43
00d4
fd00
ffad
01c2
038f
089f
00cf
0397
fd06
fdb1
fdc3
fece
0051
05b1
fef6
0395
01ab
ff5c
0160
01bb
ffcf
0146
035f
0061
fd13
02bd
fafb
fbe5
ff90
017f
0038
fd93
fafb
fe90
03b6
fe4e
0443
0191
ff5b
ffb3
fd1c
fe0d
0104
fbd6
04c8
ff94
00ba
fd19
fd5f
0301
02dc
fe74
03e2
fe14
04dc
0012
f8df
fd95
fdc1
020a
00f3
fedb
0090
fad9
fbe2
0378
fec4
fb47
0446
021c
ff46
0016
008c
fc4d
0156
fd31
fe39
fe35
019f
0276
fd7b
0343
fe00
00fa
01c2
fc41
027b
fcd1
fe6c
f7dd
fdc6
ff17
fd44
fd59
ff96
fd4b
fe82
0046
f72e
01a1
0367
ff73
0547
fc94
01e5
03d5
fe92
fbdd
0272
fd14
fced
ff80
0151
fea5
03b4
0274
ff96
0008
00c3
fac2
03f5
fad9
fc38
018e
fe63
03f5
fc1a
ffe2
ff11
0341
ffd4
0065
02be
ff47
fe80
0314
05be
fb1a
ff73
fcc4
fff4
00fe
ff50
fd71
fdbf
fc0f
fd50
0286
00f7
0652
01a1
03aa
0431
0254
01ff
fdbe
fcae
ff0f
fca0
076f
00a5
027a
fef2
fe7a
0159
03d6
fd2b
fc85
000b
04f5
0348
f76e
fbba
021b
0009
fa8c
ff17
fccf
0089
fc2d
fd2f
fbc8
0425
fd07
029d
fde0
f922
fd1d
fdd9
fe5f
00bd
028e
0423
0658
01c1
0144
ffff
ff75
0550
fc1b
0227
fda6
01b7
fb1b
01d3
00c6
0078
fe7e
0107
fffe
0360
fbda
ff68
fe95
fc1a
ff4f
037c
0337
04d8
002f
f858
0086
0169
fb65
fce5
00fa
ff48
034c
0183
f9c7
fe21
f833
ff96
ff9c
029f
01b9
ff95
fd58
000d
021a
0176
0725
00ad
fb96
0504
fdaf
0035
012c
01b4
0a93
0460
0417
03a1
feb9
0415
ff88
fecb
0386
02ba
026b
026e
019c
fda2
ff5f
027e
fda4
fb74
01ba
fd4a
0261
058c
03cb
0160
012a
00c8
f9bd
01f6
fe16
076b
00aa
01b4
fc64
04ad
f94a
0382
ff21
f88b
034c
fe9f
00a2
fef2
ff06
039e
fd96
fd26
00d4
079a
fb7d
ff0f
0185
fde2
0321
fd8d
025e
015b
003e
0255
fc7d
0341
06b8
0071
fc8d
00c6
fd0b
fad2
018a
ff4c
0142
fd82
ff41
fe88
ff35
fa03
fabb
f7ae
fc5f
fe2c
fdeb
fb55
fa5b
fbb8
0026
02b4
03c1
f8a2
ffde
fc76
04b3
0627
03c5
fe76
fc39
ff81
fcda
0315
0622
f8b5
feea
ffc2
ff0a
feaf
fd04
00a0
ff12
0458
fca4
019e
0227
ff82
ff7d
03f9
03c8
003e
0158
fe79
0091
ff29
fb12
fd89
015e
046c
fc51
fe0d
042c
fe8c
08a9
fea9
045f
fe0a
04eb
feed
fc26
f8b9
04b5
001e
04b4
01c2
f9f2
012b
fc9a
00cc
01ff
0477
009d
fff3
fd92
fd57
0004
fd2e
fc7e
fd1e
fff7
f9dc
00c9
fd79
06da
fdfa
fa75
fcdf
0666
fe12
fe23
fd10
ff62
f950
fcfa
0551
02a5
fdcf
fdb6
00b0
010a
ff4b
0197
03e0
00be
fd10
feb3
0285
ff7a
0065
03c3
ff22
fc45
0034
ffc7
0008
01af
0851
0030
0033
02cd
fd50
0451
02e6
ff42
0121
fb16
fc7a
004a
006e
fb1d
ff7a
009c
fda8
037a
01a7
0054
04c6
f9e3
ff8d
fb9e
ffc4
0807
020b
fddf
0320
00fb
029a
fd65
fc47
ff58
067f
fd3b
fe8c
fdf0
0091
ff73
fe12
fae6
f9a3
0199
002b
0459
01cd
0374
0343
00dc
faea
0295
040f
fe15
063b
fd4a
019c
ffcc
fb08
016f
0179
fd79
fec7
fff7
fe73
fc49
00a7
039b
fef5
0028
0041
0193
f93f
ff34
fab8
fe5e
0355
0241
0028
fa22
0486
0128
0509
fc7c
fbc6
fff4
fdac
ff15
05cd
04b7
03a2
007d
ff3f
ff54
fe77
fa6f
016c
fcf5
03c8
ffa1
fc5d
fc48
ff9d
048b
0164
fbeb
060f
01ed
fcf9
fe13
01de
fa4d
0251
ff5f
fe4c
fc5a
