0288
fc06
0495
fdf9
02f8
00a1
0208
0266
fdc0
0001
0246
f9ef
ff11
fce8
fda7
0161
02c9
03e8
0027
fc3e
f530
ff8c
0548
05b0
ffc9
fb6a
fa53
0091
0041
ffeb
0073
fd3a
ffa9
0372
fe40
031c
01e1
fe04
01f8
0000
fa11
fb9c
050f
fe4d
fea1
fdc1
07d4
ff2c
0510
fb57
0338
ff7c
00c5
0067
05f9
037b
0037
0001
0099
04d4
0102
fe29
00ad
02bd
fde0
0039
fe06
00ee
0528
fbd6
031a
fb32
0099
fc1b
01d0
02d2
03c0
0144
fb26
fe26
ffab
fcb7
fc41
05cd
017a
02f3
00ea
fe3e
00b8
017e
fa82
0182
03c0
fdcb
fe9a
0169
fd38
fd4c
01cc
00b7
fc82
fbbb
011b
fff3
ffcf
fd4b
00bd
03fc
fce8
fff2
00f0
017c
ff0a
01b7
fdeb
0184
04d2
ffde
0627
fda6
0641
041a
fbdd
ffd5
faf2
0449
0012
fa40
ff41
02ea
0363
fb7b
035a
0119
0652
01c7
0660
fc98
0831
0036
06b4
03fb
0377
fe3d
017d
0008
fee7
0081
01fe
fc7b
0288
0095
fe3a
028a
0716
fc95
f7e9
053f
0570
fffd
f994
02f7
0205
0204
ffed
0306
0058
ff6d
fe90
ff7e
fed3
ff15
fd74
02fc
04e0
0004
fd04
ffd3
ffc8
011d
fe45
fcee
02dc
fe0b
faa9
fdb2
0349
0151
fc63
01a3
0067
00fc
fe1a
fd80
feaf
ff0c
028e
fc27
ff5a
0282
02c1
0010
0929
00f3
017e
fdf2
0146
003d
fc36
fe40
fd85
080d
fe87
0276
0152
01b2
049e
fdb6
03b6
002a
0494
fbfa
02b3
fb53
f9aa
0150
f98e
022d
0357
ffa5
059b
0746
00bb
fbbe
fcff
055f
f8da
f997
02f5
fb79
fbf7
0345
ff3e
fab6
fbb8
ffea
fa41
ff3b
fba7
02e1
fe64
0092
fa5c
fbb5
fceb
fce4
fb63
0027
feec
05aa
01c3
051e
01f7
0292
01d2
fbd2
0253
0070
fd99
00e9
fc3b
01b1
feb6
fef7
fb8e
01e5
0115
038d
fce5
036a
ff09
fbfd
03d4
fd54
0044
fd94
fd9d
f764
04b7
fd18
02ad
0038
fcbb
fc3a
ff09
0039
070d
006c
01c7
0250
fbbf
0601
fefb
f9ce
01ed
fdbd
0042
fc3e
fff0
0529
fa9a
fe39
f952
ffc2
fc4d
0177
0219
014e
fc87
04f4
014d
fb06
fe18
fbb6
fa4f
f9dd
fbab
ff29
fd78
0020
fd4e
fe8e
05ff
fd8c
0517
0457
ff56
013f
01ff
ffa6
01fa
ffee
fe9d
fe6f
fd75
043e
042b
03ec
fc53
00fd
0173
fdd8
04aa
fd3c
0149
02ab
015d
001b
01e7
01a5
fc85
020e
ff95
0221
ff5b
ff63
0468
0229
0321
fce6
01f2
0191
0285
fa46
fffc
00a0
fff4
fbe7
0325
fc21
06ab
ffee
fa7a
f8fb
0058
0cb6
ffe9
0246
fcf9
0404
fcba
fcfe
fe1c
030c
0130
ffb2
0124
0000
04cc
0061
fe6b
00f3
fde9
fe08
0619
00f4
02b7
02d8
0310
ff6d
f9ff
fdaf
0273
ff45
02ac
fe6e
f837
fef2
03a7
0125
01ab
fe00
ff66
fc2d
014a
0532
ffcc
0620
02b1
ff61
ff88
03c1
0242
0519
f9c4
f665
01a0
01c7
fcdd
ff58
0529
ffc4
fc60
ff7e
02e6
00ab
fead
fc16
fd90
fa80
fefa
0203
00d4
017b
02ff
0191
fc9f
ff55
0073
07e5
048b
fdf0
03e2
ff14
fc8c
043e
002f
ff7d
fbce
fe6d
03ff
022d
01fd
0013
00b6
023c
ff4e
ff2b
031b
fd17
ff7f
019f
fd14
00bf
0169
0227
01d6
003c
00f1
fafa
030b
fdca
052d
fb71
01af
050d
f953
047d
ffb0
fad5
fefb
02d0
f6d8
fe09
04bf
ffd9
fcce
080f
04d3
fe28
0135
ff3a
fbc1
fdf8
fb5b
ff42
ff5a
0864
05ec
fd7a
00c0
ff23
0614
fe07
01b1
0069
0207
ff0b
fe31
fe33
ffdf
02a1
02c8
ff12
0754
01cc
0345
012d
0120
ff61
05e8
0077
fc07
0048
00ba
fc4d
fe23
0072
fb5d
fc88
ff2a
028f
02ea
0370
026e
00ac
0559
fc00
fbc4
feb7
f44b
fb55
016f
0010
fd27
fa45
ff76
00f6
02b3
0271
fb56
f906
fed6
ff86
fa4d
fe9e
016c
fdb5
ff7d
fba7
06bb
05ce
fc1c
fb52
0154
fcda
fc0d
fe99
0124
00dc
0004
0103
0308
058d
ffbf
0a40
fcd0
fff1
fd8d
058b
00ba
fc96
0055
fe8a
ffbd
fbd3
fae0
0130
0155
fb8c
047f
fea2
04e4
05c5
014b
ff58
024c
02f9
fcfe
f9ca
0088
f5ce
fabc
fecc
0091
00a2
ff49
feea
03b5
02bf
ff64
fdd9
fec4
050f
fd40
051c
fb2a
fdb1
03c9
ff63
fc5a
fbef
011e
fb7d
fdba
feab
041b
fc7a
0013
02ca
021e
fff6
0422
053d
ff82
00bd
fdb5
01a6
0134
04aa
ff89
fdca
03d5
ffbc
fdd9
03de
ff8c
ff1b
008c
0710
03c0
feff
0352
007d
0339
02eb
fda3
02af
0407
003e
fc56
fb0f
ffb7
0039
00c3
ffde
fcb8
fe02
f955
0220
feb2
fea5
00e8
0206
01db
015d
fda9
007e
fb91
feae
fe45
fab6
fe5e
01f8
ff42
fa2b
fe39
ff0a
0200
fdf4
fbe8
fa28
0105
00d5
04a7
f901
fb1a
0027
ff80
056d
0020
0291
0299
03cd
fed3
0100
ffdb
0114
03d7
ff30
fd00
02a4
fe83
fe1a
0155
ff6c
0282
ffb0
fdf8
031f
ffba
0220
0505
050b
0085
0274
0141
01e2
fe21
ffbc
fcf8
f9f4
f4cf
03ff
02e8
00e1
001a
fe9b
ff38
ffca
fc0b
0249
fd92
0123
0088
02cd
0124
fddc
f873
0004
01af
fe02
0221
0151
0411
0516
00e6
02a2
fcb7
fdcc
02fa
fe0c
052a
0021
