fe07
fc63
0459
f7a3
02b5
fa3e
024d
ffcd
063f
fd82
fed9
feee
fd55
fff2
04bb
01d4
fffe
006d
00a8
fff5
0180
fe47
fd8d
0241
00f3
01fb
08c1
ffee
0052
031f
0166
fb94
fd55
feef
ff8b
fc9f
04c3
fe2c
0191
0165
05a6
fe56
ffc7
ffe5
017f
f796
fd73
027b
ff37
0438
ff5b
fdf0
0183
fcde
00d8
0345
0524
0438
fe79
fbc6
0127
028b
f815
fd9d
00c0
060d
0317
0014
ff36
fe65
fddb
0384
fc34
fb62
fc99
033d
fe79
fe3f
035c
fd70
ff92
01b3
ff93
ff69
02c5
0527
00bf
007f
faac
fb78
0196
03b6
fc4c
fc12
0182
026d
0611
fc3b
ff0f
012a
01e2
007d
ff48
0202
fb4a
01ee
0100
fd90
ff11
002e
f8bf
ffda
fe73
ff0c
fe66
02b1
fd46
02a5
fb04
fe3d
0065
f760
fd8b
05d6
02e1
0025
fcf8
ffca
fe31
0228
fdf5
fce3
0171
ff91
0339
00db
fcab
0227
fe83
fc9e
fb3d
0562
007d
00bb
ff21
0301
021c
04a5
fd80
fbd9
024d
ff4c
0142
0451
02ad
0605
0613
ff80
07b2
fa92
0187
fa76
024e
fdaa
fb6c
fbab
005e
025c
00d4
f99f
fe5b
fccd
0147
01cd
021d
fef6
03a5
fb80
0462
ff1e
feba
0146
fe9a
ffb3
00ec
fd89
0192
040f
0324
0306
fd45
fff0
0217
fa6c
0453
0437
fc23
022e
00d0
fb54
0066
00de
fca7
014f
0008
02d0
00cb
fa58
ff3c
f95f
fe89
005c
fec7
fe3d
0135
0031
0086
ff24
fb92
fb86
feb8
fff3
fd1f
ff22
feef
006f
017b
fa58
0318
017a
03a1
ffd5
001a
025a
f9d0
0005
ff0b
00eb
00c8
00a6
fff8
ff42
0549
fc6d
01b0
038a
fa98
ff6a
fe4a
04d8
fe3a
fd23
fcd5
f8c1
febc
ff67
019b
01bf
0617
fd62
ff24
fee9
07fe
0213
05a5
fe78
fae7
0434
046b
ff79
ff7d
faae
031a
fe0e
0250
016a
0317
0262
fd07
ff75
fca5
023b
006a
fab7
00bc
f852
0119
02f0
fce7
fb8c
01c9
fc24
01e2
fe9a
ff10
fd2a
06f8
fbe5
f994
fe8a
ff4a
fddb
fcfe
fe4d
0051
fe0e
fc45
ffdf
f8a4
0069
0275
02cc
0162
ff68
0205
0097
02d3
0081
059c
fee9
fdcf
fff5
0188
fa59
febc
fdfc
ff51
01fb
fc44
fa2f
ff1f
001e
0149
0646
0258
080a
f8d1
fe63
03a7
05f7
feef
fe23
0156
0081
02e8
019c
05ad
fe24
0615
000c
ffa2
0410
fc45
02ed
ffef
fe7c
0126
fbe1
0434
fe75
02db
fe6b
0413
fb51
0135
0333
ff93
04f0
ff24
05a6
02ae
fef9
086e
0011
f9b2
fd43
0184
0018
ff2e
00b6
00aa
fc35
07d3
fb97
023a
0324
0287
ff11
02b6
0225
03cf
03dd
fe53
001f
0473
00c8
0314
01ac
01a1
066a
04dd
fd6d
fed8
fe61
fa92
01e1
0373
fb9b
04d1
fc2c
fa41
001e
ffcc
00a1
0391
fc7f
ff6f
0408
02ed
fe41
fed3
fd13
fd4c
0025
0048
fcd9
ffd1
fb99
0157
0043
0301
fd67
009f
fd49
fb35
ff6d
051a
01fc
03aa
fac7
fb45
fff1
0077
ffb9
067f
009a
014f
fb64
ffe4
01a9
fd20
ffca
0188
fef5
01ad
fbcc
ff39
faee
072c
0005
04ec
feef
00ca
02b0
00d4
007f
fb6d
fe7e
fe65
01fb
fd4b
0256
04c3
faf2
010f
fb81
00fa
fea1
0242
fde6
ffc0
08e5
00d0
0027
fdbc
05fb
04cb
f822
03f6
01bd
fe91
0106
fe92
0532
fdaa
fde1
fd92
02aa
fdb5
050d
fcb6
ff1b
00e7
ff7f
00b5
ffa4
fb6a
faa4
ffa8
00a4
ff04
fe47
fc2b
ffe6
0307
f8e8
02c6
fe2a
fb9f
076e
029e
00ba
00fc
fcdd
fe57
fa57
063c
ff51
0452
002e
fd80
018f
fe77
fd79
033c
ff3f
0044
032c
fed4
fe31
027a
0086
0159
fc5b
fffa
fbf3
ffea
fea3
fa40
0114
020b
fc0d
fe02
0032
ffa0
00f3
f7cd
00e9
fa9b
008f
014d
00de
fb5b
fdc6
0410
fe4c
064c
fef1
fdf0
0393
0255
0253
0112
0053
feac
faba
fbcb
0365
fb89
fb48
fe49
0298
00af
f6a7
ff2a
fe60
0591
f92f
025b
fe88
fe73
fdc6
0468
0538
fda7
ff51
ffa5
0379
044c
0135
fef1
fdac
00c9
0064
ffd9
ff86
05c0
0116
0096
048e
fffd
fbdf
04f7
faa1
fa29
00c7
030a
00f8
054f
fb82
0345
ff80
002e
017b
0345
fdd2
030a
01c5
ff6b
fa59
037d
ffdd
feb6
0692
fee3
fdfb
fcce
fdbc
0072
fbda
02c1
00f1
fec7
ffb8
ff4d
fa60
fd7d
ff35
00ae
f936
043c
0343
fd8d
06f8
ff0c
020f
fef7
fd02
fee2
fe6f
02b0
fe66
0248
ffc1
fe25
fec6
ffd5
fccc
ff3e
04ad
fd1c
ffec
fb52
ff5e
028e
017b
fb96
fde5
fa04
0132
fe25
fe60
0207
05d5
fdfc
05c6
fdb3
04a0
ff4d
fe6f
fd87
00ee
fe09
fe15
fada
064b
fee2
f821
0535
ff8b
ff70
fbf3
fd0d
ff84
fbce
fb73
05ea
0696
02db
0238
f979
0118
fbe0
00c8
0359
fff7
fe5c
ff35
00a7
03da
faa4
fe04
fc7f
02c6
0130
ff89
01d1
0557
00ce
0121
ff57
fe45
fec1
f6b6
fc61
fe7f
03ba
fc37
0123
ff5f
01fc
fd66
020a
fe33
030b
fb9a
fc70
fb9a
008e
0299
fb61
ff36
ff2c
0209
fe4f
02ca
0258
0447
018b
0006
0622
0422
fe1b
0023
fc76
fd58
02e4
fcda
0408
fb3c
0415
005c
056f
fc72
0243
fedb
fd9f
0421
0245
0857
fe41
02af
011d
0083
