043c
012e
0737
0681
0167
01f3
fee3
fea5
fb97
ffc7
fb77
fdda
01ca
00b2
fe38
01c0
fdf7
fe14
ffba
04e7
ff9e
ffc9
ffca
ffe8
0031
005e
0369
02ac
01a0
0029
fb7e
fe3c
016c
fa84
fe06
fe68
fbe0
ffd6
0045
0154
00fc
01ac
007d
02bc
020a
03ae
01a9
0493
f911
fcb6
fa88
fdef
ff85
045a
0261
0025
ffaa
0220
fe83
0051
0134
fe54
069b
ff47
fb4a
fe7b
f9fa
f93a
0049
ff51
fc6a
036c
0243
fc6d
ff6a
ff6a
03e8
fb2d
01a0
0410
ff9e
0149
024d
0158
fec8
fd52
fe49
feea
01fd
fe46
fe69
0015
fbf8
fa17
ffd3
0163
f69e
feba
ff0b
fd89
fbbe
050d
fadc
fdbe
03fd
0036
f684
025b
f6df
0380
086c
ffc8
fd8d
04d9
fab7
02f3
00bc
fe3d
0488
023e
f9a6
fda7
ff45
fc54
0744
ffbf
fd7e
fd81
fd61
00e8
02a9
0226
fefa
fef6
f865
0336
0320
fd0d
02a7
fe8d
07e8
0392
054a
0190
ff09
0324
0104
ff4d
fff6
fee3
fac7
0237
0224
01cd
0123
025a
f9e5
0099
fd8a
0087
f8e9
f9fc
026f
0318
0376
fb7a
0442
002d
fc25
ff4c
fe22
fe44
fce3
ff90
0240
ff5f
fdd0
fddf
fdc9
02c4
07f9
0091
0245
05e6
fe19
01a8
ff1b
fd9b
00a0
02de
ffc4
fe2e
ff0c
0257
02e3
0388
03af
0023
fd4d
fc49
007e
fd2a
fddf
ff43
0148
fe88
fe62
0379
ffd7
00aa
0054
fe7a
02aa
00b3
0216
03cd
ffa7
01b2
0005
ffcc
ffdd
ff4b
ffd1
007b
04e4
0034
fb24
00e7
0357
ffd5
fbd8
ffa6
05f1
ff9f
ff20
fd18
01a1
fde1
ffe4
0073
000a
ffda
00cf
fbd8
01c0
ffd6
fe95
fd89
040d
0313
fde6
fdf5
ffd5
024a
feef
fee6
006f
053e
0188
ff58
0067
0882
fd1a
fad4
0151
02e1
07de
fa5e
fdcf
ff7a
fc4a
f883
ff17
03b5
fd5b
0457
fee6
fb35
fce5
fef9
00ed
08aa
f85e
004a
02f6
02f5
0018
0312
02a6
fb25
017d
fe4d
fec6
fb63
0063
0182
016b
011c
fee6
fb05
0377
0342
fc5d
ff34
ff0b
fb1d
fd45
fee2
fca1
ffdc
ffb1
fd76
0243
ff18
03bc
011e
fe37
fa05
05af
0359
fdbd
ff39
00a9
fbef
fdae
01c7
fe7d
fc29
fe39
fbce
01eb
00aa
0163
ff71
f9bb
ffbd
0315
fdad
ffae
04bb
ff44
0261
0005
fc46
0285
0178
fe5a
0414
09fb
0465
02b6
01e3
fdfc
007e
fde9
030a
005c
01ac
ffc8
fcbd
ffc6
fdbc
f964
0249
ffcb
0029
f74f
06d3
00b1
ff5d
00e0
fcb6
fea7
013c
0154
fe84
05d6
fe7b
0555
ff5d
fe94
09fc
0438
0732
0762
fff3
060a
fed6
ff33
0337
fd67
020c
04ee
014f
fee7
041b
0125
fd8a
03cb
fe67
fb69
ff89
ffaa
0105
fe21
041f
00fa
0228
0197
0373
025e
ff68
001d
0099
0206
0648
fb9d
02fd
0090
0243
037a
03c4
fe38
0520
fdea
0366
0030
01c2
fdc9
fe33
0004
fa67
fe35
00bd
ffc9
0000
02cb
016f
fb0b
fc8d
fc52
ffdb
0486
015d
fd54
028f
014d
0142
057a
0156
0014
066f
0094
fd42
060c
0159
fd01
057c
00e3
fbad
fe8a
fc27
fe50
0389
0065
04d6
fe42
fbc5
0690
fd64
fe95
fd71
0257
ff14
0680
004a
fa20
0207
fddb
fc22
0114
ff1b
f869
04d8
016c
fa18
fc30
00e8
feb8
01a7
00b9
ff62
0290
fa82
ff2c
0033
04a0
f7b0
f828
fce0
0609
f5e0
0611
059d
fe99
f75f
0467
0881
00e9
f9c4
ffa8
fb75
000b
01a7
0644
fd19
0634
05e1
fdd8
fb0d
0804
01e7
fed6
01ed
039c
ff78
01ed
015f
fe9a
fd44
fd7b
0039
fdf2
ffaf
03e8
fd14
ff57
0109
00ff
00ba
ff2e
0307
feac
ff98
029b
0033
fd5d
ffa4
024b
ff21
0149
03a1
0276
fde5
fe49
05aa
036e
ff6c
fd13
05c8
032e
0349
fff2
00e9
fea2
0124
fe73
fcbc
ff6b
f96e
002d
0270
ffd1
04cf
006e
ff22
0254
01dc
0153
faa1
ff8d
ffe0
0a8d
0341
0545
017c
f959
fc8c
01b0
053e
fe8c
0330
0247
ff76
fd92
0404
fbd5
0433
06c2
fda1
04e5
0607
fa38
f73e
0104
fdce
0359
06f3
fd31
0061
fe51
01aa
ff2a
03c9
01a4
fddf
0026
fdbc
002b
ffd7
fecf
0157
fb5b
fb8c
fc40
ff22
ff89
0281
fb6a
ff66
fcd1
0111
fdb7
fbf4
fb4e
ff06
0061
ff45
ff3b
0246
fe24
067a
0153
0096
fd57
01ed
ff69
fda2
0448
ffd5
044a
fca6
ffa7
fe26
04b6
0525
fec8
fd45
ffd9
020b
fde3
0121
0233
fedf
fc2a
01e6
fca5
0233
ffad
01cd
ff3f
fe0e
fd1c
ffaa
fe6e
0019
01ae
fd3d
013c
fe60
03a8
0187
037c
0388
fc3e
02ee
0149
f85a
0302
fd84
02b6
fb0a
0372
fc03
05fa
fdb4
00d2
01f6
fec2
ffae
f9ee
003d
ffcd
0052
01b6
001f
00b6
0210
0146
ff93
0286
ff08
ff0f
0250
009b
0245
0070
00fe
01f2
0a08
0483
fa7f
01b9
00bf
fe26
ff6b
ffa6
0491
fc0e
0193
0085
025d
003a
ffbb
fe5a
fefe
041a
fcf4
0310
ffef
feae
ff05
f884
f991
fe33
fd68
036d
fcf5
fee3
018e
ffab
0055
fb8f
0776
0164
f9cc
fcb6
035b
020e
fee6
ffb9
fe86
fa74
052b
fe64
01b6
007d
0362
fe3f
feaa
fd20
f85e
fed0
0351
031e
f636
fff0
ff39
fc50
ffcd
0272
fdb3
0345
ff56
