0965
fdd7
0137
fc5d
faf3
fee0
fec7
0082
01b2
00b9
fdbb
fbe5
f6b8
04ff
fdfd
fe4e
ffc8
f9ed
0151
03bf
ff77
0039
013f
fe02
0045
01b4
0287
ff49
00d8
fb17
02de
0569
0216
016b
05a7
0243
0292
0033
007d
01dc
ff72
ff03
0558
ff29
fc10
0633
041d
02de
0204
fd38
0022
0091
ff5f
fe3d
02c3
0344
fe6f
fb8e
fcc9
0042
ff03
0081
fddf
fe1c
ffdf
03a6
fb18
0117
01aa
fd1d
028e
fe70
fc55
00d9
fe1f
fea5
004b
ff7c
fa8d
fd3a
0005
01fa
fca2
fca2
fe20
fd71
ff75
0249
fede
fb1f
fe5f
01e5
05ba
012e
fc07
fc72
fff2
febe
00dd
ff5b
fec9
030a
00e6
fada
00d0
01c4
016d
fd4e
0252
fffc
00e7
faee
01c0
fbdc
0175
fb73
ff78
02cd
03ba
025c
f915
ff95
fed2
04f4
fd9c
fc18
0264
0267
ff3c
001f
0083
0005
01bd
fcfd
0072
0829
ff42
fc24
fe3c
0353
03ce
0196
fde2
01e9
fe75
046c
013c
fcb6
fd3b
ffd9
fefb
016b
fc52
f937
ff15
0080
0362
ffec
006b
fab5
fddc
0313
fccc
04f1
0424
01b3
05c3
fbc9
ff51
ff83
fdc9
0155
ffec
fc28
0570
01cc
fcd8
febe
024b
02c2
0209
002d
fff4
fe81
fded
031c
04f0
0108
fc97
ffa1
0079
ffc2
0581
0389
0069
fd60
fc1c
046d
00b0
fc84
000f
ff5f
02ed
fe8e
003b
0568
0255
019d
fbcb
00f0
faaf
01e6
ff73
fe97
0049
fed0
fc9a
08d3
0289
fc1d
fa83
029c
02e1
f87c
02d4
0417
00f4
fcae
0207
0499
07b4
0093
fca1
03aa
0088
058b
0041
0459
fb57
0204
fc39
009d
fd0c
fd9d
ffd4
fe85
015c
073c
fd7f
fd6d
030a
fdc3
ff68
0237
fd50
0310
032f
ff95
036a
00f7
fbee
0192
0248
fcf7
fd5f
00ea
000b
0918
022c
fcdd
fd9c
0074
000a
fa88
035f
0166
0017
ff6f
0674
fac7
fcf4
051e
065b
fd3d
00d2
fc41
024d
0088
fe89
fd17
fed4
000a
01be
0265
fd39
0309
02b6
0448
007f
fd70
0364
0038
0004
fe22
00ec
01ac
025d
035a
ffd7
ffa0
03a2
0107
fe25
f9d4
0052
fe14
0396
0496
00af
fcdd
0232
0054
fa6b
0242
ff35
02e4
ff92
fd88
017d
fbfc
ffaf
0139
01ed
0124
fad2
018c
ff22
0718
ff74
ffa3
fc51
0551
01a6
fe58
018a
0046
01f8
03f9
015a
011d
02b3
05be
fd90
0002
06f9
f942
0118
0223
0056
02c8
ff08
04b4
0093
ff61
fee5
044e
0291
011d
ffd0
01e8
fc18
0454
00d3
0075
feee
fcf1
ff58
fc3c
fcdf
00e6
00f0
fb92
fbef
02e3
011e
01da
fe4d
019a
0140
fce5
fdb0
fc56
0035
feed
0349
fb1e
0124
01e8
01af
023e
0312
0b53
fae3
0086
fca9
ffcd
fef7
0301
fe97
023e
faea
fed8
0093
0013
f939
057a
057a
fd60
001c
fe3b
0289
0213
01db
04a2
00d3
fcfd
fff3
007b
ff89
facd
0115
0413
0067
0195
01ab
0165
01eb
0186
0067
002b
023f
0268
0144
080c
fe33
ffcb
01cc
0515
055a
fa9a
0304
ff28
0027
0364
018b
0782
0560
0368
00d9
fa25
fc96
0147
fbdd
011f
027a
0480
017c
0509
05cb
0151
047a
fbe1
ff47
fdff
001c
ff17
0573
fc4b
fe74
0440
00fc
011e
ff1a
ff35
fd94
fdf3
faaa
fa65
ffc5
fe5a
f95a
015f
fed7
026d
0a91
0197
fb63
ff42
fb02
00ab
022f
0333
012d
0388
01d8
fe8a
038d
fb35
002c
0218
0085
0395
ffee
0195
0267
01de
fb8f
ffe6
fc2a
020f
fc20
0350
02ef
ffc6
ff33
fc81
00d5
fde9
fe32
fd8c
fb6c
f86b
fbd9
fe3b
0605
0407
fbd2
01bc
fdd5
03b7
026b
016c
febb
fccc
fce9
fe59
fe67
02aa
fd8c
0234
0329
05ff
022f
02a0
00c3
02ce
ff2a
fe83
fd4e
feb0
048c
ff5c
fd21
ff0f
012c
fc45
fe61
ffff
fe25
003f
00fa
054e
fe1c
fae4
fff7
04ef
f8dc
fdc6
00f8
fcad
fef7
0373
fd90
0596
0132
fd25
fb39
ff5b
f9f9
01e0
0017
fc6d
01b0
fe0f
013c
03ce
0161
fdf2
0084
fbb8
0104
fb95
fd97
fd14
022f
0149
ff6d
fffa
fc2d
0337
0040
fa80
fd7e
0384
02aa
f891
0160
00d7
fc13
0452
02c7
fd26
030b
006b
feab
0547
fd39
febf
fd27
fd7e
ffb5
fe69
016b
00fd
ff4d
fc06
046f
ff30
fe8b
0343
0338
0038
fe9f
ff18
02eb
ff73
0521
02d3
0040
fbdf
0426
0540
fcd1
0240
021b
0238
ff35
feba
0068
fc96
0198
fde1
01a1
00b8
ffeb
02e8
0223
0107
0142
025d
095e
fee5
05ed
fca1
01f2
00e3
fe84
00fc
0245
0508
062b
00b0
00f9
fe46
008c
fc0a
00df
020d
0333
01e5
fd2e
0123
fbc9
f93e
0225
feb6
ff7d
00e4
fb39
fd5b
ff78
ff2e
00bc
ff61
03bf
fd21
ff5f
0072
fb88
003a
000a
fc91
fbd6
fecc
fe0b
016f
04b0
0241
fdff
0141
0161
ffab
ff21
fce7
021d
0174
fffe
024e
fb4d
fe25
fd03
fe47
0092
fdb6
00c4
0300
02af
04dc
fe71
0434
fcdf
0188
ff38
01da
031c
fcdd
ff27
02b5
0094
f960
fb34
fa61
034b
024c
0154
ff00
fef6
0107
024e
03ae
f737
fedf
0686
fd6f
03af
0135
019b
f8c9
03e1
fe7b
043f
019b
01f8
fec4
fc55
00f8
fff6
fba5
ff53
fdc8
023c
031c
0379
fab6
