ff6e
fedc
0169
0002
0300
fe0e
fdc4
f8b9
ff0b
0267
013d
0206
03ce
01d2
ffc0
0009
02be
054d
02c3
fd2d
0174
021e
01be
ff2e
fbf9
fcd6
fea7
fdb3
faf8
01e5
0268
fdc1
fdc0
fff8
012d
0322
ff96
02d5
00fd
fc5d
0468
03a4
fbed
00fc
05b1
fe94
ffc9
ff38
0266
fcb8
fe44
f700
00cc
005f
faf9
fbc7
ffa8
ffb6
ff56
0217
04f5
ffea
008b
fe31
fe1a
fdf4
011f
0277
0392
07ef
ff64
00be
01d9
02b0
f923
ff37
fc1a
01d1
0368
fe01
fecb
049a
fdad
02d1
fe3b
027e
029c
fe57
ffd8
f9fe
03bb
0038
fd20
02f4
fb0d
04e7
03b0
fce2
fe0e
fd26
ff07
ffa9
018b
ff4e
00ea
fee4
ff96
ff07
fa93
ffef
0732
fd99
ff2c
ff7c
ffd7
fea2
ffa8
049d
00c1
ffae
001c
000a
00c4
01ee
04c0
ff22
006e
fd54
fd68
0224
fb5b
fb7e
fe76
0400
ff2a
01a4
fd9c
0058
fc16
029e
00e6
fd9d
004a
033f
03fe
0643
00a8
02a7
ff79
0176
ff10
02ea
0062
fb62
ff0e
0228
03e1
01c4
00ab
ff6e
020d
0128
0264
00b9
f879
0367
fb84
fcd7
00f5
fba4
fc0d
ff1d
0217
fc2b
fd84
ffe9
fba8
ff96
feab
0234
fc20
026c
0445
01d0
ffd3
ff72
0550
003e
fb60
0001
fd66
fa72
0292
fc2c
047d
0146
074b
0010
05c7
fdeb
05ad
0036
0289
fd21
02c6
fdeb
ff6c
0052
0133
fcb7
0190
fe32
04ec
fd12
00f6
04c0
fb7a
031e
ff5c
fece
02fd
0169
033a
fced
0303
04fd
fe7c
fdb7
ff7b
0194
fd78
f7be
02a1
00cb
ff01
fdf7
fe73
ffa3
fd1f
fda7
ff88
020e
05a3
f731
0383
ff67
03d3
fb74
04a8
fb85
ff62
fff1
005a
fe42
069e
0375
0486
0525
ff80
fbab
fb8c
020a
0245
05b5
fecc
fd24
0726
fbcc
032c
0038
fd1b
01aa
fc2f
0138
059f
013c
fd42
00df
01e9
fb35
028b
01c5
0587
00a1
fa10
0626
01a3
f865
ffa0
0404
0075
fd46
fc60
04a1
017b
ff24
028b
0250
fc0e
fd8a
fbd7
0056
0272
007c
01ed
0413
0207
fee3
fda6
ff9f
0016
0014
0360
ff84
fedc
ff4c
ff0f
02a6
fccb
ffb0
fd89
049f
02ea
f9df
0047
fd0e
ff5d
036e
0198
ff29
017e
fe36
febd
0570
ff87
faac
ff85
fea1
fd1a
0417
0522
fd72
fd89
003e
fefb
07de
fcdb
00f9
015a
0153
fef9
fea1
fb3a
ffab
00bc
fc5d
fb12
fd0b
fdbe
0412
0137
fe6a
fdab
fde1
fef1
fbb6
0188
fe7e
00fa
03ea
fef4
0232
0361
010a
ff85
0384
fe3d
065f
04b0
00db
ff56
ff51
057e
025e
02f7
fea7
0148
023f
fcc7
034d
027e
020e
f9e2
01be
ffa9
fcd9
fd8d
034b
fefd
00ce
0185
ff57
ff5f
fbd3
f9a6
fd30
fb8d
ff75
fc01
ff69
fc0b
fc16
ffd5
08c7
0159
0013
0123
02eb
fb64
018a
fdc1
fe02
f90c
02ab
fed9
0138
fed7
fe79
fb9e
ffc9
fdab
01a8
fd42
f9e7
0669
031a
038b
0104
034b
fced
fe7c
fdec
0275
fc26
024f
fe94
fdfd
04c3
fbed
fada
fd54
fe12
fd28
01ad
0207
0065
05ba
fb7a
0054
fe7b
f7e5
007d
fbea
022b
01de
010c
fada
fdfb
f923
03d1
fdcb
ffe4
fd73
fb60
010d
f916
fde7
030e
ff3c
0138
0396
0548
06b6
fe4a
fb67
fe2d
04b7
0052
fddf
fb87
fe90
fb7c
0018
00f7
00c0
fd9f
ffc0
fd4a
fe39
0073
fd4f
0202
fde3
07c9
05aa
fd79
0417
047a
fe7a
031b
fd9f
fbc9
0078
0266
024b
0202
0211
fea1
02ed
0281
0069
0398
04fc
0019
0078
0324
05a3
fec4
0181
fa12
fee3
fb5f
0288
ffef
fe5d
fc7d
fb8f
01dd
0097
0426
012b
fe79
fe95
ff61
ff90
fe0b
ff24
fcb7
f998
0165
00ad
0208
ffc7
087f
02b2
feb9
04b5
045a
064f
01f9
0020
f8b6
0677
fce8
00a2
fbe5
0185
0564
0087
fc65
044f
0193
fec7
0488
ffc7
fd90
ffde
f7ac
ff49
fdb4
fabe
0135
0032
ffa6
0406
015e
fed8
00c7
0015
016c
000d
fb8d
fd93
ff81
00d0
f900
0185
feb3
020d
0390
023c
02ea
fb18
ffc9
02e4
01cb
fb66
fd59
010f
047b
f82b
035d
fc56
037b
fed1
0275
064e
042c
0328
0116
0731
0198
fd0b
0593
0437
fce8
0297
faee
ff3e
00a8
fbd3
051d
fef4
025c
ffae
0043
06d4
052d
fecd
0264
0197
01cb
fc10
0817
0658
0347
fea3
f924
fd08
fd75
ff67
fa83
0613
fb21
00a1
fd7e
022d
fe5f
0141
0407
0187
fc0c
01f5
fd4e
ff15
ff09
ff23
fe89
050c
036d
fb88
0149
feb4
fc71
0179
03cd
f61b
02d7
0625
02f3
0241
fd33
0079
fe6e
f9bd
00fe
008a
00e7
fdac
fd7f
fdb2
01ec
016e
021e
010f
feaf
fe27
f929
ffad
f99f
fe7d
0652
02d9
0000
fd3b
01fe
027c
fd1c
fbea
fa99
019b
0058
025e
fedb
005b
0137
fc54
0039
01fa
019d
fb8d
007f
fe89
fc0b
fe2a
fc73
010a
0077
ffaf
0354
0325
006c
0025
f949
fef4
0204
ffcd
042e
f793
0000
ff5a
fcad
0436
020b
01c9
ff0d
000c
02ff
026f
0435
fcfd
04e8
ff60
fe27
0413
ff14
005f
fcd6
fc16
fc9e
ffa4
017a
01e5
0431
04e0
01fe
fd09
fe3b
0298
fe23
ff78
011d
fbaa
0137
0671
fffb
fcf2
00be
fcb3
fac6
ffb6
0386
fc7b
fe7a
