fd4a
0084
0375
003c
0436
018e
02e2
018a
fa7c
0451
fbf3
033c
fced
01e9
0085
01ff
0017
0202
04b1
ff72
fb95
0318
02da
018e
fdaa
0246
0129
026a
032b
feb1
fecb
ff43
fece
0278
fe00
fe6e
ff74
0094
040f
ff6c
feea
ff2d
03d6
00cc
006c
fd6f
0004
0426
038a
ffd0
fe7a
fdc5
0215
fdf4
01da
0098
057f
00e3
017e
0117
fb04
fe13
0743
fff6
002a
fdd3
fbfb
0250
0120
ff58
00c4
ff16
0313
0223
0134
fbad
fbc7
ff88
fc56
faf7
00fc
0028
0328
0253
f81b
015e
0053
00fc
fd63
fbe0
ffaa
ff95
06ad
fa12
fae2
fe95
fb1f
fdca
ff54
0181
fcf6
fd24
fe4f
0297
0105
fe08
fac1
fe2d
0431
fe88
faf7
0046
015d
004a
040f
0386
fb48
0015
0158
0023
fe88
fb86
005d
fd90
0421
01fc
01fd
ff75
05ef
fadb
f91d
039a
feaa
01e9
fe88
04fc
f9cc
041e
0035
00bd
014f
0082
0424
0017
02be
0178
fe68
fb8c
0282
01d2
fbb4
fbca
001b
fc60
ff9f
0056
040c
0377
0222
ffc5
ff9e
fb89
07fe
fead
0084
0069
ff4a
fdac
08a3
ff1c
fd7f
0039
0290
04a9
fd17
0317
0126
fcf3
ff88
0427
0091
fdcc
0259
001b
f97c
fd7a
ffa6
fb21
01ce
fc1c
019e
03ef
fb89
fe9e
0010
056b
0277
fc9a
034b
06f4
043d
ff38
01fb
004f
ff8d
017f
0315
0512
0554
fe2d
029b
fbd8
fa3f
0179
023d
fc83
ff2e
fdcf
0106
f847
036b
fd3a
00ad
ffc5
fcc9
033b
0069
00d5
ffb4
001e
01ea
004f
030e
0454
f933
0358
0214
00f8
ffb3
0171
fb78
fd3e
05c5
040c
ff39
fca9
008b
00e6
016e
017b
fffa
fefd
00f1
03a6
03a7
0342
fe6f
fda7
03cc
0599
0429
fc21
fcf4
ff80
f9b3
fe21
f665
fdc5
fa88
021d
fcb0
052e
fe18
fe47
0282
0034
01fe
0090
fc1a
ff74
fd5c
0085
0066
fbe6
05bb
fd97
043d
01e1
01f0
0204
ff11
0261
fe3b
01b5
0269
02b6
feeb
fbfd
004d
fddf
fe6a
03ad
00d5
ff1c
0187
00d2
fcb8
015d
fed7
0244
04a2
fc58
0168
042e
00a2
01b9
fed5
ff62
017e
f9d3
02ed
01b4
034b
0021
0306
fcb7
faf8
0086
ffdd
fd13
0042
0093
038e
fcf0
03d6
fd3b
fbd5
fe5a
007a
fb2f
077c
fddc
f9cd
fe8c
f980
fe7c
0168
0418
0469
fab9
0078
fdda
fc08
02a7
048a
0102
0317
feac
0693
fdf9
fbea
fe9e
ff6b
fc4a
fe21
0419
023b
01b8
ffa7
05f4
0249
03e9
026d
00f4
ff1e
fb9c
fe14
056d
0284
fd56
fe83
04c6
0105
f8da
0181
0075
fdfb
0479
0211
012c
fe61
fe14
037b
0195
022f
0251
063e
fda7
023e
0185
ff37
fe04
0106
02b7
048f
feef
fda0
021b
fc0d
fe67
01e4
020e
0089
0269
0162
fbbd
041e
04e2
0311
fd82
0188
fbb4
04d1
0185
fac5
ffc2
01c4
fe1a
fe86
fe6a
007c
f914
05bb
01f7
ff1c
052f
fe27
fff4
fc4b
002e
ff67
ff11
015c
ff0f
ff82
ffdb
004d
0270
028d
fc13
01b5
02bf
ff5a
feaa
008c
f9bf
ff73
f9a1
fd31
fb7e
0391
00b1
04ec
fd87
fd58
ff80
022e
009a
fc36
ffcb
032e
0662
fed0
00d8
0190
02e4
ffa9
0083
fc9c
02a7
ff35
ff2a
0384
033f
fbbe
fe7c
031d
fd49
fef6
0483
038f
02bb
0061
0273
fd80
fd5e
0266
fa52
05be
febb
fedf
03f4
fb90
0130
02fa
fcc7
fbc5
ffb6
037c
fe03
0337
0868
03d1
04a6
0193
0469
0165
fea5
0668
0369
fdec
fedd
fce0
00e2
fed0
fe04
0020
ffe5
0324
01f4
00a2
ff9a
fd07
feb3
03eb
0278
ffea
018c
ff21
011a
ffd7
03bc
00f5
0597
ff6a
fe78
0095
02c6
ff2b
02cb
fe0b
020d
02e6
0353
00aa
0616
01fe
026e
ff7b
fffd
04f1
fea6
fd3d
fe7c
fbc4
058c
0183
0278
037d
fd26
fa30
f8a9
003c
02ec
fd82
ff43
016d
fce7
ff7e
007f
05b6
fea4
03d9
033b
ff16
0151
fe53
02b0
fde1
0183
fd34
014c
feac
ff46
01ba
00e2
0069
02bf
029e
fdd8
005b
fd36
0246
0185
01d7
0229
0010
ffa3
05ff
0543
ff77
016a
00a5
f877
fb41
ffcc
fb1a
fcac
ffda
028e
fa90
02fb
fe25
00a0
f8ae
fdbc
005c
fdff
020c
f9c1
0529
fec6
fd5d
0702
0550
00fa
0014
00f5
fbb7
ff78
fc0d
01fc
0209
fa5c
feaf
03a3
021f
fe5f
fc5a
fe30
0393
0154
007f
0127
04a3
0283
007f
f93d
fef9
faa8
005c
013b
009d
00e6
020e
0093
0000
06a0
fdbd
fff0
01f2
fb43
0150
0000
011a
0153
fc81
00cf
ffec
fd8d
01b9
ffbe
ffe7
000a
02e3
030f
fdd1
002c
02b7
fe40
0018
fdc5
fa55
072f
0238
0187
01ff
0138
fb99
fea0
0263
00f3
019c
fed8
ff28
ffae
0453
ffc9
0077
fdb2
02c3
fe9a
004b
0469
fd10
fe06
0232
ff8b
0687
fe61
01f4
feee
fdcf
0817
0095
fce8
04d3
017b
0034
02c6
014a
ff08
010d
00e4
fdbe
043f
ff38
016e
fdb8
017c
febd
00f6
0081
fd4b
fadd
fd2a
fd60
00a9
fc94
fe0e
01b5
fe4d
fca6
032e
ff0c
ff48
050b
0132
fc7c
ff53
fe75
0732
fa62
fe8e
0110
01d7
04df
fc49
ffcc
fc84
0441
03a6
fd66
fdaa
03f6
ff9a
015e
0029
030e
02a8
010e
fc5f
fb15
0075
