fecf
05de
fd66
fc65
0405
010d
fc7e
02d2
fcf2
01c7
048a
001a
fed9
fb45
f9ec
fc16
ff97
ffb5
005f
0668
016e
012c
ffc6
002c
fed5
f96a
fe59
002b
fd1e
fe43
0068
05d5
0047
0001
0020
0108
feeb
ff1b
00c5
fe67
01ab
0559
fdfe
02b9
00fd
0241
ff3f
fdb0
ffc6
0487
036e
0263
0567
014b
ffa4
fd2f
fcdd
0144
00b9
054f
fb4a
fcc2
0141
fd63
ffcb
fef5
0000
00fb
049e
fc04
fb09
00ef
00d0
fa69
03b1
019d
ff8a
fb3c
009a
02dc
fb4f
ff64
ff2d
fb81
005e
0439
014d
fd50
0223
fd0c
fc6e
0418
fcb1
0327
fdda
04ba
ffe4
0079
f9b2
fbd3
031c
feb4
fcc1
fffc
ff2e
f66d
fecb
fe1e
f9e1
00c7
004e
01e0
fd2b
fa98
0025
0217
0081
0090
0175
fd12
020d
fc0d
fd01
0134
0438
fdc6
fde2
ff63
fc89
01e9
f9b6
0373
fed0
fbe5
f87f
0284
02a1
01b5
026f
fee1
0001
fb9a
0206
0276
00d4
fd42
fdea
01ca
fda6
febc
00cf
fa7e
fd81
0470
03c2
00f8
fe3f
02f6
ff14
fd2f
0376
ff28
0362
fca7
0202
01f7
000d
fe4d
01fa
022a
0143
0288
0809
00df
fbef
0526
051a
0039
ffdf
006b
01cd
0174
fdee
fe58
fe44
035a
fd18
01bc
fc65
0485
0108
0208
ffe4
019f
fe39
fc8f
fe8f
fe76
029b
03ce
fca1
045d
084e
fece
02f9
002c
0023
febf
0551
0080
f8f3
00f0
ff94
ff38
059d
0044
ffe1
0509
fdaf
fc41
0112
0003
01d5
fc30
fe07
00e6
fcd5
01e9
0465
fe6d
fdea
001b
ff6a
0270
04f7
fba5
04b6
03e3
0606
03e9
01de
017e
018d
0263
ff25
fd63
08aa
00f2
fe72
fe90
074c
fa95
ffb1
fdc3
fe6e
fe48
ff84
0090
0055
fca1
0002
00cd
0347
fb34
0085
fb1c
000e
0103
fe2e
01c7
010c
0144
fc80
fd2d
0318
fb53
fedc
ffa3
00b3
fdee
fefe
fdb2
fdb7
fdbf
00b5
009e
ff05
ff47
01b9
fd76
fe04
008b
fc97
fc13
fda1
ff2b
0246
fdaa
ff97
fcb6
fc4e
01c9
001a
fe2b
ff90
0287
fff8
04c5
003e
fbe0
f8fb
fdef
01ef
ff54
ff25
0619
027d
02a6
001b
01e0
017f
0089
f897
fb12
fdb9
0134
03ad
fc73
0117
012d
fffc
0462
fc60
03d1
058f
00a4
fad1
ff5d
ff2c
03d1
00bc
ff06
010e
fb76
02bd
0189
02da
faff
ffd0
01ae
02d6
00e3
04e8
01ae
ff65
fa92
ff60
fe76
0130
feb2
fcda
0431
fcc4
fd94
fc31
fc46
fe06
fdcb
04f9
fa40
009b
fbdb
02bf
01ac
0266
0057
ff45
014f
fd73
0328
05e4
febf
0616
0513
fd21
ff44
fd45
013d
fe5c
ff52
0111
ff5b
fca7
fe83
fca2
020a
0077
ff4c
040f
ff0b
0097
fed8
0038
fdf3
f9e4
0222
041f
fe3b
ff80
fd9f
fc76
fd17
ff11
0358
f947
fd0a
016f
ffaf
fea3
fc3b
0122
03a1
f917
fa37
082e
fe5e
fce8
ffd3
00cf
05d2
03bf
fcc5
011a
fac7
00f7
fcec
048a
fe73
028d
04d0
fd5f
fe19
fb33
fee5
0388
0122
006d
023a
fe0f
0394
fa91
f92d
036c
ff5c
fda7
0096
fe5b
fe76
fd12
ff6c
02d4
fbf2
fcee
fda4
0205
0254
fc69
033d
fd53
0247
fd19
fd07
015c
fc9e
fb56
02a7
ff71
ff14
fbab
ffd4
0178
ffde
fb5a
fe71
0074
028c
04c6
fded
febf
0170
ff9d
ffa9
0311
0351
ff2b
0029
fe99
fe7b
03e7
01cd
021d
0303
ff7d
01ae
fd2e
fc04
025c
fc3e
fb8c
006e
fcba
fae7
0641
fb47
fa16
f9d3
fd70
fb0c
fe59
0152
fe7c
0298
ff26
fe08
003e
0100
fcd3
02c7
0151
ff0b
0622
0548
061a
f9b6
0194
02ed
022f
ff4b
fab5
0747
0221
019b
00b9
fae9
02c3
f9cd
fc04
04cc
fd55
03c7
0260
02d5
0615
ff36
feb8
00d8
04e2
039a
015e
fe3c
02fc
fe6d
00d1
0017
facb
0163
ff77
fe3f
fc14
f6f6
ffb1
fdc1
01b4
03dc
fd19
fea7
01dd
02b8
fc49
0166
035e
0281
ff87
fe77
fec1
04bc
ff5f
fe61
fedb
03d4
fcd6
01a2
ff3a
0208
f74e
fcc1
fd2c
017e
0240
ffa0
022e
001b
063b
faf8
0112
fe6e
067c
0835
0080
faae
062b
ff20
fe2d
00ac
ff37
0673
ffad
fc45
04ce
fe0b
02c9
04ea
0291
0009
0470
ff08
fb69
0072
0189
02e3
ff98
012a
027d
fd65
fea3
0073
05f6
029c
01a6
00a8
fac4
feeb
fe47
fdba
030b
03a4
fe0f
fead
fd22
01da
0530
00c3
014a
03e1
f8f6
00a4
0269
02da
0197
0503
f88b
ff99
ff4e
02f6
01ce
01e1
ffc5
fd84
0126
fd88
f9d8
0280
feac
fe4e
fef0
0802
fa84
f85e
fc5e
fde7
ffa1
fff3
0265
029d
01f0
fe58
0235
000c
0522
0108
01f3
fd1b
0031
0166
fe60
0022
fa02
0058
0190
02cc
002b
ff9a
fe36
0042
fe9e
022e
fe0c
051c
00a7
fba5
024a
ff13
fc60
02a4
ffd9
fc23
0220
01e8
0230
ffa9
feff
038d
ff27
fecf
0065
0285
0152
010d
f83a
01f8
0197
02d7
0122
fb52
ff76
0289
0277
ff92
fe21
0434
ff00
0285
fd5e
0069
fe6f
fe04
003f
017e
05a4
001d
ffcb
0019
0120
01f3
fe40
055f
fb5d
fd23
fab7
ff83
0200
0065
fd9c
ff35
02f1
07e8
011f
046d
fe29
0045
02be
faba
fc88
0199
fa1d
0312
fb31
0234
059f
fdc7
0087
000b
0450
fdf1
