fd53
020f
0270
00fe
fd6c
0134
014c
06c4
0456
fd44
fa7f
0034
fbe6
fde6
fc9b
fc6f
01e1
fd50
03b9
fde9
ffca
00b3
fbdf
0024
fe94
fdd4
fdbb
073c
036a
ffc8
05a7
fc68
fdb2
038d
fc86
fe82
00db
087d
04a1
f947
fd31
feb9
0928
024c
ff16
ff93
fdb3
fe20
fe54
fa6b
03b7
035c
fecd
ffc1
0373
026b
fd66
04da
ff4a
00e9
f9bd
0158
023c
017f
0219
0270
fda6
01ae
faba
fec1
fe8b
04a3
002a
030c
fb80
faf8
0263
0057
fe65
00c7
fb8b
fbfd
fd2b
fe2e
fe1c
fc86
fd9d
fec3
fb9e
fca2
fd3c
feb1
0287
0204
fde1
0023
ff9d
0132
01a8
fc89
ff41
ff33
004f
ffff
ffbe
019e
02e2
fd23
0697
ff49
fb53
fed0
fa9c
fff6
fe8f
022d
0174
fa32
005f
fe55
fd38
fb88
ffaf
01ea
02dd
01e1
00e9
fd15
fc7d
fc9e
03ec
0300
0313
0617
040d
fd5e
fe3d
ffcf
fcd6
01e3
fe93
060b
0322
fe95
0135
faa0
00c7
ff2a
ff20
fa9a
024e
039b
fec0
fbb4
fdfb
02f5
009f
0000
01af
fe34
00c0
fed5
fbe2
ffa5
f9d1
ffe3
fdd8
007d
fe75
0232
feed
002b
ff9a
ff01
02f7
0422
fe66
ff25
fdfb
0329
ff67
0151
00cb
fde1
05bf
fd0b
fde4
0485
ff7b
0094
013d
fe0c
fcee
fd26
0386
ffcd
016b
fef4
fe68
020f
00be
019b
fc0c
fd5c
fd36
face
fdb3
fd2c
0228
041f
fe50
fd7c
fd17
fdcb
0077
00c7
01c3
015d
fdde
0504
03c3
01f9
ffc3
fe43
0225
fea0
0093
fd57
0088
fbd3
011c
fe85
020b
fb77
0176
ffb3
010e
fd94
04e4
0038
ffda
0960
fce3
f928
fc21
0078
0026
019b
fdd1
0465
07bc
ffb3
fc85
feee
025e
fc87
068b
040b
06dd
fe6b
fcbc
fb17
0194
fa7d
fb7b
fe57
054c
ff15
ff8d
0297
ff68
fdf8
fca6
fccf
fe84
0130
039d
fa49
ff1a
fb3c
fad8
0279
076b
fcf8
f923
025e
00e4
069a
08bf
00e5
fe9c
fbf6
01c0
ff05
fe75
fd23
043a
00df
fdd0
0458
ff29
ffa0
f8ee
ff38
09a8
00aa
02db
0441
00da
fda1
fdcd
0069
ff96
011b
0363
01f8
ffc0
024c
024c
ffb3
02fc
febd
fe8e
02ea
fc03
fbdd
012e
03d5
04a1
058d
ffab
00fe
fbd4
038c
fe7c
fe32
0382
0550
fce9
00ed
0225
fbbe
06c9
019d
fe35
fde0
0672
ff57
faa7
005c
0668
ffa7
0144
0018
fe34
0146
fc11
fa77
fda1
ffc4
023c
fc99
056d
01e6
fd4e
fdec
ff36
018b
fc84
057f
f46a
000d
0227
030d
02b1
fcb4
0720
081d
0125
f904
0266
ffc2
01de
038e
fef0
ff1d
0261
fe0d
022a
fe16
fea6
0475
fcc9
004b
02d4
0169
f7da
0466
027d
003e
f9e6
ff21
fc1d
013e
ffad
0250
0156
fe1d
0158
018c
029e
00a8
007d
fc84
0275
fde9
03d1
00ea
05a6
fd6d
ff74
0333
00c0
fca3
feba
ff34
fb40
0287
001a
0069
fe85
00c2
05a9
0258
00f4
0010
fca3
fa9e
fea6
00e2
fee0
00f2
0088
0381
fbc9
0110
facf
fe30
fc6d
fc70
03aa
fbf3
faf5
00a0
0249
028c
001d
fc74
fbc5
fc89
0001
050e
0126
041f
0253
01ee
f849
02bd
fb15
fdba
fe3f
febd
fd19
ff9d
fdd0
fe05
0049
fe99
04ba
0194
05d1
009e
fe1b
fd7f
017c
02a3
003b
05fd
fb22
fb8e
ffb7
fce8
fe7f
fecd
ffda
fd9c
0301
0239
fea3
035f
0024
0044
fe1b
0300
01d0
0392
0404
ff17
fd8f
fdac
fe80
0878
fe96
00a3
04ef
ff4e
068e
01c5
025d
f888
feb4
fd32
fbc8
ffb9
fb77
ffb9
ff5e
ffd3
feb9
fe44
fa5b
026b
01b1
02ad
012a
0215
0244
ff55
fe57
05d5
00ac
0519
024a
fc06
01e3
fec2
0194
01dc
0021
fdbb
0233
00d1
fff3
fe74
fceb
0848
f3ec
00d5
06b8
0507
01d9
fb05
012c
00dc
fe7d
0425
02af
f9bc
02fd
025d
fef0
0182
0350
03ce
fb53
fffc
0155
02e2
0364
fbc5
02d3
0060
0642
01d6
fd94
0278
fe33
f952
0429
fcfb
01a4
0177
0211
ff4d
fddf
fde5
0226
0317
ffd3
faa4
0562
00cc
0006
00c3
fde8
fdb4
0440
00c1
0471
f63c
0100
fee7
fd8c
01c0
ff86
fff7
0486
fd7c
fed7
02ef
036d
0564
03db
0086
01fb
0032
01bb
0127
0432
f791
03d0
03d8
fe69
fcbe
038a
031b
01b1
00ee
ff1d
f67a
002e
072a
0052
fb94
06e8
ff8c
fd74
f9e9
018c
01e1
01e1
fe62
006d
011f
fbad
ff41
0127
f972
fcc0
0015
fd05
f99d
fe3f
01d0
0131
02df
04ef
0557
fcfe
ff04
faa0
00e6
01df
05b8
ffaa
0420
036a
00c0
029a
0390
fb66
0135
026d
fdc8
0144
fcc9
0186
021e
00db
03a4
ff7e
fdeb
0872
0220
fc0c
04ba
0331
005d
004a
fc60
fd4c
00fa
000d
ff3d
0424
043f
fea6
03c2
fd12
009d
fb89
07f9
08df
fb12
fb98
0296
0298
04d0
ff50
fe94
00b2
0343
fbe5
005b
0008
ff54
0150
041c
ffa9
0549
fed8
043d
03bf
02e0
032d
fd4b
01d7
0190
019c
faf8
fe3a
ff3b
0183
01b3
fa9f
fdad
ff45
fd80
ffeb
ff5d
faf1
f724
fedf
fbc9
0394
fd36
fdf9
faac
fc7a
0367
fdc7
fe19
fd82
01d4
003a
fad1
0267
01f0
065f
fb88
fd79
feb6
fd0b
05ab
ff0f
fbd1
0332
04ef
fee8
facc
fdb8
00ff
03e3
0281
