02b7
ff1d
01e0
0124
ff38
0315
028b
f7bd
fce1
017e
00dc
fa92
00c9
012d
0799
00f1
fc99
03b1
0693
fc11
feb4
fe62
006d
0463
fe20
fb41
026f
020c
025d
ff46
fc0c
0021
fe0f
033e
fd96
032b
ffbc
0412
fd31
0029
ffc5
ffa3
00c7
ffcf
01af
fff3
0088
0366
fd4f
fd3a
04d3
0619
ffca
0221
0122
0242
fa33
0191
f71d
0828
fbef
fe05
0342
0255
ffbe
015b
0168
01df
0247
f9e4
fb7f
06d9
f9d1
ffca
0268
ff03
fbb1
0545
01be
04b2
faa9
0122
ff65
003a
fdad
08f7
0219
fd5a
02c5
03c5
0264
02bc
fb7a
fd1a
fc39
04b5
045b
fb6d
012e
fd1c
f8c3
ff4d
ff14
fa50
fba5
ff19
0142
fe9e
02ff
ff6a
fec5
0064
fa73
fbc6
00b1
05bb
0227
01a4
04ad
ff99
028a
00de
0061
043f
004b
fae8
0079
fc88
fd69
ffb0
f799
fee1
0026
ff18
fbaf
0242
06ba
0022
00fe
028f
018b
ff8c
feac
0216
fae8
fe7e
fecf
07eb
fcce
0134
ff4e
04a5
fd21
041e
fcdb
fc40
00ca
0152
fc48
02ca
0844
0165
fd31
fd70
facb
f728
ff02
fdf5
ffd1
fbc7
0431
fac4
001a
03d3
0472
fdcb
ff7e
fc45
00c5
fe0a
fea1
ffd8
fcde
fbfb
fbe6
04c5
fd37
013e
010b
066d
fcea
0118
002d
fb6c
ffeb
fb96
fb5c
fe19
ffb7
ff4d
0041
feee
ff22
fdc8
ff8c
0400
ffae
0349
03d7
033d
fa11
feb1
fcde
0005
fb04
ff92
00f7
096e
fa5c
ff78
045c
fec8
fe56
fcbd
ffa3
06aa
005a
fec2
0066
fead
002a
065c
02c7
fd71
05a9
000a
057b
01bb
0081
013f
04c1
012f
fcfb
fb8a
00b1
fe84
056a
0365
fc5a
ffed
fd87
fcf6
ff85
0460
038d
fd77
fb92
043a
fb7c
ffa4
fd65
ffa7
03eb
ff81
fcdf
fc2f
0312
024f
fbec
01aa
009f
0557
019c
fdfb
0504
ff01
fc9c
01bc
0365
fe68
01e4
0163
fe0b
fffa
0533
fcdd
fcf9
fdf9
fedc
fb97
0522
fd55
fd2a
0387
ff2e
0127
0408
011f
02f9
fea0
fca8
00a3
fe51
fe28
fb56
ff73
ff59
fa3d
0058
0137
ff50
0484
02ed
fcd3
0423
01af
0024
fcce
0198
fee6
037f
01eb
fe18
018e
0038
02a1
007f
ff31
feae
00cd
0150
045f
ffde
fd1c
fed9
fe24
fd83
fda3
fab2
ffa1
040d
03ad
fc97
f86d
fabe
ff2d
02aa
0420
018b
fe3f
feea
fce6
02a1
fd59
fd3a
fc82
024f
00df
036b
030a
06a2
0180
0232
fed2
01bc
fa5d
f983
f9ee
fbd0
fc64
0096
019d
03e9
ff77
fbda
0381
feec
05f9
004e
00a7
0244
f980
fae1
002a
f851
f883
01fc
01b6
04c9
08d0
0244
fad2
0180
fe9c
fdcb
01f6
fcb8
fd0d
0281
0211
fe58
0090
07fc
01e9
02d1
ff39
ffa4
fd3b
fbb8
ff8d
f97f
0512
faa9
ffb5
02f4
fbc3
ff15
fe6e
005f
0953
fd4c
0504
0173
fdb4
fd7d
0696
05e5
0202
ff28
04b0
fed7
03d2
ffa6
07aa
0040
fceb
0041
fec8
0116
fe4f
07c6
f90e
03ab
fd81
fe8b
fb2b
038b
0480
014c
03e5
0172
fea1
0308
fe94
02a7
038b
fe68
024d
02fa
071f
ffe6
fd51
fbb2
03cb
00aa
fee3
fc12
00ab
012c
f913
ffb0
05a5
04ba
fead
008c
fd48
fc2b
0238
feac
02f8
f975
fd5c
0242
fde9
fa43
01cb
fd5e
026b
fab2
0333
0153
ff22
074d
fba2
ff3b
0057
0220
0424
0143
0048
fb8c
fd10
fcdf
ff7f
fdd0
fdaa
ff59
ffd1
00a2
fbb6
ff97
feab
05ff
fa51
fc22
fef8
fecf
ff7a
fd32
fb4c
fc96
021b
fd0e
f955
fee0
03ff
fb51
01f7
fad4
0141
005c
fead
01d9
fd08
fcc8
00e0
fbc1
0405
059f
0173
fc02
fda0
fda9
fe90
ffa0
0140
00b8
06c8
0477
ff1a
0272
00f1
fdf1
fd9b
fccc
0601
0285
0104
f9bb
fb45
007c
0038
03b6
0272
fbbe
ff37
05fa
0222
0483
0449
fde3
0028
02dd
ffc7
02ba
ff17
030d
06ac
032a
fbc8
fb21
01e9
057e
02b6
fe52
078a
fff1
00cb
022e
0038
02fc
02a3
048e
004d
012a
010d
fbf0
037f
037c
fff8
fe14
05d9
ff13
ff72
fe1d
fda8
fac7
029c
01e1
00a7
01af
fdde
02dc
044c
013f
ffdf
f9d1
03ad
0318
0219
ff26
009b
fd63
fc86
fb6a
03a2
f815
0159
0115
0159
0139
ff46
005f
fd64
fcf4
ff21
ff31
fddd
fcb3
ffa3
0080
02ab
01c5
fe0e
fedb
fd51
0096
f9e0
0680
0260
fdf3
fa72
0208
024d
02d4
fbc7
0253
fc81
01b1
fc26
fbb2
fb66
00f9
fcee
ffff
023d
fe35
fb77
0355
0636
ff4b
ff2d
005b
ffb9
0561
f828
ffa5
062e
00a1
fe44
01ed
0244
fb51
fe5e
027f
fee7
fd5e
fb82
fd8a
00fb
00fa
ff98
ffd1
011b
fa53
fff4
ff59
fc00
01c3
038b
021a
f9f3
f9b0
0156
fdc9
0348
ff7b
0101
012b
005d
fd77
01a4
0054
00e9
ff62
fdcd
ff8d
fee5
fb55
fc9d
fc74
feca
fc3c
0177
0078
fe73
0207
0296
fc69
fa10
005f
fe58
fa57
fe56
fe88
feee
fe3f
0085
02c2
070b
006d
f9ca
fff6
f675
027b
fb3b
00ca
032a
fffb
009d
fe5b
fc87
fe4f
fc29
0395
fcf2
fcf9
04a7
03dc
04d0
00f8
001f
029d
0254
fa51
033a
fc31
fb90
0338
fdd4
fc68
0585
fe0f
0010
fd33
01fb
ff88
01fe
ffd9
0441
00ab
fe9f
fa61
fee9
