fd74
e48a
ee74
0275
ebbe
c924
0f1d
fa80
1884
0592
0a09
1005
30c2
2754
0b9b
098f
ddd6
f02b
1173
f9fe
049b
ea71
33b9
0bcd
0021
fbde
2376
e2f4
08fc
07d2
fda9
f652
ffc7
ed76
2626
fda1
01fc
18fa
0e21
f8c8
f9c0
1741
ee5a
0055
f6aa
ed53
06b3
f7d8
025b
0b2b
0013
2180
e322
f36c
0d97
162d
0a8c
b7c6
105c
fd53
e218
f8d2
083c
f615
0b6e
0ce1
f56c
1a4e
0cac
f2f5
f2be
e64d
f407
12b0
0a10
10b2
045e
091e
2c10
2079
ce7e
1a01
ec83
c4fc
ee90
1f9d
d678
0b60
1920
dcb8
f256
1c1e
0410
0107
faf0
0a19
1071
f081
e82c
c9c9
e855
04ba
f62c
0cc8
f071
0bbc
0c08
f814
f55c
f324
22d0
071a
fd62
d2e3
0431
1577
15f7
fc80
fd7d
10bc
001e
160e
e321
11b1
0e54
1e44
13a3
f8b0
2abf
e754
0f9e
f668
1271
e9e4
fa56
0408
17f6
09cb
f9d6
0600
1622
ed16
079a
f230
0055
11d0
1359
167a
f6e8
dc48
f670
0dc8
edc1
060c
086a
03bb
ffb8
12bd
b73f
f9d6
2d09
0f61
fa54
029d
f38e
1818
058f
0a2a
ee30
16c9
e863
e71e
0027
fdce
11ea
fee6
087f
ecfe
fd28
f4f9
f721
ebe5
ffc0
040a
0b25
ef7c
de02
c9f9
f182
f03a
12b0
f793
053b
0af2
dca4
0ac5
ed7b
00a9
f256
085d
1846
f4ab
f5ff
08c8
f82b
fe55
db3b
e7f2
f1ef
126a
0e2e
0dc9
02cd
1286
ed62
01ae
1428
0998
1124
e0e9
263c
fbb7
d7ee
2286
fed9
d421
edc2
10eb
277a
356e
dff8
087f
19f6
fbb5
1a08
00f1
117d
e2fe
e656
0e1b
f61c
ed82
dbda
fb7c
eb59
3a02
fd9a
d93e
04a7
f85d
f4d7
de5c
fcd6
f622
137a
fb47
