0434
0242
fe2e
fc3e
00f4
0256
021a
ffa9
fdc0
fef1
ff9a
fe6d
00ee
fcc2
0485
02a4
fb84
0126
ff2b
fd55
ffef
ff29
fe87
febb
04d7
0262
fbac
fef0
04c2
0238
fba3
fe35
0191
ff9b
05cb
fe8b
0140
fcf3
fe27
000a
face
0036
002e
fe70
0003
0136
0358
fd63
04c9
fb6c
0763
00c5
fe05
fda6
fd25
0316
fcc4
fea4
005e
035a
fed1
fe5d
ff16
039a
002f
f925
fba0
03f1
038a
ffc5
04d9
014d
fe01
fecf
02b8
053b
030b
02bf
feef
fec3
fc2b
01dd
02b0
fd79
01ee
02b9
033c
01e6
00ca
053f
fd42
07ba
fdf3
04a8
f86b
fcf8
fc0f
01ad
021d
fb92
0342
015a
fd7f
04a6
fda3
035c
ff3c
0552
fb3e
fb52
fed3
f7dd
fe26
005f
0162
07db
fc3c
fb03
0221
ff33
fd6a
042d
fbc9
0512
fc69
0076
fdbe
fcdd
01d9
fc5b
04bf
0186
fae0
fb85
00dd
fa8e
ff6e
00cc
012d
035e
fd2c
fd44
fbc2
01e5
ffe4
0184
fda0
02b5
04c0
fdb2
fc41
0462
04dd
0222
0597
fdd6
084a
ff5e
00b0
00d3
fb75
0221
02de
02d3
01a6
ffde
ffcb
fd56
fc38
ff1b
00b1
fbe7
fda7
fcc5
04a9
01c3
fb25
ff09
03a3
f9bd
02c4
fd6c
00c8
012f
fce7
fbad
f710
0119
001e
fe97
fe3a
00ae
01ad
fe70
0280
0105
04c9
fb7f
0162
0306
feb2
02c1
0296
0191
fcc1
0198
fcd2
01c5
fe7b
fb5f
015e
fc98
04cf
fbeb
02c9
fdc8
00f9
fcf6
021b
fdd4
005f
ff8d
fee5
066f
fcad
ffb5
041c
fcf9
030e
ff87
004c
ff82
ff5e
f9ae
018a
0343
ffa0
02c1
fcc2
004d
00b6
0024
f9ad
ffb0
fd56
fe38
0075
01fc
fe95
fda7
0a65
030d
0225
fe8a
0678
0771
01a7
0126
ff4e
fe73
05e1
ff1d
fd4a
fb83
fd33
ff62
0107
0259
ffde
ffae
fcea
ffd0
fb7d
fff0
ff73
ffb3
04ec
0149
024c
0297
01e9
0356
fd38
0399
05df
0223
019b
faaf
f966
ff77
002e
0539
018a
02e9
0236
ff1c
00c9
05b5
f90d
fdd7
fe70
02f0
fe9e
fd58
0369
fe29
fb98
ff32
00ec
0415
fcf1
ffd6
fd6c
fae8
00f9
fdcf
fb62
01be
073a
0112
fb95
01eb
fd6f
fae6
fa24
fd97
0031
06c8
0544
fe00
f9dc
ff89
03a1
fc04
015d
ffe1
01f7
fdeb
02e8
0306
fca0
ff71
04d0
02cb
04b3
ffa9
fe04
0187
fff5
fd12
fee0
fe70
02bb
ffdf
fcaa
025e
ff26
0100
0083
0203
05df
0636
0277
038b
fd02
0a33
ff89
fdfe
fe17
f698
fef9
0094
0283
ffbc
feea
008d
0105
0659
fb43
05a5
02eb
fe00
ffdc
fee0
fee5
04c3
0190
032e
0191
fceb
058a
ffef
fb93
ff53
ffcf
f996
0006
fd7b
05fa
002d
fe46
0246
0235
fe20
fe09
f8d9
fdbe
ff36
01d7
0294
fbc7
ff56
03e4
fc7b
ff1e
0086
ff3d
f8b9
fb25
fd8d
0159
03fc
ff6e
fd58
fecb
0143
fa4f
fe81
0234
ff32
055a
0612
fbb4
ff9d
fcd5
fef0
ffb8
f967
ffeb
036c
fb4d
020e
fa4a
fc7b
fdf2
fc0e
fe99
fd58
fb51
fccc
0011
023e
fff1
fe48
fb46
000b
04b2
0691
ffbc
00fb
ffa9
0281
fe5b
0341
02b7
ff54
0047
0363
fed7
00f8
feac
07cf
fbd1
0579
0351
fc32
0210
fdb6
0165
fa3d
fefb
0875
fd9b
0197
fc05
fd75
fda3
0214
ff9d
f87e
0420
fd1e
ffcd
fa82
034b
01a7
003f
00eb
fb2b
0726
ff56
039a
fe1f
00f4
02fd
019a
0080
01ff
fd0c
0049
008f
04bc
003d
00b4
0276
fe60
0084
fb76
0015
01f9
fd98
fb5a
feee
0105
0241
0136
02d9
0192
f83a
fe48
0000
fe80
ff75
ff6b
fdbb
0199
fca9
f6a7
f922
00e2
fdb2
ffc4
0485
fdec
0665
fe18
0251
039d
01fe
00cb
fa37
00c1
fd4f
032b
ff79
00cc
002f
007f
0134
02e0
018d
03b3
fc1d
f7d8
0258
00ca
fc48
fd78
fddd
fdfd
0286
fd3e
fbea
fe60
fd57
058d
fcbc
008f
09b9
ffd0
fe96
0434
02e5
fff5
fc0a
fe6b
ff4f
0772
0606
fcc2
fe4c
02f5
fd8d
fdf6
0502
fdf7
0202
fff6
fe85
02e7
fd3f
ff33
ffde
0014
fc0d
00a2
fcd9
fa8f
02db
fedb
02f0
00c1
01d6
02f6
0308
022e
056d
005b
0186
fd9d
060f
041e
fcd6
01ab
030e
01ec
fedf
0243
0119
0040
ffeb
01fa
fda7
018f
fdbb
fe12
019c
ff5b
00f9
0515
fb93
fef6
ff16
00e4
fac2
00b2
0273
f892
0055
fdc9
028e
0127
0072
fdd6
ffce
fc00
fe09
ffb1
feee
0429
fc81
faa4
0234
fc94
f8ff
ff48
0083
ffaf
040c
02cf
0135
ff30
fe96
0204
fc2c
00d6
fdeb
001e
fc01
fe47
fe39
0067
0523
fb63
0199
fca8
0311
056b
ff04
fb87
fdb6
0300
02c8
ffdf
007c
fdf0
01f8
fd3a
0750
01db
fbca
fe04
ff29
002d
fefc
034b
0237
fcd7
03db
01af
fc84
0203
ff37
fb74
fbee
0465
fdfc
0282
ff9c
001c
0221
0104
ffd7
fe76
ff04
fe60
00fd
034a
01a5
032d
ff31
fdbc
015c
fde0
fe3c
fe01
fd48
029c
022f
fd89
06e7
fed4
0139
faa6
fa97
fb6a
0287
0112
0314
fcd1
ff39
04d1
027c
fed6
fab0
fbf1
02d6
0078
fd97
0446
00ee
0173
01f6
028f
fdb2
021d
ff03
0635
0047
fed8
00e7
05d9
0146
018e
0165
fdd5
fcd6
fefd
fb3c
00ad
044c
018c
fee9
fbea
