0169
ff95
fdc5
fbeb
fe80
00e5
005a
00bc
017c
068a
02ad
016f
fbff
00e0
05bf
0346
fd5d
042b
ff2a
fdf1
044b
0036
ff1a
fbf8
036c
ffde
026d
02e4
fc5c
06db
0108
ff50
fecb
00d0
00e6
013d
048f
0413
03d8
022c
0465
feb8
04f3
fd31
0674
05dd
00aa
ff6a
042e
fadc
06c2
01f5
fe53
fdd6
fefb
04d4
01de
0261
06be
03d7
01f8
072a
fef3
01f8
fdd3
ff81
fe7b
0017
fedc
034b
facb
0404
fd9a
fc80
fdcd
fa94
fa3b
fbab
0254
029b
fca9
f99e
0874
02bd
02ac
00a0
ffe0
00fc
02ae
024a
01b1
003e
0167
032d
02aa
ff59
03e3
ff4b
0768
fdb3
fbd8
00cb
00d5
fa9a
0029
0553
ff6a
005e
fec3
fe99
f5f5
ffc1
03bb
fbbf
ffb3
ffd4
ff35
032e
03c5
f8a1
fea0
01bc
010f
03f6
fe00
0136
fd7b
ff74
fb40
0470
fdca
05b7
0033
06f1
033e
fe1d
00ed
fbc4
fbdf
ff63
f9dc
023c
fc03
02a4
0052
01e9
fe9a
0047
ffce
04e4
018f
02b9
fb65
0459
fde5
fed7
fe13
002a
fcb1
ffd0
02c2
fca8
01df
fe7a
fb95
ff18
035a
f9c1
feaf
fd5f
fed1
008c
fdb1
ff36
fabf
0309
0161
fc98
0607
01c5
fdf8
004c
0068
008e
fcd2
f753
fc76
fd83
00d0
0481
0192
00d0
0373
fd2a
0189
fa8e
0384
fc10
fbdf
fd7e
ff9e
017e
ff4a
0105
fcdb
fc31
0352
0024
0346
0014
0119
fcf5
02e3
071f
fae1
fc84
f9b9
03d1
05d0
0135
032e
fc4a
fe98
fa49
05a0
0627
0481
0484
fcd8
001b
0187
0122
0215
04af
fa24
0000
06b6
ff0a
0049
feb2
fe9a
02ab
ff0f
feab
fe69
f947
ff89
0095
f875
026a
fda1
fb73
00b6
0497
0284
fe5f
00c7
0001
ff12
ff92
fa00
03a6
01f2
fedf
07f6
fedc
027b
fbcb
03db
01ca
fcba
ff81
01a2
0581
f803
0248
000f
fef6
fdb7
ff74
0238
fd18
0308
0665
0198
01dc
fd08
0143
0394
000a
fd8c
fdc5
06c5
fece
042d
0119
032e
042f
fe05
03b0
00c2
02c4
fc29
ff5b
fb22
022e
ff57
02e5
0277
018c
0016
fc73
fdbb
ff97
040e
0165
039a
0210
00ab
fed6
0176
0046
02c7
fd86
fddb
fa26
0118
020b
fd94
0010
fc96
0121
027d
01eb
0299
faca
0100
05cf
04bb
054c
03d8
0045
02b7
f9fa
004b
03ee
fe09
0012
fe0d
038f
0406
ffb2
01a8
0291
ff92
ff76
fe7f
0087
017a
ff00
0464
052f
fe17
01c4
fd1a
ffa4
fbed
0228
02b8
05f9
f957
fa9b
fd29
fb5e
047f
fd3f
047a
ff95
0205
fc90
fd94
fe1c
fda8
fa48
fe1e
fdc4
fcb1
0027
f9ed
fd72
004f
022d
ff16
00d2
fa78
feed
feab
014c
fdd1
033e
082f
fdf7
fd9e
054a
00e6
0054
fdeb
030f
0120
fe58
fd3e
028e
fc68
fd63
fa48
fdbf
feed
fc38
0318
030e
03e0
ff55
f7f4
fb54
01e5
feb3
fc19
00bc
ffbd
fe6b
ff5f
fe42
fd46
faf0
0281
022a
ffd9
0078
0059
00eb
fdc2
03fb
fb34
003b
0070
fe64
0240
fb01
05b3
ff20
014f
fcaa
fe7f
0016
fdec
faeb
fe2c
022b
fead
026c
0515
fd02
ff9f
fb8d
fcba
032a
012f
0170
0197
041d
006e
ffb6
00a7
0251
fcac
fb54
fec7
052f
fe62
fd40
fea0
04ae
0434
00e2
ffe9
0322
049d
fde4
ff78
fd81
fd77
02df
031c
fa76
038c
0571
052f
024c
0365
ffad
0130
0271
fe57
03e6
03e9
01d4
fde7
f934
0241
fdb8
fe54
fdd2
01b8
01c2
0050
015d
0264
0139
03b5
00f6
0076
03aa
0122
0011
01ec
00e1
ffa5
0042
0054
0255
fefe
ffac
ff7d
0172
0610
ff1c
ff32
0311
04cc
feae
027f
0039
0010
03da
fefc
ffd4
fdac
00fa
fe21
023d
fec5
04b2
02ea
feeb
01ab
0182
03fe
fc60
fc91
00e7
05e0
018f
000b
03bd
076b
0313
0015
ff5b
fed1
fe56
0b5d
0362
00d3
01da
02ce
0438
fe95
ff62
ffcc
fda6
fe80
00de
0191
037d
ff61
fd7d
021d
0074
048d
03ce
0288
0177
00b0
fdfe
ffa8
0753
0115
fc30
015b
0026
ff34
057c
f92c
02ae
041c
01cb
01d0
ffdb
ff4b
ff74
0197
00b2
0077
056f
fda5
0063
ffbc
03dd
048e
ff1f
0068
01bd
ff87
03db
fe96
fff4
f9ca
ff0c
fe5b
003d
fdd0
0076
fe8b
fb73
0704
0243
f7c8
0513
0615
fde7
fe9f
fec1
0558
fc12
ff74
ff01
fb55
fb2e
ffaf
04b4
fcd5
fdb7
fb21
0127
f95e
03ca
fcd4
fd2c
01d2
f9f9
ff2b
0010
02f4
0293
0426
01a9
ff8c
fb34
fb51
fc46
fc23
fd80
fbc4
fb6a
05d0
03ae
0385
faed
0376
0088
fd27
fe04
ff49
fe16
fb45
040f
002d
0064
ffb1
fda0
0555
fdef
fc65
fb93
ffa9
f9e0
fee9
037b
0036
00a1
01af
f840
fdeb
ffed
031e
01bb
fb70
ff75
0114
fd0c
015d
feee
026d
feb3
fb53
021f
ff56
fcd2
feca
007b
fb2d
0105
fa46
06c8
06d8
00cf
0276
fe14
fb6f
ffe4
fb61
fe65
07fb
048b
03fc
030e
001a
01d2
ffaa
076c
00ee
030b
fa39
0243
034e
016e
0113
0021
01db
03b3
017a
fee8
035b
0211
fd7e
0910
fdcd
fcf3
0401
fe25
fb7b
fb1c
fe17
ff2e
00dc
fb22
ff69
0124
05bb
0286
ffeb
fb3b
ff8d
fe0f
0202
03e7
ff33
043a
0283
f8d6
f92f
018c
00bd
01ad
