019d
febb
0099
00a6
ff2c
0145
fd66
032f
05a4
0489
0546
fe76
00f4
ff21
043d
02fb
008e
f9f7
057a
ff3a
03a6
0204
fbf8
0208
0564
fff0
05ca
fba3
fe9a
03b2
fb14
ff91
068a
fb32
00bd
00b7
009f
01cf
ffa1
03d9
0396
0451
03fa
fe94
0357
0696
035d
0582
0570
02b4
fc28
fc08
0154
fc19
0152
01a3
fe9c
ff24
fa53
fedc
015d
0440
fbf8
fbd4
ffaa
0205
ff5a
0219
01f6
03f4
0473
ff82
02e9
fc24
00fe
01e1
006d
fdf4
0352
fe71
fd71
01aa
03c3
04f0
fea5
fead
00ca
ff30
fc49
fccc
02cd
fd86
0125
0083
0296
06c0
ff52
023f
fc1a
0215
0440
fee3
ff11
fe1e
0476
044e
021a
0031
034a
fe31
fe0e
fc49
fe3a
02ff
0596
034c
0283
fecb
0429
0322
053e
00bc
f8b9
ffd5
fac7
0024
fcbc
fe86
024d
fd77
04d2
fb2a
fda8
fc9b
fdb1
029e
fe62
0408
fe7b
0331
06a7
0281
072e
fd87
fdf2
ffd1
0237
ff5a
ff23
fe3a
fddd
0178
fdfe
0070
ff15
0000
fc58
ffd6
fc09
fd3f
009a
fb0a
ffce
ff71
ffea
f5e4
0288
00c3
fef5
fd0c
ffed
fee4
fd3d
ffbd
ff30
fe11
007e
fe24
f9dd
fd6a
03b7
ffc4
0016
0076
fb84
04ee
0364
0409
0019
03bf
0902
05c8
fc52
0413
fda4
ffac
01ae
00b9
0642
fd9a
0223
01f5
fee1
fa91
005a
fee6
fd67
fe04
02a5
fc88
0112
0008
0416
fb78
fa70
015f
0391
ff0e
0002
009f
0157
0186
053b
ffb1
f7fc
fe5f
0758
033e
fe93
00fd
fe32
ff3d
01b4
01c0
0182
02b1
0635
f971
fdfc
006d
faea
01a5
fdae
0437
ff51
fd4b
017d
ffcb
feed
011d
0097
021f
0075
00ba
fdda
ff5e
fab7
0059
fd50
fd1d
fecf
018b
ff42
0122
fb46
03ce
0002
0245
01ba
fdc7
fd35
0068
f9e8
072d
0122
02a9
0334
ff8b
fb53
f779
02b1
fc4c
0327
02f7
fc26
0125
fbc5
04d5
ff5d
0035
ff25
01e5
007e
012a
01c5
f9e0
fdc0
feba
fa9c
00e4
01ad
00fa
037a
f964
f9b7
fc2c
fef1
ff88
007b
fae7
fdad
03e0
ffa4
ff84
fce6
fffa
fe35
0078
ffba
fdc0
0540
fb7f
006e
faf1
fff2
ffdd
fce5
0254
fba6
0169
0028
fe26
fef5
ff93
0307
ff2a
ff4b
0317
01f1
ff29
0247
fe06
002f
f8a1
fc03
0282
0236
ff61
fc83
01d1
fdbf
fbff
02bc
021a
0161
fb25
fddc
fd14
0580
fea7
04a0
0293
fab7
00a5
00dd
fdf8
03aa
02aa
fcf3
00c7
ffb2
ff40
ffcf
fd36
fc76
fb79
f838
012d
fdba
0342
ffe5
fdf2
fdf4
fce7
02b8
fd27
0334
0303
fc50
fd40
fef3
fc79
ff3d
fce4
01b1
004c
02d0
0024
fca2
fd79
0515
0410
fe90
fe4d
034b
fd50
044c
fd77
0278
ff9e
ff10
ff24
fcc5
ffc8
0393
04c9
033f
fc31
fb38
fdec
0280
01f5
fe44
fca4
00c3
fee9
ff69
ffc0
0643
fdbb
fb21
0048
fe64
ff8b
0333
fecd
fdfa
ffa0
fda9
ffbd
fa31
0429
fb75
00f8
fe01
01c3
04da
02f9
01e9
0316
fc51
029a
0159
fe18
027f
f9fb
ff2d
0191
fb57
022a
fa26
023d
01c5
04a6
fef4
02ad
0432
f6ea
049d
00f6
0122
ff93
fc07
00b4
03a8
fe65
05b8
03d2
fe75
00cc
fd69
03ac
ff86
fffe
0282
febc
018c
00e5
ffb2
fc96
0147
041d
00a2
ffd4
0466
ff9c
fce3
ff7f
f957
ffc8
049a
fe9a
f85e
fcc7
05fc
fe70
0009
fd5e
0198
fdfc
fbfa
01f1
03c0
fd77
0600
fe50
feea
f8c9
fae1
fc71
0311
f8c8
fe7a
fc50
fe04
0304
0368
fdcb
01bd
fff1
03dc
00ff
fee4
fe08
fc61
046f
025f
03fc
fb40
fcac
0514
0398
0502
fe6a
ff31
02db
ff57
0264
fb4f
fb6c
fe74
054a
0621
ffad
fded
0151
035b
047a
0115
0321
fd92
0375
045a
fdda
fdfa
fdf1
056e
03bb
0790
01ef
fac1
febc
0729
0294
0238
0090
f72a
fcc3
fbf2
001d
fc26
054c
fc97
fcab
fd71
fdbf
fe7d
fc37
006d
f953
00ef
fa67
fd9c
0541
fc34
fa37
fdcf
0130
ffc6
fed8
ff4d
fd5d
fbd6
009a
0164
ffc4
00c5
03c3
009d
fbb8
fe78
fd9e
0150
fb75
feea
016b
fe80
fc5c
ff95
000e
fbf8
059b
008e
ffea
0301
fe06
05e3
fcef
067b
fec3
fe5c
043e
fe80
fb2e
fd5e
fe19
02ec
00e7
01a5
fd81
0133
fccc
fcfb
fc41
fd0f
fb71
023b
fc39
02b0
fd8e
019b
005a
fee8
03d5
0685
fe6f
fbf3
ff54
feb5
0099
0007
03a8
02f5
01b5
ff68
036f
f7cd
010e
fde9
fea7
0200
0497
feb7
03a6
0703
fc5f
0085
fe96
0285
00b8
0540
0233
019a
fbc6
fc3a
fdf0
fd42
ff18
00ca
0189
fead
ff49
01b8
fd26
0240
fcaf
007d
ff0d
ff00
005f
0135
033f
071c
ffbd
02e5
0161
ffec
03c4
03e5
0537
fe05
fb22
00e5
fe3a
fdc1
041f
0670
ff87
02d4
faaf
0178
fdd7
021b
02b2
048d
fdd5
019b
00d3
fded
0106
0186
ff5c
0223
057f
04f7
0368
fa93
007e
fe02
fc99
fe5f
06d3
fe11
fd8f
fdd3
013b
fde7
0251
0408
fde9
0255
0287
fc55
03f6
fa8f
fec5
02b1
052b
ffa9
0371
fb8a
ffc7
0112
ff9a
fd2b
ff29
006c
fc72
fe14
00cf
fbf4
086e
fffb
0088
01fd
00f9
036b
ff0a
ff05
00a0
fecd
03de
fdc6
fd83
