fa56
fc16
fd82
ffc9
fec9
fdfe
003e
fd75
fed5
02b0
fdfc
02da
fd82
01a7
0060
fc24
0132
fcdc
0136
0177
0298
fef1
0105
0218
fdc4
febb
fe39
01eb
f8e5
03d3
00e1
feeb
fd2c
fae6
02ad
fdbe
0054
fb54
0097
fbac
fde8
fb2d
0265
031e
ff2c
ffbc
f8ee
017e
0217
ff0f
ffe5
ff9d
0099
fcbb
fe00
fd5a
ff3d
fbe9
fbd7
0120
000f
fba8
01c4
045c
001b
0280
ffcd
0191
fd5b
036f
f966
0416
01f6
fd3e
ff57
0659
fcf2
fc94
ff1b
00e2
fed8
0185
fe72
fb6c
ff55
fe1d
00b9
0156
05cf
fcec
fbe4
f6f4
fb74
0205
027c
0361
0174
fc23
fcc7
fb86
0292
fdca
084b
fdeb
fc73
fe77
fc7a
0447
015d
00bb
0397
ff9e
ff33
fbf8
00cb
feaf
fb97
fabc
0225
fe91
ff76
fc6f
ffc6
fe62
fdb1
fca9
fce5
01cc
04bf
fd20
fd64
01d8
f8a3
fe0a
0384
04b3
0255
ff48
ff90
0642
0377
01aa
0082
02f5
feff
fd2a
0151
05cb
01f9
ff9d
fe4f
fef2
00b4
0014
f7be
04dd
fab1
040f
032b
015a
02be
01cb
fcc5
ff01
0137
0128
01ea
fe8f
0088
0539
002a
0310
01c3
fe25
fbd5
00ac
fe7e
0428
0326
fc68
ff40
fe96
fbb6
fd6f
037a
007c
04ed
0364
033b
064a
ffb5
00cf
fdbb
0167
0559
00fc
03ac
01db
fd1e
009d
00c3
040f
ff4a
034f
00cd
0015
00c7
0070
04f7
046d
fe2c
012e
045a
fdaa
fac0
ff64
fa7d
0126
fdcf
ff19
0477
fd3f
0398
0268
fd0a
012e
0567
0377
0219
021a
0148
02d1
0345
05d2
fe6a
fef8
036b
fe37
fecc
026d
02cf
fcfd
fc87
0402
03cf
ffe2
fe2c
fea7
00c6
03a7
fc65
fe77
fd87
fe01
02ac
01ed
00b4
03d7
fbac
003d
ff97
01ce
0256
031e
ff28
fb01
fd68
0007
01f2
00bb
fd87
ff53
ff10
ffec
0189
005d
fdd5
fdb0
002e
0513
ff90
02c0
fe12
0387
ffb8
01d2
015b
0091
fc96
ff32
01c1
fb6f
fb87
0879
044a
02dd
00a4
faa2
005f
02f9
0474
021f
0473
fb8a
fc37
01d2
fd08
f90e
02aa
011e
0001
0296
ff1a
fb9f
0404
026a
01a0
f9ae
fbc1
02af
f81c
04ce
00d3
fcd8
ff5f
fca9
0326
fdf8
00de
fded
00f0
034e
fd83
019c
003e
fe95
02de
ffdb
0578
fff4
049b
08f4
03e9
0192
fd58
ff14
02d4
0170
ff88
034f
00b3
fed7
fafb
01de
fb7a
02a2
ffd4
01f5
00ad
fefe
016a
fe29
ffe1
feef
00e7
01e5
fe41
01aa
fbf9
fb74
0111
fff7
fe57
03aa
0287
fd0f
046a
030c
0312
fe63
fdaf
fcd4
0033
0207
ff04
02fa
0061
00e3
f9ee
ff1d
fd12
0128
00f7
fbe0
fd4f
0077
00bb
04a4
03e0
05a7
0294
fbd9
fcaf
ff5f
03fd
fbe4
0211
0239
fc35
fe37
ffa0
ff55
fec9
f9a9
ff6a
0269
03a8
ff98
02d6
0177
febc
fcdf
fa6b
fe0e
057e
ff1e
03a7
faa2
02d8
0880
fbd4
fb32
0471
faf9
fc56
fd8e
019b
0782
0334
ff33
0061
fffc
ff31
feb2
0467
fe6b
fb3b
feda
ff00
00d8
0284
ff74
00a3
fd7f
045f
faab
0007
ffae
0506
fbe0
011f
0087
012a
fe66
009b
fb02
0535
fd25
ff46
fd72
ffb6
ffbe
ff78
ffcb
fc4e
ff87
ffae
0368
fd22
ff60
ff51
fe9e
017d
f8a7
fc36
015d
fcf9
035f
fdf0
0088
fdba
0004
fe0b
036f
fce8
fcfc
ffb7
fc77
ff90
ff2f
f712
042a
fcac
fd91
0047
fd07
0088
00bc
ff22
ff1c
01dc
014d
ff1b
0166
05a8
fc2f
fbc2
01c5
020c
fb6f
000e
01aa
f711
ff9c
fbf8
033f
fdb9
fc7e
fdf9
fdde
05dd
fdef
028c
028a
fdfc
fbe3
0384
ff28
0241
03ef
0053
fb56
ff95
ff57
0105
fd16
fe51
ff5d
042c
fc2e
0016
016f
0308
01fe
fe7a
fab4
00c4
fedd
fefb
02dd
f909
f873
03c0
ffaa
02e7
ff95
ffde
fc46
019d
f9d7
fb06
f99a
00fb
fc8b
fc86
023c
060d
ff34
0015
0754
03b2
0492
01c7
030d
03b2
ff04
0020
fe8a
0106
0125
00f4
0135
03c1
0514
fb46
fdd1
029b
02ed
04da
fec3
fd81
fe0f
02d9
ffbb
fa3d
01b7
fec2
019d
ff37
febf
fba8
0769
005c
0245
f88e
0540
f9fe
03a3
01a1
0168
02f1
fc59
ffee
038e
0431
ff19
fbcf
0372
fd74
fec7
fe20
fba2
0497
0332
fda8
fcc3
068c
0b6a
ffc2
fdf1
fd70
ff83
fa60
00b4
ffc5
017b
fa67
0021
fed6
0026
0315
05ec
fd3d
fdcf
ffe3
f988
0088
ff15
fe52
ffe5
f9ab
032f
0605
01b4
00c8
02e0
0787
023c
03f9
0213
018f
0090
0115
ffa0
ff59
016b
fbb6
0349
ff06
038c
0273
ffca
0419
fcf7
0298
ff5b
fa41
fec5
fe9c
01ad
01a4
00a4
01fd
ff52
0110
0267
010d
0077
040c
00cb
fe6c
ffeb
fe9b
037b
05da
faae
fde3
04eb
0055
fb90
fa37
00a5
ffd7
016d
0548
033c
0058
fe52
fe0f
fb68
04fd
033d
0072
05b9
ff7f
fc92
01a8
0553
0137
043d
fe37
ff32
0019
061e
0233
fd3a
0375
ff9c
0091
016e
fcf6
06da
f9f1
fa5f
0267
feff
0204
fdf7
0366
ffdc
fd9c
ffc5
fde0
fd31
fc41
fe54
0223
fc7d
fdb0
0027
fd44
fe5e
fde3
0115
021b
fef8
ff72
ffd1
fbe8
fd4c
fbba
fabb
018b
fe29
0082
fd68
fd08
06e8
00d8
fcdf
0377
fea0
0425
ffa9
