ffcb
ffd8
00bb
02d7
0315
ff46
fcc2
0016
ff52
0232
fd3e
0197
0148
fcbd
00e6
f9ec
045f
febc
ffb3
042a
fa16
fe22
0138
02cd
ff9c
012a
feda
01f7
02c6
03e8
009c
0195
fe90
0380
fd54
016d
ff2f
02a9
0047
0063
fe5b
00a1
0463
007e
03a2
0151
0289
fcce
fe53
0150
0154
ff6d
ffe5
fde2
0168
03f4
fbef
0097
fc81
0005
fd05
ff5a
00f8
fead
05d9
f875
0526
fffd
fe86
fd6d
f97e
fddd
fde8
fbfe
025f
f91c
fbe5
020e
001d
02aa
01f4
fef6
fc63
018d
0037
03d3
0514
095f
009b
0195
06a6
fe75
fc05
fbd3
038f
fd53
008b
0341
fae8
0599
00f1
03ae
034c
0377
fd69
000a
03f6
02a1
0457
fcd3
fc55
00a1
fe75
0183
ff4c
0225
0228
ffa9
fd7c
ff2e
ff2f
fea9
02d4
017b
ff65
fe37
fd93
faba
0591
014b
fa05
008d
fee5
003c
070c
ffb7
00d7
0236
fb89
ffbc
019e
feb8
fb8c
fe04
fd56
035c
fc2a
ff02
0445
fea5
00b8
ffdf
fd99
ff44
fac3
0068
0148
00c4
04fd
01aa
fd55
014a
fde7
01c3
0233
0362
fee3
0055
0057
0234
fbee
0213
ff45
01af
ff43
038a
0416
fe94
fdeb
008b
0090
fd5a
ff5e
01cf
02ee
012f
0409
fb03
007a
02a4
01f1
ffd4
fc9d
ff79
0143
08fb
fe9c
04a7
ff97
02fc
0028
fe5d
f93a
fc63
0453
0536
ff5c
ff37
008e
fea1
fe80
fe1c
012f
0366
02fb
fbea
fff0
fabb
fe22
012e
fd8b
034f
033c
fec5
025e
01e9
0435
ff69
03e0
0313
fafc
070b
fc3e
ffaa
05f4
01ac
0581
ffcf
fe7c
005a
00ab
fef5
fa39
fd6c
00cd
01f2
fe9d
0657
025b
04f6
fdc8
031f
fed1
f9e3
012d
02a9
ffa6
0008
0250
fff1
00e8
fe8f
ff64
fc0a
ff0e
fe7a
027f
ff30
fc59
ff34
fb86
048b
00ae
ff1d
fd2c
f8f5
feae
0185
0550
ff75
ffd5
04d8
ff91
fe57
0160
0081
fe80
fdd6
0636
fced
fff5
fe19
04a3
fc1b
03d1
fd48
f947
faf7
002d
fdb5
0129
028c
0059
00fa
006c
03b9
04d1
fa6a
045f
018b
fd3b
fa7b
00b1
01f0
fd79
0180
07ca
0209
06e8
003a
ff1b
02a0
fe49
fbd1
016a
fba9
0219
fdeb
03cd
fc50
fd2f
0099
ff1a
06d9
025b
02af
01dc
fe2a
00f8
fff4
fe3e
fd45
fdfc
feed
f993
057e
f896
01ae
0214
0335
fe41
fffc
0727
0001
fbc7
fc40
fb34
0167
0501
0629
00e1
fade
ffdd
0233
0443
00e6
029f
05bc
00b4
02de
0231
00e5
0563
fd69
fffc
fab9
ff72
fe66
007b
01e2
004d
fcca
02e5
fde6
05b0
0755
0268
008c
f86d
021c
037a
fca3
fe74
fad6
fb0a
05ca
06e0
008e
0409
018e
019d
0258
01b5
0475
028d
01d2
0533
fab1
fcb9
ffe5
0473
fe43
0390
fb0e
fc40
febc
fec6
fd69
001e
045c
ff29
01c3
ffc8
fecf
fdc3
fdef
ff46
fd29
ff98
027e
0526
ff81
f9ef
0270
fdd4
0105
fd8b
0250
0774
018f
0026
fae4
043d
01d1
009d
fed4
fbf8
fca7
ff66
fd02
0016
00a5
fe5d
049e
00c2
00f1
fea8
05f1
032f
0003
0429
0148
fca7
f9e4
016e
fb9e
0262
fd6e
00d0
f881
0062
fb00
f931
fdb5
032f
fad3
025f
f902
fdb8
01f7
ff64
00db
fa80
fff9
0078
fbea
0793
0226
fefc
fe71
00f1
01e8
fd3d
012a
00b2
02af
08e8
fcbe
ff98
ff60
0224
007c
0392
01da
0387
0574
000e
018f
02d4
0342
013b
054f
0462
00bd
fecd
fc73
046f
048a
0014
0289
06db
f587
004f
fdfb
0379
02ec
fe1a
ffdc
ffd4
0102
ff28
0212
fd04
0717
002e
ff02
faa1
0363
022f
018f
00f6
00b4
fd33
00f1
0843
fd49
ffdc
05fb
fea7
0020
041b
006a
01b5
ff64
fd7e
fbec
fe8f
0258
01cb
0168
01d9
0457
fd0c
005a
ff4e
00a3
ff0e
ffa1
02cb
ffc7
fb08
faf0
fbbf
fef1
034e
fe55
fee4
04ff
06f5
fd53
ff63
fd35
fae4
fb57
ff2d
00c8
fe1a
015d
00ce
fb9d
024a
fa4e
fc03
fcb6
0032
017d
fec6
fe14
0303
00c6
0322
02ac
ff22
fe1d
ff40
0042
fe41
02ff
fd1e
fe20
00a5
05ab
fc45
ff4e
ffca
03d1
0827
01f5
fd72
fdf5
fd6c
0233
ff24
ff34
00b5
fa7d
03d0
fe0e
fbe9
ffb3
fc5f
00ef
004a
022f
0226
febd
ff94
fe07
00e1
ffb6
feed
02f1
fd3f
ff47
05ac
02c8
05e5
017c
01af
004d
fb73
0363
fccf
fbc4
03fc
ffe6
fc70
ffde
fd67
009f
ffe8
ff44
fb7c
fab1
fe86
fb85
fe36
ff16
ff83
ff36
0345
fc65
003c
fd26
0360
fcf2
fd50
ffb3
fb92
0446
fda3
fa49
0696
00d8
fa91
00e4
03d3
fe83
fb23
fe06
05c8
0425
0430
fed7
fc1a
01fe
0764
fcf0
0475
00aa
0197
0024
fff7
0123
01f0
0103
fd1d
f8b8
fe2d
fcab
0109
fd56
0546
0605
fd19
0198
00d6
ffd3
fe1e
03da
fb7f
ffec
02a6
009f
feec
0179
fa1e
016a
fa47
010a
fdeb
03bf
04c9
004c
0526
ffab
03a0
ff2b
0579
fb41
0098
feca
0034
fd9b
0284
ffde
02a1
03d6
005d
00db
feaf
feec
01f7
02e2
0638
002e
fb23
fe5f
fd95
03e3
fcf8
0281
018c
01c2
011a
0383
fb8a
ff87
067e
035d
00db
01a0
fefd
02d0
fed8
fdce
ff99
025d
0221
fb27
0061
014f
063e
01db
