0468
0263
fcf6
0168
0275
0403
03f5
0481
04b2
fbd4
02b9
011e
fe14
fd91
fc14
01b4
02ad
ff38
fc85
ffd4
ffcc
026c
05d7
fdd5
02ff
ff7a
017a
0181
02a8
0018
019e
02ae
057d
fe25
024d
fca3
0251
01c6
02e7
0019
fe69
ff88
ffe4
00cb
f6d4
0194
ff3e
fdb2
01f7
0343
fe1a
0017
0055
006d
fdb0
0249
016a
fbe8
fb59
0252
feff
f93c
fdc4
064e
010a
f6b0
fc74
012b
01f5
fd88
0309
0222
02a8
fecb
0425
01d1
0106
fd1c
fb79
03a9
fb9e
0020
01f6
fcdd
fd03
00e0
ff65
fcfe
fc7e
ffa2
ffc6
0208
00a7
0365
fdae
0241
fcd7
0093
fde0
fc29
ff9d
ff8f
ff71
014d
0407
0315
fcc8
fe8d
fd1f
ff40
0282
fe97
0184
014d
fc1b
ffc5
04fa
fee7
035e
ffc3
feb3
ff81
f87e
01b1
ff42
ffc1
ff61
fc68
fca5
fe39
0570
ff11
0387
ffa5
02f4
fee2
02da
0185
014b
fb6d
05f3
fee3
02ae
0162
01df
0105
0323
02c1
0344
ffa5
fc75
fd07
016a
fff8
0253
0022
03ba
0288
0226
f8d5
00fb
feb9
068d
fa6f
febf
04ef
0177
048d
0983
007f
00a7
017b
057e
ff90
fc68
05a2
0598
ff84
0897
fe79
03fc
ff94
ff38
fde9
0003
ff66
00fb
0629
fe8a
fee0
ff15
013a
fc55
fd55
fd39
fe32
fbae
008e
021b
fce2
023d
fe7d
fe4b
f81a
0281
fe99
007f
fde2
0102
fa2d
010f
054b
fe11
fba2
fff6
fd55
019d
ffea
fc43
02ed
0039
ff34
061c
ff50
fdcb
ff63
0555
01cf
0465
016e
0300
fe6d
ff18
03fd
027d
0047
0021
02cc
0079
fe64
0069
0669
0286
fe41
030e
fe7c
fcfd
0315
00c2
0397
fb62
0165
fef2
fd99
0000
fe55
fece
fb35
0179
0258
fccd
03f9
fdd9
01ef
fdc3
ffe0
fd8f
00ec
0123
ffa7
023b
02d4
ffc3
0442
00ae
03dd
02c5
feb2
ffce
ff2f
0072
ff3e
0357
0011
ff38
fcc8
feaf
ff8f
0039
0006
fef6
ff4e
0740
01be
ff6f
04db
fde6
020b
ff76
0117
0603
fcef
faa3
fec4
fe42
fa76
febf
079e
037c
02f5
fae4
fefb
fec6
fe79
fc63
fe48
015a
f965
fb9b
f97d
ffe1
01b8
fbe4
fbda
0041
011e
046c
fe34
ff4b
ffa7
ffa3
fbae
fdd7
fd9f
00cb
0501
ff79
0215
fbb2
fd93
005f
026d
0622
fe39
fe12
fbd7
fb7d
fb1e
0313
0058
06d9
0667
02de
ff88
0204
ffb4
013c
064f
fbab
01ff
ff74
fdd6
01ce
001e
0069
033c
00ff
012e
fe32
057d
0124
fc37
0242
0496
04b1
feb9
018b
00ac
0621
0071
00e9
003e
021a
fc0d
018e
039a
002b
fbed
02d7
00dd
fe8e
fc2f
0228
0226
ff89
fff1
fc55
fdb2
0326
ffb2
03a6
fcc0
ff04
fc13
fee2
04da
fe42
01f3
fe49
fcc7
fd72
0251
0390
ff68
fd28
fed9
fa8b
0373
01f1
0147
019c
fd3d
0057
fae3
ffdd
029d
f92c
fdce
fefa
f5c7
f9d7
000a
0004
fdbd
0006
01fe
08fc
feb8
03cb
0318
0190
fd31
0257
ffd9
ff82
0101
fbd3
0612
057f
fe1e
fd88
01b4
0514
008e
01e3
0305
fe18
feb8
ff34
0405
ff7c
fe7c
0306
02af
02f3
009f
ff1d
fd08
fd2b
ff3d
fefd
fad3
fdf9
018a
ff8d
fdd3
fb9a
0163
02c0
ff8f
fce5
fc9b
f771
fd74
0342
02dd
0289
f94d
013d
f9fd
ff31
040e
fde1
fb14
ffc8
01f7
ffbd
fef5
fe1e
fd6c
0345
083d
ff6b
0403
0182
fead
feb4
faf2
026a
0368
fc06
fd52
f80c
0074
0118
fd7a
009e
fe95
0052
fc89
ffeb
0364
024b
0421
016b
0207
01c5
0669
0234
fb43
fe6f
ffd6
0325
fcbb
fdd6
fb00
fff6
0376
02ed
ff39
0434
ff00
00fa
fe36
fe4d
041f
0390
01dd
fea2
fb04
fd1b
005a
f7f2
0445
f9e0
ff94
ff72
ffce
fb6b
00a4
0035
0061
0099
fcbe
0399
00c7
0045
0243
01b8
00a6
fc39
01df
fbf0
0618
ff57
fe0d
00fd
ff86
0145
0200
ffea
fcc7
ffcf
027f
01b6
0096
ffbc
fd70
fc8f
02d0
fe20
fec0
00f1
00e3
07cd
006e
0126
00de
05ae
018e
fad2
00e9
02fb
fc6a
faa6
0393
ffe4
03f4
02af
0345
00e2
fc18
ff5b
fa68
fd5f
ff9f
0136
fdef
fdd9
ff7b
01f1
fb89
ffc5
f9c8
0117
03ed
fc08
ff4a
ffff
01e6
fef4
ffa3
0599
fe6c
fe5c
fce1
fd84
fe9d
fd4c
ffd0
fd5f
fab2
fe80
fda6
feeb
00e1
01cb
0555
f96b
028a
0144
098a
fabd
ffe7
f7ad
0244
0322
ff1d
0339
ffc7
0649
fd77
ffaf
015d
04f0
009c
024d
013b
0092
ff34
fe16
fd26
0306
fea9
0119
fea4
ff7b
ff7a
0305
ff93
0544
fcb8
00bd
014d
fccc
009e
f784
0082
fc45
01fd
0069
fe3b
02a1
02da
0085
fb63
fedb
fcf8
01ee
fb64
fe3e
ff88
02e4
ff5b
fcaa
007d
01f8
fb70
ff0d
03a6
fd09
fe5d
fd93
faa1
020d
0115
01d3
02c3
0560
08d4
0328
0442
00ff
017e
fd50
04b2
0354
fad2
026f
f952
fb92
f981
055c
faf2
fd5d
fd7d
013e
fb0b
0141
fc00
0226
fe68
0377
fa31
0805
01b1
fed1
fe46
0237
ff09
fc9f
fd98
fa6f
ffff
ffc6
fd38
0385
018b
038c
0149
002b
0058
000a
046e
016d
fc22
ffc1
0310
0085
0434
ff3e
0051
fdb6
00d7
0139
f96e
fb7c
0372
00c7
ff63
fea5
f999
ff4e
092d
