fdae
0332
04a7
feaf
fe22
0108
ffac
036a
fff2
01f8
0003
fc22
fcd5
fb42
fb19
fc10
fab2
ffb8
069f
ffff
ff0d
00ca
ffab
0984
0792
017c
061d
fba6
fcde
fa4b
fdbf
fa31
ff5d
055a
fdb6
fb81
059b
043a
f9e0
0089
fe1b
fe83
00c0
0160
fc1d
0178
fdfa
0436
ff20
ff73
fbf6
fe3b
fe14
01d6
02d4
fd11
ff4c
fa83
0109
0043
fcdc
04f2
fecf
038e
fb09
f9d3
034d
fe2c
0101
f810
fc69
fd03
fd5b
fcb8
fc35
00df
fc35
fd78
fe2b
ff05
0028
0483
fdeb
0361
fdd8
01f2
0185
0221
fd25
0231
0129
fcba
fb88
01e0
0160
0181
015d
0063
feb2
0092
04f4
0033
fea6
0331
0798
039e
fe6e
023e
03a4
feb5
fd3d
fd13
035e
fd0d
0439
f8e2
0213
0004
04d2
087f
f783
0112
028e
fdcf
ff13
fd29
ff16
ff92
ff1f
0209
fcd6
019a
006a
fcf6
fb9f
0297
fb4f
fd7f
0688
001b
00b7
01a8
0123
fb8b
0291
032a
fe41
ff65
fe02
0413
fcbe
02b9
0697
f8ed
0107
fec6
ffbd
0590
fb2b
06ab
faff
febb
05bd
f8ff
faf2
0048
fd4f
fe2d
0698
fe30
fef5
fea0
04ae
fd53
0147
ff89
fce0
ffbb
fd38
05bb
033c
fc16
fe81
00cf
f9dc
0081
0613
02d2
00ac
02b0
0446
0370
0831
fff5
05f1
0180
008e
02ec
fdff
fe15
0255
fee2
fe62
023c
fc03
fc31
007d
ff77
fd55
0238
0159
00b6
fdf0
fd31
0557
00f2
fc98
fc62
0127
fed2
0814
ffad
0355
fd5f
0b88
fd7a
0410
fd73
fb3e
0118
fbbc
fde8
037a
fbb8
00ce
07a5
03e2
ffd6
0445
05ea
0641
0356
0076
fe45
026f
ff47
ffaa
0440
001f
0592
f88e
f8f6
fbce
fc65
03e8
06a8
03aa
ff32
fe2b
fbee
063a
043d
ffe9
0132
ff13
fc25
012e
0166
01ae
02a3
01cf
ff19
fc35
01fb
fe7a
fcad
0003
011d
01b0
f35e
feda
fcad
0472
02f6
f8e7
ff89
fc0f
0198
fdd2
012f
ff86
fe50
fa29
0190
fdcb
00e4
0077
fd88
0606
fc83
fd3a
fb86
fbed
faf6
05a3
fc16
ff90
fbda
0040
f9e2
0179
00e5
f792
fe7e
039b
0022
043c
fcbe
0319
0189
feee
020c
fe85
fdd1
00f0
00c5
ffcc
0649
02a8
01d7
f87d
012a
fed0
00f6
fc15
051a
fdfd
014f
028f
00bc
03da
fc2e
f98c
0156
009e
0303
f5cc
0053
0621
fe32
00e4
fd93
0116
fdd0
00e2
035d
fed6
fcf6
007d
fb06
fd2e
00ad
020c
019c
0090
fcf4
0425
fcfe
feff
07ea
0314
0322
fff3
01c7
02af
019c
fec8
fee7
fcf0
006a
fe40
00da
05be
0280
00fd
fc6a
fea1
ff66
fe21
ff93
015b
fdab
fe76
fc3a
f997
061c
fc57
ff35
0239
fb6b
fa59
fcbe
fe4d
fd1d
fdc4
f9a1
004e
ff7e
0242
03f2
ff9f
0551
feba
0185
ff8c
feb2
fded
0423
ff0b
f8a6
fac8
fe6f
ff3e
fcd1
ffb7
febb
fe72
fdce
03d2
fcde
019f
00a2
fa97
006c
fd88
fdb3
00e1
00f2
01ff
0429
f682
0018
0453
0147
00bc
fe65
fbfb
010d
07e7
feb8
fd7d
0394
041f
fd52
fd0d
03d4
fee8
fdcf
f9f2
01b0
008a
fe2a
ff9f
fbcc
01b9
0229
fbfd
ffe8
ff3c
03aa
0b57
ffb4
0025
0309
fcbb
fb88
005b
ff1f
fcda
0233
049f
ff64
fe47
04e0
037e
fe1e
0413
ffaa
0418
0464
040d
04b5
007b
0092
017d
011a
fee3
fdb3
f93e
0925
019a
025a
ff75
fd3e
056c
024f
fcc1
04f2
0463
ff19
ff0a
0175
01d7
02a9
fcac
fd19
0030
fc7c
ffe5
ff08
fe61
0036
fc46
fda6
fbc0
ff23
fbb9
030c
0178
fea3
fbc7
033c
0133
0306
fe85
fc36
fbb6
ff5b
01a0
05ef
feba
ff38
0218
02aa
ffe9
0391
0009
0374
0184
fe45
0143
00c1
006c
05d6
fbf7
0006
0139
fca5
0274
fd17
0345
06b5
fec1
022f
0031
0296
06ca
fc46
fe74
00d9
ff84
037c
05f4
fef4
0473
00bf
fc1f
fed8
0304
00df
fe37
fe28
ff62
fdaf
0038
fe4d
0504
048d
fb2c
fb70
feb5
05dc
fab7
030e
00a5
fb1e
ff03
ffa7
046c
00c8
06a9
0026
ff76
fe66
ffa7
fa1c
fd3f
fe13
02cc
0443
f8ea
041d
051a
04e1
0280
01e9
fe79
0200
02f5
0611
00cd
fc25
fe66
0339
fe97
0284
01fe
fd1a
0092
fcb5
fdef
0278
0325
fee3
00ea
fc40
0665
001a
0619
fe75
fb73
0043
00d9
fd14
034b
fc2f
ff24
ffb7
0003
024c
018b
ffd2
012f
05ad
0246
ff62
fb2b
0301
015a
0422
fef4
0127
fd1a
022f
fcee
fefc
0297
017f
0198
0151
ffe3
fffe
0000
0012
ff6c
fedb
004b
fbc8
f803
02ff
02a2
ff6a
01e3
0483
04f5
fff2
012a
ff00
fc5d
0871
0410
015f
0593
01be
fba2
fd07
fd39
0148
fbba
047a
00cd
0349
fe37
fc89
fc75
014b
fce5
01e7
06ee
0701
ffe7
0192
0419
ff63
01ad
fb9f
fd47
fc9b
023a
0124
013f
fe4d
ffeb
0077
0019
02cc
00fe
fed1
0288
0393
fe9b
038b
030b
fb36
fe5c
fbf0
0899
ff0b
ff39
ff9c
02d3
ffda
03cd
006c
ffc3
0025
000e
fe4a
04d2
ff57
ff8d
04dd
fa8b
01e2
0687
029b
f7e6
02ab
fb90
03ab
034e
fc5a
0408
009c
0066
fba9
03dd
fcff
fe39
fc17
020d
0202
f8e0
01d5
0437
009e
000e
03ba
0252
ff62
0535
01f7
03f5
011a
