01db
fb64
0172
fe13
0036
ff09
029f
f865
02da
02b1
fdc9
ffb4
03fa
0774
0230
0187
fe08
fba5
ff33
0390
ffb2
0216
fc9b
00e2
ff6c
fcaf
00f7
0265
ff71
fbdb
05ff
06c5
0001
fc80
0240
fbfc
fd94
fe75
0018
fce1
02c7
046f
0414
02b2
fd86
02f4
0167
01dd
01a3
00c0
fc72
fc49
fed2
004e
0000
00e1
fe29
ffd4
fbc5
016e
00e9
fc50
fd56
fecf
ff10
f957
fb53
0416
fbb0
fb66
0616
faf4
fec7
0171
043b
00aa
fc03
0234
0186
fb3c
fc80
07e6
01ab
0291
04ec
03eb
00d9
014d
052a
0052
fe94
0341
0505
fedd
04d6
02f7
ffd2
006a
ff1d
01f0
0460
04ff
fd15
fced
ffaa
021f
0129
fc69
0226
feb2
0119
fc41
00e9
fd7f
fe5a
ff74
01d7
0293
00a5
018b
019f
fdc0
fd57
fdb4
fd53
ff3f
fe50
fc26
046a
fbdb
0538
0429
fc3b
fb4f
ff79
025a
026e
0020
feff
047a
0618
0327
047d
fc3e
fb20
fa76
fc17
0365
046c
fd26
ff86
0363
0498
009d
fd07
0145
04ed
04c9
ff28
01ed
fc36
fd8e
fd33
01ad
fb12
0217
00ce
008f
0310
fdc8
fcba
feff
0276
012b
0052
ff77
033d
febf
00d2
0148
ff50
ff9b
01a3
fbf0
029e
01fc
0503
0270
03da
026c
024b
fd12
04c5
03d6
fcc4
0289
0408
fd5d
0042
ff28
0361
fe30
fec7
fde7
018b
fff1
fd09
00b6
fd30
fa48
007e
0286
fa83
026f
fcbe
f93e
0434
0636
072d
0386
007a
faa6
fe38
01e2
0451
ffeb
fa46
0312
00e6
faf4
fb0b
019a
fe8a
01c4
0189
01f8
02db
ff63
00ee
0343
ff7e
0095
fd37
007f
ffb5
0015
038a
fef0
01b4
00ec
fb7c
f813
0663
fed3
fe67
0475
0052
ff46
016a
ff62
02e1
fc59
fe2a
ffe1
019f
fcf4
fee4
fbd1
0697
f84c
fc67
0453
ffca
fc7b
0228
0632
01d1
0118
fb01
0128
0404
ff4b
fed6
055f
fc73
00fa
0414
fdb2
ff5c
0253
03d7
ff13
02ce
fe6e
01ae
fc81
fe1e
ffc6
fddb
fce4
fcb9
fbcf
0179
05cc
0165
05d9
fbde
0063
0322
049e
070b
ffb9
fe83
ffa1
007c
ff52
fdcb
ffce
fdea
fe40
01c5
fcc2
043a
fddb
fece
044c
069f
fe8b
0177
ffdb
fd52
ff24
0520
044e
0071
fd28
fecb
00a1
04d8
003a
04b5
03f5
00f9
ffa5
05d3
003b
fe4d
fec7
00f5
008e
fe9c
0118
fca0
0035
01a5
fe67
fccb
fba6
0311
faf2
009d
fc8e
0416
fe4e
fe4a
0066
0603
fee1
fd4c
ff23
02cb
04c2
ff78
0030
00a6
fecb
0194
04ee
0138
ffab
fff4
0208
002b
054f
0098
0375
03ea
ff9b
ff88
0134
0306
fec7
03ea
fdb7
fd2c
feca
05a4
0098
0174
00d8
f8e7
0127
010f
0294
0029
fc40
f99b
00e9
fc65
fec6
ff4d
00be
fcb9
04bb
fec4
01e4
02e4
0102
ff74
028a
00d1
ff1d
f8fb
fc54
007c
fad0
00f4
067f
04a1
fe95
fda0
03ef
018f
fe3d
0162
0185
0204
04f1
0266
fe14
fd84
01b5
0312
fffb
ffff
01b7
00c8
003b
099a
03e4
0253
fc5f
feeb
fd1f
0452
fb8a
fe15
015e
ff56
02fe
fe84
f9d4
fcab
016b
ff07
02bb
fd52
fb56
ff39
fd73
fbe4
fb25
05ba
fee2
0138
017d
0032
02b2
0069
fe75
0071
ff6a
045f
fddf
ff74
0119
fa27
028c
fe77
00ce
fd61
fc55
002f
fdf1
0474
0443
fd7b
ff7f
02a6
ff94
fe76
010e
fc72
fdbf
fc88
fb8a
fbc8
fd30
0092
fa97
017f
0030
fbe9
fd6e
ff80
016f
f98a
fe3d
fe02
0335
004d
feeb
0299
0152
ffb8
0667
0138
fffb
fdfe
ff87
fc3a
01fc
02d9
0088
03ee
0185
0109
fff1
02c0
0149
fff5
fcd2
fd01
fdda
fdfa
0133
ff1c
0276
011b
03ee
0054
0211
fdd7
077c
ffeb
fe76
ff44
0015
027b
fa62
fb96
03ea
fd41
005f
03a8
01f5
feb4
feb5
fbe1
0263
01af
007b
02a3
fed1
0545
0331
012f
fef4
01cf
fea7
fe0e
fa32
fbeb
01e8
fea4
ff39
fe44
0595
fca1
fe19
fdfd
0202
fd86
01ef
04bb
fc69
f9ed
fdd1
fece
fecb
feb9
fc01
fed4
fc1b
ff21
fd91
0229
0441
04c4
fd8f
fcfe
0165
f81d
fdcf
0440
fe3e
0197
01da
ffc2
fce7
ffcb
0178
001c
f94f
fef3
0189
ffbe
0398
fb38
0110
02e3
01ff
002d
0390
01bf
04e0
0228
ffb1
ff39
fea8
032c
04c4
ff90
034d
08b1
0287
fec7
ffb9
fd69
04dc
ff44
01bc
fdd5
fed9
fe06
02fd
fbcb
feac
0126
00e3
00e3
fcbe
03ee
fcbe
05f9
00cd
0500
fca9
ff91
00f1
0063
fe3f
0617
0052
fa46
00d5
ff91
f8dc
fef8
0072
ff38
02c0
fefd
00ed
fca6
fe68
fcd5
0297
059f
fad4
035c
016f
0369
ffec
fdc8
feb3
0001
02da
ff1b
0159
fac4
00fd
fdc4
ff2c
ff50
01ca
fc44
015a
0288
faf5
fd8c
ffd6
feca
fe86
0143
ffc7
ffa1
0570
fc68
fc4e
ff7f
fdcc
ffa4
fe13
fdf2
0298
ffb5
ff43
fe30
0216
fc27
0253
03ed
009c
000b
ff67
ff1c
feaa
016d
fe69
024d
024e
fe65
f9f8
fbca
0008
015a
0757
01c5
ffba
0277
03b3
fbdc
012b
05ec
fb5c
fe5f
02ee
01e6
fce4
fdf6
014e
034f
028b
fe67
00ba
04ba
fbbe
fe3c
017b
00fa
fcec
024e
01f4
00ed
fbe6
febb
034e
0163
027e
fa77
fd4b
fc4a
053a
