02ed
03da
040d
fccf
fe52
fd98
ff7b
fe98
028a
ff5d
fbc2
047a
005c
0179
018c
027e
ffcb
0448
0055
0028
ffbc
feb1
01c2
0145
019a
ff11
00bd
0406
fffe
fded
0525
ff68
0205
fdee
03e0
0111
fe28
ff9c
fe58
004c
ff0b
fc9d
fec6
fde2
fd3f
fec2
01b7
07f8
046a
0154
fe43
0189
004c
0618
fbbc
ffad
009f
0491
fe0a
fe83
fbc9
00bc
0230
00f7
ff95
ffa2
03a2
0394
0059
034f
f9e8
fa83
ffa7
0425
030c
01f8
fd12
fbde
fec1
ff04
012c
fe67
fdba
0204
fd2e
0381
0099
0318
00d7
ff53
facf
fcb5
fb10
fc78
fce0
0632
0216
0249
ff67
fe37
022a
ff88
010e
fd54
fef3
0461
fc55
fe16
02d6
fbbf
ff84
fd04
008a
0319
0530
0305
0067
013f
fb97
fdfd
ff9c
fde5
ff29
031c
03a7
fd25
fe54
fff2
03d8
0142
04c2
0080
0081
0451
0198
fa18
028a
015a
0064
fd27
00f0
fc46
0377
fcb3
0420
ffd2
ffe1
fe3f
01d5
05da
02e1
fdcc
00c1
0110
fe6b
fcd8
0521
00f2
0052
feef
05ba
0625
ffa1
024b
fe97
fc4d
f971
0640
0360
fd41
ffb4
06ac
fe86
015a
014c
0280
fac3
fce5
0145
fd00
feba
fee6
008a
03c3
03be
ffae
090a
02c8
001a
065f
010d
fd21
015a
024c
f8ee
029e
fef6
ff1a
01e7
0550
ffb2
0053
0356
098a
0088
fe11
0282
0151
fe90
01b9
0154
002f
005e
f5da
0066
fd20
feaa
0590
010b
0394
01da
01b5
fbce
0069
0591
0417
fcd6
fc69
fc49
0069
01bc
fdfc
fdd3
fe06
ff93
fdcd
ffb8
fd96
ff3a
fda5
0162
04da
fe69
005a
ff2e
014a
fd80
03dc
fee8
fec5
00dd
ff3f
ff41
fd9f
0565
fcf5
0205
fe11
fc9a
0110
04d1
037b
04fb
fe90
fc14
005a
fcc8
02a0
00fa
fc42
009c
02ec
0151
fec8
ff13
06be
fb99
0452
fdda
02e5
fc9d
fe8a
fea0
0155
0148
fdc3
ff8d
ff59
ff68
fcac
fe21
ff8b
019c
ff4b
07a7
fed0
0550
01a4
02a1
0091
fc28
ffc8
fe99
fc54
fc54
fdb5
0042
045b
03d4
04bf
055d
fcb0
fc3a
0203
fc2d
fd5a
ff28
fcec
fc4f
058e
ff5b
0165
0221
fe25
0163
fdbb
fcc3
fdfd
003f
02da
009a
ff15
028a
ffb7
00c2
01bc
fd03
fe98
02a6
fb35
fd7b
f74f
ff51
00f4
03b6
fe01
ff7b
fe90
fd96
024c
fe59
fbfb
fdba
fe04
ff3f
04ea
fe19
ffe0
0064
ff94
fd89
fefe
008e
00cd
013b
039e
f980
0056
0064
fd48
0164
ff4c
fe61
ffa5
fa5e
03a4
02b0
fb53
ff36
ffb6
0340
fd31
fe1d
f8c2
ff0d
00f7
03e4
045c
fa36
00b1
fe44
004e
02ad
0449
0036
00b3
fb69
fe98
0648
0171
070a
fd1b
0407
02af
02e3
0022
f9c1
0306
fddb
0233
0121
0363
ff83
fe3b
0270
0189
0069
ff5f
ff5f
fee6
fe82
fa42
f987
ff34
060e
fe80
f8a3
feff
012d
fbc1
fd02
fea5
03c5
fca7
020b
027b
fa8e
ff79
0065
ffc9
fc9a
0017
fd9a
fde9
00ff
ff42
016c
fe0c
fd5f
0357
ffaf
fe0d
0035
fa03
05e3
02cb
031b
fcb6
fe06
0023
ff80
fcaa
0246
fff3
02cd
fe3c
fe9f
fedd
02ae
08a1
013f
0592
fadb
008f
04a5
0214
017f
021d
00d5
0053
00fe
fbb6
ff88
01c1
01de
ffe3
fd96
fc6d
fe1b
fee8
ffb3
0055
01ec
fdc7
015e
ff69
fe0a
01fe
013b
04d6
fd25
fff2
fd54
028e
0077
045e
fc71
f8ca
0297
0221
00bb
041b
0251
017e
0345
0252
01a0
ff77
fae0
fcab
fb62
fccd
fcd3
fbf5
0061
02ae
018e
fc35
033d
ff33
0245
024e
0227
ffca
fdfa
ff40
ff46
00c6
ffa8
03bf
03a6
050f
0151
ff7c
ff72
fe81
02b3
fe86
fa49
0177
fde4
003f
fcb0
015f
fe4f
0206
ff25
027c
fcb2
0520
fdc1
0099
fd37
fd63
0341
0089
00f1
0020
00aa
01ad
0166
ffda
0039
fe71
fae6
0090
03bb
0426
0133
fb9a
0226
fbbc
0310
ffc5
fe08
069a
0240
fe24
fe35
fcdf
ff42
ff8b
fe69
ffd7
0240
015a
0127
fca6
fa57
fcc2
fb5b
04f0
004f
f83e
01b2
fd30
ffef
ffe2
01e7
03ef
fc43
fd9c
fdfe
ff80
01f8
fe47
024f
ff8a
0043
ff5a
0133
fdcc
fff3
ff86
0109
055c
fe8a
02a2
027c
02b8
059b
fb43
01d0
0842
fe59
fb68
fec0
025d
05cb
03c7
fe04
052b
03a8
0023
fe86
ff9c
060a
fcde
fd58
fdda
04c1
0134
037d
056d
0232
ff8f
03da
018d
05ee
0129
fffa
03a1
fee3
feac
ff1c
029e
fbbd
066c
f7c1
003b
01ad
fc4e
02c0
00bc
fcab
016c
05c2
017d
fcf9
055e
fe35
ff67
03d9
fe82
fef7
0572
007b
f9eb
f66c
feca
0110
01e7
ffc6
ff19
030b
fee6
fc4d
fdb5
01e5
00aa
fe3d
fd4f
09ee
0438
02f4
fd55
05e0
fedd
fe99
036b
ff0c
0089
02d4
fc81
fdf7
055e
01c5
00f4
fb3f
01a9
0535
fef8
fdc7
0007
fc02
02ca
fcd1
0172
ff6b
0136
0087
fb52
fe4a
fd38
ff4c
fce0
03b3
fd73
fd55
0345
fea9
fba9
0703
008e
fc65
fcc6
026a
fe00
fdb3
02b3
feb5
037a
ffe7
fc41
04ab
fdb4
01a7
0006
ff84
02ef
04d4
fdb7
fc62
01b8
fc83
ff38
fefd
05c6
ff9a
0541
fa5e
04ae
fa95
00ac
0178
ff49
0758
06bc
01d0
0569
0005
0292
fe41
f94a
