01e5
fe34
0064
031d
0073
0393
0143
0344
fea9
0401
02dc
058e
02a1
06e3
0268
ff11
ff18
065b
fc57
0085
ffa5
0474
fee5
fce9
ff1f
fdbd
00c1
0334
fe60
feda
0111
009a
04ed
fb17
035d
03a9
0502
fee4
0626
fd03
02df
fecf
ff4b
019c
feb1
fb6e
fb64
01bb
fd47
fde9
015e
0039
0617
f7f1
0097
ff6e
ffb1
f755
02b8
0390
0274
ffa8
0196
fedf
ffae
0326
01b3
fd13
0015
fef0
ffdd
01e2
01b9
03bd
016b
0109
fe9a
fd66
042b
0284
fda7
02eb
02a1
00b8
fdec
f9f8
01a9
03f3
0531
02f6
fc91
fdcb
fc2e
fe1c
015e
ff25
008b
ff1b
fe83
0348
01f6
ffde
fd8f
0396
0027
01dd
02b1
fec3
0163
fd2a
fbc1
f83f
0049
014a
fd04
fcf0
0562
00e3
fde7
fc1b
feba
fe9c
fe76
fe3a
fca0
0121
fe59
0386
fe12
01a2
03de
0018
fd95
ff4a
044d
ff8d
fd3c
0127
01e6
053e
fbd1
ff82
0438
fdd6
05d8
fd67
fce3
fd3e
01eb
0456
01de
fa29
ff55
0319
0290
01ab
f8f0
00fd
fe7f
0524
fc26
01a8
039d
fc33
014b
fdbc
03b1
0165
014a
fafe
ff07
ff9a
ffc9
fe6e
fde8
ffbd
fe0a
0520
ffe3
01e6
0366
0543
040b
fed8
05f6
003e
fe5d
0131
fef0
016a
03bc
00d5
f7e5
081c
ffec
fd02
fc81
0242
ffe9
fbf3
fb40
fb00
01d9
fd6c
023d
fc31
0394
fd9f
0671
fdee
ff15
03e7
fecb
00cc
02e4
fcaa
ffcb
f9ab
fefe
fa62
febb
0064
fe2c
0011
fdd9
0283
012d
fb68
fc8c
fbff
fff5
faab
036e
02d8
fc51
0222
ff7c
ffac
0515
01b8
fb98
faf2
ff4a
fc62
0249
fb20
0254
feed
03de
f8f3
ff22
fc0e
fd50
ffd2
02ab
ffbf
feaa
fc52
0568
029e
057d
03b7
02dd
ff06
0683
fda9
0321
fdca
ff34
fef3
ffac
fce3
ff85
0108
00b4
025b
0003
03f3
0115
02e7
fef1
0059
ff8a
fc5f
025e
02c0
fcd5
0033
0541
fe12
fd3e
01a4
0055
067b
ff90
fe75
02bb
0189
fd31
ff08
02ef
01f1
00e7
fbad
0266
fcc7
fee0
00b8
011e
01f8
017e
04b8
f8f8
04da
faeb
04d0
0038
ffbd
01dd
01c8
fba7
04fb
0027
04be
fd90
0324
fd81
0521
0423
04f0
03c8
ffa5
ff29
f7fa
fbf9
0520
00ab
052d
008b
01b6
fe18
014b
ff49
02f2
f9d2
0163
ff57
00cb
fdc3
fca6
ff1a
05d3
012e
01c7
ff97
ffa0
fe27
fd06
01b6
fffd
fed2
02b8
02cc
038d
06a7
02a4
fd69
fab9
0225
0134
fb70
02ca
fd77
03ab
0378
fa86
0198
0212
fdc6
fdf7
fdba
ffb6
004c
fb63
fded
f968
fce8
fbe3
fd5a
fd77
02d1
00c5
046f
ffc9
fa65
03b2
091d
0572
0064
fb6a
fec3
fd67
0083
0271
009e
0241
0228
fd98
06d8
faad
045f
f9b0
0178
fedb
00ef
fd34
f97e
ff9c
01b0
f853
f9e4
fef7
fc62
0692
fef0
0054
fdea
017f
05b4
0029
02e9
01dc
ffb6
ff39
0052
fdc7
f9d8
0279
01bb
fe23
fbfd
fe69
0407
02ac
00b5
fed3
0acd
0059
0233
ff0e
041a
fe34
0169
ff19
026b
fec8
fc4b
fb27
0403
012b
03a5
fae3
0080
fcd9
fc70
fc54
fe8d
0008
fb9e
0671
fc7e
f982
03b7
ff59
0464
fd07
fd52
010c
ffe4
01cc
fc9d
fcec
0460
ffa6
04ca
0100
0536
02b9
002b
ffd8
0131
013e
feed
f8aa
0118
0201
ff9a
f8e0
ff3a
006c
fed5
0594
fe8a
ff72
00b7
fbbb
04b2
ffa5
fcef
0128
08e8
0076
fe0c
001e
fee1
f696
faad
0333
feb3
0278
ff62
02e5
ff68
ff9f
fedc
0375
fc75
0130
047f
ff2b
01af
05ef
0188
0099
fee5
0315
fe9a
0106
fdcf
009e
03a4
ff83
0219
04a4
facf
03f3
fd15
ff78
fd22
042a
021b
034d
00fb
ff7b
0025
03ea
ff99
fa5a
00e3
fec5
ffca
fcb9
fec3
fe4a
fe15
ffe5
010f
feb1
038c
0325
0448
fc5c
fdcf
03f5
0424
0338
0147
f87e
fe99
fcfe
002c
01f7
f9cc
fece
fce4
0afc
0021
ff39
fc10
fefa
fbc1
000c
03e8
0069
fb43
fe5c
02eb
0040
fe3a
06e2
ff75
fed8
02ba
0424
0162
f9bf
00bc
0073
02ad
f919
fda6
02ab
0242
0020
0469
01dd
006b
068b
ffbe
ff4f
01f5
02ce
ff5f
fd7f
00ff
0588
f8ca
001f
ffbf
011f
ffa5
0149
0202
01a3
0098
fd2c
ffc2
0582
fe83
04fa
02de
fe76
008c
fbf7
fe1b
007c
0057
fe21
00b9
0172
037e
01d6
0214
fcf8
fada
04ee
00d1
fb7e
006f
fc25
04ac
fb87
004b
ff52
fda8
02de
fd24
fd02
0101
fce5
00aa
ffce
003f
017c
01ae
01a1
fb68
01bd
001a
0061
f7ef
0088
00e8
fc82
0396
fb2a
00cc
0295
f9b0
069c
f8c6
00e7
03d5
038d
01c1
fe63
003c
fc7f
fef3
002b
0175
ff1a
0152
026b
0345
027b
014f
fd67
0337
fb3f
03aa
fc00
0120
0179
fa9c
0417
fd6c
fee6
03af
fd0a
004e
ffec
0353
0217
fdfe
0572
070c
ff0d
fdfb
feed
fd2f
000a
ffa7
fd7e
ffb4
fc91
004c
03ab
0033
021d
0573
00d3
017f
01b0
02c7
fd26
03ea
02af
fb28
0084
0582
fb5e
fd1e
0114
fa34
ffb5
0173
0103
01fe
04b7
fe1a
fa99
fd9f
fe95
0153
00c0
fc6f
0177
fed9
faed
ff9f
fd80
ffb1
0233
0131
031e
0139
ffa8
ffa0
04a4
057b
ff97
044b
026b
