fd93
003d
03bf
ff34
fa90
fdc1
020b
fd9a
0045
fd0f
fdc2
00b3
022c
fadc
0026
02d8
fc2d
0254
fa99
fc87
fcd2
fe74
009a
fe7e
fc5a
0016
fbad
fd7f
fef7
00c0
ffcf
ff4b
fd35
ff67
0059
0448
fcc9
010c
02c6
0204
fd81
01e9
0343
0003
016f
fe03
03e2
04c0
ff1b
fe48
fea5
ffc6
03ab
0038
fe87
fca4
0301
ffe8
fe2a
ff3b
0354
00c4
fd67
0434
fd58
03d9
fcbf
00ad
fc50
fcec
ff60
00af
fedc
01ee
fd18
0030
06ec
f909
0307
0015
ffc0
01d0
036b
fd6a
fdd1
fdde
fe94
fe8c
fff7
0389
fd8a
012f
fc66
03fa
ffe0
0196
fe92
fdae
fedb
f836
ff40
ff05
062d
0304
ff9d
fc66
ff0b
fcfc
fb3c
ff72
fb74
ff94
0257
ff0b
0017
fb3e
026a
f9ec
0445
0234
0183
001f
f9ef
03f8
02d9
02a8
fdbb
ff7f
0079
fe46
fd4d
07d2
fd74
030f
fc80
00a5
fe90
0266
ff1c
fe0f
fb31
0108
fe84
fe7d
0657
04da
ffbe
025f
fda7
ff03
fd10
0158
057c
fd59
00e5
faba
ffe1
fe85
032d
036d
023f
fd6c
0223
ffa1
0893
fdd7
fa94
fd31
00ce
0047
fe1e
0226
fe6c
fc6e
fd2e
0233
02dc
fde1
0757
fd74
0440
ffd0
02c6
f95d
0177
fc06
fe7d
01b8
0025
fdcc
fa7a
f9da
0067
f895
085f
fd88
fc4e
fc75
02e6
029e
fd0a
0026
0031
013e
0311
0418
fd1c
015f
0536
04bd
fc57
ffdb
fd48
0013
ffd6
0287
f838
024d
f9fe
026f
ff88
ffd3
0421
045e
036b
ff2c
ff90
028e
046b
ff9c
0199
00e3
04c2
fe87
0410
feb5
04e5
fe43
004e
fc9f
ffba
00e7
0483
fc82
01bc
ff15
ff4e
fea5
04df
fd61
fa81
0155
0594
fd93
043a
0078
fead
ff31
0876
00b8
0111
02e0
00c6
fd3e
0015
06df
fd2c
03ae
04c9
fe79
0439
05d8
030f
fc79
faa2
fc2e
fa8f
00c3
004c
0280
0082
0067
0334
feb3
02f8
ff3c
febf
0023
fd5b
fe2c
05fc
03a2
fefd
000f
fd0a
fc78
0089
fd3f
fb81
008e
02db
022f
0065
03bf
fe39
f937
010e
0024
ff88
fd55
fd22
033d
0124
0736
033d
fb3a
013b
025a
004a
fbe5
0077
faec
ffa5
028d
00c1
03b9
0505
ff0f
00f5
0259
fb29
ffee
00bb
01a7
fca6
06a1
01ce
01e5
0019
fe32
fb65
febd
0018
0074
fc0d
fbb2
fbf8
0784
03fd
0458
0436
fdd2
0678
02bc
04a5
ffd1
024e
fc73
fc8b
00c7
02f1
00f1
fb25
0367
05d4
03b2
0023
fec5
0332
fbc4
fd7a
fc74
01b9
0102
00e3
0115
042e
0019
00f3
fdf5
002e
0183
ff0e
0276
0019
05a0
027f
fecd
ff32
fd16
fe57
04c9
fed6
ffe9
fd1b
0157
fcb5
fef5
fa0a
ffc9
0452
0680
050e
fede
fd11
0836
031b
fc6f
0007
f858
030b
049c
0087
01c5
0264
034c
feb0
ff7d
fec7
fd70
047b
0378
fe3a
fc05
004f
fd36
02b0
fc5f
ffa0
fdf3
ff21
0232
fd8a
fd64
00f9
ffcc
0716
044b
01ea
fecb
01d1
00c1
016d
fe69
05ce
03f7
02f1
fd1b
ff4d
03fe
0311
02d6
fdee
fe5e
028b
066a
ffac
fe54
0152
00a8
fe9a
004a
fdd0
ffc5
0574
fe40
fda6
032f
ffaf
006f
fb8e
ff96
016e
0199
014f
04bd
fee3
04ac
fde2
faad
0170
fdb3
00d8
003d
ffd6
01cf
0474
fcd7
fdad
03ad
febd
fbfc
0521
fd78
faa0
fed0
fd20
003a
0309
0413
0474
fe8a
fa38
0373
fca8
0301
fb1a
f8cf
04e5
ff68
07c3
fe22
fb6d
fe7c
feb0
fc97
00e5
fda6
fd85
fe54
feae
fea7
034e
03c3
ffe3
0307
fdae
0261
0031
fb4c
0217
0204
ffb6
f9ca
f94f
fc53
0327
faf9
fe8a
06af
0127
fdd4
fb6d
ff8a
03a4
0613
040a
fc55
01a5
03ff
025f
02c4
faa1
002a
00ff
fe4f
fe86
fb73
ff49
fc8c
ffee
04d4
047f
ff90
ffc3
0284
071f
fd3e
fdd0
053a
ff44
02a6
03c1
0429
fe5c
fe82
fe6f
03c2
018d
02c6
040b
00ca
0181
ff5d
f76a
021b
04a3
f9e4
0374
018a
05d8
f8b7
0117
fe85
0196
ff79
ffc4
025a
0664
fddc
fe2a
ffe9
fd29
fec6
032c
fd6a
fd67
ffbb
012c
fd80
0172
01ad
fcfd
febf
00c2
00f4
0098
0386
01c1
fdc9
fbef
fede
030d
004f
040c
fd35
0293
fde8
0254
0258
0142
00b8
0239
0063
017f
0623
03ac
fed2
0110
fb77
05c5
0528
fc1a
ffd3
fd19
faad
f9c2
05fd
0305
009a
fe12
04dc
0249
0321
ff9a
0222
001f
fb64
027b
03e0
0300
fbf4
fd5b
ff3e
0159
fe75
05a6
049a
fd93
fece
f763
ff55
0010
00f9
fad7
008f
034c
0469
052d
ff27
ff10
ff9e
04c5
fdbb
01dd
ffa5
018d
003b
00d3
0252
0096
ff41
0628
fc5e
0564
fdbb
0214
0538
00b2
007a
fdf7
ffb2
00d9
fd36
fe2a
03ec
fd41
fbb8
028d
ffb2
0062
0291
002d
feb8
0350
ff4b
fa2e
02a3
01c7
03a5
fd0e
02fa
fee3
fede
f9f3
0200
fff0
fc7c
fdaf
fbfd
ff22
fc57
08a0
013a
fc42
021e
ff90
05a4
f9f5
04bb
0003
0003
fdd7
fdb4
fe02
fe42
01fa
005e
03bf
fff2
04d3
0350
051d
fe85
fe3e
01e6
f915
ff1d
ff25
fcb7
fcd8
feb0
01a1
feb8
ff02
037a
fec9
0360
fb85
fb3d
012f
0253
fdc9
02f9
ff0a
01dd
0195
00a8
fc8f
0351
02ce
01ec
fb8e
fee3
