00bd
fcbd
fe1f
0226
fdf8
fc7d
f877
015a
047b
fce3
ff27
03c0
ff12
fad9
0088
0340
ff75
0241
fdb8
001e
05fa
fc96
027f
065a
fc7e
0517
fd0e
ff3b
fd2b
fa78
0457
0423
0372
00c5
ffa8
fdfa
06fd
021e
00a8
0251
fc4a
fcef
0295
0161
fc0a
fb1a
fe4e
0410
fe38
0234
fcc4
fdef
031d
01bc
fc32
0168
fd96
0105
015e
fdb8
0087
05e6
0244
019d
fcb6
ff14
0368
0219
03b3
ff41
0206
00b3
00a8
01d8
0064
0122
fa8f
fe88
fd8e
055a
fb61
fde1
069f
005d
fb2a
ffdd
fd1c
00f2
ff40
0118
fbc5
00bd
fd8c
fb9a
fe4b
fcbf
fd46
ff1f
fcf5
0250
feba
0190
ff43
fd67
fa35
023e
0132
022e
0594
fce8
ff6c
0091
ffa2
fd5b
02eb
0378
fbea
fc2e
052c
0110
037b
fb98
03b8
fdf7
00f6
f6dd
ff0f
0382
ffd0
fcfe
02a8
0146
003d
fc1d
001c
fe5d
fe31
018b
fbe5
0269
fcbe
ffd4
03d8
04a8
01d3
013c
00e7
0124
012f
009f
fd4e
fc28
fc8e
fdb8
03d5
039f
fdb2
078a
ff1b
0550
008c
fdce
fce1
00a2
ff70
fb27
f9d5
05e6
fe8e
fa99
ffa5
0100
0079
f9ae
0188
00ed
fcac
fe7e
fa57
fcd3
fd23
0275
ff42
ff53
fd2c
fb97
0205
00db
037c
fef1
fddd
fcc8
04ce
ffe2
00e9
fc6f
fd58
fc95
0044
04cf
fd39
fe63
ff34
fd0c
ffdb
fe80
012c
0390
01de
022e
fd09
0278
ff96
ff77
fc01
fe3c
fe20
ff57
01a2
fbb3
fb90
fde3
ff5a
fee7
fd4a
fc4b
fe58
fa6c
fed7
0317
02b2
01a7
06b9
0044
0389
fe69
ff1c
01fb
ffee
f9fc
fc39
0628
fdfa
fbf2
fd99
fb1f
f980
01b3
0055
fff1
ff29
fca4
018f
032d
0035
000e
fd91
00cb
0036
f8f1
00a2
0286
fccb
fdae
040f
fead
01a3
008e
ffc1
00a8
0079
fba6
00a7
05e2
0546
07bb
00e3
0440
fdd5
028d
008a
fc6f
020a
ff82
fd09
ff86
ff66
fb32
fb26
03de
fd24
00cb
fb3c
feb3
fc3d
fbac
ffca
0114
fe39
0218
0023
f7da
04ca
feef
021b
ffbb
fe11
0071
0018
022a
fe95
0324
ffc1
fc1c
032d
fd6c
fbcf
fd83
013b
fe7f
fd59
0403
fc8d
039b
0161
00d0
fb11
0186
0128
feaa
00e6
fd88
ff55
01ea
052a
00e3
00ad
ffda
008a
00a3
01cb
0155
0400
fc4f
0032
006a
071a
0124
fb1d
fc23
fc7f
fd03
fda6
01e6
fab1
00b4
0404
f9dd
ff03
f971
fc7f
085e
fea4
0193
020f
006b
023b
ff2d
053e
fc1c
fe32
0566
03ba
03bb
077c
0007
fb0a
fe60
0091
0282
000b
04ec
04a6
06e0
faee
00bb
fefa
fd5b
03cb
fd7e
fc98
fff6
ff7c
000f
01be
ff63
fd39
fe3d
019f
fb78
fe26
0305
03cd
0230
008d
faa0
03e9
0158
002a
fe20
052c
03d7
00c4
04a7
fdab
fc22
028e
0114
02b4
fe6f
fb54
fea9
fd55
0058
fec0
0006
01dd
ff65
ff42
fca3
05fc
fe95
fbfb
0218
015d
02aa
0143
06ba
0019
03ed
fd48
022b
ffa0
01df
002a
00d8
fd8c
fb5d
00be
04fb
ffb3
fc92
fec8
031d
0149
fdeb
033d
003b
fd6f
0420
004e
fb01
ff02
037a
00c7
0314
fd98
0246
0487
fb6e
0245
fcd7
0276
026c
02fd
0053
feca
fa2f
003b
0257
0641
fc6f
003e
fe20
ff7b
026d
02ce
03dd
fc8a
ff4a
fc4a
ffb1
fcf0
fa8c
fc0c
0540
04b7
fffb
04e0
033a
0166
0076
fd6b
fd7d
fb1e
fcb6
fca6
018a
01cc
fe6f
0007
0097
07e0
ffdc
fd08
01fc
fc93
01b8
fff7
0187
039b
fed0
01f2
fe41
fa0e
fc0c
fd18
01b1
03ed
f97a
fe28
010d
f7a6
029e
fc36
fcbb
0352
03ba
fd9b
0007
0045
0357
fc30
fea3
ff96
00cf
0075
0463
0456
033e
0031
038f
ffb8
01d0
fbff
00b6
ff1a
fa35
01cf
0014
024f
0002
fc40
fdb2
ffdb
013f
0556
ffd5
fcea
04dd
00f4
012f
0177
fbbd
04da
fbd2
fd22
fd3d
fee8
02eb
0437
ffa3
00f6
00c1
01bf
0444
ff69
02d2
fc24
00cb
ffeb
fed7
035e
00e9
fffb
0061
05c0
fe87
0212
fed1
ff91
fc1a
008c
fdc8
fbb7
ffec
0414
05b3
02d2
0127
fcf9
0001
ff94
fea5
fd33
fe9f
00da
fca5
024b
fe0f
0170
03b2
fb8b
03c2
0089
fdcd
f993
fe0c
0143
fe59
0086
0423
0225
02ff
fc95
03a1
07c7
0102
feeb
028e
0359
fab1
fe12
005a
fb67
fc79
fac9
f9a4
ff9d
053b
088b
028c
f8c6
04f3
032e
fefe
fe37
ff1c
00a2
017f
fe61
0365
fea8
fe2f
019a
fac0
ffa8
0028
fe84
ff71
0110
0364
f9f0
ffdb
f914
0303
011b
ff0d
00be
04b6
0021
fe09
060c
047c
0004
fce7
0140
f94e
0087
fe59
0576
ffba
fe00
ff6b
fc22
fc28
0225
01ba
fba4
01b0
0423
0040
ff88
fd9d
fd3a
fb83
0690
fc8b
f946
02ff
fd90
fe2a
facb
02cb
05b8
fef4
019b
0511
fc43
005c
fcfb
fbad
02ac
00f1
06c5
f8b4
fee8
fba3
01e3
04e2
f731
0167
ff91
0003
ff66
017d
0487
fdb3
01cd
01d7
032a
00c5
fdee
0402
ff80
fdfb
fecb
ff1a
fe1b
fce6
001c
fc54
015b
014a
01eb
fff2
0427
fcb8
00c1
fdbd
ff6b
00d2
fe6e
0134
febc
026d
fc42
fbc4
fd3b
fec2
0634
fd8a
fb3b
fc5c
026e
ff58
001d
00bc
ff05
ff81
ff6a
fe57
039b
fc73
