0366
05a2
016a
fc36
003b
0084
feca
022d
fef6
fd2c
01de
03bd
0113
0451
fbb3
ff42
01aa
faf4
ff7e
009a
0285
fee6
fda6
fdf4
fbf0
f9f3
ffc4
01bc
0127
fd9b
0342
ffca
ffb5
faef
fed6
fcd6
ff41
013e
0120
000c
ffd2
02b5
fe2f
fd94
02a0
01ba
ffae
fd83
ff45
00ee
0151
007a
ff01
0499
ff7f
fe48
fccc
042e
02f5
ff7e
031b
0391
fc3d
fe50
fbd8
0233
fa51
02e0
016d
f990
fdf9
0212
03ea
0035
01f5
fdf8
00c8
034f
ff34
03a6
fdc7
040d
fde2
0272
0140
f827
0034
0298
fe69
034a
fc86
0262
02a8
fc31
ff82
f85a
fcac
ff28
02d7
0047
fee4
0705
031a
0278
fd5d
03eb
fea1
0088
fe8c
ff05
fd9e
0270
ff88
000d
fd6e
032f
01ec
ff4b
05c2
fe49
fe10
038b
005e
014e
fac4
fe52
fc65
0181
feb5
0572
fd7d
0150
02cd
fe78
0036
fd15
fd50
039d
fc26
0289
0033
0014
0042
06bb
00ab
01c8
0055
01bb
01c8
020b
fe59
fb15
ff1a
01ad
049e
0320
fec5
032d
01d5
fe72
fd2c
fd61
0436
00e7
00e3
fea6
fb56
ff50
fad9
fdfc
fc7b
febf
fa7b
0047
009c
fe6a
fced
feea
fee7
fbbf
01d7
ff4c
0264
fd3a
0313
fc47
fbb2
ff16
fe20
fde4
0544
fdad
fef5
0463
012f
fe3e
0289
ffad
02a3
0204
ff6c
fee5
fca1
0253
0452
00e9
02c0
0097
ff9b
ffb1
fa5c
02d6
ff5f
022f
f8b8
04e7
ff75
fd4e
fbbf
0233
ff4f
fffc
fe77
fc5f
fc47
01e9
fe75
ff22
ff7f
00ea
ff29
f7d2
05ea
03b7
fc8d
04fa
0453
ff45
fc4c
0176
fe5e
fed8
ffde
fe49
00c0
fe6b
04fe
fea2
0437
fe98
0350
fca5
fec5
031d
fab0
0007
0331
0522
faab
fc41
067d
023f
fe56
feb0
00b0
fdaf
051c
fc82
fced
fc1f
0143
04c7
fdc3
0207
0390
01b3
013f
0580
fcf9
004d
fde4
fe64
0060
fb92
ff3c
fed0
009f
00d8
fcca
00a0
fff1
0027
fef4
fd8f
fd6b
fbe6
01fd
fdd7
f85d
0494
f81d
f9f0
fce5
ff62
ffa7
02b9
051e
0046
058c
0009
012b
ff44
019c
fc50
fdf2
0171
fe7b
0008
fc4d
fd9f
fd2a
fff7
01a2
fc61
0403
038b
03a4
0153
00ff
0013
008d
fd66
fe17
01df
04ee
fbbb
026a
ffdd
005b
fc3f
0339
fe1e
0208
fb0a
0070
02a5
fa19
0387
0043
f84b
fdd1
fe12
00cb
ff88
fe36
fcf7
01df
ff3a
fe38
0592
fd97
ff94
fc74
fd6a
fb0a
0262
fd64
01a7
06be
0509
0151
00d8
fefb
feaf
0178
ff94
ff65
043f
01c8
04f5
ff83
fb90
0936
0055
0283
fe30
fa8a
fa98
024a
fcf8
0016
004c
00d3
0319
00a1
0319
0015
ffc0
0134
004b
0225
004d
fb8b
03e8
03af
0011
fef8
0367
01a6
fbc4
ffa9
fb85
028f
00e8
043f
01b0
ffd8
fc35
f9ec
050e
05cb
fd78
061a
ff7f
fe41
fb6a
0220
01c8
044d
01d7
fbc7
033f
029b
ffa4
fdc2
01c4
fb5c
fbd6
0283
0075
fda7
fa8f
fdfb
fb1c
fdae
fc2e
fb3d
ff4c
ff8b
ff6d
020f
fff0
055a
fc23
fe9e
ffc2
ff65
fada
fcb1
04e5
fead
fd5c
feef
fd04
fa15
005d
fd96
00b1
fd82
ff8e
039d
fdaa
ff57
feff
fbd8
fdcb
0006
fd67
fe16
025e
ffdf
00ff
0048
ff3e
fe99
01a9
fbc7
fe7b
fe43
0136
0012
046a
01c5
fa39
05c3
ff69
01d1
00c0
fcfe
fcaa
00c9
fc86
0148
feee
044e
002a
fef7
08a8
f9df
ff9d
040f
fe75
01f5
f9cf
fba7
fb26
f9fb
01a9
ff9f
fd08
ffcf
00c9
00a7
f8fc
0276
0281
02c2
037d
ff3f
fc2b
0588
0047
01af
ff48
00d1
001e
0013
0168
fe0b
0073
fcab
fe56
ff27
ff8b
04f7
0241
fff5
02fe
f9c3
00dc
023c
01a1
01e6
03db
fc5b
fdab
006d
022b
ffa2
0531
0554
fff2
fd76
fbbd
0410
01c9
00df
00f1
fb63
028c
0330
fa5a
fd9c
fb6b
fdea
024d
0065
00ba
ff65
04a3
0064
06ae
03ae
fd75
ff79
ff67
fdc6
02e7
ff98
0190
fc6e
01d2
0054
feb7
0631
0169
017d
f990
035c
fd23
fa59
fdba
0393
ff2b
0665
02b8
00a9
00ae
fe61
fd63
fe14
ff5d
fad5
020a
fcc1
fd0b
06ae
016a
009e
01b6
fc20
02bc
fb33
04ab
0278
00af
005b
02cd
ff08
ff31
00cb
0001
fbbd
ff3e
fe77
0142
fb24
0002
0113
00f0
00f1
fcd3
002b
fd5f
fa39
f978
071f
0331
fc31
ff6b
ff3a
04d3
ffd2
fdc5
fe68
01ae
fb3e
03dd
073e
033e
019c
fc13
fe51
ff72
fd0c
f649
ff8c
00de
ffc9
fb8f
04ec
01c9
0208
fec1
fc85
02c4
feca
fe22
fd9f
fdee
fe44
ff65
0145
0326
febc
02f6
fc4c
fb46
ffae
fcd6
fb79
fde1
00b6
fc05
fe83
ff44
003f
0102
fe06
023f
00c0
fee8
0226
fb15
fe6d
03e1
07c0
ff3d
05a7
02c0
fe6d
fb22
ffa5
fe95
fab7
022d
013e
ff92
007a
015b
ff88
001d
01de
ff1d
0276
ff31
ff3f
03ed
0058
0585
fe63
01cd
f928
fcd5
fe4f
fa58
ff26
0084
025d
fc0f
0075
fd2e
fcad
fb5f
029d
fc85
040b
000d
055e
044d
0012
01a4
00d8
05e2
fe68
013d
ff8a
ffb3
0275
0140
0113
f9e6
036e
04b2
0130
ffba
f981
0383
0010
0182
02bf
feae
0082
03cb
ff30
fd0a
0048
fb84
007e
fced
fb7f
0680
f788
fbf3
