ff05
01d9
0306
fc62
fff3
ff0e
018e
fe21
feaa
0269
00ae
fe3b
f9e9
fe1a
041c
ff11
009f
ff8a
fd24
01ac
0431
00fc
0011
043d
fc42
ff97
ff68
fb85
0249
fe00
fe3e
ff46
ff78
03f0
03b4
fea4
fd59
fc18
02d9
0118
0213
fd86
01b1
0472
0401
ff49
0132
01b7
fd29
014e
ff2c
fbe2
fced
fdb5
ffee
0072
01e6
fce1
fdd6
01b9
00c2
018e
0179
052e
0254
0088
fec7
020f
fe5a
0037
fc53
fdd0
fde1
018e
fe1b
ff86
03af
0309
00f3
020e
fff7
0231
0546
ff37
fd34
feb8
0174
fd27
002a
0845
fca1
0140
0359
feed
fe80
fd48
00a5
0177
fcb9
ff9e
ffb0
fc94
fed8
0058
febe
027c
0179
036f
fed2
0057
fde7
0028
04f6
011a
ffd7
fe37
fe11
0504
02e8
06af
02da
fc66
01fe
fbb0
0330
0191
ffe9
0389
0054
ff5e
ff8c
0337
0146
03b0
069b
001b
0324
058f
000b
01b1
fe2f
fdd7
fde6
fe2f
ffa4
fb99
fd91
fc2c
0056
0081
0224
ffb9
fecf
0263
00f3
02f4
fd9e
00db
fc93
fe61
fcbb
030a
0276
fc76
fbed
fe56
fe62
fd53
0175
fe2f
00a8
ff62
fe38
fccf
036f
fe0d
0105
018c
02db
0411
fc7b
024f
fb31
0092
0294
003f
ffe4
01e1
fce1
0299
0151
021b
fb5b
037d
fd2a
0558
ffc7
fcf6
fd97
01ec
ff2e
fed9
0247
f8fa
02bc
fe7d
fb6c
017b
ffae
ff89
fc7f
0478
ff0d
fcce
0034
fed1
01c9
ff60
05ae
fc63
fe0d
017a
ff98
fdfe
fecc
fffb
026f
0449
fd6b
fc5f
041c
006d
fe2c
ff28
0289
00f6
fdff
02eb
fa7e
ff69
fc67
0172
fde4
ff12
01ad
fdb4
fd21
042b
041a
0738
fca0
fe40
fe12
fb71
fd9b
fb9f
fec5
0676
fb9b
035a
fbc9
011f
fecd
00ad
02cc
0028
02fd
00d4
ff7a
0073
fc4f
0482
02f2
fadc
032b
fddf
fde1
f804
fe1c
face
fc66
f6ac
0115
ff29
0014
017e
0211
004a
fea6
feaf
0263
022b
fdf9
ff14
023c
000b
fee5
0116
0109
fbde
00f8
fa1f
fd9e
fd1d
fa0d
fff4
fb67
003f
02f9
feea
fcab
089b
0469
015b
024e
fa0d
0131
fc2d
00ae
ff0c
00da
0468
035a
fc52
ff7c
fb4a
ff71
fa6d
00d5
fc70
fbcd
030f
ff47
fd44
038a
fa1e
fc03
f84e
ff6a
f9dd
0272
01b1
fe51
043e
0140
0140
007d
fec6
01e5
0113
fcc3
ff8b
0341
fd6e
fa8d
01d9
fb14
fb55
ffbe
0174
008d
021c
fea0
ff15
fb65
006d
fd54
074c
fc00
06d4
0080
fe4f
042e
fa21
ffb7
033a
004f
0241
0082
02a5
ff5b
fc02
04b9
00c9
04ce
ff17
fb2b
00c0
fee2
fe22
fdb5
004f
031b
0152
0255
fd7c
ff4e
009b
00ce
fd0e
00b0
01ee
0540
fb89
0403
fec5
fde0
faf9
fe61
fe60
ff0a
021e
fd5d
fb54
019a
fdd1
fd0f
00a6
fd06
fe63
04fa
ff80
ffee
00a0
007a
ffea
fd27
fd4f
ffbe
fe63
0057
fb86
ff1b
ff79
00e1
0181
ff28
004a
00c4
fc52
01c1
ff10
0252
01cf
0241
fec0
ffc8
fa50
0035
007c
06db
01f6
fd62
fcaf
f997
fc93
0286
0464
fec0
058e
fea2
fcca
feed
002a
0049
fff7
ff35
fded
02ac
0595
037f
fae4
0180
fcba
fcdb
01c9
020b
00cf
0057
fa23
029f
fe7a
0027
0280
012f
06a8
031e
00ff
ff20
fea8
05ea
fda7
feed
0545
00e0
032b
feab
07d4
015e
03e8
0077
fd16
fabb
048a
fd22
01c0
019c
feef
fd68
0495
ff43
0390
fb4b
0302
ffa3
fec3
0308
fee3
fc95
fd62
fed8
0494
ffb3
03f0
fe62
fe4a
fe33
fd06
03db
02c4
0407
f96b
fdcf
0176
08be
0206
0195
0329
0119
00a7
ff70
fdb2
fc8a
0261
fc54
fbca
fdf8
04d0
0166
ff53
0211
01b4
ff36
fb2a
002a
fc8a
016c
0582
06a0
0550
fe19
0329
00d2
027d
0255
fce5
021e
ff4c
0002
0408
050d
fcc6
fe49
0391
03a8
045c
0334
0084
ff93
0066
0015
fefc
fd57
0285
fee1
ff7d
015f
fa6f
0044
0319
0136
02f1
0144
0149
008d
015a
0025
fb5e
012d
00c6
fdd6
0183
fc74
fdc0
fbb8
fef1
fcba
02c8
0138
ff47
fedf
fdc9
03db
00f1
fec9
000a
01ec
fc08
0443
0319
fcb6
fead
0084
02e0
fe5e
fe65
fe26
02ff
feb7
fe5d
0275
fa1f
fa36
0309
00eb
0242
0331
fda2
ff83
fd8d
ffcc
fd95
fdcd
fa0f
fcd1
ff2e
ffa9
fe9e
01fa
0301
fe69
0207
01cc
0066
0079
fff5
00d3
0034
00fd
fe11
fb00
ffa1
0369
f97d
00cf
00c9
fdca
fdc1
0441
0329
fe39
fc75
0111
0347
04d3
fe43
ff80
fd20
032e
0345
0181
0783
00fc
ff6b
0493
fbd0
02f2
0305
fe99
ffab
f9ea
030d
fe19
fa90
0356
062a
00e6
001e
04c1
039d
fef1
ff49
01bf
00d5
fbe4
004b
ff76
fa52
011d
fb5c
fe9c
04ac
015f
006c
fd37
fde6
01c2
fc26
fe8e
ffda
fd59
0329
fd91
feae
0185
060e
02fa
ff25
0397
00af
fbde
0547
fe4a
fee7
0484
fe65
000f
0016
028d
03a8
ffc2
00ba
015a
f74b
0166
fa92
0075
f871
fd3a
00a8
04d9
04ce
ffd1
fde3
f71c
0037
0275
fc02
034f
0057
0086
0125
0351
022d
fbaf
fe3b
0172
ff6b
fc6e
0326
00f5
0089
ff02
fbc9
0254
ff84
fb88
0028
fcfc
0154
fb71
03d6
00a3
007c
