04b3
0255
fc91
03e9
fb7f
0123
0054
fd48
ff16
031b
0285
0514
fc51
025f
01db
01db
fe9d
01c5
feba
02c4
013d
01f0
fc3c
00f3
01d3
fabd
057e
ff37
037a
ff81
00f0
fe57
fbab
ff7a
ff61
02de
0007
063c
fc9d
0442
fe61
fb21
04e7
00bc
05ee
fabf
feca
fc6d
fc1a
fe1a
00d2
0191
fda8
ff53
02dc
0291
fc0e
fc2c
0145
fdb9
fa25
01e3
fb98
025e
f9da
0113
f961
fc61
f958
026b
fea8
fddc
013e
fe43
feb9
ff26
0301
0275
ff73
08cc
0027
fbdc
fd32
0383
0308
0038
071d
0275
00af
04d1
00f1
fc3e
008b
02a8
fead
fde4
fbcf
07c9
01a1
fce4
0226
0503
0625
fbeb
0149
089b
0142
ff7b
0742
ff56
078d
0079
02f3
ffb7
01b8
001c
03cd
0167
fd15
fc35
ff90
04ca
fe12
0074
fad7
fffc
0068
02c9
fbf2
ff93
fece
fc53
feb0
03da
fb93
fea9
0479
073d
fdb4
f804
fe6d
fe7e
f8ce
fca8
fc1c
02d4
0042
05b8
ff03
0467
02b8
fcd0
0052
0218
00c1
001f
0014
f9e2
00f7
02ab
fac1
00ad
fd29
fcf5
fc1f
0498
048e
fc5d
fcef
031d
022b
0165
020c
fd8e
f9f1
fef0
0077
010f
fa1b
026d
fd09
034c
fdb1
faf0
002c
00f3
0394
0509
fe4f
fdec
fd29
fb5b
0171
0201
00c8
ff7f
00f6
05d5
06b7
fe2c
fd3e
ff9a
fd8d
036b
fe61
fa92
ff7d
0291
fc0f
fb5d
fed9
059e
061a
f9f5
067c
f888
018d
003e
03ea
fbe1
fcab
fe2f
fa4e
01c6
f889
fed2
f9b3
f959
ff6d
fea8
fea7
fd5e
fe49
fc27
ff43
ffdd
fed9
fe1a
0277
01d7
fcf6
fe6e
004b
ff8e
fdbf
fefb
fd93
ff9b
ff69
fecf
fe43
fcd8
ffb8
fba1
010e
02c2
ff76
02e8
feac
fd84
fed1
01d9
00f7
ffdd
0206
fd94
061e
fb0f
fd8e
0791
fe23
03f9
fd89
fb03
0230
feae
0022
ff4f
0095
fe2c
fd7e
fe35
fc53
ffd4
ff00
fc32
fd16
fefa
0684
fce0
fde3
0083
ff9d
ff23
ff09
fe9c
031c
fe54
ff40
031e
fd6e
ff3d
fe10
f60a
fdf3
fda7
fd94
ff48
0392
01dd
fc95
0319
f9d5
f9df
fe65
fe63
f8fc
02e9
f7f4
0326
ffba
ff27
fd13
02ad
f9eb
ff50
0266
ffc3
ffd7
00e1
0076
0032
fd25
f9fc
fd69
0432
0183
0029
04ce
ff77
0041
fecf
0610
0553
f8b4
fd97
fdca
0456
0032
0131
0197
0520
fccc
fae9
f940
048d
fd58
f984
fd60
01f9
055d
002b
0336
fe91
fc84
00df
00fe
fc09
0123
fc29
0216
ffe3
fd91
fcd8
fdca
044b
fd55
001c
0129
0683
0082
fde5
ff65
054e
fca7
0058
fc08
0039
feb8
0041
0148
ffc7
f953
fcf2
0052
02c3
0141
ff18
ff7d
028a
fd24
03a9
020f
fe19
fd84
fbdb
0317
0503
fd36
01c4
069f
00ca
ff8a
f8e0
0264
ffd0
00c3
023b
01cb
ffa4
ff81
fdcf
0125
019b
003f
007d
028f
012e
ff26
0044
fe17
ff20
fac9
02dd
00db
042a
ff75
fb69
fe8d
fed8
01c2
fcd7
039e
00af
fb02
0001
f92b
039c
f710
fee9
fc0f
fe7d
fd00
014a
fb5c
02f9
fd60
00ef
0739
036c
fd5d
0005
0055
fbd8
ffaf
fd2a
fcfc
fd9c
fbd5
054c
0079
003e
fee4
00bc
0226
00d0
fac0
0220
02fe
ff6a
0025
fc82
fde2
01cb
fc71
f8f2
fc39
03ab
fe8e
027f
04d7
0563
01f7
0014
fa6a
feb6
ff23
fe4e
05c8
fed7
facb
fd3e
002f
fbb9
fe7d
0257
fbfd
025f
f81a
047a
fce8
fe42
0518
055a
fc81
0092
00c6
008e
0209
0303
011d
0272
ffce
0525
004f
0047
fedd
0121
fdf7
fe74
ff8e
fd10
ff38
fd33
0439
ffaa
ffeb
02d4
ff43
fe19
f7db
0478
ff88
fbff
ffad
0157
fd9c
01b2
fdc0
0151
05e6
fa60
ff43
ff2f
ffde
fd94
fa73
012d
fc3b
fed1
fbae
fd72
f9ad
fac1
ff51
02ba
02e8
0191
fcec
ffc8
05c9
fc9e
fd23
fc0d
0071
006e
f879
03be
010c
05ea
fb40
031f
0200
fd43
0283
003f
0066
004e
01e9
04df
fa93
00f3
0047
ff03
000c
033a
025b
0027
ff61
00dd
fe50
fe86
00ab
fdfa
011f
fa66
0002
01b0
0660
088b
fbac
ff89
0702
fd3a
ff8b
fdc2
fcf1
fbe1
015a
03d9
ff55
025e
f9a9
0122
024b
021e
fcbe
0283
fef1
01e9
021f
004d
0234
fe7e
0470
fd07
ffa7
00c9
02e4
ffd0
05c8
fec0
fe39
fbc7
051e
fc9d
01f3
fe8f
fb56
03b9
fdd5
fd32
0066
0594
fbb4
00aa
021d
fd61
00d9
0068
ffb5
0101
f83e
fe30
057f
038d
03a7
fa24
fc76
00f6
fadd
0170
0272
02d2
0189
05e8
fea1
fb60
0093
0456
00b4
fe63
fea5
0047
0469
0223
fafd
0367
0474
0545
029c
fda0
02cd
f890
021f
fd33
036f
01e6
ffb7
ff8c
fe7d
fb0a
00d6
086c
044e
0695
049a
0002
0332
04e1
0343
fb29
fea0
0553
fc1b
ffff
fed3
fdfc
ffc8
febd
fae2
fe46
fafe
004f
fdde
00db
fecc
fcbf
ff9e
fc6e
fcbb
029d
0613
fdf8
052d
0369
fd6b
042e
00e5
02fd
fee8
0025
ff0d
fd0e
fe16
fd7c
00b1
fda9
ff61
fbef
005d
021e
0346
0188
ffda
0017
fc3e
0398
0139
fbf7
03a2
023d
fbf7
0084
0058
014b
fde3
ff8a
0540
0371
ff3b
00e2
020e
019f
0417
fc1d
fc9d
006f
034f
0343
ff9f
004f
fcf5
0262
