0606
feb1
0291
fc9c
ffa7
02ad
027f
fefc
00fc
03b2
05d0
0338
fdf4
ff9e
fe1d
01dd
0018
0657
04c3
fe74
019d
ff85
02b3
001b
0028
ff57
fb93
00e8
0329
0111
fd89
fd26
fe98
fd13
0147
01bf
0070
04ed
0074
fcc2
01b3
002a
0321
fd05
007d
ffbc
0635
011c
ffcc
fe94
02a0
fd96
0058
0157
040c
ff2d
fd38
fa82
fd40
fa50
fc99
0218
02df
0128
ff25
ffa0
02ae
fe2e
026e
f9e5
0260
fed6
0034
ff01
f9c2
fc65
fc12
0478
0178
020a
fbfd
01b1
01d0
f8d2
fedb
fcd6
fe58
0454
02ee
fd6d
feff
fb8a
fe45
fd09
fd3b
01d7
fcb4
00e4
010c
ff1e
feca
fd09
02ea
fe17
ff10
012e
fa46
fc6b
ff8e
063a
fc83
00df
fc10
fcf2
fe6b
fc62
00eb
00f5
0336
0146
01be
fe17
00c1
00de
0077
ffc2
ffbb
fc27
f97b
ff52
0462
fdf4
fd13
fc60
0368
01a3
fd11
003f
ffd5
0233
fd92
feb2
0468
03f3
fff1
fe55
014a
fd9d
fb82
fe09
fe88
fd74
016b
ff16
0154
fd61
002e
0723
0026
0144
fc72
ff37
fc8b
03a1
ffe6
fba4
faa5
016d
0223
010a
06c6
fb66
039a
06f4
fbea
fdae
fa0e
ff0b
012c
0218
01ba
feae
fd19
fa13
fb39
feb4
038e
03ea
fbdf
0009
014d
fff2
03bb
01ef
fc9b
01b8
05c3
ff94
fbd9
fdd7
fccd
03bf
04a6
0048
fd81
0086
008d
fff5
fdef
0213
0283
ffc3
fd80
015a
0556
0509
03ff
024e
fd84
0448
f855
ff59
ffdb
ffc2
05ff
030f
fb58
ff38
ff1e
012f
0342
0703
f9af
00ee
ff5a
fd0d
015c
ff84
037b
00fc
feea
0136
035d
0521
fb29
0411
f92b
fed2
0088
0104
fdcb
fdff
04df
ff90
0193
f848
fd92
ff1f
fc2a
0842
fe61
011f
0041
0023
0625
fda9
0369
fb98
fb52
fefc
fb32
ffa5
fd39
08ae
ff4c
02f5
fc60
00be
0451
03fe
0280
018a
fe5b
024c
0232
0307
fdca
0094
0065
fec3
0159
fdbe
fb21
fed5
fefb
fb28
ff84
fd24
048a
fec9
031a
0060
febc
f97e
fa26
fcaf
00eb
0442
fd5d
01bb
02c3
01ba
ff03
0016
02e8
0049
ff8e
04ad
0197
f8f1
04df
0193
ff54
ff5e
0077
f8be
fc2f
fc24
ffa6
0651
fd05
fe69
0383
f9fc
0042
006d
009b
0606
034d
042a
fb2c
0572
ff32
0055
02ba
01ed
fe2f
fe36
fd2a
fcb9
0041
016d
fc07
fcd6
0169
ff4d
026b
00c1
0407
0544
00ff
ff89
f96a
0911
06fa
ff0c
fbd0
ff4c
03a9
fd28
0265
05a5
0183
003c
01b7
00d6
ffcf
feb1
fe2b
ff72
04e8
03d6
fec8
fc5e
fdd7
ffc9
fecc
fcbe
05d8
fda9
ff74
fe89
fa18
fe92
fe48
fba9
0005
fb9a
ff32
0359
fed9
febb
fafa
ff74
0478
00ae
0290
017e
04b7
0365
feb0
fddf
fd35
0242
fca7
fadf
04fe
00ff
fe5a
01bc
fc3c
029e
fd68
fe23
0294
0412
01ae
0352
ff57
001b
012c
0052
03ed
f716
fee7
0135
fcc7
fd58
ff9c
0208
ff41
05a6
fd3f
02a3
fb4f
000d
fe3a
0582
088c
fed6
0161
fe1b
01cc
051f
0383
020f
f898
02b4
fdf8
04c2
fca3
0560
fe96
02ff
fe2f
fe90
fe76
0282
fd33
fe41
05f5
01c6
03f7
fe7c
01a9
fd3b
fc0f
fbcf
fc45
01f3
0066
05fe
001b
005e
0271
ff67
fffe
03eb
fda1
020b
00f2
ffb2
0059
00d2
fcfb
0394
feb8
03f5
017b
028f
03fc
fb6c
01e0
fda0
0303
01ea
fcbc
fc9e
fe9a
070e
fcc5
fea8
01ed
ff68
0036
fd61
fec5
013a
06d6
fdbc
00c5
0004
fe1c
0496
0267
02b6
fe1e
05af
fe46
ff36
0196
ffdb
02c6
fde1
fcb7
033b
fe44
f970
ffad
0225
028f
0338
fbd3
fdcb
0619
fa51
05cc
0443
fd79
076a
fe2f
0110
0311
02ce
0248
ffb2
fcc2
0233
03f3
00dc
fe32
fb5f
fed1
fad6
0268
00e7
04c5
ffb4
fd1c
fd77
fe2a
fcc7
027d
fef3
fe61
00d5
0189
fdf4
ff67
0338
015d
005b
049f
fd07
0461
0034
02c6
02ec
0219
0161
01d3
fd81
022f
ff1b
047b
ffa1
0488
fab8
0171
067d
02ff
000e
ff59
fcea
018a
ffab
0158
fbce
fee3
f7b4
0525
fe4a
fe35
ff92
03d0
f9ec
fb9f
031b
01e5
0242
03fb
fe21
fecc
fd2f
fc75
fe96
ff99
032d
f97d
fb5d
0063
004a
0131
fd88
039b
0163
feea
03d9
f7d4
ff8c
014b
ff15
01bc
0026
034d
00e9
03ce
ffdc
ff55
0151
feed
ff37
0342
f967
0298
009d
f9a0
ffbf
fdc8
03c2
fe0b
fd2e
026a
0112
fcc4
00a5
fcb9
019a
fde9
ff2a
fd4c
063d
fde2
ff0f
0010
fdd9
fe11
0254
00e0
fc28
0274
0426
0835
013a
fc50
0208
fe2a
021a
ff3c
ffc9
0120
0221
fc81
fca7
0606
fae5
003b
fcc9
fff0
ff25
0250
fcad
01a8
0236
fb92
058c
05fe
fd4f
feea
015c
0080
fd3d
0350
fdf9
01f6
fd69
ff61
ff6a
03aa
fd37
fdb5
014a
040f
fbb0
0118
fe5f
fbd2
0206
fadc
02e6
fc6a
0375
015c
023f
fa27
042f
0288
fcd1
00d1
fdbf
011a
fbbc
fb81
05c2
fb82
ffd4
f9fb
009c
f81b
023b
fe75
007e
03ca
0040
fe6a
fde5
ffe9
ffdf
fc75
01f4
021e
01ce
028d
ff4d
07df
0145
ff82
fd60
07d3
fee9
03d5
03b2
0481
00a4
0003
0076
ffca
ffc2
fb2b
f943
0095
ff42
02ab
00ec
