03b4
0099
0160
03d3
fb13
f88e
01b6
04b3
03d2
fd42
00d2
0464
fe4e
0018
027f
0197
03d4
fdfa
fc34
fb7a
070b
ffec
f7ee
fedd
0169
fc97
fc16
0254
f90b
fe55
0189
01b0
03ab
fdec
030f
fe59
f7cb
fcde
ffb0
ff7e
ff2b
0467
00f3
ff78
fca4
0403
ff5a
0295
fd5a
fd4f
004e
fb43
010e
00c8
fd28
026e
01b8
0082
feaf
ff06
fe6b
00b9
0122
0059
02e4
fe08
006e
fe06
fc15
fe6a
0081
0290
fdc7
ff53
0070
fea0
008f
ffdb
fddb
02d9
0439
00df
02ef
0080
00fb
0119
0496
0005
fe4a
fd8f
fe14
00a6
fe57
07c4
fd87
fbf0
fe62
0542
fe61
0483
ff5c
0014
0315
fdac
fb39
fbe4
0346
04b7
028e
016f
00d2
0182
fb7a
013b
004f
011f
0448
fe50
fdba
ffc8
01f9
ffae
00ca
fe4d
0301
070b
03a6
015c
0a2a
fd77
007a
03f3
026a
fd6d
fa63
039f
ff73
0072
ffdd
0276
fa5f
ff98
fcc0
ff8f
f725
fe86
fee7
00a2
fecd
fec3
fa86
0431
048e
01f0
0315
03f6
fd1a
00d2
fe26
009d
0555
ff6b
fbb6
fe57
0328
fae8
fe4e
0100
ff2b
0124
026b
fdd8
fc45
01bc
01a0
061b
03fc
febb
0675
fd73
05f6
0211
01b9
01a8
fe60
01d9
fac9
f9ea
fbf6
0110
fdbd
06ba
fdb9
0201
fed7
019d
ff74
ff18
00e0
fbe0
04ea
0002
003f
0226
fe60
fe41
fe11
00c8
fed9
fcfb
074c
fdb5
02f5
fef6
01ca
02d0
00ed
fe69
0165
030b
00e6
0386
014a
0077
01ae
ff17
047d
0327
0309
fb05
fd04
0019
011a
05dd
0115
0221
fa0d
018f
005f
fdd2
0048
005f
0334
ff11
04da
047f
fc15
0019
fe57
fd11
ffb8
fb30
fd5e
0066
fffe
fe37
0608
0368
fd0c
f9a4
02e6
0517
ff03
fe24
01d6
fe1d
fce8
fa0d
0274
fbba
ffbb
fe00
fffb
0153
fade
ffb3
ff1f
fded
0000
0155
fc5b
ff2f
fc84
020b
fe94
03fd
005f
ff95
feb1
019c
ff9b
fe5f
fdbc
fffd
ff31
016e
ffd6
fde9
fea1
fdb4
0114
ff96
0037
0077
0454
fbcb
fea4
fd9f
04a4
07b1
0440
015d
ff4e
0115
fd30
fe39
0074
00cf
fd66
01a4
0607
0154
fe47
049e
ff3a
fc9e
0112
0287
fb06
01f7
0595
0084
0211
0257
00d4
f89c
fdef
ff5c
fece
03bd
05a1
fc19
feb0
f9a2
fea2
00b4
0080
0307
fce9
0425
02e4
fec7
ff6a
fb23
fd4e
ff6c
00c9
0524
03e5
04cb
ffa1
fedf
011e
0312
faae
017e
02a8
ff33
fb59
ff8c
00ca
0701
03eb
fe04
0188
fa1d
04cc
ff7e
fa96
00d5
0278
fd78
00fd
fed7
01a7
fbf2
ff2f
fe65
03b6
ff5d
010e
01ff
fccc
fa30
ffb6
066b
fefb
014d
0550
fc44
fd5a
fe72
fa01
0369
01a3
008b
0173
fd27
036a
fc23
008b
feba
0796
03e3
0362
fdf4
001e
027d
fd0d
01b3
fe49
ff9e
fe0a
ffcd
ff4a
ffe9
06b1
0414
ff40
03cb
02a0
fe08
fa3b
010d
024e
ff23
fd72
03f3
fe38
fc1e
00d5
02cd
fc9c
03fe
fb5b
06ce
ff4d
00c2
0261
fffb
fd6f
fee4
fdfd
fe2f
022b
fe29
005c
ffb9
04d9
fcfe
fddc
0238
f951
0134
fda9
fff8
02a5
0242
fc71
fdde
fe9a
ff94
fd68
f919
0661
022f
03aa
fd14
03d9
006d
004c
0334
01ac
03ee
027d
028b
03bc
0266
fe9f
fd04
0515
fc95
fe6b
0364
0557
ffef
0736
fbfc
fc04
ff66
0423
01db
05d3
fe03
fc4c
fea7
fc5d
01d8
04d9
0080
fbbc
fcb3
013b
fcee
04aa
026e
034e
0465
03ef
00c3
0338
042f
04b0
fd29
0319
ff62
03d6
06ba
feb1
f877
fe82
01ba
f98b
fbf4
fb7e
fe21
0505
01ba
fd2a
fa46
03c4
016b
01c4
05ac
061a
0077
fd7b
fed9
0077
fe55
ff90
fca4
01e2
fd2d
06db
05d8
03ea
01bc
f946
04d4
ff4c
0173
fb31
00f7
fb05
ffa3
fef0
00c1
03c1
0105
fbff
018b
018f
008e
fec8
fd48
00a0
00f8
fe3b
fb10
ffee
fe8f
016c
f96e
fcef
0145
fc50
0048
021d
fb45
ffb3
fd5a
004b
fd26
00b9
005c
0184
0049
fd64
fb53
0123
fe56
0734
0138
0330
ff13
ffd1
fa2f
046f
00e8
0150
0158
fc59
fdc2
ff36
fd22
0192
0099
0118
fee4
ff27
0205
f9da
0460
fe37
feef
0252
011e
01fa
fdec
0129
009e
fe1b
006d
fa36
fb9a
00c4
fecc
0126
0329
fcf1
fc2b
ff34
ff56
01de
fec3
0152
ffe3
0389
0021
fd92
feee
fdb7
033e
03f4
fc98
02ff
044b
fe72
ffbc
0477
0180
0185
fb8a
01b6
0143
0398
02e7
ff3b
015e
fe6a
01b2
fab0
0038
051d
fa33
0310
f943
fd4e
fbd1
fdc2
0526
01ef
0111
008f
043d
fdab
fb43
f9ad
fccd
ffe3
ff87
022a
014b
0061
fc98
ff12
04ea
0077
ff41
0336
fdd2
056b
fe82
0095
fad9
fd69
fd46
fc8e
01e4
0277
0820
fe83
03f9
fcb4
fe99
fd37
fd45
00e1
fac7
feee
0161
0092
fd5b
fe41
0133
fa67
fe80
feeb
03a4
025d
0418
00f9
0b16
0328
06ad
0356
04ad
0000
0489
fe71
014e
fc01
fe09
00ba
04c8
ff69
fcf8
ffdf
fde2
05f6
fe7f
fdfc
fe80
ff9f
feff
00d5
033e
01ec
ff24
0227
01a6
03bd
01fc
fe46
fca1
fd29
0141
fdd4
0117
fa03
fe25
ff2a
f877
0185
0149
036b
ffc1
fd31
fd0e
ffc1
023c
fb32
0006
