0499
fc45
fe20
0047
ffea
ffd8
fb0f
ff4e
0312
fe6e
00c5
00ff
fe66
fdac
0642
fd15
ff7d
0488
ff5c
fffd
0055
00ba
fa3d
0033
006e
fc8e
fbdb
03a5
fe0a
ff3c
00f8
0416
ffa6
ff22
ff6e
fe63
0218
005c
ff6a
ff74
0287
ffbb
fc8b
0121
feab
0404
01d6
03f9
ff60
0397
fe50
fd75
fa11
fb41
fa55
0374
fb44
fed7
01ae
fa18
020a
01d6
ff40
004a
066d
ffcb
039b
fd29
fd9b
faea
0058
fe3f
01f8
ff5d
024c
0326
fcea
fc87
031a
014a
0408
fe6b
fced
0061
029c
ff7c
0003
02a4
fa00
fefd
feba
0190
0296
fd4b
fe06
036e
fa8f
ffde
fa95
ffba
fdc3
fa6b
050e
012b
fbfe
fb5c
03b4
0329
ffe6
05ee
03bb
ff0c
0197
0266
ffdc
005d
fc62
fc3a
02e1
0080
0598
01f1
ff80
03a3
0355
0379
000c
00a6
065b
0352
04e2
00ff
02b3
0090
03ad
00ac
fd20
0042
03bc
0483
fe47
015b
0078
fba0
006a
feac
fee4
fc6c
0274
fd2d
0008
0252
00b9
fd00
fc85
021e
08f7
fc6d
fd77
ff33
02ee
fe53
fe2c
fe54
0386
03d5
fc13
ff93
018b
fc3a
0051
ffdc
f8c5
fc13
fc79
00fc
0064
0a73
f943
fca7
f753
fdc5
fbc0
fcf8
002e
f8f1
fe8a
023a
005c
0220
fad8
0124
fea7
002f
fffb
01be
ff51
fec7
ff8a
059f
078e
0105
ff54
0216
0541
00f2
00c3
00ba
020e
fd7d
02ee
01b7
0715
0648
ffe9
fe08
0353
03b5
0112
fcd7
0045
00ac
04f6
07a4
04b2
00cf
fcdb
0055
fabe
00d1
feb6
019e
08a5
fbf5
fb79
fff2
0189
042c
0238
fffe
fb7b
03dd
02b8
0455
0290
fff1
057e
ffc6
00f5
fd67
fc89
f8d4
04f2
ff47
f89b
0138
0381
010f
fc96
02dd
fd22
ff37
029f
ff17
015a
0095
fcee
fd11
0085
fd6f
ff6a
f9c6
fd59
f901
fe48
00f3
fe4b
fd2b
00d1
0083
014a
0177
03bf
fae8
00f9
00a0
02a0
0188
0314
023b
04dc
f8dd
03bc
fb11
fef7
f8e8
01e5
01e9
00a1
0417
0590
fc89
0003
ff71
0009
0369
003d
fe2d
0005
023d
fddc
075b
0631
0103
0124
018f
fff6
fd15
fdab
fce1
005a
00f3
fdf2
0206
fb4c
01f3
0294
0254
02aa
043d
fe5a
fc47
ff30
027b
03a1
fe6e
fe5f
fb4c
00ad
feb9
000b
fc65
fd58
fb6f
fde0
ff82
0144
fad8
0591
ffad
fbf1
01a2
0048
fd3f
004d
fde1
f86a
0113
fdcf
0394
fdf5
014b
ffbb
fe06
ff3a
fff0
00ef
ffae
03b1
0437
fee1
ff64
f901
0131
013d
00ea
fee1
006f
0119
01b4
ff74
0205
02f2
fdd3
fab4
ff36
00c2
03df
020c
fb0b
ffd8
ff8f
000d
0156
fd81
fff5
ff64
00f1
fe7d
fe6d
0320
022e
0203
00e9
ff2a
01ef
fea8
0745
fbcf
0375
0335
fd48
ff80
fe94
00ec
0267
024a
feea
fcc4
fc51
fdcf
02a5
0055
fda4
01ab
0564
ff9b
022d
fe45
00ad
01ac
003b
03bd
fd52
015d
009a
0397
fbfa
0303
f6c5
08bf
ff38
023a
fed6
fdcd
0399
fec1
fb2e
fdc1
03c2
feb8
07f1
006e
feb4
ff5a
ff86
ff64
fb9d
fe34
faaf
fe8c
ff59
fdc0
fe03
fc37
03c5
feff
0279
fe39
0559
0297
fd2e
fe1b
fe8b
ff0e
0024
02f0
fda3
002a
fc8c
05d3
ff9b
fcf5
02b9
fff2
02fb
fe4a
fa59
feb4
f8dd
03b8
0241
0191
02ff
f8c6
ff4d
feb8
00c9
fb53
fe9c
fa1f
032b
fd73
fda9
012d
fc41
0022
0457
0467
04f9
ffe0
01eb
01a0
05c5
005e
fc2f
feaf
032c
0279
07de
ff2f
05b9
fc15
fc4a
0166
005b
0291
001b
fe6d
03f6
04db
0173
fe6c
03b0
023d
0331
fb8d
04a3
0196
ff9b
ff21
fff3
00ba
fc33
0239
000d
00f3
ffe4
ffdd
033e
fc9d
fce9
ffed
fc9e
fa3b
02f2
fc1a
fa5d
014d
021c
fd48
fef2
0123
fba2
fea0
030a
f94c
0017
fd53
ff7f
0186
fe8f
ff49
fe08
fc18
f91b
058d
ff18
010f
0159
0084
0302
fd8a
fef5
0467
ffca
fe66
fc68
00a5
0009
fff0
0615
fecc
fba5
fd11
fdfb
ff43
fd8b
fe85
fc99
001d
00c1
fd58
001a
0007
031f
050b
fe90
fed0
fdbd
010c
fe11
003d
002f
fbc5
fa40
06c3
f9fb
f7bc
0129
fc47
ff25
0086
ffb7
06b6
f9b4
ff55
0172
fdfd
01d7
00e2
fcaf
004e
00da
0217
00f1
0201
01c6
02fb
fd5c
0075
fd91
fed2
02e0
ffa2
f9bb
0023
03da
fedd
fa51
ffec
fab3
ffc4
fb79
0407
008b
fe9e
fc40
fae4
fd42
024b
016d
04bd
048d
020a
ff40
00ec
ffd1
019f
03e4
00d5
ff39
0165
f7ab
fc4a
fe6d
0091
03bd
ff4f
fed0
02cb
041c
00cb
077f
00e7
027d
fb72
fd1b
03ca
05dc
fc90
fded
0283
0328
fe7b
02a2
02c3
02a5
0724
f91b
043a
ff93
01b8
00a4
fac7
ff86
fecf
0029
03f4
fedf
02f7
0061
0027
02ea
fb1c
f96e
0094
ff7a
fe97
fea1
0139
031b
fc51
017a
fcec
00e0
fe2e
039e
00dd
ff61
ff6f
042b
047c
feb2
fde5
fb79
017a
fef3
0568
03ab
fddf
fb66
029b
ff40
fe85
040c
fbbf
f9ef
fee1
016d
00fc
04cc
0008
fab4
02da
018b
fd84
04c5
ffc4
fdd0
fee2
01a0
fef4
fefc
0229
fbf1
fc76
034b
fe91
048f
0007
fbeb
0557
022b
fc26
fd42
018a
059d
00f3
021f
04ad
030f
03f3
0068
