fbe9
00bb
fdc4
fef9
0179
0237
0177
01ba
00c1
f9ab
ffb0
0354
fd33
fc67
0449
0143
fadd
ffe0
0004
01c7
fd47
fcdd
0131
04a6
0060
001f
fef3
fe22
0449
0386
ff5d
048f
fdb0
fb10
004f
03e4
fcfb
056e
fd7e
0372
fd22
0436
fe73
ffa9
fc2a
01c6
0170
0015
01f0
fe7f
03cc
fdbb
0706
01f2
f892
fc31
010f
feeb
0398
000d
fd3c
048e
fe6c
fe8a
01c7
fcb0
01c3
0498
01a9
ff3c
002b
fe6e
fb93
ff50
fe76
01a1
00c6
00d0
0341
0059
fdd5
fe21
0424
02b2
0203
00f1
00fd
000c
05c1
fd06
03d6
ff9d
0036
fab6
027e
0578
0276
fff7
00ff
05ab
01e4
fdd5
ff1d
025e
fd6b
fc45
fb7a
fd34
0047
01ed
04af
ffc6
fc3e
ff0c
fc16
02e6
036f
0198
005d
002a
fe2d
0465
fca6
ffbf
0546
0132
ff4a
fe92
fd3d
fd41
fc03
fe24
fc5c
fe93
fc65
01eb
fe82
01d4
fd57
00c2
0757
03aa
fb9c
fb4a
027a
0107
fb89
037f
fcd9
faf9
fbcd
048d
fefd
0738
00ed
ff2d
fe6b
fbf9
032a
faf1
ff64
038e
06cc
0365
fc6a
f81a
053a
fe41
f8bc
fef3
0386
fcfd
0042
f856
f773
0199
0063
ff78
fb42
0447
ff92
fea1
ff3e
024b
067c
0263
0106
013f
fc69
fe8d
04dc
0028
0119
02bf
fe03
0452
0177
006e
0126
097f
00be
ff67
01d5
fe93
0047
ff9c
0170
0146
00c1
ff90
033c
0142
fede
fe89
05b3
0336
03d6
ff3a
012d
fdf2
0160
fe55
ff08
03cc
ff99
0153
fc81
00cd
ff0b
fcba
fb17
0165
0313
00ed
ffc5
feee
0305
00b6
0013
0332
06ce
fdf6
0380
f9fa
feb7
fcea
ff2e
ff07
fc9c
fe21
024d
0292
fc3f
0187
01b3
ff4a
0048
fc62
033e
fd60
05ad
fc1c
079c
ff0c
fe2a
fc4f
fb1b
fb96
fe25
0155
00a5
fd46
04dc
fae7
fd03
0186
fd19
facb
fe8c
ff24
0176
fb55
fbfa
01f6
0226
fc63
0067
01be
fea4
fa91
fc9a
fb20
01ae
0803
ff74
00be
ff30
0305
f785
00cf
011d
fd3e
fd85
02a7
fe76
ff6d
0131
ff2e
02bc
01b9
fd26
011d
02ad
ff4e
0418
0591
fda7
fd74
fc73
0420
fdf9
02ed
004d
009a
feed
fc7c
fdbe
02fb
05cc
f9e2
fa91
0146
05e3
ff9d
04bc
021f
02cb
fc3c
fde6
0266
0717
01d8
fa76
fe91
0598
fff4
f9fe
0290
06ec
fcdf
02fd
0006
fe58
0067
fe6f
0176
fc8d
01c7
fcee
00bb
fe78
ff77
ff0c
015e
0168
00ad
fe0e
fe16
0189
fa91
00a8
fbe1
fccd
01af
fdf4
fed0
ff9a
fd33
ff40
01ed
fe6f
0148
02f6
f7d8
f924
fe7f
fbbd
fce5
fff7
0016
fa93
ffbb
0405
01c6
f888
fd0e
fbb3
fecd
ff30
0011
01c6
fdfd
01b3
02d7
003d
0192
fad5
ff06
ff1c
0125
01cf
00e9
fd31
03c5
fccf
00a2
005f
fae8
fc7d
0781
ff3d
02a8
feeb
ffc6
01bb
fd4e
0386
f990
018c
0029
0365
0201
fb6b
0192
013d
fc6e
0767
f9cd
fd9f
fdf6
ffc2
fc4d
ff6b
03f6
028e
fabf
ff8a
fb14
fe5b
00cc
fec5
01c5
00e3
00c0
feac
058c
01ff
fda5
fc4e
0303
fef5
0184
02c7
fbb2
fdbc
ff37
ff4d
ffc8
ff1d
05ed
ff68
ff7b
ff37
fefa
feac
07c8
0296
0260
fef1
00f6
fe6f
ff5f
fd28
0194
fba5
fddb
04b4
fc40
01f2
fe8e
0621
0039
0112
03a2
014f
fc7d
01c5
fe20
0305
0251
01a8
0223
fd53
fe5e
0585
fa9b
0085
0218
0336
026b
00c4
fc96
0094
0186
05dc
02f4
fc78
fb72
04a2
fe6e
02b8
0059
0237
001a
fa08
f99f
0124
036a
ffcb
feb6
0459
fe87
006f
fee9
0395
02e0
fbe6
03b6
01c9
f8d7
fe28
000b
ff94
04e6
026e
007d
fcda
02c7
fb38
fd42
ffd1
fc1b
0046
febe
fb7a
fc78
fa04
0385
feec
016a
0375
058b
016d
fc1e
00ff
063c
00c1
ff3f
fc28
fe88
0220
0427
0167
04a2
ffa3
ffa9
0067
0329
fdfb
016f
02dc
0619
03f5
02a5
fecc
07da
ff79
0113
043d
fe0f
fe96
0107
fb29
fe32
fe79
fdaf
fdf9
fefe
faed
fd82
fbfd
0034
ff56
fb80
0079
0207
fad2
02e2
fa11
03c3
fb7f
fe0a
0237
ff92
fc7e
01c6
fede
fea4
00e5
faee
ff8b
fe55
fec5
0857
fe26
fb92
fca1
0073
026f
fb9a
0201
fbe4
ff6e
011f
03fd
fd74
f80c
0162
fdbc
0215
fdea
03f0
fbaf
020b
fe08
01ef
fcdc
fe57
0034
051c
fbfd
fcc1
00bf
fec5
fc25
00c8
083e
05d7
fc60
026e
0206
036d
fb89
0483
ff5e
00a3
0420
ff6f
fdbb
ff5f
0571
f9bd
00b3
0556
0025
021a
fc21
03d9
ff58
004b
fff4
00e9
0079
027a
003b
05da
fe96
fe8d
00b4
01e9
fd6a
0234
0024
ffa5
00e9
fb9a
0390
fe2a
ff14
02a5
07a1
fe71
fcb6
ff3d
fa1f
0091
027c
0198
01b0
02f0
005c
ff05
021a
015d
01cf
fdb1
0264
ffb7
ff66
fbe8
fc1f
fe36
fe82
ff35
fac4
fd02
00b1
055d
0443
0011
fe57
f948
ff95
02f4
fd8e
fc98
025e
fdb9
fee3
f9e2
047d
fe65
fe26
fdb3
0190
050a
fe4a
fc52
03c5
037b
010b
0305
fd4e
025f
022e
fdb0
00a9
ff8a
fe57
00c5
023b
fe3c
03ed
ff72
005a
06d9
056e
fe9d
fdb3
fb98
fd49
fdeb
fd96
01e5
fdcc
039b
f9dc
ffe9
fdc7
0129
fe50
fb75
00a2
fe56
