ff5f
0325
fd9e
039e
0688
007b
ffdd
022d
fd57
faf2
fd76
0194
fec4
fda8
00cc
0378
02a5
006a
01ae
0128
ff8e
04e0
002f
05e8
009e
fd2a
0047
fc98
ff81
fe29
0331
fed4
01a2
035e
f8c4
fe83
fd89
fcee
fc46
ffea
fc49
fbce
fbad
fd5d
fe49
fda8
012f
fc5b
0373
fd78
fe76
ffa7
fdf2
fe4a
fe4e
008a
04e4
fcf9
01dd
0399
0542
0146
017f
fd4e
fb3d
030b
0040
044b
0248
fc1b
01cb
fafe
feb8
f732
01ff
ff66
0301
0130
01d2
054c
fa0f
008d
ffa5
fc49
034b
0330
fe7a
0174
01ee
f541
0325
0606
0006
fdb1
f9d2
0100
002a
011c
00b2
ff1d
01ea
002b
040f
fee9
ff4e
fe3c
f926
003f
faad
fe04
fd39
f8bb
031c
fbc4
feb4
fe79
011b
f59f
00c5
03e9
00b1
0313
fc8c
ffea
0536
fbd9
fbea
0179
fc18
01ff
f9ae
fdea
fec6
fa88
01f9
079a
faea
fa4a
00c2
f832
023f
009b
ff15
012e
0356
fec6
0108
0180
002a
04a4
04a0
fe44
fc55
fb96
0437
01a1
fedf
005d
feff
0466
fef9
fcd8
0217
03fe
0014
fd06
05a3
0289
011b
07d3
ff89
0216
fc81
0084
00bd
ff6b
0383
fffc
ff54
ff6c
0040
0125
ffb1
fccd
ff7d
ffcc
f6d1
027a
fd55
0534
0024
fc56
03e7
00a6
0162
fd04
00b4
fc84
01f8
0162
fcb2
fd68
fd40
fef5
06e9
0031
01f8
f7d0
00eb
ff82
023e
00d2
003c
ff49
fec9
0040
fe41
0574
00e3
fcce
06a3
fd8b
0174
ff7b
fd0f
026c
05a9
0490
fc5d
008d
fe99
fe8a
02de
02bf
00ed
049f
001d
005c
0519
ff0a
fe13
03ee
0708
0432
0113
021b
01ba
fe6e
fc6b
ff32
059f
ff42
0124
01e8
faaf
ff3d
03d8
f920
03d3
0222
ffc4
024f
0208
0147
fef2
ff8a
fe64
018c
fe8b
ff80
0007
0078
0076
fb15
0679
fdd5
0401
05b6
fda8
fd67
01ad
fe2b
fa28
03c8
ff22
fdd4
fc17
0186
01a6
ff5a
018f
fbf1
011b
fc50
0334
ff9e
01db
00ed
fcf7
ff15
01f5
0498
fb2d
feb3
04a9
0554
0085
f96f
fe66
03d2
ff4a
011e
0238
0120
fb61
fc72
01e2
0191
ff09
02a4
01a1
fd2e
fe12
04ea
ff9a
06cb
0156
0420
fd70
ff45
03f2
fe99
02a6
feac
019d
fb4e
0216
0547
0449
fdfa
043d
0295
056d
fdb1
02d7
fe5d
fd09
0277
fca5
045b
0187
0241
005a
026a
028b
0257
fcbb
ff30
00f6
0373
fd1f
013f
fc02
fdee
000b
0093
0247
03fa
f7c6
0173
02c7
fee3
ff3c
ffc2
04a3
fbcc
ff51
0844
00ee
fd0d
030f
001f
047a
02d8
079e
017b
ff78
0074
014c
fed3
f84c
fc54
01ec
fd0c
ff38
0246
fc6a
020d
fc76
02a9
f960
fb4e
fc7d
012f
fe76
02ff
fab3
01be
fdb1
fc11
02f6
0317
0312
fca7
00d9
fe87
01b5
fc58
02c4
0014
0133
ff80
019e
fdbf
fcc1
fecb
feda
fdb5
fe3b
02b2
0044
fb81
fd0d
ff23
f8c2
f860
fd4a
0317
02aa
fe44
fa3e
fcd3
03e9
006d
ff7e
0768
034b
02b4
029a
fb3b
03ca
fe7d
fe3b
0485
ffef
fd3c
001b
fe27
049a
0137
042c
fdf4
fcdf
03a2
00e9
01e0
faf5
0362
01c7
ff5b
fdd2
031d
fbaa
0202
ff25
0207
ffc5
fe2c
04c8
fc9c
0414
05eb
015b
ff2e
071a
fdb0
f9e4
ff87
024d
0300
02cb
0569
076b
ff0e
fd0d
fd72
fb4a
00a0
fd73
ff34
fe30
fd93
02a0
0125
000e
ff69
fcc2
ff20
fadc
ffb7
0323
fc78
fef6
0270
02b1
fd0f
00d2
0183
05a3
fd87
025a
fe96
fe36
009c
fe77
fe43
fcd5
046c
002a
ffd2
019f
0348
02c1
02aa
fc45
f94b
02bd
ff01
fc04
0233
fe56
0520
0540
fda5
060f
0769
f7ce
02a0
01f1
fe13
fb98
fb8a
031f
0366
ffd6
f9df
0120
0297
02b4
fd55
0121
fb87
ff9d
022e
00c6
01b3
ffde
02d2
fdb4
fe4c
0352
fd74
ffbe
fca9
0262
027b
00ba
0437
ff89
0215
fe95
0029
fab8
fe64
046b
fe74
fe7a
fe9e
ffcc
fbfc
f9bd
057c
0082
045a
011d
01a2
02bc
0233
0435
fcc1
01a7
f9dd
ff72
01e3
01dc
fe2e
fda3
07c8
fc7d
f8fc
ff1e
0201
017b
017e
ff81
fe90
fc46
fac3
fa71
05e8
fab6
fc4d
0038
068d
ff0b
034b
fd5e
fddd
fda3
ff33
0079
ff4c
0195
f82f
ff41
feba
fbfe
04fa
0250
073c
fb9b
000a
00e2
029a
00a5
fffb
fe60
ffba
fdc7
fe4a
fc58
0577
fe14
0001
0058
fa74
056c
01d1
00cd
01fc
0038
043c
ffbf
0242
ff6e
01c9
036d
faea
01d2
fffb
0031
0220
fbb9
ff22
fd52
06e6
fb17
fedc
010c
03ca
042e
ff2b
0512
0057
fe0e
fbf0
fe01
0147
044e
0130
fd85
fb6f
006a
01d3
01c2
018e
fe44
ffe0
034f
001c
ff90
fe79
fe41
0079
025f
03b1
fe89
03d2
0183
02c5
fab7
0358
fe8d
00c0
ff53
fde5
f92e
00db
0731
0254
ff68
fd90
ff60
fbe9
065e
fba8
fea8
fce8
fab4
01b4
f98f
ff80
054a
0173
ff93
fb07
0407
fe83
021d
08dc
fd63
feb2
0053
fda5
fc1a
fbb8
ff91
0233
fb99
fe43
fe93
fcdb
fe43
f9c1
0234
ff17
fef6
06d4
ffd8
fc4f
fd0b
04ba
0520
003a
0542
0188
feda
00d2
fb6c
02bb
026c
ff40
ff10
fffc
fece
fe9f
fecc
022c
fdd7
fd9d
fa13
fc3d
fe78
fbe0
