fc6d
00b5
03e5
fb40
fb4e
01f6
ff30
0384
01f8
00be
fe33
02cb
0291
fcae
033c
03e9
021c
fed5
00c5
fa59
009f
ff52
01ed
0330
020c
fe18
f995
00cf
0311
fb2b
ff81
05b6
001e
0041
fdf7
fd05
0051
f6dc
fbe4
03c8
028e
031b
04b2
f6c7
033c
01ff
08b8
02be
fd8e
fce4
00fa
ff0c
02f6
0444
feaa
fb5d
fd63
fe9d
fa0f
fce3
fcae
068a
000c
faa7
ff94
0037
fc84
fb80
0231
015d
0200
fefa
00c8
fc85
0113
fe18
027c
fc36
febf
04f8
fed5
01c4
ff1e
fdb3
00a1
fd43
f93e
0181
03c6
ffb7
04ce
fd89
0110
0213
fc26
fc6b
01cf
fd4c
02dc
0622
fa3b
fd50
0054
0050
039e
01a0
fcec
fe39
0737
022c
fcad
0754
01ad
02bd
fdc8
febd
05ac
0094
004b
ff67
00b6
fc73
01cd
fe16
028d
018e
fed5
fb13
053f
fe37
040f
f9c9
fd6a
0130
fe37
0565
fe8d
0444
ff2f
fdf9
ff27
03b4
0115
0113
0200
0209
021c
0301
0699
fd8c
fe28
fda9
fcc2
fece
0169
0225
fe7a
0150
fa3b
02d2
0060
fd89
0033
ff52
007f
0327
01d8
0121
01d3
01fb
fde0
000f
fdab
02f9
fb29
00c3
fc6e
01f5
0019
033e
02f5
0195
fde8
fbcd
fff6
ffa4
01d6
fcdb
fc4c
fc0a
0119
fca9
03e0
fc9e
0374
05d1
0308
0690
fcfe
fccd
0019
044f
ffe9
fdec
fd6d
fea3
009f
fe8a
01c6
fe22
0453
0057
f960
ff37
01e3
fc29
ff7f
fb01
0472
fafa
0077
fb64
ff1f
facc
fe7f
0146
ff36
fef4
fe8c
001c
fe61
0289
0130
fc6f
037e
ff04
ff8d
fde0
0404
0461
04f0
0242
fc7d
ff99
028e
faff
f9f1
006c
ffc8
0176
ff3f
06a3
03a3
fdbe
fefa
00c9
02f3
fc6e
f98d
fcc3
051b
0325
0581
029e
03ce
fd0c
03e0
fb62
fdb8
fe28
00e0
0077
015b
00db
ff83
ff14
ff5a
03fc
0316
ff8f
ffc9
0285
01e1
fba4
fcab
04fe
023c
fedd
fdca
fd62
013e
ff4f
fff2
02cc
0300
00de
fd3c
02af
02bc
fbb5
00e1
ff6f
0774
0286
02cd
fea1
fc9f
fd81
ff98
0147
fdaa
f8dd
0ac8
0105
0421
fdcf
fa17
006f
fe23
f731
02a8
0406
0221
fe04
fdc2
05c7
0115
fdc6
002c
024f
f84d
fd96
0189
005a
0036
0305
022b
003a
0394
0388
000f
f8e2
ffc1
ff23
009c
0229
0999
04bb
0250
0106
fcc4
fd84
fe61
ff4a
fd85
0100
0279
fcc1
ff86
fdaa
fd69
01e2
05f5
02fc
00e5
fab7
05c4
0194
fd8e
fcb3
009b
03e0
ffa6
003a
fbef
fecd
0107
ffe7
00dd
02ad
fe85
ff72
fe2c
06f5
015e
fe26
ff1e
fe3c
fa99
fc79
03c8
fe16
ffe0
fea8
ffd2
ff4e
003e
fd86
0433
f974
f90d
0145
fe89
fa8b
03b8
0516
fe77
fc8b
fe18
ff0c
023c
036d
02a9
02c7
00ad
00fc
050d
052d
fbaf
02f4
ff7d
036d
f9f9
f7f2
031a
ffe0
fe51
ff4a
fef0
062f
014e
fdbd
fa61
011c
05d3
f8db
fe1f
fe64
01b4
0629
05a9
00ca
020f
fe6d
0460
fc51
fe6e
00dd
026e
fdd7
0408
fac5
02ca
ffc0
fefc
f915
00c7
01b1
fb47
fc75
fb29
ff2f
ff01
0078
039f
0244
02bc
043d
03a9
f894
fdc6
fdaf
07e2
003f
fdb2
fd16
f8f2
0012
fa53
006d
0048
fd34
ff38
ff8d
03e4
0493
fb80
fe22
0551
034a
ff49
fb20
facf
fb2a
ff8b
01b4
ff77
fd1c
0072
026c
fcb9
0234
02bb
ff33
fdfe
fe5a
feb4
03da
01e0
03ce
039e
ffca
fb35
0127
fd75
000b
0325
fd4f
fc14
fe53
fe14
020e
fe15
023e
fff3
fd9e
fede
fe96
007b
ffe7
fcf4
fcb9
fb9f
fd24
000f
ff5c
060a
028a
fd97
031d
030d
fa3a
fc07
05fe
fdae
ff46
001f
facb
00c7
fd66
0404
005c
05bb
febb
00ba
0532
ff65
0322
044d
02ea
0001
0239
0103
f9b4
fed8
f895
0140
fe84
02a4
01c0
f7ea
045f
0273
04c6
ff03
02ad
fee2
002f
0083
fdf4
0110
0218
ff46
ff44
fdaf
0278
ffff
0395
ff6e
fe90
00ea
fc48
0400
fd14
fd41
fa9a
038f
fe73
01b8
0094
012f
06d5
fa58
f937
fdbf
ffff
0046
004d
0053
ff91
00b8
ff22
000a
027b
03c5
fe5a
fbf1
fdcf
fed3
fdfc
fef3
fd2f
055d
fde0
ffb8
fff7
faa9
03b4
02aa
00de
00c0
ff26
01e7
00e4
04f5
fa86
fd39
03a7
0090
0590
01c6
038a
0117
05f9
fdd7
03b0
0413
0176
fb30
06c5
0402
ff87
fed6
0312
0251
0211
ff70
ffc7
feec
00aa
051f
0403
0092
fbfa
013d
0184
fb39
fb36
0649
0325
ff2e
f983
fd02
fe4c
01a3
0619
037a
fac8
0301
ff3c
ff41
fe4e
fd54
fd7d
0601
0390
0020
ff19
faea
04ed
0313
0428
fd9b
fd8e
f945
01e7
fe55
0734
fe70
0295
fdb0
fe3d
fddc
fb81
000d
0467
fbbd
fe69
030d
0302
f93e
00f6
0000
fbe3
f893
fb66
f6cf
fe20
ff42
ff8d
febd
f9e8
0037
ffa3
00fd
ff64
fd52
016a
02f8
042c
0086
0420
fcad
02c6
04e4
06de
fce0
0552
fe1c
0275
01b9
016a
fff4
0091
02bb
fd0d
048f
0243
0383
0098
025c
0455
010b
fe00
0ad5
0003
fcb6
feb0
ffa9
fefb
0036
f886
fc77
01ac
fe14
05d5
fefd
fde8
fc0b
02a6
0026
010c
fbfa
fdac
0411
fbc1
0099
0076
00de
f8c1
fefc
02fa
fecc
fecb
