fe0c
ff89
feda
02a1
04dd
026f
0078
fd15
fcbc
fd3c
ffc7
017e
0360
fe52
0768
fd0c
0327
ffcc
f931
0112
ff79
fa85
fee1
fd1e
fba4
fe8b
fe31
010a
fea0
009b
fe3d
00b5
fe0b
0154
faaf
fc1e
0459
006d
0093
fce0
ffee
0185
fe91
0596
fb36
fe97
0372
02bb
fe52
f949
05b6
fc20
0135
024f
fd60
00a2
fc9d
fe4a
002c
0108
0238
fcbb
fc04
01b9
fc04
0602
01d3
006f
fac7
fae5
ff20
fe60
030d
f840
ff96
fa80
00dd
fd53
01da
fded
f880
02b2
0239
0454
ff32
fedd
02a2
ff0b
035e
020b
010e
fe51
fee4
fc84
fb9b
03ad
fe5b
037e
ff12
01b9
ffb7
fdd9
fa34
fd88
01c2
fd51
01ca
fa6b
03ce
faf8
0050
ff91
fd32
fc6a
fcca
0098
012e
ff0d
00c7
0469
016c
0342
093b
ffa3
fc86
00a5
01f5
0213
ff20
0783
0247
ffe2
fc67
0273
00b7
0394
fef7
fb4f
fa22
fab1
00f7
fcd5
fa46
fdda
05a9
04bb
002e
ffbc
fd79
03cd
f82e
ffde
0209
02cf
feb1
01ed
fe3d
fd56
013f
fe58
ff61
fdd8
fd8a
0347
0594
0577
02cf
0220
fc61
ff4d
ff9d
fd89
0283
fec2
0293
ff1b
fc4d
0011
fe14
0267
072c
fd79
0023
fe60
ffd4
fcab
ffe4
0139
fdc9
ff4a
ffa1
fff9
02a8
ff66
feb5
020b
0267
fbe1
ff00
03f6
fad9
fe67
0091
ff57
fdc5
05e9
0071
ffe9
fa3e
fc96
fdc2
fff0
05f8
0018
f9bc
00da
ff3d
01c1
0591
ffa3
fc4f
fc8f
0435
fdb6
fa58
fea6
020a
ff16
0120
ffe2
072b
0153
ffdd
fc89
0182
fe6f
fffb
0461
02fe
fdde
fc48
0003
04ab
fbfe
00f1
0310
fd10
fe27
fd6f
01ec
0369
fcb4
fcb5
0453
03fe
fc1f
0176
fe39
fc50
0263
0157
021d
ffa6
0254
02b1
0219
017f
0047
01cb
fd06
fafa
033b
05f5
0145
fcd4
02a6
fab7
00dd
fd25
fc4d
01f5
06cc
fd49
fbd6
fe65
0230
ff08
00dc
0460
ff6c
0413
01b3
fc6b
0263
fe5c
f9e9
06a7
04ea
fdce
fcd9
ff7d
ffe2
01f8
fdc0
0078
00cb
033b
010f
02e8
041f
fde7
0251
fd94
f8a1
03dc
01ed
0157
0326
fbee
00e0
fed7
ff66
fd1d
0333
0581
fbca
ffe0
01e0
04d1
ff71
fab5
fff2
006c
005e
fd29
fb38
fdfe
fff1
fb20
0226
fc78
ff6a
ffd1
fe72
0418
ff47
010b
fb9c
ff0f
fd60
026b
0463
00b6
0030
0104
fcba
ffd1
0080
fecd
fd17
fc08
fd3e
0290
007d
075a
fd61
fb24
0372
00c3
044c
0372
fb26
0415
fc42
fbe3
0295
feaf
01a5
068e
0415
03b5
fa88
015d
002f
00e8
0309
fa70
0067
f67c
06d1
feee
fd66
fde5
fc23
fe3c
fbe6
0435
fe3f
fd07
0000
faf3
fc2c
0188
ffd2
02bb
0302
0280
fb6d
02c3
f8e6
01f7
0442
01ab
fc1c
00cb
fe40
050d
0031
071c
029a
00ac
0298
fc90
0391
0484
01bb
fbde
04ba
fe23
fa9e
0129
f684
fe1b
01a0
fdb2
02e6
00b7
05c2
0069
faeb
0211
02fb
fb42
fcf5
fefe
033e
fb61
ffb4
009a
ff0c
08a6
0075
011a
01dd
fd20
fe74
007b
fbdc
0393
0394
ffd0
04ee
02a6
fd3c
0265
fbc9
fef8
0544
01cc
f957
048c
fd57
0171
fed8
fda4
fb16
fd4b
f9fb
0274
fe99
fbc8
0203
0340
02fd
00d2
06bc
feae
fa00
fc32
fd1e
03c6
fd92
0557
fab0
028a
facb
fed6
0107
011f
fc93
ffcf
0163
f902
003a
00c2
fb49
ff1f
0460
ffbc
01a9
0159
ff84
fbfb
ff3b
0007
000e
02c3
0200
00ed
f863
ff8e
01b6
0039
0a4b
038f
fd63
fdce
0263
f7f6
ff43
0511
002c
005c
01b7
03ca
fe05
0514
fc49
01e2
0305
fc48
033f
fd21
042a
fdf1
013c
015f
fd74
fc5e
005f
0156
025d
fb11
0365
00f3
0474
fffa
fc87
0172
fe4f
ffba
013c
fcc6
fe36
0032
018f
fe8e
ff8a
ff97
fcaa
02ef
fd63
fae5
fbf1
fec7
0634
ffe5
ff73
ffa8
fe7a
ffdb
fbb4
fc59
fed5
00e0
ff22
ff43
fe6a
ff66
029d
02b3
0250
0202
0131
01b9
fcf7
0076
0515
056b
fcfa
fe22
05bc
fcd5
f889
fc59
fd4f
03d4
043f
00fc
fbed
ffbc
fce6
ff6a
030f
0400
fe93
fbce
029d
fbd3
02d2
047f
fde1
fe62
0043
06fe
fffc
0443
00b7
ff94
fb89
fd84
fd11
fe55
0311
032f
0083
fc1a
0114
00f5
01b2
f961
08f3
038a
fe01
0066
fc80
03ba
0460
0028
fef2
03dd
01a3
fafa
0208
0119
fa0d
020f
fcb7
fda5
f6d8
fbef
ff3d
fcd6
ff27
0027
fce1
f9f0
0309
0243
ff4e
fd6f
ff3b
0444
ff58
fc47
0222
fcba
007f
fec5
0287
fa4d
0283
0130
fe0c
01f7
035d
016e
fc2f
0596
038a
fd2f
fd4a
029b
fcba
feaa
0261
0125
01aa
03fb
f88b
043d
fcd9
0046
00bc
fdf6
00fb
04d3
fce0
0166
fca0
fcf7
00e6
ff10
ff93
fee7
fa6e
fe1b
fff5
fabc
fd73
fa04
fdf1
ffa9
0337
01b4
fc9c
fdfd
0094
feee
fcca
fe98
ffea
fee6
090e
fe23
fbee
fe5d
ff10
fdaf
00b0
0370
fc97
fdf0
ff1a
031e
01b6
0010
ff85
0427
fbf1
04db
ff7b
fa17
0106
020e
f8b3
0151
fd49
0549
0617
02cb
ff0f
0265
ffef
02e3
0295
fdf3
015e
fe41
fdfa
04b0
facb
fdba
fff8
034f
fdf4
fc25
022d
06d9
fdcf
03a5
00a9
fd69
0498
