fc91
0238
fd79
01ca
00da
ff04
0420
fb2b
0095
ffe3
00c6
febd
0233
ff5a
fee8
00e9
0197
fae4
01ae
0358
0140
fb20
0104
0180
fec6
00a8
04aa
fb47
0401
fc7b
0287
0013
ff2b
f848
fe56
07b3
025b
ffd3
01ca
fd54
016f
0033
fa0a
fee4
012b
fd75
ff80
0084
003c
fc7d
0182
001a
fd78
03c0
015c
fcf9
0345
fd5d
ff84
fe37
04d6
fc9f
ffea
fd37
fc1c
fef9
0491
fec4
fe52
0184
0070
0299
ff13
fd1a
fb1e
07ee
fd03
0492
035f
fa82
fd30
faef
0142
fd3f
fc0b
fd0e
003e
006e
0454
00ae
0098
012b
023e
facc
0063
fc62
019d
02d2
02d3
ff03
052a
010e
0296
0167
007c
0082
0415
fff6
fe22
fa62
024b
0417
feab
000f
ffd9
064f
fc31
ff63
ff9c
ff31
034a
fd2b
00ae
fcf5
0554
ff29
ff04
fee8
fdd9
ff0c
0120
fed5
02a3
fca9
0144
034f
fc02
ffae
02b3
fede
fb9c
074d
00a1
fda5
fbcf
f7cc
04d5
fdf5
fe85
0119
0059
fc60
00a6
fff0
0afd
0156
00d8
0267
0325
01e1
ffbe
f928
facb
fe40
048a
0472
019a
01ce
007f
01b1
0122
fec7
fe4e
fcde
0085
0210
009f
f608
f93f
fe88
fc2f
00ff
0100
fefc
fd2c
ff0b
0590
fcbc
fe9e
ff53
fd40
0462
fcaf
00de
0498
0211
005f
0046
06d8
ffda
fd46
0770
fefc
fff7
002a
0558
0070
04e4
ff45
ff11
023f
fe09
ff6b
fe66
ffff
0123
ffcc
ff31
0109
ffcd
004f
045e
04d0
00d8
ff64
fcea
05ee
fe07
fbd8
0659
06d6
f8f7
0425
f88b
02d2
fe89
ff59
feed
fc97
0308
0286
fbd3
fd54
010f
010f
fd32
fd08
fdb5
00f3
fc03
00c1
fb23
03e6
fff0
0140
ff60
ff50
ffb0
fde0
0539
fe45
06be
fefe
fbc1
0056
fcc8
04fb
fe7e
fb71
fda1
043e
03e1
03ac
fd5a
02f9
008f
fc7a
0528
fe70
ff33
02a7
fe03
025a
fbf6
06ac
fd58
000d
0245
08cb
ff20
0114
fcc6
fdc9
0377
fd56
fc00
00b9
ffe8
00a1
00f3
0075
fbfe
0544
fca4
fa75
fede
fbfd
fe98
017e
030f
019e
04ba
0107
01b9
0242
027c
063e
040f
0184
056e
004c
fad2
feab
0188
0009
0192
0134
fd8d
fbaa
03c4
02f0
00b1
f9b1
fbfb
f8da
fed7
0111
fa21
0537
f8f3
ff40
00fa
ff08
ff3a
fcf6
048c
010c
feaf
fd4e
0208
00b0
ffec
0143
0045
04e5
05b3
02dc
fb64
fbdf
feb6
fcdc
fa42
fd4e
fd58
00cd
fe77
ff29
fdfa
fe56
f87b
fd3f
0324
0332
0031
fc05
f924
ffb3
023a
02ac
fe2a
fe54
ff69
fbbe
018c
fc9a
f7ab
01ed
0201
0178
01f5
020a
02c5
008a
febb
ff97
fd8a
fecb
ffc0
01ac
ff77
024d
0243
061d
02cf
fd8b
0050
046d
fe74
012d
ff2f
0110
0510
fad4
fea4
fcb6
fc72
ff29
fdd9
0436
05dc
02e4
0254
0207
fe9e
feed
fdb4
011e
0026
fadb
f98d
f99b
fb92
ff1c
fab3
0238
0399
039f
02e1
ff46
fecf
01ee
fa9f
030c
000e
fd68
053d
01d9
0605
ff3c
fc71
019d
fbd2
ffb6
fbba
0620
ff7d
0069
fbaf
fdb3
05a5
004d
fed8
fe1f
ffd0
fce0
0118
04f5
0023
0318
005c
fe8f
00f0
03d8
020a
0112
0213
0684
0487
fdd6
fe13
01d8
ffa2
fd7c
fcf3
015f
05e7
ff1f
fc42
00d5
fe25
fbdf
0189
01fc
0091
00c7
fe59
06bd
02e5
fed2
02b6
028b
06b5
ffa6
fd42
fde8
fa08
0651
0224
fbff
ff09
fe46
038f
0081
fd6e
fb53
0070
00ca
0301
01b2
ffdc
023b
fccb
0391
0295
016b
0441
fcc7
ff5f
fd25
00ed
fc1f
fbc3
0052
018e
0126
02cc
fb51
fa36
0260
071b
ff7c
fd1c
0061
ff3b
02f2
fb1c
0472
03fa
fac8
ff69
fcab
0083
06b2
03a7
fe6d
fd50
07b5
0067
fe12
ff51
0185
fd35
ff91
ff76
00c4
fe0f
0117
00f8
0188
02f7
0211
0a8e
fc06
025d
fcd3
f9f3
002b
0061
0398
ffc7
017a
011d
081e
038a
f8d9
06d4
0465
fc22
001a
fdbc
0552
fa52
ff69
ffcc
fe04
04fe
02d1
02b0
01c6
fff1
fdb1
0379
fdbb
fef2
02a0
0305
f7a1
fab7
004d
05bb
fff5
fee2
fbf4
fa39
03dc
ff80
045d
0253
fc82
f8b4
feb8
ffe4
03f9
fe5c
04ea
0371
040f
ffe5
00ed
088b
fc93
0160
fe1a
00f6
fe27
061e
fe2a
fc80
f923
ff97
fdbe
01a5
001d
f98f
ffaf
0347
ffdc
fbbd
0089
ffeb
00b1
fb73
0303
fadb
0164
ffe6
fa05
fdaf
fc82
0320
ffd4
04ce
04ea
0018
0276
fe38
021b
fd98
fcf6
0355
015c
fe57
fefe
0017
fce8
fd75
fb5a
0319
0127
0078
feb0
01bc
fe61
fcf0
fe80
0166
fb86
fef8
ffda
f718
fac2
ff27
fbba
0556
0128
02f3
0066
0317
0276
fbb4
003c
fa06
ffb8
ff18
02b6
fcd5
0042
03be
fc52
fa8a
fdec
fc54
fa12
0146
fc25
fcc6
fde3
ff1b
00d8
ff66
0054
fd71
07c9
fb1a
066a
fdad
fd2c
ff1a
02e3
0755
f95d
0260
0111
ffcb
fea9
faf6
0137
06ed
fcaf
fb3c
0365
fef7
fbff
009b
fcd8
00c6
fe2b
fd34
01ba
02ce
063c
ffaa
02b8
011c
ff3f
031f
06f6
fb76
fced
01c5
ff73
0355
fef1
09c9
00b9
0249
007d
fd89
029e
0568
03de
fdb1
018a
04ce
038d
0380
0685
fd65
031d
fda3
00e6
01c1
fe83
fa8d
