021c
feb7
000f
01b4
fcd7
fe07
ffac
0265
ffcb
fcbd
01c2
033e
01f4
0033
01a5
0065
ff30
0445
0136
fb48
ffb9
f93d
fdf5
0020
0116
f8bc
ff2c
fc55
016c
ffe0
051b
fb89
00e9
ff4d
fccf
f98d
fe38
fcea
fe93
02d8
ffa2
fd16
0013
019d
fecb
0137
016b
04bd
02e2
00c5
0002
ffa6
00c3
fe42
fc63
01dd
05bc
ff9c
0131
0177
01fc
01e4
01f7
f969
03e1
fe58
fde6
0054
021b
04bd
00ac
0118
0251
005d
010c
f9bb
fbd8
ffc8
003c
01d9
0172
fbea
fa70
fee7
fd41
00b5
ffe0
fe56
01f6
feb7
0011
fe9b
01d9
03cf
f99c
fdf3
000c
00e2
0115
020d
005e
ff15
00fb
0175
fe80
ff09
fb62
fdcb
0121
fdb3
01e2
030f
fdfb
fcbc
fe66
0283
005b
02c9
00df
fb80
0226
fe48
fd0a
fe7f
0173
01d6
fc5a
0385
01d5
0566
0343
ffa1
0098
feea
fe3a
0314
04f4
0253
fd93
040e
017b
ff85
fe6c
fdd6
0133
ff15
0139
00a8
f9bf
0640
038a
0111
08cf
0442
fd6f
045e
012e
014e
00ea
fe71
0058
03c3
fb14
01cf
0475
0694
ff71
ff95
00cf
023a
0037
fd09
038e
047a
0213
fc15
01b5
02f0
04a8
0359
fb9a
010f
ffb8
fdc4
fed1
fe5a
fb78
fd1c
0173
faa0
0365
fa53
fc97
ff3e
0509
063d
003f
fb42
0095
fcbb
ff62
055e
ff48
008d
ff8f
01d9
fbef
ffd3
fd3d
fcb4
fd2c
061b
018b
005c
0335
fef2
fc66
fe5f
00a7
fa79
fd1b
ff74
ff9b
ff04
ffc6
0350
fb00
faf8
0047
055d
fdcc
fe65
ff8c
fc76
01fa
fd0d
fd5e
01af
faf3
fd3b
0166
02f3
008f
018b
fe23
fe90
0173
fbce
0393
033a
fff4
0146
0031
fed0
01c2
feb0
fe57
0134
021b
0266
0024
fd30
03dd
ffff
fb94
03d3
02f7
027c
02ae
fe29
fea2
0249
0063
0129
010f
fd9e
fa93
00eb
00bb
fbe5
0221
fa95
01fe
056b
fb3e
037a
02dc
fe9b
00ea
ff0c
0213
fe6b
ff37
fa6c
06d8
02b8
05e3
0097
fb72
0071
058c
006e
ff81
04f8
01c5
01ec
0180
fd4e
ffa5
05fa
0024
fb7b
05be
fed4
02d0
f4de
05f4
003e
019e
fbe8
011c
0478
f7b3
0008
0340
01cf
fe5a
0352
033f
fc9d
010d
055f
01a3
f9a2
0187
fe78
03d2
fda4
05ae
00e5
fe3b
042b
016a
fe60
f9da
027f
031d
ff29
fe89
0012
02ea
004d
01ad
ffdc
fcc9
fc3f
fbc2
fd8e
035e
fdd8
fd19
fce2
0387
002b
02ca
fd76
ff1c
fcd2
0272
0190
0060
00a3
f81d
ff21
fe08
ffee
0324
018b
0064
02ad
054a
fdde
fb43
00c0
0308
0681
03fc
fbf1
fc8f
fb73
ff3d
06d9
0430
0201
011a
00a9
f9ef
ff41
ff45
fe83
ffcf
fcff
0129
fc6d
ff1b
ff6c
fb66
016b
ff2d
fd2a
0237
fb52
fe58
fc0b
01d0
fff0
051a
0246
00f7
faa5
0311
fee6
fe2c
fe4d
ff02
ff8b
fdac
fbde
fcb4
fc25
ffdd
fd3a
fc96
0069
fe2c
01a4
0044
014f
01b6
ff68
fe23
01c5
03be
fe87
0184
fd04
fac1
0171
04e4
02ec
00bf
fe7f
00e0
0398
fd78
04db
0042
0226
0050
028e
fde3
00f8
fd33
0471
fa92
04ad
014f
fd93
017b
0456
ff9d
026f
006c
01bb
fe01
0533
fe2a
ff32
0235
fdaf
fde6
fef9
0213
082e
fd64
fb50
002a
fd96
fd48
fe3d
0260
0148
006d
fc39
0602
0249
fe32
04e9
ffe1
0122
02e7
016f
fbd2
067c
014c
01e9
fe21
fc89
0139
0035
0170
0675
fc89
04ba
02ca
fa26
0080
ff7e
033c
00d5
0497
0546
01d5
fb38
fd16
fe61
01e1
fe44
0054
fdae
ff66
ff68
f9c4
0192
fd33
fd63
004c
fdb3
fd73
fac4
fd51
05b4
fb00
04a2
feff
f93d
fe7b
057f
057d
0143
019a
053e
fbfc
ffec
f97a
04f0
ff00
ffa9
03ea
0215
0348
ff22
fc17
00a4
0097
ff7c
0171
fcc7
ff5f
02de
0363
fa07
fec2
0388
ff97
fbbb
0287
0228
fb51
ffe8
0169
053f
ffa7
02b6
fbf1
fe42
059d
0601
004a
019f
0060
02cc
0277
fe5c
0309
fc25
fbea
01c3
027a
ff46
fce4
fc3c
fc64
fcb2
ffe6
0064
059c
fdcd
ffeb
00a9
0204
fd78
06e8
032d
ffdc
ff05
fdad
003d
04ec
02fd
0111
ff5d
0244
fc5a
f970
ff65
00ac
ff3e
027e
00e4
fe29
02e7
ff09
06aa
fb89
033e
02a7
023a
0523
ff99
fd8c
03ee
031b
fcba
ffe0
ff2d
fe0b
fc22
ff66
fd38
00eb
0105
01c0
fb99
04cb
0105
051a
ff75
fe87
fd93
02ac
01a5
fc93
060a
0168
05eb
f814
01d4
ffef
fe10
0962
fa2f
fe1a
00b2
fe86
0147
01d9
fed6
fee6
fb0d
01a3
0127
fb41
fefc
0019
fa76
fbe0
fe25
005d
02be
fe4f
ff72
0018
feb4
0370
01fb
ff25
f91a
029b
0259
fbed
fe3e
fcea
fcc1
0201
023c
0135
fab8
0222
0584
fc64
ff25
0586
03de
033b
feda
002c
01b1
0025
fa5c
005f
fffa
069b
01f7
fe41
ff33
fb4b
fd65
0061
fe46
03d0
05b6
fe17
feff
ff6e
fa42
0518
ffe5
fe86
0387
ff03
05ca
026c
0166
013d
fa21
fbb5
fe82
064a
f9cc
fb68
fcb4
0084
f9f9
fe13
0092
fe20
0156
036b
feb3
fc14
0158
ff67
fd92
f7f6
fcfe
fb5f
fccd
04df
fb68
0417
fd06
0561
03e6
0003
fcb2
fc86
01cb
ffb3
0207
03f3
fc0c
ffa7
0253
