fe28
ff70
ff65
fea6
0355
fdca
01bd
024f
01d1
032d
fec6
0187
00be
02ca
0028
ff68
ff35
07d6
004b
ff8e
fec0
04c9
06c1
ffc8
fe44
fb27
f909
05cb
fef3
fb59
09bd
fe50
fcac
feb1
fef8
02f6
ffe8
fff4
0024
fed5
0715
fd40
02d7
fed2
0068
fec5
0779
0224
00b3
00d7
ff15
03a6
ffc8
fc38
fc2b
05d6
00d9
003d
fe71
0393
f941
0144
fcd0
0073
05c3
012c
0254
ffaa
ff34
faad
053a
00c3
01e7
ffb0
046c
0073
0262
058b
002c
fe05
0162
04a8
fac2
fce0
08d6
03e5
fa67
02da
023e
fe63
01c4
028d
feef
fe19
fe4d
fe15
022a
0035
02cf
fd35
feaf
fb5a
042d
fe11
f6ec
0171
fbdc
0212
00fb
023c
fb57
feeb
005c
fc1e
02a4
011a
fed7
0563
0238
ffdf
017e
0098
ff07
04a0
fd9a
07d6
fdd7
fd37
04d0
0182
023e
0020
0360
fe84
0006
001a
06ab
00b3
02fc
0375
fdc5
0343
ff53
ffb9
fe88
fa5d
fe01
fe01
fbda
0060
0387
0165
0058
fae5
005f
fe88
fb92
fb2f
ff01
0124
0059
fe98
fe06
035c
fcb9
00c2
fc61
018e
0684
07da
fcd4
00e7
fe2f
fcc3
06b3
f907
034a
fc48
ff6b
fe4c
03a9
ff60
fcb7
fb08
03fb
fdab
00d5
fde0
0382
fb4e
01bf
ff6f
0179
00ef
fecf
ff80
fb66
fd93
fe0e
0068
fbd6
fee6
0070
fcec
011b
0213
fb9a
0020
fdc2
fd05
01f1
fee2
042f
0073
0023
febc
0314
048c
028f
fcbf
0184
02b1
ff80
03c5
ffd3
04c5
fdec
0042
fefb
fd71
fc0c
0275
ffce
03ff
012c
0103
0446
ffc4
0681
00ae
fc83
fcf3
04ca
0070
ffaa
04b4
fd85
0692
ff42
fd94
0488
faa7
0155
ff9f
074c
ffb0
0266
011d
02c1
02c2
fea2
0099
ffed
fcf4
fdfc
0186
fdaf
fe78
fd35
0398
fab0
02a5
ffff
ffaf
0309
fa0f
0338
fc52
002e
01d6
0029
0427
00e9
0010
f9b5
fe5f
ff7b
0916
0393
fd34
016a
030b
fa40
054d
fe47
feb0
02da
fd68
fb88
ffea
0309
fb44
ffb1
ff87
f7cf
ff94
fe3e
ff92
fee4
ffaf
0083
fed6
00d4
0079
ff70
0012
fccf
fdd5
0336
fc6b
ff0d
ff29
feca
fcaa
ff26
fa94
015c
fc19
00ff
fe63
0301
ff11
ff6d
0440
ff0c
0407
fdaa
fe01
019a
0059
ff4d
ffcd
03ca
fb66
fe7f
ff15
fdf2
013f
fe23
0545
033f
fda8
fd3e
005e
0373
fe64
00f1
03f4
02c8
00c8
fe86
fd04
fff1
fefd
00a8
fb08
04ac
00f0
fdac
04b4
0418
ff75
ff84
0407
03e8
02ed
ffa1
0453
fedc
0211
02f0
feb1
000c
fc78
ff7e
0282
fe1a
066a
0015
02c3
02b2
ff53
fb4e
fe22
f768
fb0b
feca
fd87
fdb3
fbee
fc67
0310
01ab
fa3e
ff8a
fd9c
fec1
fe76
fe13
fb2c
fca3
fa64
0167
00a0
fe63
0798
067e
fce6
04cf
00b5
fee0
ff57
0006
ffb5
0464
00ec
fe76
ff52
ff3b
f977
fb20
0030
f96e
02dd
052f
0088
0151
fdc0
00ab
0171
fe16
fe61
0560
ff08
0056
01b9
fe47
ffa5
fcb8
0449
f6b5
fb9e
ff01
fa57
0352
fd51
ff35
fd37
01cb
02e9
ff47
faa1
fb0b
f936
041a
01e6
0379
005b
0747
04f8
013d
ff16
03cc
fc77
fc32
0284
fe0b
03ac
0556
0195
02fb
015b
0142
feba
0274
fe2b
fdc9
fe61
ff6f
ffa4
018f
ffe4
031d
03bb
fecc
fd8d
feba
000d
0066
0131
0099
fa39
0209
044f
0233
061f
fe3b
0223
05c5
03a0
fe5c
fa8c
0176
00dd
020f
fd18
04be
0143
fc48
ffb0
fbe8
ffca
06d5
0013
ff38
015a
00e1
048e
048b
fbbe
0565
040c
ffb5
ff9b
03fe
ffba
fdcb
fffa
feb3
fc97
fcca
019d
00e7
fe50
fd81
fff1
0216
034f
00f8
f9d1
0134
02f4
ffce
0321
013a
0773
0014
ff6e
0702
04c9
fbea
fe4e
ff13
fb9f
fa71
ffe3
03b7
01c8
f84b
ff51
feba
fc2f
ff3e
035b
ffe8
0505
fd12
01b8
0030
ff4d
0827
0114
0043
002b
fde1
fe68
007f
fb6c
ff56
0113
02d4
fcf1
0532
fcb2
0022
00a4
011d
fcf3
fd76
ff4f
0217
fdc0
0079
0282
01a3
0203
0013
fbd9
0085
fb09
03be
0165
fed7
f810
fceb
f7c2
fae8
fdfe
fe0b
0262
fbc9
ff4e
030f
fb8a
f931
fcf2
ff97
ff34
01e7
feb7
fdea
015a
007b
faee
fba9
fad4
ff44
fe2f
00b5
fd11
fd8c
fb8f
05d8
0211
fb18
065f
fefc
fd63
0062
007d
0143
00b4
fbdc
fe93
ff71
040f
02b2
0033
012c
0484
003b
027a
fe60
feee
00b9
fb4b
fe4f
fdce
fb3a
fdba
fd54
fed7
fbe3
046d
f9e4
feac
fb6a
ffd6
ff1f
ff71
00e8
006e
fd9e
fdaa
fe9d
0408
0559
fcf4
fd9d
04d0
02fa
01cb
feb4
0483
02d5
fce5
ffc5
0027
ff1f
fc99
f681
018f
01ca
011c
fdc3
feec
ffad
fe0e
fbab
ff80
001b
07a0
fb48
04a1
fb9a
fbe1
ffb4
fcff
026d
01ed
04ee
02cc
fb0a
01f2
0274
ff11
fb3d
fd31
fdff
feb1
0494
fd96
fe60
fb1a
057b
030c
fa86
f9ff
f91a
feb1
fd0b
072a
04b6
003b
fa7e
fd00
fea6
fee3
0503
fca0
0194
fbf9
0141
fc38
0039
fcaf
f73d
fbdc
0124
014e
025a
ff66
ffc5
ffcf
007e
000e
fb77
fbad
fb79
04a9
fea4
0074
0705
03af
002d
fab4
0290
f7f9
fc8d
fde1
00fe
fdfa
0200
fd34
