0002
042c
ff56
f9a0
ffb8
03e3
fe10
0192
00f6
008e
01b1
fcb8
ff68
fd11
05c4
ff9d
ff50
00bf
00f2
039b
fe93
fc9e
ff69
019e
00f5
fb82
013f
fd50
01ba
fa5b
026f
fbb2
fdae
01ad
fbac
ff82
ffdb
01c7
0269
fff9
037c
017b
ff92
ffe4
010d
fe6b
03a9
003a
0280
0087
02fe
ffce
ff7e
f9ee
00dd
fff7
003f
ff43
fd25
fc52
00e8
014a
022e
fffc
ff77
02a7
03d3
003e
fbdc
04ad
fe2d
fca6
ffcf
fce0
0284
fa61
0270
0454
fc86
fed5
ff81
0364
048d
02a2
ff37
014c
fb90
fe5f
fcc4
02d8
f6e3
0079
00a5
058b
fe9e
016e
f757
0181
fb21
fee3
ff82
fbaa
fe55
005a
fd62
03f3
ff61
0047
0572
0156
ffba
fd7b
fc5b
ffa8
fd86
02af
fcb9
0282
fdd2
0265
01ad
001b
0199
ff7c
feb2
024a
054a
f91e
fd18
02a5
0288
05a9
0112
02a7
05a0
0083
01e1
0203
fc0c
feb0
fcf1
ffce
00ae
fe56
fe66
0095
020f
fc34
ffe0
0102
014d
fb6c
fc8c
fe5f
fff5
047f
feac
00ca
fcde
fee7
fa77
fb7d
f897
004d
0162
fcc2
010c
fd3e
0556
ff44
fe78
ff84
fe58
06e1
fef1
038e
ff28
0307
000f
fd35
0063
ff18
f6c5
00c3
fadd
ff81
fccd
0754
fe2b
0156
02e5
fc66
006b
03a3
fe54
ffc3
0379
01cb
fafa
ffbb
ff1a
006e
022a
fefb
ff31
01d5
0037
fba6
00a8
0139
ff4c
01b7
021c
0234
0273
00b2
ff78
04d1
0025
02e5
03ce
0360
fb5e
fdd1
03bd
050c
0709
ff70
fe7d
fe72
fd9d
fcbd
0142
fe60
007c
0062
04a0
007c
ff64
fa93
f908
02c4
f81d
fd04
00e9
fb93
fc6f
00b5
fa21
f98f
0488
00df
fe70
fd91
fea4
fe97
f7ed
fe47
03d3
fc27
fd9b
04bb
0038
f40b
fe19
faf8
fc0e
00fe
fe0a
fe49
0247
fad5
fc52
ff7e
00d8
0531
0238
fdbf
0105
00e5
fffa
0059
05a3
fee6
004d
fe98
fe91
0480
fb21
016d
faa2
fc80
fe07
0094
0322
fdd3
ffea
fc95
0323
00d8
fdcc
07ed
0086
fe18
ff53
fb47
f861
fec8
02b2
fadd
01f7
02b6
faea
fee3
ffd3
015c
020d
0498
fd7d
03b6
fd58
ff41
02b5
f65c
fff1
0522
fea0
fdf2
ff8a
fb8f
ff24
fe0e
0089
ffcf
0157
0432
01b4
0642
01d2
fabf
00fe
002c
0170
02f1
014b
033f
0565
fec1
fcf2
fed6
fe68
fd30
00cb
049d
01d1
febd
0000
fec0
fc7d
ffd2
fee4
feeb
ff64
fcbc
037a
fe3c
fb44
06cf
ff82
019f
00bb
fca8
0178
fe81
0131
0135
01e0
01e4
fe39
ff3f
fa72
fee9
fb30
f9e9
fa2b
fa00
03af
0218
0186
00ef
f7ff
044d
0202
fdbf
02a1
fe89
01c9
fbe1
018c
fcf3
fe3b
0268
fd28
ff10
fcff
012e
0121
fe52
fccf
0316
fe89
048b
fcd0
fd7f
fce4
feaf
011e
0007
0166
0534
0166
fdde
0484
fb5b
fc43
fd20
fb21
ff26
03c5
fb2c
030c
fce9
01a7
0229
fe9b
030f
01c3
f9ad
0386
fe8e
fc90
fe4d
fe65
fd4f
0453
fd78
f8d6
0059
03a0
fd49
ff5e
0279
ff5f
0071
ffb1
fab1
0236
fef6
fe40
01ea
0619
ff3f
fbb3
014e
005a
031f
01b6
f582
fcaa
01f4
02fb
002b
fa43
0078
ff1b
ff81
fa93
fc5a
0210
0269
04d0
fddc
fcf9
fe2c
fa86
ff20
f9f1
fdf4
06ad
feae
01f8
060d
019d
0491
0405
fedc
027b
0165
fcf0
01e1
041c
0074
ff90
001b
011d
00eb
019c
fc81
0368
0025
0328
033f
fe8b
002b
00f1
f935
0044
fee3
0198
ff33
0146
00fb
f994
04c1
fcfc
00da
ff1b
fea2
020e
fc39
0104
04f5
022b
03b5
ffc0
02df
011c
fb66
0314
0652
fd2e
01db
0072
0399
01e0
fb54
0052
ff1a
ff5a
fc78
fe10
ff97
fc7a
0097
027b
fdd2
07cb
ffd1
0095
fbc9
ff43
fedf
fb7f
0365
0046
0116
0274
fc4c
fe47
fdf0
012f
fd06
fb17
03ae
faa3
060a
fde0
ffa9
fe8e
0272
fe75
0191
00eb
032a
02d4
0445
0428
0570
011d
0034
fe26
0696
fd9e
0297
02bd
020b
fbe0
fe16
fe1a
fd04
02a9
ffca
fe08
009e
035a
0269
fb45
0351
fe81
011e
012c
fe90
fffc
fdea
f9d2
fc80
0578
01a7
00f0
ff23
ff6e
fa1c
f9ce
fd13
02ac
fe45
04cb
0416
ff1e
020e
0591
016b
fea5
00bd
0228
ff20
fe3f
03cf
026d
001d
ffbc
0145
ff72
0528
ffaf
0294
0428
0030
0747
fe6d
0402
00d3
fedd
fc4a
fdc3
0122
0242
ff9d
fc42
fe86
ffc1
fafd
fd1c
fee7
0661
fcbd
0231
fb38
fc0f
fc98
fedb
0084
0323
fcc8
00ef
fe35
ffd5
fef7
00d7
fb3e
fdef
ffeb
0110
0074
04bc
0015
03a4
fd36
005e
0007
ff1f
fca5
fefe
ff53
fe47
01a6
0504
04fa
fb39
019f
fb8d
0009
008e
0057
022c
03ae
01ca
fbd1
fc9d
015b
fcb6
003a
018e
feed
008c
f887
04dc
fe42
fdec
fdec
fdeb
026b
fed2
fce4
fb37
fe05
ff08
fda6
0182
ffb5
fdff
0132
0315
00fc
0078
fc12
0032
005e
ff84
fe81
000d
f917
fcaa
fc74
fbf3
faf0
feb5
0327
f852
02d3
fce7
ff8a
fb82
00bb
00c9
02f0
fce1
fea7
ffd1
01ea
019e
ffaf
fd08
00ab
01bb
ffd7
fbed
fabb
fe88
fd57
fb9f
fa00
02b3
0290
0035
0505
fbbe
0775
fe60
fe45
ff6f
fc56
fff4
ff0d
