017c
03b7
fc7d
fe11
fcdc
046c
fe73
0036
ff92
ff09
005f
ff82
fb4e
01e8
fd8a
0287
047f
fffc
00a8
fe81
0022
050b
ffc0
fa85
feaa
01c0
0378
015d
fd9c
fa70
ffe5
00f3
ffe2
ff9a
fcfc
fdf6
fdb8
fc36
01e1
fabc
047d
00de
fda2
014e
fa38
fdc3
03d1
ff7a
023a
0246
02dc
ff61
ff63
fdf9
0069
02f6
fcf0
ffc4
fe1f
0225
f9f6
067b
fe85
ff24
0133
fb50
fe10
faf6
01e2
fc5f
00c0
fbb2
02e8
0042
01ba
0478
0029
005c
fff2
fef4
0042
01a4
fed7
0127
fbfe
fe76
009a
061e
0705
fe23
fc60
0208
ffc0
0416
fa47
ffcc
00e7
fdae
0100
03d3
01ca
00e2
01af
0746
fe80
f95d
003e
01dc
fece
ff9e
00ca
00b0
013a
00fc
fe34
fe3d
fef6
f942
fc15
fff3
046f
00ae
022e
0107
037a
fd3e
0100
fc46
fdb6
ff10
fdee
00c6
f8a6
fbaa
0075
0632
02d7
02ce
03c2
ff2c
f962
006f
018e
030c
fe9c
0101
071e
fd40
ff2c
fef5
0259
fdbf
f966
0361
fbf8
fc72
f9d8
0342
fded
fee6
0145
fee2
00b2
f9b2
0019
0616
0029
029a
fdda
012d
fd42
fbdf
002c
00d5
fdc9
0091
0507
0222
ff48
0003
feb4
011a
011f
fe62
fed3
0129
036e
fc73
017b
fd9c
fc96
00ed
0092
00e7
fd12
ffb3
036c
084c
fcb7
0189
04fe
fd68
0264
fa0d
febc
fbd5
0237
017a
fdad
ffb7
0484
0312
0304
046f
0434
ff6c
02f5
000c
ff09
0401
05c4
05b8
ffff
fd8c
fdb2
feaa
fdff
fff7
fb66
fc7d
0308
03e2
03f3
05c9
01cc
fdbd
fd44
0103
fef2
0207
00bc
fdd1
fc34
0128
064b
034c
0104
fc4c
0576
04e5
fc0b
06ac
ff0a
026a
ff15
fc15
00a7
feac
fc94
050f
0074
fd1b
fb4d
052e
ffaf
fe74
fedf
faa7
fbe0
0271
0379
00b1
fda2
ffcd
024b
0080
02bb
058c
039a
fff8
fe6c
0259
06e8
0289
0541
0197
00bd
0351
fab2
0387
0082
067a
05ec
fffa
0367
027b
0125
fdb3
015c
fcde
fb91
fd12
015e
fff8
016d
00cb
0560
027e
045d
ffa1
feb8
032c
faf0
fc56
04ab
001c
f9ec
fd80
fc3e
0020
028e
06c2
00cf
ffaa
fc0e
fafc
0275
0019
fc7f
fee2
053f
0431
fec7
037e
ff68
02d9
045b
fda3
00cf
f8da
ff58
fe2a
03a9
01f6
018a
02e2
033e
004f
0313
fb68
012e
ff33
0512
0196
fe29
0329
fc81
fe51
001f
fe05
0252
fe79
0069
0017
ff59
0831
ff15
0106
01c9
fc91
ff07
008f
fb1e
00da
00b8
fed1
028f
fcf8
fd6b
0079
0450
f6e7
fac8
fd10
fe36
fc3f
fe0e
0447
02b6
fe4d
fe0e
ffbc
001c
0417
fffe
03c8
fe1b
ff01
06b8
0173
0444
fe08
fec4
fd66
0277
fd3e
0561
01db
04d1
ff29
00c1
027c
0238
037f
fe2a
0478
005a
01b1
ffa8
0168
fcb3
0226
fd04
fcd5
fe16
0177
0109
ff3b
fc9a
0072
fc88
04ed
0237
fe53
035a
fc84
ff95
0386
0352
056f
ffce
00f2
fe9f
0165
03e7
f98d
00df
0138
f9dc
fb5f
008c
0106
050d
04f7
006f
fc7c
00cf
0296
fc8d
f668
010e
0044
ffa9
fe4d
015b
fbb9
fd09
044a
01c1
ff35
fcf7
00ed
039d
fab4
05b4
fec6
0171
013e
0730
0217
fe7b
0888
0262
0153
fb8f
0264
03b1
0051
fb85
037c
07bc
fce5
0230
0006
05f6
fdeb
05db
fc22
feb0
01b9
0066
ff29
fa61
f929
04bd
fbb0
ff98
02d2
ff92
01b7
fb5c
0451
007f
0018
03b5
fd1c
fae4
01a1
fea0
0306
0171
04bc
fdfa
00c8
03ec
0321
fd95
fa29
fafe
0186
f9ca
0038
0061
fc4e
fe92
fedd
f9b8
fb29
fef6
085b
fba4
fd4f
0360
fe5a
fdc3
002e
01af
fd26
00b0
0209
0526
ffb9
024f
fa0c
fa08
fe63
fe4c
0044
019d
01a0
02b5
02e8
01e4
ffbf
00c7
fdd0
0282
01ce
01f5
00cd
0060
fe5f
00d1
038f
fed3
0699
0574
0262
fd85
fe41
fd88
067f
0242
01b2
0238
ffc0
00d7
fdd5
f694
0433
fe48
012f
ffce
01e1
ff67
005d
00bf
0603
fe2d
00e6
feb1
0006
fd94
0225
f9b9
051b
028e
fa7a
020f
0215
06ad
03e1
00b1
0105
fdcc
0259
038f
fd85
fcdc
ff3d
00ff
0317
0287
fa73
ffd9
0548
051c
024f
0177
005b
ffb3
0133
0389
ffbd
f81a
00f3
fa0c
fdff
ff6d
fdfc
fd26
ff3f
fc1a
ff8e
047f
ff0b
0588
feb6
fad3
f8ff
fbd2
fb5f
02a1
fe11
00f9
feae
fddf
fee2
0152
feb3
ffa2
0190
0060
ff0f
05f3
fc6e
006c
00de
011f
fb74
028c
ffbb
fdb1
0158
faf2
00bd
03c5
04f2
0484
016f
fb51
ff13
fd05
04a1
fc63
fab8
fdf3
057b
0494
fc20
050e
038a
fed9
00dd
0392
ff4a
01e9
faf8
fecb
ff5f
002d
fe5f
fe39
04b0
02cf
fa2b
0059
03ac
0275
05ca
0254
fe19
fe35
00fc
0519
fffe
ff62
ffe9
fe37
ff90
012b
fe8b
fbab
ffcd
02d2
fd77
0132
ffad
fbdd
fd9a
ff12
ff12
039b
fde3
fcc5
017c
0032
ffe5
02d8
fe5f
038a
fa79
0360
fac9
0198
fb81
0070
00ec
fe00
fa85
f93f
0519
fea7
0192
fa55
00a5
ffe8
fe6b
fc92
fe4d
fe2f
fdb6
03fa
fd0c
02c7
fe19
fd45
fce7
fd5c
fd03
0333
fc59
fd83
fb0b
fef9
fb82
fd70
ff7f
06b2
ffac
0147
0093
fe8d
fd2c
