fd9f
fff4
fefa
ff8d
022e
fe80
fd73
fd4c
0521
fe6c
fe58
01d6
00d0
fecf
fc1d
fc8c
fc1a
019c
fe12
010d
0256
0667
feff
fe77
0593
0161
0158
ff62
00c8
ff81
fb88
ff90
fe2a
ff3c
011c
fefe
fe7f
ff55
013b
fb82
fd19
04e0
fcbf
0416
fea5
fd40
ff8e
f7d1
fdc9
01ef
016d
ff21
fefe
01d6
fba7
ffc9
ff87
029f
0227
ff8a
fecd
fe89
04d1
fbb4
fdfa
0080
fae0
0188
fa73
fdbe
fe47
ffe9
014a
fe75
fb77
03f5
009f
ff10
ffe1
fe99
fcb7
fe27
fcf0
fddc
0261
fb38
fe60
0378
00a6
00bc
0118
ffb2
05d6
011f
ff96
01b9
04bb
ffc5
0103
fe22
0145
ff4f
fb4f
f944
02d3
023e
0167
fc37
feba
fff8
0288
fe81
fd35
0044
0017
fe03
fd7d
fcf5
f837
fd9e
0206
0117
fbb4
0106
054d
f9f5
0012
fdf6
fdde
02b9
fb87
fba3
03d3
0790
0070
fa1c
0050
fdea
0291
05ac
00c7
00f7
fdcb
012b
ff4b
ff5c
ff81
001c
0278
026a
02f2
fc2e
fab9
fe31
fe39
046b
050e
fa1d
01a2
0354
fef9
02de
fdf7
fd09
fc6a
fe4a
fe95
fd96
04d5
ff7f
fe0a
0232
038b
00cd
fe1c
fa0b
011d
ff7f
fa90
f878
fe88
fdb3
0130
0172
05a7
00e6
00e4
f8fa
019a
005b
008b
fc0a
fb0d
01f7
f80e
fe01
fdeb
0063
038c
02a7
fe3a
0598
00df
fd0e
02d3
fec5
00ca
fdbe
fb44
01f1
016c
006a
053a
fcfd
fe6b
fe90
fc53
0010
fbd6
057c
0240
fb9b
ff02
fb19
00bf
fc67
0040
faa2
0272
02ae
0002
0297
00db
f9e7
ff04
fc07
fd41
0195
fd38
00f0
0347
009d
fe4c
f95b
fbce
012a
019f
0168
0066
fd20
0735
ff6a
05c4
0047
03a1
0276
024b
fd70
0253
05b0
015d
fb30
04d4
0266
01a1
0622
fc34
fc40
0554
fec6
02d1
fdde
033d
fcb5
01a4
fd6e
0124
01ed
fbf8
0164
fe13
fb99
fd76
0517
fa63
02fe
0023
fc48
fccf
014d
0048
004b
fc80
fdf9
fad3
005d
074e
fe6f
03ff
ffbc
fe71
00ad
ff9c
0411
0550
fe1c
ff49
0104
00f9
0276
001c
0273
0272
ff16
ffd6
ff07
fad0
fc15
ff38
fd2b
fcf4
f931
001f
fb11
026a
0343
fd6f
ff5f
024f
0415
fdb9
02ae
f8e3
00b3
0008
01fd
0122
feab
02cc
053c
011b
fea3
fd60
0167
fec9
fedf
fcd5
0139
feb4
0595
fd1d
03b3
ffc0
02f4
00aa
01d1
fe39
003e
00b2
fbc6
0393
0196
01ea
01f6
0069
fd9a
fd6e
fe6b
fad6
0266
041d
ff05
017d
ff10
fea9
ff05
fb72
006e
fc7b
ff71
01e8
fdf6
0409
05b0
0157
002a
024f
021b
fdf3
ff0c
0267
fe70
fc2b
fd50
01d4
04b8
fc50
03f9
053b
ffb5
fc63
02e1
002a
fe2b
023a
fc98
ff3c
fb60
fea5
fded
fdf5
fab8
fb08
0381
f878
fc11
febc
fd4c
027b
ffb2
f916
fa75
0186
fdb1
fe68
007d
03af
ffd8
02d8
00b1
02f7
030d
0314
fb65
015c
ff0d
fb9d
04f4
fcc4
04d9
f8fe
fef0
00a4
019d
fba4
0037
ff1f
0036
fd25
fd47
ff5a
ffb1
0250
03ed
fd8b
02de
fa66
00cd
0173
02fd
0375
fc02
0120
0565
0077
0781
fe8c
fbfc
fbe3
039c
fdd9
fb5e
ffaa
0012
036e
feb1
03a7
fea3
050e
011e
fe85
01c6
0169
fcb9
fe89
febc
fcb2
04a7
0271
0528
038c
ff7b
0017
fe5e
020a
fa2d
005c
01d8
fe3d
fbf5
0500
ff05
fee6
feb7
0022
f8b3
02a2
fdcb
fdef
0357
0015
002f
f8f1
fc59
0050
05dd
fb9d
000a
ff33
fbbf
0040
ffb7
01d5
ff37
01da
0087
fb03
020f
ffab
ff60
0294
01ab
fd14
02cf
f7eb
ff5a
fb6e
0225
fda7
fc96
0212
0450
0291
008e
0430
fc97
fef9
f929
050d
063b
fcdd
ffb2
02ab
00e6
0035
00cd
fe85
001d
fd9c
fd60
fe95
018b
fad1
fe1d
fd70
fb97
fe61
04d4
01f3
fe99
0166
0313
0393
f972
03cb
fec7
01fb
ffbe
0243
fae0
fad6
fa51
0086
ff55
fdbe
00b8
fa66
0311
08d4
ff81
026a
ffa6
060a
fffb
025c
0109
ff87
fe61
fdf8
011d
03eb
ffeb
049b
0039
fffc
0327
01fc
fea7
0167
01f7
02ba
0434
fa07
0240
03b7
ff0c
fbe4
028d
fed8
fe39
fcce
0378
0220
fe2d
fdf9
0350
ff56
ff3c
fcfc
01e0
03fa
feaa
015b
febe
014a
01bd
fe75
fc4e
feaa
febd
01df
0012
0220
0052
fe94
00ed
fe4f
ff7f
068e
ff9e
00b0
fe34
ff1a
fecc
fd7c
fd2b
fae6
fc71
03e5
05a1
0102
0027
01b0
003e
fef5
fd9a
0062
0140
fca2
fcab
ff08
0179
fd9d
fde7
fbb4
ff35
02e4
0195
0281
0148
fe7f
01de
fbc8
ff0b
062b
fdda
0115
fea7
0106
fe80
ff24
025b
fd84
ff86
fd23
fd3a
066d
00f1
00fb
0250
fe24
008d
ff9d
06b6
ff50
035d
00c2
ff29
ff61
01f5
fcfc
0117
006f
fbdc
fe9a
f92e
ffe2
fbbb
00d1
ff2b
ffd1
ffda
fd8d
fdd4
0071
046e
011a
030a
0059
fc1a
02c7
031b
003c
fbbb
feb0
fff2
fe56
ffce
ff84
ff5f
0884
fc57
0096
03e8
ff88
ffff
fe87
0075
fed5
044a
fe17
0549
fef3
063b
fe14
feac
0290
0378
ff3a
0320
feec
06cb
0654
0148
031c
044e
fccc
f95b
003a
fcf1
ff3d
fc9a
0126
042f
051a
0248
0070
00b4
0274
fc29
0155
0094
00bc
fc9e
