fa6b
0050
0209
0287
016d
0063
fd65
005d
fc19
03dd
0116
0062
ffa8
fbe1
fcd4
fb59
ffe6
0145
0327
ffa3
05a8
01cb
0718
01c9
ffcf
04fb
ff64
0233
019f
03b2
00d1
fce3
0175
fc7e
fe76
fcf8
0463
05e9
04ad
010c
fb8c
fe61
fa2f
023a
0115
0691
fce8
0382
fe49
019c
fd3e
018c
0470
fe26
0110
01a3
fdc6
03ff
0528
ffd9
feaa
0051
fd13
0072
0632
fdde
fda3
05e4
0381
fdfa
047d
fe1b
04ad
fe9f
0609
002b
02eb
fe71
0309
ffb3
02be
0097
ffe2
0035
fa30
00c1
0146
fcf4
0536
0089
0213
0313
039f
00bd
044e
009c
0199
fdc3
fff9
067c
01ae
fa21
00a0
030b
000f
0086
04d8
01e0
ff0d
fe7e
f9f2
0348
feec
0432
ff5c
fba0
fefb
fcfd
fb15
01cb
0263
fd9a
fce5
ffa6
fe42
024d
fd0b
0041
ff85
02a1
fea0
f94f
024b
fe86
fef9
fac1
fe2a
04d3
018d
0339
fc95
024d
01b5
f99a
0378
fd53
04c6
01d4
0069
016a
00f2
fd0c
01ee
fdf6
0570
fb5a
fcfb
fe4d
fa60
025e
0106
012e
00cf
fea2
0184
ffe5
02d1
fb52
043b
0311
f862
00de
fd4a
fcc5
fb32
fc43
00a2
fc7a
fd70
0468
fc5d
032b
03bf
0099
00be
031c
fcf0
fba9
fe32
fe84
fc4f
ffb1
fb23
0143
047c
ffc8
fb5b
03d2
0197
02b5
01dc
01ac
035e
fe38
009c
fe09
04b8
0673
014e
00ba
ff45
ff41
ff77
0035
047c
ffd1
042c
faf0
0107
00c2
fd2d
fe7e
fd6e
fb8b
fcef
00c3
ff8e
fc43
010c
fca3
fe36
fab6
fc5d
00ac
0318
fa0f
004d
00d5
faf4
feee
fa55
046a
00de
0233
fe29
0093
fc04
fe65
008d
04ad
fc8f
000b
002a
04ce
fa7b
fe49
fc73
fa56
0160
fa99
f944
fcfe
02ab
03a5
fca3
ff73
027b
fd1e
fd72
fca1
ffeb
fb40
03be
fd37
fe35
ff73
061f
0132
feba
fb75
fcfc
fa87
05ae
01c2
fc8c
fa10
fe20
01f5
0371
fb5b
feb2
fe97
ff3a
fdc0
fe06
fd9e
02b6
0406
ffb4
fea5
00a9
0140
0033
004b
0391
fed2
018a
fad0
0077
05ca
04f7
ffc1
fc8c
fc92
fdd8
0048
fd9a
fd61
ff58
0287
029b
ff61
fb5b
0000
ff3c
ff3e
fc15
fc34
fdea
0202
05bc
0357
ffa5
fb4d
ff25
feba
0154
02a6
0000
01ac
0513
0283
fed8
01ae
fc0d
fcff
0569
0554
f9bb
0258
00a7
009d
ff4f
027b
fce7
fca4
03e1
ffb4
0093
ffb4
fd49
ff88
08fc
024c
033e
fd32
fe4d
fda9
056e
fbf8
0117
0564
00bf
02b8
fc0b
f9e8
0132
023f
0025
0381
056d
029d
fe9f
0113
0037
01e1
0067
fb59
03e5
fe61
fd97
fffe
0139
fbc2
fedb
fd94
0530
fc56
02fb
fff6
fef3
fb2e
f7c2
fb1b
fb67
faf3
ff12
fdcd
0238
0443
04db
0238
fad7
0080
ff6e
fe60
feff
ff79
fce3
fcf7
0404
0208
0135
0085
ff48
ff70
fccb
fc9c
fc2b
04d8
fdfe
03f3
044c
0178
fc24
ffda
03f3
02f5
fa10
014e
fd59
ff56
fab8
fe4d
ff29
02ae
fdd5
0280
01b3
fecc
021e
0520
ff4f
fdef
0153
ffde
fec2
0130
fdfd
fa05
03d6
00b2
000a
fdc9
0135
015e
fe0c
0249
ff60
fcec
054a
fa56
ffa6
008c
044d
0011
fbb0
0404
fc9b
03fc
ffc1
066a
0273
fcab
fbe4
f87b
ffe5
fc53
fbe1
fbdf
ff5e
fb03
0085
ff05
feb7
03d2
01d4
00fe
0219
fd27
0252
0314
ffc9
0239
ff62
fa13
0541
fd61
fcfa
fdbd
fd5f
0495
00e2
fe15
fe92
024f
00fb
fc55
00d1
00b0
0025
0367
02fa
00c2
fd26
0283
f9c2
026b
00e5
ff21
019f
05d6
fdfe
0547
fde1
fdb9
fd47
fe77
00f3
fe8c
0339
ffe4
fed7
0120
fafb
fd71
002d
01b4
01a3
faf1
0584
008a
fd31
0101
fd93
fdb0
fc63
ff57
03f6
fe45
0039
00b4
0121
028d
0385
fd05
fe00
05e9
0091
03a9
000d
008d
fff8
0306
0185
fa1b
ffdc
0604
fdcb
fe77
01ba
02d7
047c
ffc4
0aef
fdf9
001a
00b6
fdd1
ff48
00e3
0252
fb07
055a
040d
fcac
fd26
045b
fcb2
fa9e
0253
04f9
fa9b
08be
005a
fd16
fee9
0041
02c1
fe61
02ae
007e
0452
0259
ff91
00a8
fd2c
f72e
0539
000a
0500
02df
0053
01d9
045c
fee3
0024
fe9b
012f
f877
ffda
ff3c
0224
faa2
00b0
feb6
faed
fb05
fd7a
fe10
fe9c
0096
048d
0558
0107
fef3
fe48
01cb
fc41
fe41
023a
020b
0200
03e7
fdef
00ce
fffa
ff33
fe88
0031
02c7
0185
feaa
02f5
0064
03ef
fc86
fcc7
01c5
03cd
02f5
fc0e
fb07
0282
00c0
fe36
fb0c
ffe0
fbcf
f9c0
fdd7
085d
00ef
fed9
020e
fa9b
fe5b
fcb3
fbf7
001b
0147
fb71
fe27
f9ca
fc86
fff9
fcd9
fcd2
fdca
01e7
fe8d
02e6
0495
0418
fe70
fec0
0069
0189
027f
001d
fd5d
0355
fb8e
ff0d
0172
0011
005d
fd1e
ff4e
0244
00eb
fb4d
ffc1
0402
022b
fdd8
fd31
fe15
03c9
0338
0276
ff01
fbf4
faa8
0006
0029
02da
ffa3
0396
030b
ff13
01b0
005a
0281
0091
021e
0380
fefd
fd7a
f88f
0125
00e8
fca0
01d2
feda
fb4d
ff35
fea1
feae
fa68
02f9
fc72
0339
ffe6
022a
06f3
fdbd
fcb1
ff9c
0085
ff95
fd5c
f9e3
0089
ff21
027e
ff7d
fb2d
ffd0
0039
007d
fd04
0294
01cb
