04d5
ff82
0186
02c6
0063
fda6
0479
fe3c
02e9
01b3
fe09
0163
fecf
ffd2
ff23
fee4
fca7
0245
01e1
ffac
0230
fb34
0021
f9d1
ffc1
030e
0421
01f9
ff4c
00fa
0027
fdc4
fe83
f8af
0109
fc42
03c4
fd05
fa51
fd1b
fed8
ffa0
fd6a
024e
03ac
00dc
0031
fd56
ffa0
04c6
ffda
02b4
02a9
03db
fd1c
f9be
0581
fc13
053f
f87c
ff89
fd60
feb0
0225
fbc5
06f1
01ac
0481
04a1
fd4e
fcdf
0248
feda
fbaa
0072
fec9
0359
fa65
fffc
fa28
fd54
0370
fcba
03a9
f7a4
ff44
013d
0075
003c
fea3
fc68
fb42
0426
f9e6
0403
fac1
038e
fe62
01fa
fb59
fe77
ffb8
ffb5
ffcf
00d4
067c
0048
0346
058a
f860
02cc
00e9
fcd4
021b
ff82
ffb7
fcba
0106
0121
ff15
fe10
05e4
02cb
017a
0116
0522
ff2f
fc50
0029
ff4b
fcad
0340
fabc
01d8
fec0
fffe
fd9a
f8f9
018f
ff03
fcd2
fba0
0959
fa44
0065
024a
01da
ffb0
ff07
03dd
037e
039b
0215
fedf
fcbd
ffaa
fe5a
fcdf
ffe6
0257
fec4
054e
fed8
f9bb
fec8
04db
ff53
ff7f
0457
013c
fd14
01b5
0452
054c
fd1c
01a9
023a
ff1e
05ea
fc9a
00d3
ff72
00c2
ff26
fefc
fd0b
ff86
00f7
0181
fd41
04b6
0011
fd7f
ff8f
01f3
01a5
fa09
ff78
00b4
03ff
025d
0007
0063
06f4
008a
ff98
fed0
01b8
fffa
03ec
ff1c
010b
0103
023d
fc70
0174
fc07
fe6b
fb12
0441
fe0f
fa6e
014a
04cb
0546
027f
fdd2
fb85
0142
ff02
01ab
0525
fece
00ac
fa46
ff08
020b
ff05
fd98
ff66
fee5
0106
ff72
fdb5
054f
00f2
ffc9
0529
ff27
023c
ffe5
03b2
0555
fd68
fe17
0416
042b
0540
02c9
fcbf
fd0f
0775
020e
f97f
0178
0068
054c
fd12
f9f4
01b6
0428
ff89
0703
fe52
0162
ff90
01c9
fe0a
007c
fd0f
0294
0135
fffb
0384
03dc
fe3d
0384
feb6
fb9c
fea1
faf5
056c
fe84
016e
010f
ff6d
fdc9
01b3
03a9
02bc
04c4
f973
0070
fb79
01da
ff6a
01e4
024c
0061
fd68
063a
0052
fb39
fce9
0390
0372
fdd5
0516
fe48
fa66
00f9
0507
01bc
fe6b
0145
fbca
ff48
0147
01c2
0372
f67f
02a5
ffc6
fbe7
0129
fe4b
fdad
0481
0193
ff6c
fe22
024d
fd38
010e
ff90
fd59
025e
fe48
fea6
ff4c
fd40
fd7e
0278
02aa
fd83
00e2
ffff
0834
031f
fd02
fcd3
ffd7
fe78
ff98
0539
fa54
fd02
fff6
0041
00dc
fa82
0278
fdd4
ffda
ff06
fefe
fee0
032a
fe1f
fdd8
fc61
046f
ff9d
fba5
0080
04b1
0061
fbf4
fc77
024f
03c4
025e
00ee
ff55
fdc9
fd73
018a
0211
02b2
fd8b
020a
0584
fe4d
0076
fdb7
fea6
06f1
013b
029f
f7f6
031f
f95a
ff1e
fcc0
0143
fc8d
0451
fd30
fd74
018c
ff70
ff9e
022d
ff3d
013f
fc49
f9cd
0299
02f5
00ad
feab
023d
ffac
02e0
fd6b
fed4
035c
fa96
0089
fc16
0397
018a
fd7b
fd61
0196
faa3
0211
fac4
fc1b
003a
ff70
fd8b
fee4
0230
fb8d
fed7
03d2
0288
0251
010a
0332
fad1
0236
fe23
ff19
01ae
fd39
ffb4
022c
00c8
fee9
045a
0398
01a4
fc9b
ff73
feca
049e
fcc5
03bd
0249
ff61
02c4
02b6
002b
f913
0345
fc13
fec2
0350
f974
ffbf
fdc7
ff42
06e6
00f6
0264
0013
ffb8
03ea
f9b6
0115
0274
020e
0064
00d8
ff4c
0052
fead
f7b0
0209
fdc2
0606
0151
fedc
000f
0302
ff95
ff3d
0492
ffa5
ffe0
00b4
fe11
fcad
00b2
fd0f
0058
ff67
0188
fcf3
0206
005a
ffb4
fd84
033f
fd1c
014c
0439
fd1c
009f
fca4
0272
0127
01d5
02e6
fd57
00ff
fc32
fe41
0419
0212
ff68
fed3
025e
0268
fd33
fe05
fcd2
ffcd
fb13
00e4
02b5
0027
fc09
0071
0211
047b
fea9
03b7
01ce
fe1b
0330
fbf3
fc60
039b
fe5e
fd01
05c6
020e
fe9f
02d9
fe10
ffca
0150
0215
f9b5
fe4c
0138
0381
04d2
fb00
fff1
02bc
ff9c
fca5
035d
f98d
fb1c
000b
002d
0101
fe00
02b7
0180
0189
0005
ff69
041d
fea1
0031
01dc
ff8b
01f3
fbbe
0528
04a2
0416
fa92
0184
fe7a
fbb9
0235
046e
ffff
ff96
fec3
02b5
fbd6
fbda
fe21
fea5
038b
f812
fbab
fbfb
fce5
01d2
03da
fc79
fde1
0616
0584
ffaf
fde9
0186
feea
01c7
fe3a
00fa
00a3
0112
fecd
00f8
fe08
02d3
06cf
ff95
009c
fedc
0247
fee6
01b4
feee
ff71
06ac
ffba
fd42
faf7
0111
ff99
fc4b
fd6b
0175
059b
fd56
072a
01cd
ff37
01f2
0289
02df
ffaa
007b
0353
029f
fcf8
01e3
fd4c
fc5b
fcb9
0061
0557
0630
fc5b
ffa9
01b2
ff06
0434
04a7
00c0
034e
005b
00fa
036c
f9ec
f979
0118
ff71
0194
00a7
fbd3
ff8a
0066
01d7
fc18
097a
fdfd
0428
0074
0216
02d7
fd20
fd55
fd60
fe35
fb20
ffb8
fe59
ff17
fc3d
ffd0
f838
0458
0459
0359
0339
0129
fbad
ff68
f9ba
00e0
fbaf
051c
03d5
fd55
07fd
03da
0298
00b9
f823
fdb5
023f
feb9
ffe2
004b
f8e8
ff4d
010a
0212
0072
ff02
0229
0346
00a3
fbc2
05d4
0310
04d8
0301
00d6
0215
066e
0172
016a
0279
0041
fd3f
fccb
0246
050b
fd33
0075
01d7
