0263
0377
0062
ff97
0134
01bc
00a3
0268
005e
02ef
fbf9
0456
068d
03a0
ffe7
fecb
fee9
fec7
0074
05d9
fd90
fa7f
fc1e
fed1
f403
ff17
0395
02c0
fec3
fd26
fd82
fdb4
048b
01a4
0294
fe49
020d
fdd1
01f3
00a9
fe43
fd03
0168
ffc8
0148
06a3
ff22
fd7a
00da
fbe7
fe11
00e1
0208
02ce
f6e5
fec2
f961
04a4
00eb
fb0c
03f7
fefb
ffe5
ff43
02c9
036e
fc58
ff00
05bd
0023
04c7
010a
fcf2
059f
00b3
fb5b
fe0a
03f8
0056
0126
0224
0130
fe5a
fd4a
0327
01c5
fdc9
03dd
03ee
fdbb
fe0e
00b4
ff19
fdb6
01d2
0456
012a
fdb7
fce1
ffb3
fd56
fd25
fffb
fce1
fdfa
fb85
fdfd
ff12
0272
02f9
0370
00da
0217
f70b
fb64
fd3c
ff8c
00e5
01b0
fdef
fd53
023f
fcf9
ff86
ff73
fe0e
011a
006a
fe22
009d
fbf1
ff7e
ff23
0245
02dc
ff1c
0318
002e
ff9c
01b5
fd57
0332
fd96
01a0
fca2
0001
05b9
fa60
fb66
02c3
022c
fb58
02f1
03f0
ff27
fe3c
025f
00d6
013f
05dd
fb74
f9f7
fdbc
ff95
fe81
02d9
015d
00a6
0560
03c5
04ae
033e
0117
0014
0427
0018
fcb4
fd6c
fdec
08d2
fe8e
f9f3
ff91
fc91
02de
f761
fbb7
071c
0195
f8ba
0307
01bb
fc44
ff86
01c7
fede
026c
faac
ff86
ff82
fd18
fb4c
fce6
0156
0116
0053
ff6c
fdc9
002c
0096
fe4b
fb9d
0117
0415
fd06
ff7b
fddd
fad9
0047
0308
fccb
fc58
04b2
fc57
fe08
fc5e
fdf6
0408
0088
03ac
ff2a
02b5
feef
fbad
fd08
02e8
faa6
fa7c
f8d2
0100
03bd
fcf6
fe71
0459
fca9
f8bf
f9dd
fac9
00ec
ff25
fdc7
0252
08e7
014e
02c3
0030
001c
007b
0216
031d
044d
fd5d
ffa7
013a
06fd
fff0
052f
fcf7
ffeb
ff3a
0040
fe5c
fdfb
009e
fcef
fef5
fd44
fe4c
fcbe
0093
05b0
fc3e
00ed
0319
03b9
ff0e
fce3
03d6
0018
0315
0751
0325
04b4
fb8f
febc
ffb9
fedd
fcf0
0087
04c7
0462
0132
f9d1
fde4
036b
fe0f
0093
fa6e
fa1f
0337
0160
0285
fd8a
019d
03ef
00c5
017b
0351
fbde
ff95
00ac
feed
faf1
053e
0484
0171
0332
fb09
fcf7
fcaa
fde5
0432
fcb8
047c
0243
00a6
fe55
00a9
00fc
007f
03d2
ff9b
ff54
f9c4
fd7b
0366
0104
039a
fec8
051d
ff93
00a4
fd1a
0032
fc57
ff10
fd73
01b0
047c
0371
01de
0061
fd5c
038b
ff26
fef8
0051
0174
fcbf
0267
feae
0099
fff0
0195
fd7a
0070
fb0a
ff77
03cb
0009
ff11
ff0c
018a
ffe4
037a
0442
00b7
fd82
0034
0179
03c8
fd5d
05a2
ff0e
0668
ffad
f849
05b8
000a
021d
027d
ff62
0232
ff97
fd71
fbf9
fc98
0326
001d
0315
ff58
fe77
02da
0560
049d
fe39
0205
0262
ffdf
026d
02c8
04a6
fc93
03ad
0323
0220
fdcf
fbd3
03a4
fa51
0097
fc74
03bc
fa37
ffdc
0176
0385
fbc6
ffeb
014e
03c4
02d7
0201
021e
015a
0059
032c
01b5
fd3e
ff0f
03f7
fc1f
033c
fdaf
fbe0
ff12
faa4
039f
fb29
ffc1
01c3
fb1c
fc11
fd53
0523
003c
0355
fd6e
fc06
028d
fe7e
03e5
0048
0213
0505
fdca
0416
fdb5
0344
f6ec
05d9
fe32
fe3e
00b3
f8d8
fed1
fa48
038a
0244
018d
fe7e
fecb
ff05
051b
fdfc
06b1
fd4c
fcd5
fc98
0067
fcd8
ff03
fd7d
0335
0149
f940
0424
02a5
0288
ffab
0311
0095
035a
01f0
00ca
05b1
033b
013f
ff28
0149
ff41
01d2
fe7b
fd19
fdbb
fd45
fe8e
fd11
f85f
fc93
0240
fd69
fe8a
017b
fcd3
ffe8
fd1c
0405
fdfb
0551
ffbb
fd7b
014c
fbeb
ff69
ff61
00ee
fd22
fcfa
fc4a
02e4
fa7f
ff22
fcda
068d
0364
0469
00e6
f9d9
0351
fdd6
00cd
01f7
0295
00a5
fee4
013a
0458
01ff
05a5
00eb
01ce
012a
fe74
fd19
fcc9
083a
fd8a
049b
02ff
ff09
fbf6
fcf1
0169
fed3
fc68
02ab
fb0b
fd95
ff81
02f1
0126
feb4
04e0
fbd8
0452
03f9
009f
fbd5
ff2b
023e
0654
fb76
fc99
02ef
0122
fa59
02db
fed6
01d3
026e
027f
0080
0430
0063
fa56
f986
02d4
0509
fd35
012f
fd13
fbee
025d
fd9d
f9e0
007d
01b4
01af
02cb
0112
01c6
f66d
0178
0270
f9b3
fea1
04a7
002d
0050
00c7
fd4c
fd32
fc1b
fe7f
00e8
fcbe
0284
fbd7
fb22
042b
03b8
fbf3
fdfc
0011
000f
fc50
fb41
feea
f97e
fed2
fc31
02db
02c9
fae3
fc0c
0365
0230
fdde
023a
0127
fc16
043a
024c
0372
fe30
01f9
ff61
00fd
fddb
0349
fddc
fe01
037d
fb13
fb95
00ef
fb94
ff10
020f
fe77
0170
fe00
0317
0088
fdec
04fc
fbcb
fb46
fd33
fd17
fff2
02d6
ffa1
03e5
ffee
0007
fa07
ffa7
fd27
ff04
0122
0076
fc88
fce2
fded
ff8e
ffd2
f9fc
004e
fee4
03ee
ffab
02b5
03a4
fc25
fb43
00de
0410
ff9a
04cc
005f
ff28
008f
fc95
0017
fe98
0123
0287
028a
0083
0645
fe65
fb60
03f8
fe4a
f8d1
fe57
fff8
fe08
0013
0466
000e
0299
03b7
0576
01d4
041e
0187
fde3
0281
ff35
00fa
fd0b
0952
fc9a
fda9
fcbd
03b5
ff34
fdbe
fb84
0260
fdda
0266
01c0
0144
0141
ffb6
fdcd
063e
00fc
fc52
028a
