fa49
ff48
019d
fb46
0030
ffcf
f9aa
fb4c
fc67
02e5
001c
0076
0196
fa0b
fa1e
0491
0320
01ef
ffbf
fd30
fdce
fee4
03d3
fd15
fdb7
fbc0
ffee
ffb9
f839
00b2
f760
0504
01c4
015f
fbfa
fd2a
030f
ffc2
01a9
fc75
ffc4
0071
028e
fe54
ff86
fe25
0479
00ff
008a
faff
013a
0174
fbff
05c2
030f
06c6
fff9
fb8f
01cf
fe50
011c
fdda
03af
049e
fffe
fb6c
ff24
01bc
023f
04e8
026c
ffbc
fc3d
0267
ffb5
0372
fbfb
fe86
ffbf
004b
01b6
f71c
fdc9
fce3
019e
f92b
fe69
ff3b
fd04
0354
0088
fe38
01e9
febf
fff9
00c6
0134
ffdd
fffc
015d
0394
ffc5
000e
02d6
fe55
fed2
ff47
fcfe
011f
fc0c
0280
0560
00bd
fd40
fc9d
fde7
03fd
00a2
0309
fce5
011a
ff77
fe45
0140
fe10
0208
06ac
01c6
00f5
ffc6
fea9
fc7b
fd61
fcaf
ffbc
ff9d
fe93
fdc1
feb0
fdb9
fb9c
fc93
fc58
fd29
0037
f9c0
fce2
0511
0204
fee8
01c4
0819
fcba
01f4
fb8e
0294
fd2c
00ea
0413
02c1
0543
005c
001d
fcc4
fd2b
03d4
fedc
ff1c
fe00
ffe5
029d
0438
03a7
fd54
ff9e
0496
fc2b
0217
0400
fdb5
fa1a
0403
fa6a
fdcf
00f3
043a
fe78
fe0b
fd19
ffdd
024c
fe14
001c
feaf
ff2f
fca3
feb5
00ef
0272
feab
feac
00a6
fc33
050e
fed5
ff23
fc7e
0369
0332
ffd2
00ee
fcac
007e
ffdd
04bb
fec3
0048
046e
0050
f87f
fe48
003f
ffde
fe7e
fe86
fc28
00a7
fe3e
fe92
00a4
00dc
0201
0058
022e
ffde
ff32
fa24
fff1
024d
f974
fd3a
0353
0199
0437
fb0c
fd28
0460
fce2
0746
006f
0134
08e4
fc20
fe86
07bb
ff34
04db
0511
fb24
ffed
012a
0308
f983
fcc5
0135
012f
011b
05d0
fbad
fe6f
02e4
f8b0
fcf7
fac9
fd85
02e5
04f0
0554
012c
feb5
00f3
fe32
0162
fc09
ff48
00f9
0659
fd41
02a1
ff95
fec3
fe5f
ff32
037d
f914
03ce
fd64
008e
fd5a
fd8d
fbd8
0133
0036
fd8d
02d4
fe30
ff2d
fdad
0293
ff62
fca5
ffcc
fa5e
00a9
fcd8
026c
fd90
0253
fcd1
064a
0788
02c2
ffa7
0428
ffe5
0311
ffde
ffaf
ff9b
fe5e
01fa
fb76
f8f7
01d0
fea4
037e
0478
02ce
02bf
0656
febc
01ef
0141
0549
fe56
fbbd
0049
0047
002a
001b
0052
ff49
ff37
fa40
0281
0208
00a3
04fb
0538
028c
ffd5
fd26
0501
fea7
00c0
01d0
fe9c
00a7
f9e6
fd7a
0492
fb0b
fda5
030d
030e
fd9e
00ff
03e9
fc42
fd07
fea6
fdba
046a
fe92
0278
03fd
fdbb
fdbd
fdd8
ff28
fee3
fccb
fc1c
fed1
ff88
039a
fd99
0338
ff32
fec5
02ce
ffcb
01ed
06a4
0443
06f8
0292
ff7f
fe01
ff01
fe6c
01d8
0260
00af
f8ee
00b2
0564
ff1b
fd29
0044
0414
ff0f
03d4
02c7
00d8
03cc
0353
ff16
0637
0295
ff83
f8c9
01aa
fc24
026b
02b4
029d
025a
005a
0258
02c5
fcb7
0076
039f
051f
039e
04f3
017c
ff68
fca1
02e4
ffe8
fd4f
0139
fec8
feda
000a
fd50
fc7c
0267
0001
0036
f92b
fd8c
fc7f
ff39
fd89
03e5
0339
ffe9
fe7d
ff68
0828
fecc
0277
fcf1
01a2
fd6e
04fc
0005
038f
0133
fb63
f730
f79f
010d
04cb
fe61
0034
fe73
ffcd
041b
02d2
0014
fecb
ff1f
fad1
f717
fbda
fd69
0115
0336
fd53
004d
0753
0053
fccc
fbfa
0094
0563
030d
045a
0439
ff58
fc0b
ff05
00b1
fb5a
008d
ff64
fe80
fe94
0120
05d1
fc13
00e8
0003
046c
0084
fcef
006a
0291
021e
ff99
0226
f9bb
fca4
fd61
fa5e
fe3a
fe9f
00db
fd67
ff2f
f9b9
0295
02a5
0200
01a2
fd11
00ce
03dd
025c
fe9a
ffe0
fd03
fce2
00a5
00db
fe4d
fc61
ff76
0267
0045
044f
fe1a
ff93
00a4
01c8
08cb
fb39
fed0
0513
0334
0125
0434
008b
fd03
01cc
fe7d
fb8b
ff16
0000
ff27
01fb
ffa7
00a8
fe2e
fee7
ff73
022e
05e4
fd3e
fcb4
fa97
01f5
003b
ff78
fdc6
02f5
0004
fa8b
01c0
012c
01a7
fd2d
fe69
00cd
0377
fd0b
ffc7
ff6f
03ba
febf
fdea
fef3
0134
ff59
0298
ffdf
ff7d
0038
fdc1
003e
fd70
00c4
0606
002d
002d
0295
044a
03f4
075f
0286
fee8
fe30
0214
00e6
00ab
001f
025c
038d
01c4
02d9
ffff
0144
0266
fe5f
0036
fd3f
000b
0129
fe31
0239
ffdc
ff00
013f
006e
023e
0437
0118
fefc
06ad
0583
ff70
fbaa
fde2
fc08
00cd
001d
01e8
fed8
041b
0141
ffaf
fe84
0435
ffa2
fb00
03e8
fefb
fef8
fb82
0578
01ed
ff17
0071
02ef
01c7
0760
ffc4
ffe9
015a
ffd2
fea6
020b
fb1c
ff11
029f
00f2
fb7c
040d
0024
ff44
058f
0553
024e
fafc
01af
027d
fe8e
fbcf
fdb8
ff63
fccf
0041
00aa
f6cd
fe20
ff3f
ff8e
fd33
016a
0211
ff24
03f5
ffa8
fd49
0358
fb7d
00d1
0558
0104
04ba
fe5b
fb55
feba
014c
ff01
fed3
fbe0
0000
0248
fcef
fe39
fe35
ffbc
0057
01e0
0589
012e
026d
fdbf
fdfe
ff9d
01ab
0096
ff8e
0231
054a
0208
0415
00a1
00dc
fff2
00ab
0509
006c
fea9
fdfd
fe33
037c
fcb6
0131
008f
0222
00bc
02ca
fd2e
fc36
f942
0500
06f4
00e6
