04b4
035d
011a
05b3
fed2
0089
ffc9
0370
fc59
03e1
fdea
fd3a
f9f4
00fe
0660
ff1b
02bf
048d
016f
fc64
005a
fbb7
0128
0029
fb89
04ac
02a6
0426
ff10
fe20
0058
fd72
facc
ff17
ffc0
0243
0423
fb74
fdb9
fd84
0066
fe40
00fb
0137
04a3
0411
fde2
fe06
0460
fd41
fcda
0103
00fc
029e
fefa
fde1
fcf6
00b7
fa7b
fe2f
02f4
fc07
f7bf
fa38
007b
03f3
0257
0410
00b7
fbd3
fc26
044d
015c
fd31
fab7
ff7b
0151
fb97
021a
fd7c
fb6c
fe55
ff73
ff18
04a5
011e
ffa4
053e
06fb
016c
fee4
0564
03bf
fd52
fc2a
fe40
ff22
f459
ffda
fe08
ff56
0628
01f7
fbf7
f7ca
0224
02c4
f920
ffad
02bc
ffc7
04b1
fd64
fcb1
036f
fce9
fb78
fb2b
ff6b
040a
fa92
ff41
f9e8
0015
fc84
fc2c
fb69
0196
fd39
03d7
ff34
fe12
ff9d
02d9
fcc9
fe2e
011e
f7ad
0603
0266
fd60
0087
00cf
012a
00ee
00d9
fe3c
fd12
057e
0262
fc09
001f
026f
fee6
06fb
0186
0274
fc0a
0164
fe8d
fec9
fa32
01d6
01d7
0104
fd94
0014
feb3
feb7
fef1
0190
032b
0152
fc7d
ff69
06d2
ff9a
056a
03b3
fb9d
0381
02b8
fb28
fbfb
0ca1
fe04
0130
fd18
fed6
fdda
fc19
ff8d
0396
fa42
03a9
00b9
042c
02bf
fc83
fb25
0076
012b
0058
01fb
f8f8
f94b
ff4b
ff06
fea6
fe92
0337
00a5
005b
0049
ff87
01b1
0272
030b
047e
f98a
02c5
0335
0049
ff81
feff
0531
ff3f
fd07
0322
0011
fd07
fd62
fe20
fd31
0071
fbfc
0279
00e5
fcb6
fbbb
04f5
03ce
0101
0155
fe5c
032b
fc43
007b
fd7a
05d4
013f
fcb9
0101
fdb5
02ee
0500
ffd1
0181
fbc3
02fa
fe59
fb57
066d
01ef
044d
0336
fcc8
0286
02dc
02d5
fd96
025c
fe8c
0016
03a2
fddd
018a
fdf7
fc50
fb64
febb
03d7
fb83
fed5
fb42
02b9
fb52
0535
fda9
015a
022b
014c
fe06
01cc
fd46
0097
fc79
04ea
fe7d
fc1d
fe0c
ffdf
0144
fd4e
0118
0159
ff95
02d6
04fe
0050
0453
ffcc
009b
01a5
f82e
00d6
006c
0435
08e1
fd49
02b5
01dc
0305
fde9
03f1
fff4
037a
03b5
ff3d
ff59
ffa8
0293
fb49
fc2c
face
f96f
00e6
0557
0153
fde8
029c
fc94
02fb
004c
fd4f
fbab
ffda
fa58
02a2
0323
01a5
f8db
f6a0
0688
fe68
0166
0435
fff9
01ce
00bf
0124
f748
fe80
0184
fdf6
0265
0130
ff3a
fbc1
030c
ff27
0722
fc8d
fbe0
fd3f
035a
ff0c
03e7
04c9
0049
01c0
03e7
02e5
07ed
ff93
036d
fde1
feaa
02ab
fc0c
fd7e
00ab
03d4
043b
035a
00ac
02a7
f884
fe92
02ff
0382
0241
01a8
fca9
ff8d
feda
ff29
006c
fb60
0223
0231
0438
ffad
f944
010f
ffe9
fb2d
ffc3
003d
0360
ff80
00c8
03d5
fbe3
0308
0122
fdac
fdf1
f764
02ce
00d9
014e
fc8f
ffcb
0097
0032
fb39
fb82
fee6
00f2
fbe1
02bb
ff63
f774
fda6
fc7a
03e8
0336
0194
0233
ff01
02f7
0365
0302
04e9
0064
0402
fc00
fe91
016c
03e9
0586
0332
0702
00cf
ffd9
ff03
fb38
02e8
0672
014c
0352
faeb
0281
fb1b
ff9d
051b
feec
febc
f9fa
fe8c
0119
ffb9
00c7
028b
ff22
0360
f9f8
042d
0564
005d
fe90
fc92
fdcd
0066
fac4
0164
fca7
ff9b
fb2a
ffbe
00c6
0358
04a9
05ed
fbf1
0138
043b
ffa0
fdbc
038f
046d
090c
fef0
fd3c
03e0
00f9
fe4e
fe8b
f964
019c
019b
faea
fa26
01cc
04f5
032c
023e
fc93
03d8
036c
0080
00e2
ffec
0142
ff6e
01cb
ffe6
00dd
021c
0208
fc07
ffc0
02a3
fd8d
017e
fd44
ff81
fdc3
018a
fcff
fbb7
049f
0314
fd84
0067
fbd3
fe00
008b
00b0
0269
034a
ffa4
00e9
fa13
ff4d
04f5
0184
01f4
0130
0550
ff67
fda1
ffba
fda7
fda9
00b8
fe3d
011f
0364
feb7
02a1
06bc
fd6e
fc6e
ffd3
fdda
f920
0191
fe7c
fda9
ffe8
0120
feaf
03b4
035a
fd75
fdd8
faf8
fde0
02b1
fd33
ff19
030c
f8e4
04d0
fd3f
fd41
fec6
fd9f
fbca
009c
f81c
00b7
0344
00e5
02b4
fbbb
ffd6
0344
ff87
0109
0524
06b9
0183
00f8
02dd
0368
0212
fd90
0109
fbc5
f772
02f7
03df
fe22
ff73
0582
fe86
fb38
026f
012c
02cc
ff97
0376
03f8
0230
fd5c
079b
00c7
005b
fef3
fbbe
01c4
ff72
ffa0
fc8c
0493
05ed
03d9
ff33
0511
02c1
03b9
fdf0
fdda
fd7a
fee0
fd41
ff5d
026d
033a
0350
0154
ff47
00a9
0607
ff91
0167
ff54
0137
fcdc
feeb
00c4
fdcc
0181
fba5
fe47
fbff
ff3d
045e
0161
fc38
fd80
0139
fb6c
00ec
ff44
fcc7
0395
02c7
fce5
fddc
072e
00ee
01af
f990
fce9
fa4e
fc26
0034
02ba
03fb
021c
0146
0122
ff9e
0030
fe66
0490
fe0b
0224
ff56
ff3d
0010
fc2c
ffe0
fd2f
04f3
04e5
0254
037f
ff71
0322
0156
fba7
0305
0397
fc31
fd76
fe47
fd9e
0195
fd74
0406
fe88
04c0
0444
ffb7
fc9a
073a
fed6
fbc9
fefe
013a
fe15
01b1
037d
02c3
00a3
00c4
0477
003b
f8bf
053e
ff58
fd90
040b
fbd5
069c
ff8a
00b8
fd0b
ff87
fc48
00f6
ff69
026d
035a
00fe
00fe
fd10
0093
0416
