fd76
fc80
fff1
00cd
fc2c
fee0
01cd
fe89
fdb0
fef0
f61f
0249
fea5
04e0
05e3
fe1c
ff03
0112
009c
fc08
ffe6
02dc
ff92
ff5f
fe80
063e
0249
00c8
02a4
fd61
fed0
0573
00db
0019
0103
ffdc
047d
0377
049a
fb40
00fc
01b4
ff45
fbf6
00a0
01c9
ff7c
fc64
fda3
00a0
0126
044f
0467
fa20
fee7
03b9
ff2e
0233
f670
fd4d
02d5
fcc9
feba
01f3
fc41
fc5c
ffe9
02a8
0040
01d0
fe91
0435
0309
fc9e
0331
fe9d
0136
0355
05b9
04b0
0049
0309
02a2
045f
017c
fb82
0400
0191
fc85
fca3
fc26
fd5b
fd16
02c2
0044
fdba
02ae
040f
ff2d
0516
fda3
0248
0008
083f
fa0f
0230
fee2
016a
fe7b
fbbd
0020
feec
fb1e
0273
ffa6
08f7
feaf
056a
fcd3
049c
fdbf
fd94
ffe9
fdf4
ff4a
0195
fdac
fa65
fd4d
00f9
fb6a
00a7
fcfd
fd18
fdea
fba7
0773
fb58
038d
fbab
020b
ff06
fa79
ffe4
009d
fec7
fd29
0077
fd5a
fc3e
fb9c
04d5
023f
fded
00eb
00a0
fb85
0484
fdfa
024b
fd83
0673
fc71
01e9
fbda
016d
fce3
fd90
fe02
0416
04bd
fced
0141
00cc
f9b9
fd20
0034
fc01
0199
0594
ffe6
fe4d
fec1
ff78
fae6
001a
031a
fbbc
ff46
02f0
fa03
058a
062f
0047
0278
03b2
003b
0163
fc24
fb34
fa5c
00c9
fc58
f916
ff8a
ff48
01f2
04d7
ff39
fdf5
07c2
ffd1
fbb1
ffd1
0224
00e8
023e
0162
064d
0229
01aa
00bb
012d
fb0c
fb02
07be
fc75
fdb9
fd9e
f791
02b8
0214
02bf
0270
00fb
fc6c
026a
fe4b
0000
ffc0
0b40
fb2a
0240
0048
02fe
0143
ff7c
058e
ff44
0625
fe87
0169
011f
0028
0129
0063
009b
fd40
ff0e
01da
fdcb
031d
fdbe
011b
fabf
03af
021a
0083
03f4
025d
ff64
0359
fd2f
fc03
0077
0110
014d
0113
feae
feac
0317
011d
fe0a
0047
febc
fb7f
f814
f9a5
01ae
023a
fd22
f7fb
03aa
0169
0060
0309
0027
0358
fd70
fee2
01bb
fe5b
fb2e
fb94
04aa
fe54
0402
fd8f
fe34
ff77
fe9d
00bb
02af
02de
ff31
0777
012a
f9fd
ff29
fd95
028c
fc9c
0118
fb22
fe47
015d
fc8e
feab
fd85
fe14
00db
00e9
00c2
fedf
fd98
fd54
ffa1
0246
fead
fdc8
0108
fdf8
01ed
ff3d
0541
fde2
fc9a
fc2e
ff3d
0384
0342
fde7
0338
ff79
0640
02c8
feb2
fe6f
fd79
022a
0078
015b
fcbb
ff53
0261
01cc
fe30
fa85
fd81
033e
010e
0297
fce4
fef1
00f6
fd7c
ff59
ffc2
023f
fde2
fa17
fb17
02f8
02f6
0076
02ea
fe45
0071
fe8f
0051
0ac2
04b8
03a6
00d3
00e0
0388
056f
0276
0067
0150
0159
fcde
fb3f
0137
fd35
faf2
000f
021a
00af
05b9
feb6
fc1f
0193
0109
fe51
02db
0234
0580
0134
02c7
fd7b
fe38
03e6
fff6
fca7
fe24
007a
fbe7
07a2
054f
fa40
fd6f
01f2
fc73
fce8
fa28
023e
fce1
fdd6
01b5
fe3d
01db
fca6
f9a8
071f
f815
fe0e
021a
01c3
01ce
0354
0109
01c2
0336
fc11
0368
fd27
0052
07d3
0236
01ee
fc5e
030d
021b
fc86
0225
0198
0253
09c0
00cc
0472
0065
0160
fe46
fe9c
fcb0
fdc8
0045
0038
00d4
fd1c
02ed
0256
00fb
fcf9
02d2
fc3b
0057
f85d
01d4
ffde
01e4
fce7
00ef
03be
02da
fc1d
fad9
032b
fb78
00cb
fd4e
f857
04e3
0158
028b
03f1
fd09
04d5
044a
faa5
ffaf
fe16
03fa
fef5
fb35
0035
02e9
fced
fcf5
03ba
01f0
ffd4
ff17
fdac
f9af
0020
fca9
00ba
00c9
fc1c
ffd2
042d
01e5
020a
022a
fcdc
0160
009d
0178
fc3b
fca5
0615
feb9
03d8
fcb1
fd2f
071e
010a
fb3b
008b
0280
061f
0418
ffcf
fdc5
fe1b
fef6
fcd5
fe8f
fec1
009c
022f
04e8
ff2d
f840
008b
fcb7
03ad
fd31
fe73
0285
04e7
feaa
00ac
013f
fbe2
f732
010e
ffd6
01b6
0285
018c
009a
fab5
0055
010b
fe96
00e2
0228
0051
fbb1
03ae
027f
fd53
0000
0241
03de
ffd4
fe59
0024
0792
00e6
fc59
0169
fe84
fc9a
0042
fe5a
fbd1
0352
fe13
fd7d
0047
00a2
029a
fec5
ff99
0366
0044
03d0
fdf7
fd61
04b3
fed4
023e
fc06
fdd3
fd24
0775
f776
0387
0139
ff54
fc62
fbb4
06c4
fb45
02ac
0300
0235
01d9
fc7f
0120
0650
02ae
ff40
04b3
0176
0041
fd44
01d1
00dd
feb7
0420
fa9f
01ee
fd29
027c
ff03
0277
0240
fefc
fcc6
f921
fa76
06c6
fe38
fee5
0228
fead
ff7a
feec
fe28
fd02
0096
f5fb
fc9c
fdcd
fd0b
00b0
fa03
fba7
0562
0177
fc5b
ff58
01cb
0250
ffbf
0091
0084
02f5
fea1
fd5a
0049
0431
0300
0349
0295
face
fadb
0361
ffbd
fe67
fdfd
fe86
ff34
fd4d
00d6
03b7
0162
027e
ff0e
0143
fc67
ffd8
02d1
047d
0173
fba7
f9f8
0794
009f
04cf
fda7
017d
0303
018f
04cf
027d
037d
01e4
fe54
06a6
0229
fb77
035c
ff9b
011c
ff40
fd9f
fbd4
fda3
f9d6
fcf7
027d
0013
fa97
fa08
01df
0429
0112
0497
0342
013a
fb22
0001
fdcb
03c1
ff21
0317
ff23
07d6
ff7e
fe3b
fb2c
fd9c
fd8b
fb48
0141
ff50
fe56
02c6
fe9d
ff1b
07ea
0206
0675
ff53
041e
fe2e
ff93
001d
