04e8
fed6
fff1
fbd2
01b7
00f6
fd91
fe3f
fb1d
ff72
0208
04ef
ff83
fa12
fa4d
ffb3
fa4d
fdb0
014b
0322
0327
0046
01d3
fc50
087b
04e0
ff4b
0390
ffd6
0130
003d
0269
0304
fe04
fd38
ffe2
fbe3
017b
fbaf
fddc
01ad
fb5f
ff92
06ee
ff3e
00d6
fd36
02bc
0109
ff05
0749
fd5d
004a
02c5
0183
01b3
03d8
fb9d
fd25
028a
0292
0461
03d8
0249
fe98
fb9c
ffe8
00bd
fa74
ff27
fbd0
043f
0228
fcdf
ffbf
fee9
000c
01c1
ff93
0148
fdbf
fdb0
fc43
0252
ff8e
fcd1
0434
029d
04f8
faf8
0059
0160
01be
fe50
fc9c
fcff
08e8
03ab
0006
0343
00a8
fed4
066a
0313
01ff
01f3
0681
0077
0219
000d
01cc
0025
fca0
053c
007b
fce6
fc70
0413
0273
00d0
ffa1
05ce
0111
fe7f
feaf
ff98
09fa
02cf
fc33
0310
fee7
ff94
fe4e
fd8e
0027
057a
014e
0184
fb56
fdc1
ff54
039f
024a
0518
01b9
fe41
fefa
fed9
f8a6
fe86
03d0
0083
022f
fcd5
fe6e
fd2d
0343
fb63
0395
02f7
02ab
003d
0164
ffa8
009d
03a4
0253
fa13
fdf8
fede
ff13
00eb
05d6
fd46
0601
f9d1
fe6c
01bf
023a
f59c
0238
0222
ffd4
0324
005f
024a
000f
fa85
fd36
0580
02f3
fe68
fd43
0050
fdce
fd9d
0220
ffe6
01c1
0260
0291
fcc8
0842
fb15
0020
fbe3
feab
0458
0362
ff7a
ff0e
0280
0423
f98a
03dc
0245
0573
0457
0060
0067
fc4b
fc10
fd73
fbcc
0208
fec0
fe2c
fa2c
fc54
fb97
fe01
ffd6
0162
fa63
00d9
011d
0389
fd83
fffc
0488
0083
fea6
0139
0530
0102
04c5
fdb1
f86f
0129
fedb
ff95
0022
042f
fffd
0016
01b7
0518
0125
0358
fd07
0643
04ed
02ca
fe44
ff28
0194
fe0e
0809
fc1c
fec9
0387
ffdf
ffc0
fdaf
fc7a
01da
0557
004e
f9c9
fe90
041d
fc83
0557
01a4
01de
ff84
fe72
ff56
fe3b
00aa
01c3
fe0f
fd0f
ff8c
01e7
fd25
fc9b
016e
001c
0800
ffe8
fc76
076f
04ea
fd53
048e
ffda
fe3b
008b
04d3
fe4f
077f
00e9
02b7
026c
03c3
fae9
020a
00ff
0169
fd9d
fc4e
ff1c
0318
fecb
0138
02ce
0051
fb68
ff60
020c
fc33
0264
ff5d
fe48
fead
0175
017d
fd22
fc01
fe69
fdba
fd39
fcc8
0301
ff1b
02f6
0554
ff96
0236
041e
ff36
0149
0157
0264
fe39
05cb
004e
0404
0016
fbc8
fba1
fd51
016a
fe0c
014c
04de
fbb9
f936
02dd
ff6c
032b
febb
fc81
fd1f
00c8
f81c
04f7
ff4c
0036
03be
fceb
003a
0402
fc26
fc09
fd0d
fbb4
f83d
fe4b
0012
000f
fdc3
05aa
00f0
fe86
0189
fd56
009d
04c7
fe67
0354
f7eb
033e
fdbd
0257
fc95
ff45
00b7
fdec
0070
fbc5
ff12
002c
f915
01c8
fdd5
0204
fd6f
fe79
fc83
016a
fe41
fd44
ff6f
fbc5
00bb
020a
ff64
0146
fdc1
0575
ff76
04f5
039d
0094
060e
fce2
00ad
0066
0025
0141
0135
04a0
feff
00db
fc0a
0134
fa5e
0005
fdb3
fbb4
00f9
0adc
00d4
03d9
0197
fa64
0413
0177
024d
fe8c
ff45
fff8
fd7d
03e8
0249
03e5
fcac
0173
0410
fd93
0248
04ea
009d
03ec
fd02
fed8
fe0f
01c0
fdfd
f862
ff74
fe59
fddf
ffc2
008b
fd67
fedd
04fb
0366
0228
fac0
ff8c
00cb
0475
fd9c
025d
025f
fdd2
fdcc
fbd6
0180
01b8
0304
008a
ffac
02f9
0360
0290
0664
fd3f
03ed
01cb
fec3
00c5
0399
00c8
0155
04d2
fbae
ffa3
f8d4
0118
01e0
f882
fa91
fba5
f7ac
000c
fad7
05bd
f863
0112
0150
ffd6
fb54
01f9
03a6
ff8b
fe51
fb5b
008b
fe23
03ad
fe0c
fcab
023f
fe6d
f97d
0059
f967
00b7
076d
fb93
02df
fdee
f783
0205
02a0
00b1
fc49
fe53
fef8
fe95
ff26
fc79
0424
fde1
fdae
fda1
01d5
ff36
fb0b
fee7
fed7
fd9d
fd24
f837
0476
005e
fcb2
02f3
ffb6
0111
00ae
00f6
fce4
fbdf
0b6b
0208
feed
ff24
015a
fba6
fc5f
02fd
01f0
fed1
061e
ff4f
0292
0148
01c4
0443
01e7
f917
fce3
fcdf
00ca
f922
fb49
fd36
0106
01fe
0211
0519
044e
fddd
0364
01f3
0483
02a5
fe5a
fb7f
00ea
03f5
fc76
ff9e
025f
ff27
fd59
0147
0366
ff73
ff36
00ef
fd8a
ffd9
01af
06a2
fed2
fead
0068
ff34
ffd1
004f
0165
ff12
04e4
0b01
02b9
01cf
fd01
fc98
08fa
fd9a
012a
001f
029d
fe42
fc18
fcd1
0299
0456
fce5
0167
012e
0334
06d5
0a4a
fad6
0318
ffbe
00e5
ff96
ffd0
fcb2
02a3
0324
00cf
038e
0712
ffb7
feaf
fe01
ff42
0064
fdb9
0658
01b7
0369
fdff
fa80
ff8e
ff1e
fe22
016f
016f
fec7
0589
02ce
fdc5
fff2
fd3d
02d1
0084
fcd9
fe0d
ff93
01b5
fcce
03ab
fda6
fec3
fde7
0375
ff30
fb88
fef9
0066
00e7
019e
ff07
041c
fb10
01bf
01de
ffe2
0272
0182
02d1
00b2
fb89
f837
020f
fe18
03ee
ffd2
fc9a
ffcb
03d2
0534
fdac
f9cc
fe93
0452
02d5
02bc
fb79
032f
015e
fe67
fe10
ff78
fbc8
ff6b
053a
0061
fe47
fda6
feff
fd4a
fe7c
02d2
fdde
015b
fec1
fd91
fd12
feec
05bd
fea8
f89c
03e4
f7c0
fc2d
fa45
fad8
fed3
ffee
ff63
fc9d
0168
