fe55
0231
fd13
fc77
fe98
022c
0033
00ad
010c
fef7
0513
00e7
ff71
ff34
00f8
02ea
fe33
ff3f
fbfa
fc22
006b
fc49
03db
0517
fe67
0356
06df
fe32
03c7
038f
f78f
fdb7
022e
f9fe
00d0
018f
0594
0299
ff01
0073
007b
fe2a
0267
05b8
fd53
fe94
f8da
01a7
fafa
0080
fb49
ff9d
0000
00f6
0584
fdc9
0150
fdc9
0147
fbaf
0514
fec5
0072
feca
0546
fbad
00b2
00ef
01ec
00e7
fef4
fcac
00c7
0214
04ef
00ba
fe38
face
ffd2
fe8f
fe8a
feda
0257
fcc4
00a7
fdd0
0551
038b
017e
0063
fca7
fea7
06b5
fe83
feff
fb01
01c2
019d
00b0
040d
f8b7
ff58
fe48
feb9
0024
fd10
fd07
017d
01b1
00f1
ff87
02ad
ffb8
fd85
0123
fee7
00d8
feac
fee0
0174
fe97
0218
030e
0135
0066
ff89
0477
002c
06a7
fffb
04db
033d
062c
ff1c
0492
009b
02a4
0145
ff9a
02b3
fdd8
010e
fc4a
02d1
004a
0355
ff96
fbab
f9e3
00a9
fd4b
0250
fea0
ff2e
fee5
0760
fbb5
055b
0202
fd9a
fd6d
001e
0153
01c6
0759
fc37
055a
f910
0419
fd3e
02bb
fa7e
0017
feff
fbf0
03f8
fa45
fe39
02e9
04c2
fd5b
fb54
fcbf
018d
fdba
043c
02df
049a
0227
003f
fcc4
04aa
020f
0531
025c
fdba
0058
fd70
ffe4
02b0
fdd9
0002
fb70
fe03
fe2c
02de
00c3
01dc
fa46
0300
f465
fcac
fc17
0644
fff6
012a
fcfd
05a0
feb5
ff9c
03aa
0361
01c5
fa33
fc64
0144
fb5f
fa0e
030b
0145
01d5
009d
fcb0
039c
ff36
02b1
fe5c
0700
fdc5
046d
0269
06dd
0316
fd7b
0634
fc06
fd01
0060
020e
0123
fdd2
055d
005e
0390
fdb2
fb8e
fec1
fc5f
feea
0004
00e5
05a9
fec2
fbbb
00e9
ffb4
fdd4
fbf4
0128
fedd
feca
fc00
fb66
fc91
fb5d
fe06
fd34
033a
0180
ff98
ff65
02be
fef2
005b
015c
fa9f
fa4c
0788
fba3
fbe4
0458
fe65
0163
fbe9
fbf0
fc6e
022e
ff82
fd90
0700
0473
fc87
03f3
0155
fa90
0140
ffec
022c
fd27
0282
ff2c
0286
fda1
000f
fcf6
029a
0061
00c5
0002
00bc
001c
ff18
015a
004c
0052
fcc7
fee9
fef2
fec8
fbc5
0070
0593
02a5
0530
0042
ff35
fdd4
00aa
0166
00d1
0165
003c
fea0
fcb2
000a
04a6
ff1e
fed8
fae3
0179
ff3d
fcf0
07b6
0320
0048
00d9
fde9
fe2a
fb66
01a4
0370
0249
0583
fea1
034f
05e1
ff3e
fed7
0603
03f6
0130
0330
0013
0160
0042
fe38
fd5d
0275
004b
0578
003f
0245
fe7e
fe2a
0372
ff75
04df
0170
0329
fce0
05b2
ff6d
004e
fe64
03ab
ff57
0074
031b
fe42
ffbe
01e6
fd2d
fd51
0590
fe1f
00ab
0239
00b1
fe65
fa24
018e
02d3
0220
06f7
0111
fcf0
0440
0344
0284
00b1
0426
00a4
036e
fe79
fbe5
fe26
fe1b
fa46
f877
0155
00fd
fe10
ff93
feb6
06d2
01c3
fe1b
fff7
010b
fa9a
fbec
fe93
ff47
000d
feda
fbfd
ff47
fec6
03d6
0473
ff25
03aa
ff28
fcdb
0449
00b1
fd63
fead
0789
fff5
ffa2
0024
fe2c
feae
0173
020c
fff6
0278
ff50
fd88
0474
050d
0456
fea6
fcbd
0029
fee0
fffa
fa5f
010e
ff15
f96d
fb46
fe8d
ff2a
fb8e
ffdb
0304
ffc5
fa6a
fca5
fbb5
fb58
0567
0146
0303
00de
01d5
fe51
fa87
03aa
f9cb
fc85
fe37
fbb9
ff5d
0054
030a
0341
ff3f
03bb
fe13
fe89
fc58
0092
02f5
fc5d
fe98
047a
f7af
fb06
fd93
01e2
fd61
fe9e
fc84
060f
00d6
017c
fd67
fbce
00b0
03e8
f94f
f965
0111
0778
0392
fc84
fe03
fdfd
f97f
ff29
ffe2
f827
0238
0235
fcd2
00c2
0385
032d
01a4
010a
feed
0397
fb82
003c
fbc5
007f
0497
fbc5
fd70
03a2
ff44
039b
feaa
031b
0257
0153
0361
02e0
00de
06bd
003f
05f4
04bb
fd17
02f7
fbb6
00c3
ff5a
0417
006b
ff98
03bc
ffc3
013c
fad6
0179
01c4
034d
f971
00d3
ff3c
06f9
006b
0264
0234
fd71
fb98
0034
0284
ff1c
05e3
0290
01b0
0370
028e
fc7c
0005
fdaf
fc57
04b1
ff74
00ab
fefb
0264
039e
fca7
fd07
ffbb
fce9
01ed
fede
009a
fb96
020b
036c
03d4
fdc3
fa8b
03fd
016d
0248
fd7c
fca6
00f1
0227
043d
03ee
ff2b
fdef
01e7
038b
08d2
0314
fd13
ff87
0213
0125
fd23
00b0
fd76
fc79
fd59
0494
fd1d
040d
0107
fa33
fc4d
fe58
009c
016b
fb11
00bc
fe9d
feba
fead
00c2
fb7d
ff52
0487
005a
ffef
0192
0090
0112
00c4
feee
fc88
01ab
01f9
ff7c
02f9
fc7b
02a8
006b
fdfe
fb92
fa74
0516
02a1
fdd8
ff09
fcd8
ffb3
fe94
ff00
01f7
fcd2
03e7
01f8
070c
0362
fd85
fefa
fcd6
ff6a
0141
0246
ff1d
03f2
010c
0386
ff86
01e7
03da
ffab
0162
0299
fc12
fbc8
005d
0066
fcc0
ff50
fec4
fe0e
033d
fc0c
00bd
fdfa
fe3b
fd27
faf5
0394
f7e9
00af
fa91
0074
ffea
ff78
02e7
058a
0243
fe83
fc7c
05c2
014d
0264
fcd5
0135
0472
0096
0000
fc0e
fdd0
fe2b
0035
ff01
0161
0257
04bb
fe8d
fa05
0583
026b
0085
0034
fe35
0041
f934
0096
ff06
0005
fb68
fa2c
ff72
01d6
fe87
ff35
067c
fd0a
