0203
fd3a
00eb
03c3
ffbd
0122
ff50
fe04
ff7e
fedf
fe9f
ff4b
0136
045e
fa7b
00d0
fe47
020b
ff87
fd10
fce7
fea6
f957
00fd
035e
0307
000e
fd9f
012a
0103
0148
006c
fea2
020d
fb36
ff19
0509
fef5
02f2
0055
fbf4
facd
fc4b
01f0
07ab
0697
01c5
ffa8
0243
ffb6
0176
02d1
f9df
ff63
0377
011b
0034
029c
0302
01e7
0204
002e
fa4e
ff02
00d6
fda1
0330
0350
05fa
042e
fe2f
0642
fbf1
0282
ff06
01a6
02a3
fe46
01ab
0571
fd93
05f8
fa40
00b8
02a4
fe6b
fd3b
fe63
0066
0063
fc85
ffe0
ff75
fff7
fdf6
fc25
0367
fe39
fb5e
f983
02c4
0639
ffa9
01ad
0000
0241
fe2a
fffb
fde8
029b
02ff
016a
fb60
fe3d
fe50
ff57
fbe9
fa47
fccf
029e
021e
fd0e
fc20
fa17
02b2
fd25
ff20
0138
fcef
02c5
ff45
0169
fe02
ffaf
01b5
ff46
011d
fef1
0024
03eb
05a0
0456
01cf
ffa2
ff6f
0339
029b
080b
fca0
0479
028c
ffb7
0681
fb70
005f
ffba
fb22
fb69
04d1
f9c4
ff40
0023
0171
ffc3
fd54
fd97
fe74
ffcc
0530
0204
ff63
024c
053f
00ea
0237
056d
08df
0265
00cf
0114
02bf
0330
fae5
0089
fea8
fb24
02e7
0346
027e
0127
02f9
01eb
ffa3
fc45
fb23
feaf
fe89
fb3d
feae
f7eb
fa66
0121
ff78
0240
ff56
03cf
0101
009e
ffea
0003
05ac
0353
ffe3
fcdd
fc03
01b2
fb20
0066
fdbc
fa34
0103
0345
0152
03d5
0006
0461
00e8
f97f
0599
0240
ff10
03e7
0222
036f
fafe
fcf9
0330
fda4
02c4
ff57
0093
0013
0297
f9e6
0292
fbd0
ff0d
feaa
01f2
fecb
0276
fef8
fb0c
fe1d
01fc
0007
014c
05a1
fe9c
fe31
fc46
020a
01be
fea9
fec3
fe79
03ea
fe6e
0366
fb6d
02b0
0492
0269
00c6
f9e7
f8cd
f94d
00fa
0668
fbe9
0055
ffde
fd8f
0185
ff66
039c
ff04
fbdd
fae1
04d3
fc80
fb58
0323
046d
00ba
ff4b
fdd4
06d1
fcef
0811
02f4
00a7
0514
fb48
0159
fffe
02e7
055f
046e
0849
077c
037a
fde5
0304
febc
026a
0244
0590
ffd6
002d
fee4
ff8a
02ac
fea1
fe5a
03c6
fea7
02ca
0057
018f
ff1f
044c
01e8
fe6e
ff32
fb4f
fcd8
0355
fe65
02ab
f8f3
ffb2
0567
061c
0064
02f9
f87f
0192
0327
020a
fd09
fee2
004c
fed4
0220
fb21
018c
016b
fff8
fe6f
03af
00c9
057a
03bc
ff25
fda6
0259
febc
0649
0340
fd85
ff18
fb8c
fd4a
0552
0442
02ea
fda0
0133
0725
072a
fa71
024e
fd25
01b5
ffa0
fd8a
ffbc
ff0f
fa45
0029
00ba
00bf
0338
fe41
0391
ff95
fe2b
ffa3
009f
0233
fee6
016a
fdd0
fbd5
0079
0281
fe67
0236
0208
0381
012b
ff62
040b
0256
fe94
05ab
fd5e
01cd
fb08
fd44
04f9
000b
01a0
fe17
fe4a
fd3a
fd6e
0000
01d2
ff5e
ffa9
00cf
0525
05c6
0332
fccb
fbf4
0153
ff28
0068
021c
0558
fdf6
fc74
fed9
fae2
fb89
0385
02b0
00cb
ffb2
ffd7
fd95
fcf8
00c5
fd9d
01bc
01d2
02f4
fe1b
029a
0000
006a
f9cd
fc38
fd94
030e
fe4f
ffe7
0122
0025
0120
0436
0440
0452
00af
0655
0730
03d0
fbe8
fd4a
04d0
02ff
0182
ffe4
ff7d
fe00
ff6a
fc98
02b7
013d
fc80
fb6a
fef6
03e6
023d
fb59
0095
ff42
ffe6
fed3
01dd
ff24
05ca
fc8b
0159
fb9c
03e7
ff20
047f
0320
ffe8
0542
fe2f
0550
0250
017f
fce5
fe11
037e
fe71
00ad
fbf7
0070
01dd
ffd5
03a2
0104
030b
04d4
014a
022c
059a
010c
04dc
fe42
ffef
010d
fbb2
fd77
fd99
0061
ff2f
fd1c
01ca
0075
fc58
01c6
0031
fc76
fdfe
0065
00cf
fceb
f9d7
fbbc
00f9
fa75
ff8d
fc25
052f
0098
014d
fbd8
feb4
fe29
ff32
02e9
01b1
fee1
fea7
0352
01a9
0375
fcb3
004d
fa06
fef8
0000
fc26
0008
ffbe
0171
fe30
0130
fee2
0073
fd9d
fd4a
0084
fe8b
0430
010b
f907
ff83
0246
ffc1
fe9f
02c8
0037
0331
01c0
fe2b
fef9
fc90
007f
ff0f
00e0
02a4
0383
079d
ff9e
0144
0274
0166
000e
fa84
0364
fc5e
fcfd
f8cb
fdcb
fe5f
fef0
0348
0400
00ea
0285
02d7
faf5
fe16
ffb0
01a7
fedd
02e5
ff0e
f92e
f8a0
fd48
fff6
03b0
fd52
fc6a
0722
03eb
0108
fa9e
fb06
ff3e
fc59
02ac
04f6
04e6
00b5
03f6
05f8
ff2a
0134
02fe
0287
fa39
037f
fed3
f927
039a
0a42
0007
0096
ff92
fb74
01fb
03de
01db
0173
06e3
fec5
fca8
fcb1
007a
fe9a
fc50
fbdb
00ce
0007
fe0b
006e
fb30
03c0
0043
0062
02fb
fcda
03e6
0237
ff71
fd83
04cb
ffb0
fe2f
0253
fe55
fd6e
0310
0245
ffab
fb4d
01bf
0295
fe15
02b8
0562
fc83
017c
fb97
0187
fd25
0210
fcd6
fb45
fc13
031e
01d9
0795
020b
02fe
01e1
02e6
fcb5
01ac
0102
048d
036a
0390
fcb1
079f
fd4e
0386
0321
fcf6
fbbe
fe88
ff4c
fee1
02f0
ffd5
f94c
01fa
ff7b
fca8
03bb
02b9
ff78
ff7f
fcdd
0467
f8f2
00ae
025e
f941
02ee
0588
fe6c
fc70
026b
00b2
0210
0595
05ec
fa8b
00e0
03fd
fdc4
006e
fdd2
02a0
fdea
fea5
0190
fb8c
03a2
fcd0
01d4
fcbc
