fb02
007a
0099
ff79
03e2
037b
0504
fd08
ffd0
fc04
0643
fe71
fe12
01c8
feb1
0329
fd48
029e
02dc
0021
fe0e
02bf
fd10
fdb8
025f
0222
0241
03dc
00b0
ff17
0200
004c
fdec
0104
ff6d
019a
fe02
ff4a
fbc7
ff31
fd20
fdfb
01f8
fa4c
06f8
004d
faf4
0078
ff12
fd31
fe20
fce2
fded
0234
fc93
fe59
ff22
f9f9
00d8
fdb1
0041
04b7
027c
01a0
ff9d
feca
0676
01a1
fe30
039c
03f3
0284
0020
fe77
fe84
fe3f
00c2
047c
0074
0284
fee8
025e
0238
02ec
001e
04ad
fe81
feca
fbc9
018d
ff66
0144
fc31
043c
fe5d
0064
0041
0247
0226
ff83
016b
ff4a
019d
02d0
ffa3
f637
ff07
00f8
0017
fe7e
fd17
fe33
02f4
fe8e
0431
fd1e
0625
fae1
018e
f995
021c
02ed
05a1
04f3
042c
ff50
fc3b
fd9f
fcc2
04df
02e6
00ae
fcb8
febb
fbd7
fe20
fba7
fdc3
fd24
fe01
ff4a
0472
03ce
0008
ff3d
02e5
0866
fe9f
01aa
fcc2
fd46
00c8
007d
07d4
fd40
ff89
feab
fc54
0277
fca0
04ad
fd5f
fe63
fc72
01d7
feb5
f95d
0351
025f
fc48
f854
043d
0554
fda2
ff0b
01ea
02fa
0214
01ee
0772
00c3
03e5
02c6
ffcb
fe5d
ffec
0208
fc44
fe1e
ff2b
0026
fd27
fbe4
f75d
feae
ffa2
fd2b
f8d5
035c
027c
fb81
0000
003c
0227
fedb
04c4
0572
0513
01aa
0230
fea8
018e
03a4
0011
0181
0074
fc75
fa21
012d
0532
0144
fa35
fe51
0262
0259
0046
003e
00db
fc9e
fdb0
fcc7
fdc4
ff4c
f98b
fce3
07bd
0052
013a
0266
fe8b
fdb5
fdbc
fc91
fd28
0416
02a2
fc4c
fae5
ff2f
010d
fea3
0178
0378
0078
039d
fd92
053d
01ed
033a
fc5d
00a2
fc38
004d
01c1
ff07
03f6
fa35
fd7b
ff11
03be
004f
0064
05a4
009d
031c
0290
fdf0
01f1
0763
0579
0061
008b
037c
fdcc
feeb
05bd
02f7
007a
feec
0169
fffe
ff9f
fab3
03ea
feac
f786
feb1
0346
0017
fbb8
0591
fca7
0120
fe8f
ff08
040d
fe91
02e7
02e1
01ef
fcdd
fc62
fc34
ff5f
05a8
0212
fdfc
ff7f
01d5
fe8f
fe84
ff33
fd16
fc75
fff6
0191
fb5c
fe6b
047d
fb54
010c
0077
0161
fcbd
00f5
fdf7
061e
fb16
fd89
04bf
04a0
0161
02c0
0125
fe50
02f0
ff79
0199
066d
032c
fcb5
00c6
fe22
ff80
fd17
fd12
ffb0
fdba
016e
ff9e
fff3
fcfb
0165
0354
022d
fa84
0461
fff0
0214
021b
017a
020e
0110
ffe0
01b3
03b2
fbc5
0093
0168
fc82
fdce
fc0d
005a
ff1b
fdcf
04cc
02c0
0061
002f
fa6f
01af
fa9a
0021
0570
fe91
fafb
0156
fe74
fd88
fddf
fb4f
0311
fb50
00bb
016a
fb3b
feb5
0214
0224
0287
0068
023b
02ba
02df
0050
fd49
00e2
faa7
01f0
0035
00fc
ff62
0357
0439
01b6
0317
fdbf
004a
0754
0712
0429
02ad
fe36
fe95
002c
00ef
0358
029f
fdad
ff28
026b
fc3a
ff84
02a0
fe3a
ffe8
008d
01b5
ff77
ffcb
03dd
ff98
0043
ffd5
f654
f6e7
0144
02ff
fec2
ff56
faff
0254
ffad
042a
fdad
ff9d
fad4
00bd
faf8
fb45
002e
ff37
fdeb
fec6
0004
01a4
fef2
03c0
0090
febe
fd08
fc19
ff23
05ec
014d
05c9
fd95
003d
f9a3
0378
0217
ff40
f929
025e
fd74
02db
faac
0427
00de
0070
04d2
0296
fca6
0316
01fd
ff7a
035b
ff39
052a
ffd6
ffd9
0162
fecd
0347
0206
0027
013f
0110
fefc
0135
0002
014a
015a
03b7
04f6
00e9
fb84
ff30
0223
fe64
01e5
004d
f9bf
03fb
fe12
fe7e
fb4a
fcf2
fd58
fa20
014e
0052
002e
054a
073c
07b0
fe6a
0330
ff5f
0016
01d2
fdd0
fe79
fcb1
014e
fe3b
fe6c
0119
01f8
ff7b
01f8
066f
00be
01e5
fe31
ff71
fd40
faf9
040d
02a7
fbcc
058e
fa27
0204
04df
fa99
fa7f
031d
02d6
01e3
01a2
01c9
03bd
01b2
fe30
01f2
0242
0739
fa2d
fcda
fcd4
fce4
002c
035a
fd3e
f906
fd15
01e4
fe74
fe36
fd5b
03f7
00f0
fba7
0551
fc14
0215
ff86
0529
000b
ffba
03a8
fe88
ff39
02d9
00e8
00ca
febc
fe80
00cc
0168
feca
023e
000d
fe6b
ff0c
000a
000d
ffc4
02f5
0373
007a
02a7
00aa
030a
0084
0425
032e
00b3
fc25
f9da
fffa
fe9a
fdcf
fae8
0054
fc78
0199
fe4d
ff74
019a
0188
0247
0176
f9f3
00c5
0520
02ee
034a
0065
fc3c
ff43
003a
00df
0287
fbd6
febd
fd81
fa31
00ba
005f
fe29
0116
0264
0146
0326
006b
0040
fba4
02b7
f62c
0817
00f5
013c
0410
03da
fe33
fe12
0223
fde5
022b
032c
fe7a
fd5c
ff72
0284
02cc
fde3
018a
0018
fed4
fdd6
0278
ff70
06c8
f9ff
fe89
fd3a
fafc
fcc0
fc01
f88f
fff8
010e
feca
047e
0535
0449
007c
00ea
febb
fdcc
fcfb
ff12
0596
fedc
0724
fdfe
fce0
ff31
00d6
035f
fe32
0000
002d
0173
00be
072e
02ab
01d2
013c
fa8d
02de
fc82
fdbd
01b0
01c5
fe49
fb3f
0001
00b7
fe50
fae1
fff3
fad5
044f
fd08
068a
0144
fc0b
ffc7
fbc8
fcc9
fe0d
fd8b
029a
00d5
fcc9
ffe9
02bf
fecd
fd0d
0125
fffb
013e
fe57
ff8a
ff99
006d
f8e3
ffb2
fd15
fee6
fd8b
