fe0e
0310
0321
01e6
044f
0168
02f9
026c
00ea
00f7
0169
04fa
038d
fc86
fde5
003a
0239
005c
fe9d
038f
012a
01d1
03f0
02dc
fb1e
075e
fdf1
ffe4
fdff
fe42
00b5
0370
fe2a
fc8b
0064
ffa2
01ed
098f
01be
04e6
fdbc
0101
021e
0121
0256
004b
fd7e
fe14
00f7
0379
ffd6
f6f0
fdc3
007c
fa84
0058
001a
f8dd
fdf1
05c4
fada
0145
0108
fd2b
ff6f
ff99
fe95
0119
fae6
02de
00da
00ad
fc24
0232
ffdd
03fb
00f1
04ba
0002
fe75
fd9c
002e
0067
fe20
02eb
0137
00e0
01f8
ffb0
021e
ff01
fd6f
fee5
0088
fcaf
0184
01b2
ff1e
fd4a
f9ff
fe64
ff08
ffcc
fc84
faf0
ff18
ff64
fcaa
0137
05f9
0246
fab6
ff6c
0132
fcd2
0372
feb3
fb9e
fbb7
0462
fef7
0314
0032
ff80
02e7
03c1
03c9
0229
01ac
fda6
01c0
014a
01e1
01ac
0200
fd1e
febb
03b5
06f4
fe4d
0161
0033
0622
fbe9
fda6
fb3d
03c6
fde5
037a
fc57
fd67
fdd1
ff94
ff71
fd05
0229
ff64
ff8b
03fb
0611
00ca
fe42
fbd1
0033
05c8
fcf0
fcc0
030d
0009
fd32
03d2
031a
0202
0217
0512
ff2e
fd40
06aa
fc36
fb58
026f
0153
00a7
fe88
0045
02aa
00f7
0619
0125
01b2
0483
fc43
037c
fd5e
0147
0239
fe36
ff15
0438
fa97
041d
fc5a
04ba
ff85
0097
052c
fef3
fe36
00ab
0127
fa89
04f1
01ce
00ef
040c
02f9
fef6
0546
fc52
000e
0096
fdf9
ffd4
fd5f
fd98
0341
ff3d
003a
01d5
fab1
fd5a
007a
fbab
0082
fb2b
fdec
026a
fc12
0168
fdad
0054
ff4c
0044
006e
006d
fd00
036d
0235
00b4
fee1
0179
fb52
03a1
0123
f895
fef9
0475
0374
fd6d
013e
00f1
00c0
068d
fea0
fe3b
01a6
fc66
fbc1
0387
ffca
029b
ffb2
018a
fce1
ff5d
ff07
fd1d
0543
ff36
03c1
fdb0
0180
00b0
0163
fdb2
fde4
fdaa
ff8b
0081
faa1
044f
fdc3
fbbb
0023
01a0
fd0c
ffe3
fca8
fd5e
fb0a
0028
fc02
0015
0242
ffd5
0352
026b
fb81
0414
032b
fd9c
fd75
063c
0227
0228
0023
00e8
fedf
fe40
034e
fd5d
02a6
0348
0040
fc1e
0107
fdb4
0403
fdd9
fd5d
ffb0
ffe1
02c1
fdb5
f8ae
fa68
0205
00bb
ff57
06cf
fe9e
0ca2
ffe1
fc04
012a
fde0
005a
01ec
fec3
0030
fb08
00bc
01ec
ff75
0064
0081
02f5
fa38
0148
fc57
ff78
03f0
00e2
fee0
fcf2
fdb6
02c2
fc1d
ffdb
03bc
fde8
04c0
01ef
0244
fd4a
0560
0421
0477
0412
0291
faff
ff8a
068f
0543
00a5
0247
0125
025f
042c
ff4d
fde9
08bf
0116
0011
00af
ff54
fef2
0138
027d
ff6a
fcf4
fdb4
0054
fc7c
fec9
ffbb
febf
000d
0479
fe31
0003
0099
0087
ffb5
ff2e
fdbf
fcef
033e
0051
feac
fbfa
0271
0343
feb9
feec
fcb7
02c6
0252
ff24
fc78
0095
03f0
ff0e
ffc1
024b
018a
fd0d
fc00
fd9f
ff29
03b7
fee6
f535
03ec
fc27
fbcd
04d2
fe3b
02af
ffde
007a
01c8
ff9c
00cc
fcf4
031b
fd46
020b
027b
018b
fc83
01c3
fe72
feb2
0010
001e
0151
00f4
0000
04fd
feed
fe26
06d1
0253
f9f8
0243
ff4e
fd4a
ff05
ffe6
0141
fc78
fe07
0166
0761
06fe
fc2f
0120
fe89
fff8
021d
fed0
ffc8
00e9
fea5
000a
ff1a
fe75
fd0a
fe9c
ffa8
fdee
fb69
0024
0570
030c
03de
fdd6
fc37
000b
ffe2
ffc9
0200
007f
ff05
fa6d
ff50
05ff
05fc
fc55
fd0b
ffa2
fcdd
008c
fdd2
fe77
ff2c
0326
ffe0
0018
01c5
03b1
04a1
0504
fd97
0005
054a
fcf3
fd97
fdc9
0004
031f
01a5
fe87
ff32
04c7
fc8e
0009
fc60
fffe
00e5
0289
04ab
013c
0129
feb7
ff26
01d9
00b2
fdd9
fb24
ff74
03f8
0426
ff0c
fd3a
ffb1
fe43
fadf
f950
007a
0458
037f
fc73
00e7
fc95
003b
0302
02ba
00a9
047f
01b1
006b
0135
083f
fb52
fdf9
fdf8
0003
0139
0105
fe6e
fac0
fcbd
01c8
00bc
045c
009d
fcdb
fd92
fb5f
0282
0390
0221
fbc7
fea7
05ed
fd47
0151
0016
fb31
fe21
0384
012a
fdb0
0908
fed1
fa61
fbce
ff07
fcd8
fb0c
f9ff
015d
fe41
fefc
04f4
fe65
0345
01a6
019e
fcde
01a5
ffac
032c
01f4
ffb4
0291
fd8c
fd2a
0684
fc4f
fda5
ff8c
ffc8
013f
0278
01da
fe5f
feae
fbbc
ffc3
ff3b
041d
ff29
0521
fd2b
feb9
0183
fe2a
000d
fbd7
027d
00be
ff2b
ffe0
fe95
fe44
00d2
fa49
fe59
032c
034d
0440
fdd3
fcf6
fb4b
0314
ff45
0018
0113
0252
05f4
0195
ff45
0222
f9b0
fe56
0092
0253
fe8e
fc35
0165
fc32
015f
fd3d
fda8
0219
ff62
ffaf
029b
034a
f888
fc83
02c8
fcce
0039
02c0
fe0c
fcf7
008b
fa75
0234
00d0
009f
ff9d
0479
fd13
fd40
04f7
0413
0377
ffcc
fc2b
fc17
fe95
ff7c
02a8
01ef
ff08
fc5c
00c8
03b6
01f5
fc60
f7fe
feca
02a5
fc1f
012b
fb66
00b5
ffe3
002f
ffda
000c
014b
ffa2
f9cb
0004
ff00
fff9
fe38
013b
005e
01da
f9f8
014b
0070
fc6d
fd68
fcf4
fc1c
032d
0413
016b
01dc
fe90
06b7
0679
fb1b
0013
ff08
01af
fab3
fce7
fe58
0292
feb6
fed4
ff7b
fb27
02b3
fd9d
