0428
016d
fd7d
fe3a
00d5
05ef
03c1
fffb
0452
0220
fda6
0024
02ad
01c1
ffec
fc0b
0166
0009
0104
0179
00bf
fe83
0005
00dc
0209
ff47
ff74
f923
03c3
02ac
02e7
0352
0068
fa93
0223
038c
fde7
0427
ffab
fd86
fd60
fecc
064f
0326
0009
02bc
01d4
032a
fc73
002c
036b
fe25
fe65
fef1
fd24
00d4
008a
04f1
ff55
fe7b
fb59
0040
025e
0678
fe88
019c
fef6
fe14
fe39
0152
fa94
02bb
0358
fb86
0170
ffee
fd4e
fc67
0565
03d0
0362
0153
fc8a
02c6
fe73
fe30
fe7d
034b
fd75
fda6
ffcc
00b0
f944
fead
03c6
ff8c
00d2
0094
ff55
006f
fbac
ffec
fcad
ff21
016d
f759
0279
03a2
fb79
ffee
0049
ff55
01cd
0017
fed1
febb
00b6
fc9c
030c
02e8
01f0
fdb6
052a
fea8
fead
00fb
0088
fed2
fbbd
ffaa
00a7
fe75
fffb
fe05
014f
ffbf
002f
01b0
04f3
ff3e
ffb8
fa7a
004a
fff5
fe5d
06e3
f7ee
000a
039c
fdac
003e
01cd
00a6
0007
06a2
00ae
0252
fc5b
fe76
04cc
0533
fcb1
0160
fd57
01cb
02ff
fd9e
0243
0272
0a10
02e5
01f0
fe96
ff18
0256
006f
ff91
fed5
0300
0422
0154
f938
05f6
fd56
00db
ff95
f881
0306
fabf
0256
fe03
fefc
0532
fefe
000f
fdb7
fbf0
fabf
ff98
fa68
0268
0104
023e
ff9e
02d3
010c
05ee
0054
0430
fb84
0296
fd7e
fb1e
036f
fc15
035b
fe89
fddd
f9b4
fd2e
0556
0202
0278
0613
fe91
03b0
0259
fd2d
fcbd
fc7b
f7cb
0536
0157
ff10
05f1
fd14
fef0
0398
0510
fb88
ff57
fd49
ff2b
f772
fb10
fedf
0330
01a1
0322
fe6b
fbff
0188
fdbd
fe69
0172
0462
fcd5
05af
f953
fcb2
ffc5
fdc7
0437
0317
fd15
fc7d
fd06
fc29
0159
fe4d
fbf3
008f
0032
ffe3
fbcd
02b2
fde4
ff34
002d
0383
05ff
f8cc
fc3f
fc0c
fbe3
0124
02b3
025b
fe2f
01f8
f847
fcc7
02c9
fcb6
fc90
0092
fdaa
fdc8
0078
00b0
0348
ff06
03d1
0013
fdf7
ffec
fe5d
0038
fe56
fdf4
fdca
03de
026a
fb50
02ba
00b4
03dc
01e6
01c3
0758
fad2
fd75
0080
0399
0009
fe25
ff03
016d
fcd6
fd90
ff99
024a
fd83
0477
010a
0506
fa22
01d8
0161
ffa3
fe6e
0308
ff48
ff5c
01c3
04a8
045d
fb02
0048
fb3e
f834
fff6
fe27
f8eb
faba
fa04
fe00
fe0c
ff83
ff6f
0047
00bd
fce2
fb0d
ff54
fc49
fc51
0156
02a1
0302
001e
fcb2
009d
03dd
fd7f
016a
fffe
003b
02c7
fdbc
fe5f
013e
ffd2
fedc
0193
fa75
0116
f7ee
0122
041a
0373
ffa5
01bb
fe14
ff67
03e8
07ab
0476
fc31
004d
0194
044b
fe73
03e2
fc61
0197
0080
023c
0417
fafd
fed9
fe5c
fd7e
fd92
fd14
fee6
ff43
ff74
fbe1
052e
01d2
fd7c
fe8e
022e
02bc
04a7
012c
fead
03c4
fc19
fdbb
fe49
0183
010b
ff08
0826
ffe6
012c
00c4
022e
045b
fca7
ffab
054a
0137
fde0
feec
feb7
0297
fd80
ff40
fcde
fc60
007d
0013
03d8
0151
0329
f98b
fc66
004b
ffed
ffed
fd98
0279
062b
0223
0530
fee1
01e2
0106
015b
fcf1
ff5e
00d0
ff7e
ffa3
fbae
ff9b
fbcb
05f1
ff08
0930
0203
ff4a
02ef
fa2b
0089
ff07
fd26
03ed
003c
ff72
ff51
fb0a
0255
00e9
ffc9
0040
fec5
05fa
038c
ffb9
02c5
00fd
fd3c
035b
fcb0
ff98
08a2
fe76
00e7
fe97
0358
ff17
fd31
03d3
fe52
fcba
00c4
05a4
f821
fdfc
0573
02be
0407
ffa0
ff14
fad9
ff69
0046
fde7
ff39
fcea
0240
fd0f
fbf1
0001
0074
fc01
03ad
fef4
fc5e
0823
fe03
058e
02da
fbd1
faf8
f9aa
ffcd
fadf
00b6
fd85
02fb
ff30
ffd6
fa95
fd18
0622
02af
0390
f863
ff63
0397
0103
fdc3
01aa
00e1
04d6
fd9f
fbd2
f9eb
fe24
01e2
fcdc
fdbe
03e1
fce7
fe33
fc61
0285
0267
fad3
0098
ffd5
02eb
fbc0
fb93
0b33
ffe1
007b
045f
fea6
02a6
00f7
0272
0226
ffcf
f9e5
0316
fee6
ff07
00ff
fe74
04f1
01a0
ff26
0486
fd80
00a2
ff7b
fca8
0224
009b
065e
fe48
fce2
0470
fbec
00d7
fd9d
ff2f
018f
013e
00d3
ff54
fe75
00fb
fc5d
ff12
0211
01a8
0124
01f0
04f7
fa0c
fd2a
fc0f
0141
025b
001b
02e1
00ac
f8b4
fcf9
f9e4
097e
0142
fd59
fdda
0087
01e5
ff5d
fe53
004a
008a
0330
00a1
ffa8
0266
0192
ffd0
fd69
0159
f878
0098
04f5
0164
023e
012a
ff5b
fe33
0185
fdb6
0608
ff61
0337
fc4e
00dc
fefd
01e7
029e
0648
0408
fb93
0064
fd5d
fb85
0247
fdf0
0719
024a
fea2
fb82
008a
0233
01ac
fec2
011c
fd4e
ff84
ff21
ff06
fce5
ffbe
01b6
0336
05a4
00fe
0088
f9d7
fcbf
015a
009d
01c1
f94b
feb4
fd83
068b
fe06
ff2e
02e7
fbec
fee4
f93a
04a4
0213
fe51
ffd2
0172
ffef
fcff
fe58
ff2f
004d
029e
f785
fc40
fec9
0055
fb96
0162
0447
01ba
fe2f
ff53
fe0c
feef
0288
febd
fc7c
fd42
0190
0079
fe0d
fafe
04f7
03d9
02d3
04fd
fad5
ff50
071f
febc
0224
00b4
0293
0293
fff3
fee3
fd1d
0153
087c
010e
ff30
fd32
0454
0890
ff9a
fcf8
0465
030b
000f
