0126
fce4
ff26
fbab
ffb0
0142
feaa
f6fe
ffa3
fff4
faba
02ec
fe23
00d3
0204
fdd0
fc39
ff87
0147
fbd1
01ec
fdbc
feb5
fca2
0170
01cd
0120
fd30
0072
fd17
0644
f849
ff6b
03fd
fff7
fdcb
fd09
03cb
fed8
fe35
01e4
04c7
01a3
ff43
0597
0517
00e9
f9ea
0190
00d9
fd82
fef4
fd99
fccb
0000
0091
071b
fe20
fb6f
fd04
0438
fceb
0837
0522
fcf7
04df
0190
fc76
054f
fe3d
04a9
04fe
fea2
fab6
0492
0160
fcc6
0544
0072
fce9
fdb4
0045
0046
06a6
0299
ff67
02e7
fd23
019e
feac
0420
0370
01b5
0613
fd2c
001f
000a
fa77
02fa
0303
fffa
04c5
04e2
fb95
fae5
0363
017a
fe6e
0400
fe58
023d
fe12
f92c
0604
0112
faff
035e
fdba
fda8
0219
f9d9
ff78
fdf2
042d
f9f1
ff8b
008e
0179
fdd0
ff0a
ff08
025f
ff07
fc60
fdb4
fe32
ff1b
fb3f
ffcc
0280
03a0
fff1
fab2
017d
034d
0035
fef9
01a8
ff94
081e
073e
fcff
fa32
0216
fc76
fd60
0234
fc4f
01e3
ffc3
ffb2
009e
ffe3
0358
ffc0
0110
febc
fee0
0001
0074
ff75
fc97
004d
ff16
fe41
019b
f9fd
0302
fe6b
019c
fb98
0098
fd3c
fe37
021d
fdc6
ffa1
0640
0137
fce3
faef
fa7e
fc60
fc9a
01dc
0153
ffc8
ff9a
fe01
fb9b
00de
0027
fffc
01c9
fed7
02dc
0123
04f9
fd2f
0331
fddd
0157
ff4e
fe15
0119
00bb
fd5d
02bd
05f5
fe28
029d
ffa1
fe4a
fdba
0442
0621
0052
0197
fdb3
ff1e
0452
005e
fcdd
01a9
fbee
ff51
fd16
0116
050e
fd8d
ff3a
0092
fbaf
0443
ff31
0538
ff41
fef5
023f
fe92
041c
0345
011c
feb2
fd19
04cd
027a
ff62
066f
fd60
fec6
ff2e
02a6
02bc
fea1
03f8
fcb7
fd21
fef8
fd63
fa11
0180
ff5b
0015
fe8b
fe9c
ffd3
0371
010a
ff9c
0246
00e2
fe15
0017
0373
0296
009a
002a
fdee
0355
04fe
fcd1
febe
fd66
018e
00c9
0608
ff1e
014b
fca8
0272
ff3b
044d
ffb3
fde5
f6f7
f7cd
01b4
fcbc
023a
012a
fd2d
04f9
fc38
fb68
fd00
04f9
fcc7
fc88
0362
fa50
0008
fc88
014b
fd84
010c
0090
03fc
01a8
002a
051a
032d
0484
004c
01a9
feb2
021d
fee7
fe28
fb6d
ff8f
017c
fea2
fe07
078b
fd5b
0630
ff70
0127
ffe6
0402
0548
fd90
ff25
03dc
fe08
fe44
fee8
fc37
ffe6
ff99
fb9b
fd31
02f6
01fc
fe9d
fcc6
0463
0a25
0302
0278
00c4
fcd7
02a9
fc2f
0620
fb6e
ff81
01c0
ffbd
06d4
0011
028d
048a
03d6
02c2
ffeb
016a
0044
04c1
fdac
0402
0505
0443
03dd
ffc5
0188
ffac
fdb7
0170
fea6
fc29
0488
ff64
f709
ff4a
ffb2
fc94
0006
fe3b
0434
fef5
fd90
006f
ff5c
fc69
0295
fe55
fe90
fcdb
0429
fefd
fe46
054d
0376
fe9c
fca6
0162
0212
fddf
fa1b
fd7e
ffed
00d3
0085
fd55
015e
ff95
04cb
f9b4
fe18
fdb0
00fd
fcc8
ff0f
fee3
fc69
ff5c
ff6e
fbbc
008b
fe4d
02ec
013e
feb5
feea
0510
0276
0436
fb26
04d1
fe3f
011b
fd87
04fc
fac5
fd3a
007e
00b7
ffab
fc1d
01a4
038f
ff20
ffcc
0053
03e8
03db
0132
034f
0514
02a0
0034
fef7
014e
fefd
0464
0380
fcf5
013e
01e5
faf5
ffd9
fc2e
ffa5
fd0a
049b
00e6
00c2
ff9c
feb8
fb57
ff89
026a
03aa
0296
01b6
0559
f482
fe77
fe2e
0286
03fd
0616
04e9
0071
0354
fb10
fc0b
ff3e
00ca
fea0
ff0d
fc35
fe23
fa1a
fcb8
fe18
0024
fd03
03ee
019c
0924
fe12
fb40
f9c9
fc98
02a8
04d1
ff27
fd81
0419
0097
fec3
fdc6
0278
01b3
0014
fadf
00e0
00db
fe03
fed7
f90a
fd7f
0392
fd36
025e
044c
0285
028a
fc7b
0053
fef9
ffba
0259
0336
fe71
0154
031d
ff06
0325
fe75
0195
0314
019d
ff8b
019d
00d0
fac7
fdf5
fe84
ffc4
0163
fd47
fbdb
fc91
fefc
ff88
fa5a
02ec
fb23
0205
fcd7
fde5
0059
fda6
f99e
0072
ff21
fbba
03df
0245
fbcd
ffe8
f8a3
00e0
0297
fdb2
fcdb
fdcb
003e
ff76
fd33
025d
0288
ff52
01de
01f5
019d
0452
02b7
0125
f88a
0226
fce9
01ca
022a
0276
feb0
02f2
05ac
fe47
ffc8
03c9
ffaa
ff12
fbe3
febd
024d
fdca
fb8b
fb3f
0521
fea8
0262
fe78
038c
fe09
fcb6
0241
fc30
fbe4
02da
02dc
02d1
fba6
02bb
00e1
0001
0069
ffbc
01a7
fbbc
02e6
fe49
fcdb
fa6a
00dd
fca5
030b
fd6c
0190
02b4
0313
fa55
ff33
fbb3
0382
0210
fc4b
039a
0240
03ec
ff94
00b8
0156
055d
fdf2
fb11
fd70
0470
fde5
032c
0043
0807
002f
fffb
049b
0220
009e
0439
00f9
04ee
006a
023d
ffd1
f834
0217
032d
00cf
02d2
ffad
00e7
043f
0042
0118
fff9
fed0
ff62
fc28
fed8
0033
fc7c
0453
0182
0252
0186
fdfb
0487
f8ce
fdc6
ff4e
fe68
0089
0476
0308
fe43
00a8
05a6
ff10
fe42
037a
fccf
057b
01bc
fe2a
003b
ff6d
0083
00c5
002e
03ef
fa86
fe1e
fd41
ff1a
00ca
0190
ff6f
018c
03d7
fbb8
fa56
0062
fd56
017d
0648
0489
fefe
fb73
fc67
fe57
ff00
fefd
00c0
018e
0283
02b1
010c
0548
008f
ff17
ff73
