0147
f908
fd93
fa81
fedc
ff4b
027b
0079
f9c6
008a
040b
ffd4
02d0
f700
0099
ff25
ffc1
fe01
0503
022c
05ab
ffe5
fc7c
fdf3
f99f
fe5e
0856
0297
fdbb
0117
022c
000a
001f
fd09
ff00
fd37
ff31
03e6
050f
0947
05c4
03ee
fe7f
05db
fdf6
fd42
ffbd
fdcd
f846
ffaa
fe48
fe32
008b
03c0
003f
0080
062b
febd
02cf
ff0c
03a5
0232
ff07
00d2
0036
0396
0202
fc77
0203
01b3
fcb3
ff6c
fdb4
f9e4
fe1d
fd6b
00cd
ff0d
015c
fc7d
ff40
0145
0166
0613
0168
fb66
faee
050a
ffbf
00d9
00d9
ff50
fa67
002a
0541
02bb
0302
fb14
fdb8
ff6a
ff54
029e
01df
fb74
ff51
02e8
03c8
fb3e
ffc0
028e
0607
ffad
fff0
02a3
ff26
040b
fe0c
ff49
034d
0267
fa04
029f
fdc7
fff3
fe00
0231
04db
fe95
04ff
ffe6
fcc4
02e9
03e0
fd98
fdc8
fed4
fbf8
0399
ffd7
fc1c
fe2f
fb35
0303
0198
fdd8
fe26
0059
fe5c
001a
fb67
0790
01c2
04fa
ff89
06cd
029f
fbff
0137
04a0
feb1
fbca
fece
0246
feec
ff1b
0240
febe
00d6
0117
ff1a
f8f8
036a
fc21
0236
0668
0164
0021
0425
fb58
027a
03c7
03cb
fe9c
0171
ffb9
02e0
06b6
0280
0194
021a
0036
010b
0126
02c5
ff1d
0119
fdff
0346
0353
05b5
0384
0096
00fe
fe03
f82b
fbb0
0106
fd96
04fc
ffd3
fd73
034e
ffd7
040a
0155
fdf0
02a1
0234
fad6
02a3
0410
ff90
0058
fca1
fd9c
fb95
0062
01f6
fd6d
055d
fdae
0208
fe75
fdb6
ff76
0696
0369
03c1
fd76
0629
ffd5
0018
027b
018b
fed4
01d1
f9c2
fb28
05ca
fbb6
0062
ff4d
fd0e
fb99
011d
ff22
fd82
fb3d
01cd
0503
001a
00a7
02b4
0173
fa46
fd18
fb1d
ffd9
03ad
01f5
008d
ff68
0542
fd9a
fd3d
ff09
02f4
00fe
fee1
fa72
0538
ffcd
fca9
01e3
f8a3
0085
feaf
017c
00c1
fa93
0251
0387
0196
fbf4
00cb
0164
0431
ff4a
ff96
fb04
02cb
03ee
ff38
ff71
fe5b
024b
ffdd
0289
0385
ffd9
ff95
033a
ffbd
fe0a
0194
00e8
0363
035d
fd7a
029e
034f
faa2
0041
fd61
fe92
02f1
0086
fc5f
fd72
ffb8
00e8
0676
028c
ff92
ff8e
0553
0284
f720
fb65
0248
fb83
03b6
02c6
ff43
03e8
04dc
01c1
ff21
0608
fee2
00a3
04ad
0363
0048
ffef
ff0f
fc9b
fff3
f9bf
fee4
fdec
fda6
01df
feae
fd8e
fee6
00b2
0041
fd20
001f
03bc
fb47
fe65
fde7
01c4
fe0f
fced
0544
fe1a
0283
01e5
0376
03b2
fcb2
ff04
fccf
fce7
fd94
fa6b
ff3d
ff51
fa25
03a6
0040
ff12
0090
031c
fe13
04d8
0158
fed5
005c
00c6
ff19
0131
0285
00a7
009c
026b
0158
fd2d
01cd
01ea
02c6
02cf
f95d
0461
032f
00a2
fe38
ff0f
0117
faab
ff3b
fb2d
fcdf
050d
0500
0030
fe5f
fe89
0220
fc36
011d
053d
0561
feb3
0220
fa6b
fba4
faf5
fc0b
00fe
fb28
00f8
0018
0067
007e
0045
f90b
ffb0
01e7
fd88
fec9
febe
0266
000f
fd9e
0301
fbff
0222
0182
0128
0229
03ea
ff2e
0365
0327
0440
fe65
fb0c
060d
fee3
fdea
0388
fb9e
001a
0308
025c
013c
035f
fff6
02cf
0192
054a
fd77
02a8
fd12
049c
00ac
06fe
f912
02ef
f919
00f8
0081
01c4
ffd7
0121
0161
0263
fe55
fd7b
fd81
018f
0427
fc8c
028d
0188
0404
0304
fc15
ff87
fe2e
00ae
ff8f
03d0
0012
fcf9
0231
ff89
ff51
fc4b
fd9a
fbe1
fcd1
fe0e
ffb5
01a8
fc07
fe06
0320
ff5b
ff59
fe25
fede
fb27
fea9
0394
0275
faca
00b8
023f
fb42
fb46
0158
fe8f
0682
00ea
007c
fbb3
03cb
fa1b
fdaf
04b0
004b
fa55
0577
feac
00a8
fb9f
05ad
fe6a
006c
002e
0092
feb1
fe55
fced
031c
ff09
f965
fcae
003a
0155
0245
fd82
fb00
009e
00ad
fedb
feca
00aa
0455
f943
fbd1
04db
fc95
022f
049a
fc3d
ffbd
fa68
0388
013b
0451
fdc3
fdaf
fc31
03b9
fcee
f9ee
061c
007f
fee4
ff6b
00b2
0876
019d
feed
07af
0144
fe43
03ba
01ba
fd58
fea5
03c7
0305
f8bb
01f0
02bb
fcb6
01e6
fad9
00a3
fe36
042e
0226
fc73
f944
febf
01a1
fe8d
03e1
ffe8
fa2d
0089
fdc5
0312
ffc6
fb68
0541
0415
fd1e
fc86
f7d2
00c1
0084
028f
fdaa
00ba
0322
0516
ff75
010c
fe4f
0492
fac5
ffc7
00f1
037e
fdc0
0177
023d
0058
fb9a
023c
fe74
ff64
0373
0185
041f
06a4
fb9b
fdba
058f
fc65
fd85
04b9
0259
ff35
f90f
fe49
02a7
fc29
fd10
fc19
fc84
00ea
035e
0088
fff8
fc37
0199
0286
00c9
0069
0143
ff38
04bb
041e
0323
0457
00bb
fe85
f916
f8c7
032c
ff53
0437
00ef
fc53
ff02
fdf5
019e
0562
03ee
ff0f
ff70
0092
fd96
053e
ff14
0497
0246
04d1
fcc6
fff5
007c
fff7
04ed
fa54
ff4a
036d
ff63
f899
0371
fe0e
0088
fc72
ffdf
ff79
fc3c
0250
03b4
fc8e
0538
ffcb
ffad
0253
01e7
03b5
fb22
fcec
fe57
ff3b
fbc9
0063
fc26
f9f5
fbe5
014b
fc9e
fdc2
fea5
083c
03b5
fd6b
01c1
fd6c
066d
07b1
fa51
01b1
fad0
045e
0155
025f
fe03
003c
036f
011a
0390
