06d3
fce7
00fa
0140
fe04
fff7
00ab
0123
fd1a
fbd9
fda2
039b
fe34
ff0a
fc29
f972
fd6b
017e
01c9
076f
049d
ff0d
ffff
0130
06aa
f9ee
fa28
fb21
0129
ffc8
0ae8
01a9
01cf
fb1b
fe32
fead
ff72
fc9c
00db
0147
012a
0807
01db
ffb6
fb81
ff57
feb3
fc01
fd01
ff16
0395
ffa6
02c1
fb2c
f7f6
008a
0144
fd72
01cc
01a4
0107
0216
fe00
fef2
0354
ff38
08ef
0273
fb04
0600
fec2
fd73
00d9
ffb3
fd2f
026d
00b4
028f
001b
021c
fece
044b
fc53
fec5
0275
ff1b
0279
fe65
fc66
02d5
fff6
ff2c
fcf4
01c9
ff0b
007c
fef5
0090
fc46
0034
fe43
0031
fe9a
00fd
01d0
06ed
000f
fdd7
fe3d
0007
0106
0388
0482
008d
0535
fd7d
fccb
026f
fb3a
fb83
01b5
fefc
010a
02bc
05ab
f8a6
020e
fd30
fbba
0068
fe7f
fe04
ff24
0003
0094
fb1b
fb9e
fd11
0171
ff06
f9e1
ff7b
ff2f
fd7f
0898
fec3
0221
0227
fc8c
0025
0188
0141
00d0
fe51
fa9c
fc7c
02b5
fcff
0146
ffec
071b
02d1
01bc
03a0
0523
0368
08b9
f9b2
fe3a
fcc8
ff03
fe67
057f
0281
fe86
023f
01ac
023f
015f
038f
fb41
0183
0160
feb3
01ec
ff8c
fdb0
ffa3
0302
02c7
00a8
fd0f
0399
fea5
fdac
02da
ff2c
01ad
ff47
0355
fd4f
00f4
05a1
0325
fde6
0088
0160
fefd
fd6a
fb08
fc8d
01e2
0351
fe8d
0353
fd1b
ffe5
041d
fd8b
0172
020e
ff98
fbd0
00ec
0262
fdca
041e
0204
fffb
fd85
023b
ff80
fe0e
0133
ff4f
00e1
0333
fd8d
fb74
02bd
fe5c
fd19
ff99
0664
0037
047e
ffeb
f75b
04bb
0203
fe39
008c
fdcd
fccb
01ca
00f8
ff79
fb08
fe03
0210
0118
0031
ffd2
003c
fcd4
ff2b
ff0a
003c
ff35
0051
0081
005c
0315
0198
002a
03e8
fec3
fda9
02fa
fdf8
022a
03c4
04dc
005f
05dd
ff8f
ff4b
0254
fdea
0141
feff
ffa6
ff92
fe3e
fcbe
fadb
fa44
04c1
fe5a
017f
00ae
fd0b
010e
fd9c
002c
fe09
fea2
ff44
0974
ff34
fcdd
05ff
fae2
fcf6
ff61
fa87
fe6b
00b9
0532
fe7f
fe38
00df
ff9f
0176
02ee
fc68
fd55
03ee
fe24
025d
02b2
fb29
017d
faeb
0206
fefb
04b4
013d
04a4
febb
0250
fbcc
fbf2
0010
02f6
ffe7
0021
0102
02ec
0343
0308
026c
febc
feab
02ec
f7c8
fac4
ffcf
fa36
fbe6
fc88
fead
fbb4
03c7
fead
05e7
fd23
067d
fe2c
fe93
fe86
00a2
00d2
fe00
fe15
0003
ff77
fd78
043a
0041
00cf
fe1f
064c
02cb
ff07
0365
fcaf
04ab
fd2f
04b5
035a
fe91
05a4
fede
0159
fe8b
02a1
fde3
fda1
006c
0528
00b0
fd40
01b7
0296
059b
ff29
0248
fdfd
0029
ff5e
0242
feae
010d
ffb1
0487
0367
fd6c
05ae
007e
0063
0193
0535
faac
ff8d
fff3
fd05
046b
0027
01d2
0033
fee0
fc6c
fe99
fffe
02e6
022c
01b0
fd9d
03f0
008a
fdd6
fcd7
fa7d
00a5
0151
00ac
fc54
0194
fbfa
fe48
fc1d
02e2
038c
fee5
fc35
04ca
ff30
0003
f86b
fd4b
fecb
023b
fbee
02b6
fd77
fefd
fdb0
0079
00b1
febc
0434
fcfd
ffbb
04d0
007b
00d2
fe3b
03a0
01c3
0371
fea8
fd20
fb9c
fe4f
072b
fd17
0170
0164
010a
0241
ffb9
03fb
032c
029d
0317
ffc8
fad4
00bb
016f
0329
0159
00ff
00dd
02e6
085c
01ae
031f
02d3
fe23
ffb9
fbf6
fd7d
0501
0238
ffeb
fed2
039f
ff7c
000b
fe86
00a0
fc4f
03b8
02be
fcf1
f835
0105
02ea
ff76
fbef
01c9
fdb8
fb0f
fed8
0084
0202
032c
ffed
ff81
048d
036b
012a
fe9e
feaa
027a
fe89
f9a6
03a1
fdca
0111
0083
04d7
fff6
ff48
0115
0077
045d
0067
fa00
fde8
ff6c
0325
02ff
018d
fd74
ffe3
0441
001b
ff57
02a3
faa3
ff27
0224
032e
0161
fd5f
fbbc
0021
0096
fda1
ffa8
00b4
02c2
fcb6
fd6c
013e
ff4d
0139
ff92
00ca
fe01
000f
01ae
ff7b
010d
f95a
ff46
fe9d
00b4
005f
fbc5
fefa
0359
fe68
fc3c
0020
02b1
fc1b
fa9c
031c
fa99
011e
0191
00be
fd10
fbe5
ffef
ffa2
0307
ff60
fe87
022e
0860
0506
0169
01be
ffa3
fa0d
00ff
00f8
0067
fdcd
0154
003d
fd21
fdd3
03cd
007d
0209
00cb
0013
ffb6
0071
fe70
0070
0073
fd7a
fca0
fb18
06c9
0077
ff2f
02ba
0363
fc53
fe2f
fde0
027b
0357
0404
00d7
ffeb
045d
0219
010a
00eb
fd8c
fd34
fe99
fe3b
fee7
ff7d
ff8d
03ae
fdf6
02fc
0150
0245
fdde
0414
0298
026b
ff75
0143
fb79
0172
fee6
00dc
f9e4
000a
0188
00e1
fd29
0643
00a9
ff97
00b0
fa66
fb97
fcc5
fbe6
0069
ffd4
0025
04ce
0491
0082
f98c
ffb1
fa3e
00ba
fd6b
0170
0214
0007
009e
feb4
0043
fe83
ffe1
fc94
fd06
009e
ffb9
06ee
070d
fd9a
020d
02b3
fe4b
0059
ff63
01a7
003d
010e
02b4
0310
fce1
ff8c
ffc2
fbf5
fed2
0414
047a
ffa4
fff9
ff84
00d9
fcc7
02d7
fd3f
006a
0248
0424
faa2
fe76
f9d4
f8b9
0146
03f7
fe51
01f3
ff3f
00f1
ffba
003c
fdd9
0695
03d1
feb1
fe4f
ff74
0014
00ed
ffb4
00a0
fb34
0138
fa88
ffa2
fdc0
020d
fa82
