0280
ffe3
024f
09e3
0013
feac
ff82
0300
01ca
fb99
feba
fded
fd98
0196
0537
fe9d
033a
fc91
0139
fbb7
fe7a
f905
fb1e
ff08
fe5d
fc7c
fd8c
002d
ff11
fc58
0175
fd17
ff78
00bb
ffdd
0043
ffbe
fe2f
ff20
03f8
feee
0330
0317
feec
ffb1
fdec
ff01
025b
0546
02e8
05ae
fe88
fc74
04e0
f817
ffc2
fa5b
0362
0706
f958
feb5
fe0f
0028
ff30
0562
ff18
00c2
ffb8
ffa7
ffb5
ffe1
fbc2
fc50
ff2f
0260
0108
00f5
0151
ffbc
fe92
ff50
ff31
fcd3
ff3c
009d
0062
0318
004e
f998
fc31
fa9e
00c0
fda4
fb9b
0327
0034
0207
01ce
00a5
02e6
0356
01dc
05f3
01d3
ff92
ff84
fdb7
febd
feef
fb1c
02af
fa2c
fcb7
010e
ff91
039d
016b
0005
0020
fa73
fc25
02bf
faa8
01f3
0266
02de
0660
03ed
fa1d
fe6a
0700
fed3
f5ad
0095
fdce
ff1a
fd00
0567
fc1d
0104
01c5
fad8
015e
014e
0520
003b
fc7b
0661
fd80
fdb3
019b
fd74
fdf0
002e
fda9
fb1b
fef8
050e
fca1
02a9
fffd
0316
0270
fe75
fc09
ffc4
0436
0253
0132
0040
fd2e
fe53
00d2
00ec
ff87
fa0d
0102
fc56
fc44
fcc6
0170
052b
ff14
0210
fdd9
030e
0193
03be
fee1
fdcb
feef
02ba
fba1
fd37
020c
ff3a
02a0
0377
0398
ff0b
0012
0446
031a
ffca
faa9
0298
ffd0
003e
ff33
0304
fb01
fe0d
01cb
feb4
fde1
ff7f
faf8
040a
0249
fffb
00d2
0012
0313
fcb3
fe6d
fcef
00f4
fc36
000c
fa12
fab4
031d
ffbb
fe2b
02f2
01ec
01e6
ff45
fc6f
0269
fc60
0173
fea6
fe93
fd7d
fe40
fc62
06ff
06e4
f998
02f8
0421
ffc5
fcda
049b
0172
0111
fe3f
fef8
03ee
fee0
0166
ff28
003e
01c8
fd21
ff8f
feb6
0388
0703
fe1e
fbc4
017f
02ad
08bf
fdbd
04cb
0175
00fb
03fc
0093
feb1
faba
ff74
03cf
fa13
fefe
0022
ffd8
fd72
008a
0055
fc54
05ff
fd63
fdf1
02c1
02d2
01e0
0242
fb99
00bf
01a1
01d1
0147
fe48
0375
01a6
fc9f
0165
f825
020f
04c9
00aa
fc76
ffb3
041f
0206
03d1
047e
0486
fcaf
fc47
fe02
fd75
fd55
fa74
02bf
fba5
fe79
fec9
f6a5
038f
01f2
0648
00fb
0583
ff47
ffad
0114
fd75
fbec
fc82
006b
fe4f
fd03
03d7
fa5e
ff9c
01df
fc26
fd38
01bf
fc05
ffd3
fec8
02fc
04d6
00b0
ff49
fa44
03e7
0396
fc56
00d3
0419
fca0
ffe0
031e
fe95
012a
00f6
0254
03d1
fb70
0450
017d
006e
0185
0555
fe5e
0501
032f
02d9
04ad
0042
011e
fa9f
ff37
fa34
fc72
fea1
00ce
057e
ff89
0037
029f
f917
0013
fd07
fa6a
fc63
fe62
fefe
fca0
fe94
ff46
02db
ffd4
023d
00c2
fa6a
fe89
03e8
0186
fa8d
0511
05d1
fe97
0149
020d
0372
00c3
fd22
fefd
fb83
ffd0
ff45
fd93
fd81
01e4
012a
fd20
03cd
fdb0
ff78
fae9
fbe1
fb86
fd5e
fdbb
ff02
ffb1
fc9e
01fa
05aa
fcbd
fe98
fd41
00e9
001f
03a3
02bc
011e
0070
fcd3
fee2
fb14
01a4
f884
fe9f
fdee
f986
fdcb
0261
00e0
039f
fb92
056b
0057
fd7b
fd09
fe72
ff2f
030d
03e4
0000
fb85
0237
0013
0111
01ab
ff25
0113
fbe5
fdc5
005b
fb60
fea7
0577
fa9c
003b
080c
004d
02ba
fd3f
0162
02e0
fe6d
ff5e
03fe
02ad
0028
05f7
0793
02de
f933
fd1d
0134
0538
fa57
0060
fa96
fefb
fbf5
ff9f
04b1
0111
04a2
00d3
01c5
00f7
00c9
0089
03cd
0137
0232
038a
fece
ff06
02fd
fcf9
00dc
02de
0472
fe21
000f
0235
0150
0011
fc1a
fad5
fe78
ff76
03d5
0483
026c
fd3f
0383
fef1
fac5
00ab
fa86
fa2f
0061
0440
fc3c
0050
01e0
01ea
00d4
fb2b
fc47
001f
ff85
fe4a
00fa
0111
fab4
fe1c
0069
006a
016d
fce9
0282
fcab
ff33
fe71
fcd5
013f
fd71
fdb9
05b0
ff89
04f4
029c
0066
006d
00e0
ff77
010c
01da
fc96
ffdd
fd77
0129
fb35
feb6
0208
ffe4
fe22
fe19
fe16
ffd4
fff9
fff4
0286
fa17
ffdd
fb84
034f
0447
0243
ffe0
fb21
fae9
fbf1
fd6c
028c
0140
0257
fc7f
fa64
005a
008c
0483
0266
0365
0091
ffa0
0285
0257
026c
01e6
fdf8
fffa
fc36
ff8d
fc3c
fa00
fea2
fe46
012f
ffe5
03d9
feac
fde1
fbfb
fec1
0073
017e
0271
0442
fcb4
fd0a
00e3
fdc8
fcdb
fd25
0089
fd50
02c2
ff4b
0131
0290
fc5d
fbe3
fcae
feb1
030d
0318
011c
fd9c
ff10
03f5
05e7
fe22
fdae
027d
ffc7
050d
f7c1
06eb
0298
011b
09b6
fe67
041e
0164
fd1e
0242
05df
0197
0372
ffb3
fe61
f569
fd26
0180
ff77
ff6c
0172
fc82
fbe4
ffc5
015f
fbb2
00d5
ff4f
fe9d
0080
0106
05fc
f840
fd93
fd05
fcb8
00de
fdcd
0006
fc74
0053
0398
fb27
01c5
0006
03d5
ffa5
fc7c
01e5
0191
03ea
fd4e
0165
ff1b
019a
fcd9
ffd9
fe4d
ff7a
060d
fe76
fb27
0183
016b
f9a4
fd27
014f
01c2
0066
00ea
0649
fea8
fb3e
f8a6
ffd5
fd30
fb49
0582
00c6
0162
00e2
0008
009b
fed3
fb86
f95e
fb6b
027f
03e5
fc59
01b3
ff0b
ffcd
0326
01b4
00ac
017f
ff6b
0414
fe16
0099
fa2a
06c1
