ffa8
02db
fb5b
fa63
0260
01c8
fc09
00d2
078d
02c3
feab
054b
043e
0059
fe22
fd75
0525
fdd9
031c
fa3c
00ee
f9ae
0232
ff7b
febc
020c
fd7c
fd6d
06ca
fc51
00f5
016f
0298
04e2
03d2
fe92
031c
0213
feda
007c
fb8d
020b
0148
01dd
f9e7
0382
ffc4
fe6e
04bd
ffa2
0619
041e
0000
ff75
04fa
0124
03f8
fd52
fd8f
034a
fcd9
0302
06b7
0130
fe65
ffc1
0132
0051
0557
0159
fceb
024e
fcd4
f9fa
fe95
01ed
00b9
042b
fffb
018b
0447
fd55
016d
069f
f9f8
fc47
fd18
0064
00f0
010c
021c
fd19
fbe9
051a
01fb
fd3f
0564
ffd4
fecf
fda2
fbb1
ff79
f91c
00a6
00e5
fd62
f8f0
fd4a
0465
fed7
014d
002b
f929
0197
fcc6
01e7
ffd8
0555
00cc
0025
ffa4
029c
0653
02cb
02b1
ffdc
ff63
0466
063d
f503
03ba
fc1d
ffbb
0320
02be
ff50
fc42
fd35
0192
fc5f
0325
0080
02d4
0285
037e
fff3
ff28
00ba
fe8e
fea0
0319
fc3b
02dd
fbeb
00b8
fbb6
01de
0059
023d
0059
ffa7
0345
011c
06f1
fb9e
0213
ff29
fd7a
0338
00e1
0014
0348
fe96
0082
fda8
fc34
f966
01a4
0196
fdb2
fc90
fb6f
00c1
03b9
feed
056d
011b
fa1a
00d3
fb35
fb96
031b
fdae
fc6a
005a
fd0e
0452
ffd5
00bb
0184
fd9a
ff6c
fd1d
02a9
fb58
0598
fc58
ff08
02ea
f7f3
0280
ffc6
002a
fb27
04f2
fbe8
f9e7
01c9
04f2
fca9
fe94
fb5f
02ba
fd8c
ff28
fbef
0283
fef4
0152
0058
021f
0193
0085
fafe
fe57
0416
fd92
fd3d
0470
ff42
fedc
fabc
fa2b
02b3
0399
0074
01a9
ff2b
0096
010a
fdeb
0178
049d
fe5e
004a
0235
fbff
ff25
05ac
04b6
0017
0478
fe2d
0070
01a1
0172
00c0
0055
01e8
fde7
fd67
007f
020f
0414
009c
fdd6
ffab
fcc5
0195
01d6
ff38
fcc2
0442
02c2
fc6b
f848
fce4
0119
0289
fd9c
00d3
0191
ffc3
ff20
012e
fec7
0301
f99f
feb7
fec0
fc94
ff8b
fc1d
0123
00c7
00af
ff49
fd46
01f6
fe1b
ff22
010c
0105
042a
ff3d
0168
01e8
fe59
fd70
01f0
00a6
0378
0012
f887
0128
ff1e
028b
001d
0212
04ba
fd46
0446
fa4a
ff3d
ff40
fd46
00e6
02a6
fc86
01e7
03ab
0237
007b
fd66
02fe
fec2
05ac
ff91
ff3b
fbdf
ff45
f992
f8fb
02d5
0395
0358
0140
0206
fdaf
0222
fd8e
fdab
0371
f797
f96e
029b
fd97
003b
000d
0552
025b
fd4e
fe0c
ff83
fe6b
022f
fe7b
fed1
fd65
0450
01f4
fd65
0166
05b8
fec9
ffcd
ffa4
0335
00c9
00cd
0263
fb14
ff9f
01f2
03e7
01e4
0006
fd11
fea8
0160
036a
ff99
0161
f72d
fc27
f947
fd86
fda4
fc08
0156
03cd
00e6
fba9
018f
fd6a
0156
fcae
fe87
fdd0
01db
ff91
00b8
feec
0058
0456
fd27
0232
fe1b
007b
022f
089b
00eb
fd7c
0452
fe27
03c9
04a6
fdd6
fa0c
01da
023d
ffbe
012b
0123
011a
fce3
0301
0268
0193
0311
fba0
0021
0126
f8ad
04ec
fe7d
02f3
fc0e
fa5e
ffde
ff5e
0439
0373
fc5f
009e
ff8b
0154
0103
0461
049c
fd61
fe26
00b9
0299
04d4
ffcb
fef7
fc31
02ee
fbc9
01ea
038b
0519
fd42
0395
fde8
027a
f913
018f
fcd3
0079
03ea
fc3c
ff08
010d
fef3
03af
004b
ff07
00ab
ff10
ff5c
0306
01f3
0143
fecb
fb5c
ff02
01ca
02d4
022b
fe33
00c9
02b2
07a8
fffd
039d
0410
0280
0321
03c4
fec3
0190
fd2c
fcc6
0726
fcd6
017f
fc26
01c8
f98f
fe2c
ff97
f93a
0170
fe48
fe1c
02fb
fe2d
fbe5
f995
fe33
00e6
fb37
fb25
000b
fdd4
00b5
0288
000b
02e7
fe1b
ffee
fe7c
fee5
ff32
037b
0094
04e2
0245
01c2
fab4
fcd8
033d
fd6d
ff6e
04ee
013b
f8fe
0301
fa65
fd24
ffec
0082
0231
0302
0446
fd51
ff35
0814
ff2b
f7ee
fe4a
fe46
0139
01eb
01a8
0236
ffc8
fc92
008c
ff66
fe6b
ff90
006d
ffb8
fc68
0263
ff29
fe9e
0361
fd99
fe4a
04c4
057a
01ea
fd03
fe60
fd4b
002f
0414
00ac
03cc
fc13
fc24
fe9d
02e4
ffd4
fc99
fe02
045a
fd6d
fa5e
0344
fe59
01d0
02a1
0273
01cb
fe6d
f952
fe8d
02ae
fc4c
01e7
fbcf
0146
0063
01c6
014e
0247
ff94
03e0
02f5
faec
0024
008b
0575
fea2
0272
0154
fe46
020a
fedc
00bb
027c
fdfe
fbc8
fe7e
0047
04b9
fe80
fdfc
f632
06cc
0439
fa19
0066
feaa
001e
0519
fd7a
fe6d
fb0d
035b
0406
fef8
fd9a
fe5d
fa91
ffe9
fb32
00be
fe39
fe42
051b
015c
fdfa
0638
fc8f
fc4e
fdcd
fdf0
000a
feb8
ff55
ffbf
0388
ff7c
ff77
0148
ff88
024d
fed5
facb
fda7
fcd5
fe04
fdac
014f
fd1b
02e1
ff6a
ff35
0179
0002
013e
fc30
fdee
fd5a
02a0
fe0f
fec8
01f1
006a
031e
015d
feed
fcec
061a
ff24
0191
014b
ffed
0192
faa8
ffe0
fe89
0439
002c
01f4
0284
fe7b
01b5
fcd9
0421
fe74
0306
fd03
02e6
ff8e
ff43
0311
0040
04f1
fc96
fdc1
fe44
01aa
fa19
00a8
feed
015d
fe72
0562
0020
fec8
041d
031f
01f3
0395
02ba
025c
f77a
fecf
00fd
fed1
ff8e
0181
0303
fe09
fe9f
0275
03ce
