2b79
db26
0212
e1dd
e339
3912
00fb
f30b
ee6e
f440
113d
e982
3b4e
d2fe
f0ae
d39d
2410
e692
02e8
0267
195b
1a62
eca4
ff63
139a
2f34
0cbd
fb56
03a2
0286
f34f
d041
e81a
03af
108e
f779
0e04
e43d
2c2c
f55b
18c5
2fd4
1e5d
0321
0825
f1c8
e3d2
ef55
db5c
cbc5
ff34
e73a
f60c
ecb1
0f51
ec4e
e6e2
13c1
36ae
3c80
14dd
2144
f03f
eae1
0a99
26c7
0c09
0fd9
e9df
02e6
04e2
0ab9
d896
fdde
f240
fd74
12ed
0944
0ef1
dd4f
2760
0c6f
f95e
fc32
107e
eefc
e204
021b
0cda
f6b1
f7b6
06da
02f3
093a
fbd0
1380
ffda
03d3
ef3c
ee39
0cc8
f144
1ac1
0288
03da
f79a
faa9
f95a
ed89
20a7
0468
fec5
fec2
15d6
104d
e70b
115b
e49f
f9ed
0915
e390
351f
d6d4
d15c
d7d3
f3d5
d47e
07a5
df2d
17c6
10eb
3083
d0fc
16cd
f647
16e4
0eaa
e870
e3ae
013c
16e7
0aae
e370
0414
e887
0e4d
1ea4
fdda
04a2
0ee6
03b0
0742
0ec0
1fde
1f2f
ed87
07f7
1d73
1fc8
fdf4
c9e3
0702
c445
1853
ec51
f64c
c71b
0176
1272
07ed
ee22
0e08
ff8e
00c7
cd35
092b
0f2e
00ac
2003
f18b
fc85
070a
1569
f0c0
0514
2871
2bd2
e8ca
04b7
1d81
1cd7
e629
1903
da55
0e35
06d8
fd1c
0c94
24a9
f883
e949
2abe
2b86
09d1
083e
2f53
f5b0
fc6c
04f3
2b03
e08d
df3c
ff99
571b
1693
223d
f2ae
eb74
ec0a
ef9a
fb22
1186
0e51
0262
11b8
059a
e646
f90e
08fa
f583
0acf
13bf
d39a
d7e3
27c4
0f84
142e
46d8
dfa0
19d9
e3e8
06a5
276a
e69a
0ccc
0290
db9c
f795
2414
2c34
01d0
44c7
f860
ea5e
f585
edd9
