fda9
0165
fc8b
fe09
0293
fd98
ff00
0273
ff70
0543
fef1
fd89
0346
ffef
02a2
021c
ffe4
03f7
fa71
00fa
06b9
faad
0395
fffa
f99e
025a
02f1
028a
fbbb
00fe
fe56
fc38
fd60
fffd
00e1
fe81
008a
ffe6
012e
00d6
022c
ff49
0084
0591
fe5f
fc9b
00c1
fdd7
ff39
0563
ff14
fe47
0014
ff70
02c3
ffd5
fb76
0188
0022
0088
05a4
03ac
016b
0482
02d8
fd07
0581
0403
001c
05f9
02b8
06e4
00b0
01a0
0013
028a
037b
01cf
ff16
03ea
fc30
010d
087d
0885
fdea
ffbe
00d1
fc9e
ff66
fe44
fcfe
0218
015b
01c5
ff35
08a5
02ce
048b
0691
fe5a
01a3
05d1
03a0
016a
fd77
ffdd
0000
fc8b
0290
054f
fbcc
021f
0237
fece
fdef
05c2
ff84
003a
0273
0aff
fb25
fd3e
02a6
fc04
00e9
fa7e
035c
fd88
f92a
fe60
0495
01aa
fafa
feaa
00ed
fda1
01e2
ff6d
ff2e
00d1
faaf
fa17
fd25
ff58
fb8f
05bc
ff5f
0287
044b
01b8
048a
fd8e
06b5
0033
0235
fd87
fdd9
ffd6
0162
03f1
fcdb
01c1
fd05
03e3
ff75
fedd
ff84
0777
fc38
fd6b
00c6
feed
00c9
03a6
0040
029e
01f2
fc1d
fee0
0623
fddc
fe1f
03f8
0208
fbc0
094a
0302
02a4
037a
ffbe
0049
fd43
0156
0389
fcb8
0171
fe8a
00ed
0378
fe51
fcf7
0260
fd80
fc68
fef2
009b
fca3
ff72
ffdd
ff88
0057
017a
fd47
01c2
ff34
ff12
067f
fb9a
0163
03b2
fed9
0578
025a
0554
03d0
026f
01fc
ffa7
ffef
05d3
00d9
017f
0060
0382
0302
0339
fdc6
ff01
05d1
0367
025e
fffc
fe9f
02aa
00b9
fced
01c8
ffe5
0365
fd2d
fd63
0386
fcbb
ff99
fb50
013b
fa3d
0105
fed2
fe9f
fd54
012d
03a3
0251
fcb5
f73a
0382
00bb
ff01
057d
ffdc
00f8
03ef
fe39
ff59
030e
0036
0177
0165
fc74
01cd
0540
02db
fcda
004d
03fc
0311
fd76
0076
fc91
008c
00cb
0295
02ac
0370
0363
f728
fa5e
0546
018d
034b
fdb4
f93c
01a8
fbf2
0170
fd90
0262
fe6e
fc57
feaf
02c9
fe99
0057
fe30
0091
fdef
fed1
04aa
0875
0389
009d
ff2a
0272
008a
021b
019f
ff34
0496
07fa
ff76
fc5a
016e
fde5
02d4
fe52
01f8
ffec
037a
0072
fe05
0208
048f
f8b4
fc46
0409
f9ce
0509
0285
0257
fe65
fe43
fe06
ffd1
fcbc
fd29
0324
02e6
0052
03ac
012d
f980
025e
fe15
046a
0160
036e
febd
fe67
0038
fb82
f980
fa74
fd5c
fa09
06ea
00b6
ff80
04ee
0271
fde8
fccc
06df
f805
005d
0630
0459
ffb8
0524
ff17
ff4c
ff5a
fbba
fef3
fe5c
0209
0017
fde7
fbc9
00a3
ffc2
f91d
ff0b
014a
fe38
fddc
042a
03ec
016a
009e
0415
013f
0127
f9f7
02c7
fb29
0094
0278
ffd0
faad
0378
fabc
fb01
ff8a
f8da
0500
0088
040c
0003
ffc7
fc92
fc0f
040a
02c3
fdb8
fdb2
0040
0288
0238
0358
fe2d
fed6
0446
03c8
fee3
fa93
fab2
00b5
ffa0
fc5b
ffcd
0259
ff29
fc3a
0267
0159
032d
077a
0073
fe1c
ff31
047d
000e
02b8
03e4
037a
ff82
fba4
07cb
fe87
03a3
fbd5
05c5
fec7
fc54
032b
fede
fc26
fb83
fca5
03d2
ff5e
017d
0214
02b2
fdaa
0161
04f2
021b
fa9e
0154
0892
02f0
fea7
03b7
fb00
007f
ffc4
fe04
0207
fb59
0440
0031
fb28
fbe2
036c
011c
010e
ffb7
ffb6
0598
ff09
fb2d
fc19
01be
fd58
fa62
0423
fcbe
00f9
fd6a
0141
fdd5
fe17
01ba
fe68
feec
f9f7
042d
fd64
010c
044e
020b
01dd
0555
02f1
ff5e
023e
fe67
ff66
ff13
00cb
fd3e
0266
fed2
0318
00f7
fc56
05c9
0020
03d6
fe49
ff32
01aa
02db
0262
0105
01a2
009f
ff2d
fbc0
fe30
03d6
fd9a
fe31
fd5a
00aa
fdd5
00f0
0251
fd20
02b9
fec5
fef8
fcd3
fba6
fe49
02f1
fa20
0d63
0253
00ca
03bd
002e
0599
fe82
0485
0282
00e8
0287
f92d
028c
ff6c
0284
ff6a
0514
ff60
031d
f892
fd11
017e
ff60
fffc
fd95
fb43
089e
0239
01b3
09f2
040c
fc11
028f
039d
fd63
ffb3
0010
ff27
00aa
ffae
ff3d
faa7
005d
fd1b
fa28
04cb
01fa
0021
0000
042a
ff07
01dd
0308
03ee
feb7
00e7
0268
02f2
0287
0488
ff36
fff0
00ce
014b
0425
fbb2
feab
000f
f9e3
faad
0543
02c7
ffda
00dd
ff95
fea3
ff80
fc7c
fe6e
04c2
00bb
0563
fecf
fe19
02c7
ff3f
fde8
009f
fc4a
01f2
ff99
019e
fd99
0313
fe23
ff15
06c0
fee3
feb6
0401
ff48
0090
023b
ff31
fe1e
044d
0111
fc67
0250
fe7b
0108
fd6c
00cf
fe99
014c
03c8
01eb
01b6
fb6f
fe99
ff8d
04e9
05f4
fd18
04a5
00e1
ff9f
fdfa
fc66
03b8
023c
02d4
0035
fcdc
016b
fa57
0691
04eb
fb8c
03a3
fe60
0110
fe9a
fd48
ff5e
fe69
ff5b
04ac
0204
00c0
0111
fea7
078a
f8cf
0175
ffca
fbd3
fb33
fee7
ff2c
fd00
fde1
017f
ff66
fc30
01a8
0167
fc5a
0863
0225
0215
080d
fbfa
fb9d
ff5f
0491
fd32
fce2
0216
fe7a
0732
011c
ffb5
fbea
ff49
0681
f9ba
02ea
0374
0243
ff6f
001c
0319
0220
0259
feda
fb09
0446
0520
fa7e
fec2
ffbe
0071
fbaa
02f0
