f7c3
fc81
fac6
f9aa
01e3
fdc9
ff3d
02dd
020d
00ef
ff61
0065
fce3
ffd2
fe3c
fe36
fa9f
02c9
f8bf
fa2b
0295
fe5a
057a
0125
000d
fe01
0564
057d
fba7
043f
fe5b
030c
fa7f
0298
0242
001f
fdde
fdad
03ab
00e8
0452
ff6a
fec1
fb62
05cc
f81d
f59c
fe0a
ff61
ffe3
02a5
fad8
fbfe
fd32
0177
fc76
fca8
fec7
0168
feae
fde0
0038
faa0
fe50
fb22
0058
0208
fff2
02ee
fa7d
0287
fd76
fd62
0015
0120
0149
001a
ff5a
fdba
f967
feb0
0287
ffb6
ff42
05e9
0814
fae8
f891
fd73
0677
0246
0025
011b
fe70
03d1
fe86
fe43
fed2
feb6
ff7f
ffbe
0192
ff76
01b2
fc97
00b1
0004
fd09
ffa0
0195
fb0f
f7d7
fd97
02b6
fcdc
fc73
ff1d
06cb
003f
0092
fd56
fca0
fceb
fa84
024b
faab
fe0d
ffb2
ff85
0420
fca6
febd
ff20
02e1
0361
fc5d
fddc
01d3
04ea
05f3
083f
fdaa
ff81
0121
f892
0250
fc51
fed1
0343
0291
ff7e
0009
fcea
ff5e
fd4d
02d4
ff54
fc51
00a0
0238
006e
fde6
00bd
fb72
feec
ffdc
fdf1
fdea
01c3
04e2
fcc1
ffaa
fdcb
001a
023a
ff14
fc9c
05a3
ff05
051f
0197
0056
008a
060b
0420
f412
ff4e
fef2
fb23
fbd0
01a9
00c6
ffbe
ff1e
ff4e
02e6
00af
0153
fe35
fcf5
ff56
0270
001e
0117
0321
062f
fb8b
00a4
ff35
fdb2
fc75
00c4
fc14
0150
fdd9
0271
0101
040c
fd80
024d
ffa3
fde6
fd64
fd13
029f
fce5
ffaf
fbfc
00b3
ffce
fffd
013c
0444
fafa
0266
0000
0129
049c
f93e
fed9
fd42
04a8
00aa
fd7f
0057
fa0e
febc
05b0
0028
fe52
fcac
fcf4
fbf2
feca
0442
fd2a
f891
02d3
028f
00de
fcbd
fdbc
fdc7
0321
0663
0227
fbbd
fd2a
ffac
0738
0504
050c
0517
014f
0066
fde0
0034
02b0
feb1
fe7c
ff7f
0105
0204
05e4
02d0
0378
072e
fc65
057d
febd
0458
01f5
fe99
0043
0705
01cd
040a
001a
feb7
fc6f
024c
02fa
fff9
fe1b
ffb8
0520
fadf
fe72
0048
ff1e
fe1a
fddf
0080
fb57
fd55
fa83
00f3
fed8
02b4
fd76
004a
005d
00a6
fd80
0082
fea7
00f6
02c8
0212
fc3d
01e0
0198
042c
fb2e
00b5
0193
02aa
fec9
ffa7
0082
fdd0
06d4
01d8
0205
fa93
01e8
006b
025d
0148
f9ea
ff0f
0773
fe41
fe9b
030a
ff19
006c
0094
ff87
fcab
0072
fd60
fe81
fb99
0161
00af
ff83
0060
fc8b
fbdf
fdef
0550
0293
ff6e
fc8c
0239
fff3
0019
fb67
038e
ff53
034a
002e
ff13
04e1
ff69
00d3
001c
fec6
02e0
0284
01aa
00be
0460
fc53
ff06
026c
00a9
0170
0026
fc53
f741
00dc
fd15
fdc1
ff8d
02d2
fecf
f9f3
0161
02d9
ff15
fa06
039a
ffbc
fdd7
fdcd
03c1
031e
0b1f
0191
01f4
0001
ff90
fed4
fe33
fe94
03ba
05e9
03d2
ffe2
013b
ffc4
01dd
0338
ffb0
fefe
0568
0456
fa3f
fc44
01a7
00c6
fbc5
ff0f
00c8
feb8
0630
febf
feac
fea3
0105
f9fe
075f
ffe7
010e
00b7
faa6
00fc
01a6
0237
f877
fdd2
fd49
f940
fe61
0404
f994
02c9
0024
fe48
fc29
0693
f7d3
0269
fb23
0015
0115
0294
0008
01bf
00d2
01fc
0081
0430
ff1d
027b
fa61
ff0b
fc94
056f
016c
002c
021a
001f
0251
ff74
0162
038c
00e2
fe66
fbc7
0331
0349
0289
01c8
fcd3
fe6e
04c3
03cf
fc8a
fc8d
fffc
01d8
01ee
0008
fec5
faa2
fe52
faef
fddc
01c3
0226
fec3
008d
00c8
fe4f
026b
02de
fc6a
0304
03b8
04b3
0661
006b
003b
04de
fc87
0279
ffd1
fbfe
ff22
fd2f
02c5
fa35
fc50
ff95
01e2
0027
0268
012f
0180
0371
fcf4
fe7e
fb77
fe2c
0346
01b4
011e
fc0f
fda4
00d0
01c6
fe8b
fcea
00ee
0234
fb8f
fdac
029f
01bb
fbff
fe6d
0689
fe2d
0345
0109
fac5
fe56
0328
0031
039a
fe35
02cd
0255
0077
f8ab
ff48
fe32
00d9
0684
fcbe
004d
026a
03ce
f9df
01c6
fcae
01ff
fc99
0294
ff2d
fe23
01c3
0108
fe1f
0336
0105
fee1
02e2
04e1
ffbf
001d
fbbc
ffb8
01bb
019b
fe24
fb86
fd4d
ff22
0241
f88c
f8aa
fbef
fbdd
fff0
0249
02d9
ff54
0258
04e5
0036
0487
0197
fc6c
fe7d
fecb
ff58
0779
03cf
05ba
032c
008d
ffc9
fe24
ffee
0251
029d
063c
fff7
ffad
fd0c
fc7e
00f3
ff56
0291
00e7
0082
018b
fe24
fe26
017d
fca9
0a8f
fec0
0595
01c2
fc29
fac8
0126
03a8
fc33
0281
02c7
fd02
feb8
066d
0011
feb9
043d
04a6
03fe
fd12
fe49
ffde
009d
06f5
0558
0254
fdde
00e5
fd8c
0063
fe0c
0339
021e
0273
021d
ffff
f8bb
021f
fcc6
015c
0019
024b
ff4a
feec
00c3
ff4b
0167
0200
021f
fed8
fc52
fb4a
fe4b
0107
00fb
fe46
04d2
fced
fa9d
02b8
0272
0482
fd55
044a
ffd5
028c
fd5f
02cb
ff26
fd3e
03ea
fe5f
01e2
fd76
ff7d
ff11
fab2
fe80
fc44
fa81
ff82
fdc1
f924
0196
fb37
fb00
0327
fef5
ff8b
fec8
ff5d
fbc5
025b
038e
fc7b
0175
fbcb
00a4
fc8f
fb4e
fdbd
fbe8
00fd
00e9
fea7
ffa1
fd9c
02fe
0100
0345
fe0d
fa07
0094
0071
ff9b
0650
fc16
ffb5
fc81
