fdb2
03c9
ffbb
fdf8
0578
ff68
fe87
0075
05f1
ff4e
fc67
feb0
00ee
0042
012c
fbff
fd78
fbbc
0601
ff83
fe63
00cc
fedd
04ab
054a
ff7a
010b
fd94
0459
0176
f9f1
0532
fcbb
fefb
0178
ffa5
01bb
ff49
fa9a
002f
071c
0153
00c6
02d6
fc9c
fe79
063b
fda8
0027
fdcc
fc11
fece
fba5
00a0
f7af
ff4a
025c
fd20
0127
fe78
00e1
fc1a
fd9c
0309
fe8c
fb0a
fd61
fd70
fed5
fb4d
fc60
00d2
0175
0381
00b2
0317
016a
0211
fde9
0114
01e6
fd8a
fefe
fd71
fe00
019d
ff66
002f
026f
03c0
01c1
02ce
f965
ff6f
fedf
01f3
f8b5
0570
fd64
fff5
fe56
0547
01c6
fd3c
00bc
fa3d
ff8e
027a
f7d3
feff
0226
fead
fec4
ff08
fc09
fef3
fcfb
fbb5
f8a2
fe27
0208
fde1
febe
fd19
fdd6
0105
0338
fcaa
0184
fe45
fdc5
012c
ff17
ffea
02c1
fe01
0224
00d2
01a4
f6c7
003c
05a2
0073
fe73
01b3
01bd
0120
fd25
0573
ff1e
001d
ff09
fc69
0644
0481
fcb1
0325
fae4
030d
0361
0494
fea9
fc3c
0201
fec2
fe74
ffe0
01c6
fe37
019c
00d0
009d
0063
02f3
036d
000d
fe4d
ffcd
017d
ff38
ffeb
ff46
fe23
0018
fbea
ff89
fe13
fff2
fed6
00cb
00ca
03e2
fab8
0214
0031
0206
ff5b
00e2
04b8
fd7e
069f
ff71
fafe
fff5
fe6a
03c3
fd20
f8e7
fd3d
fefe
ff6f
02d2
00c7
ff70
00e3
00e9
fd21
ff4c
0125
0145
002e
013d
00b7
0124
02ca
fe6a
0110
fefe
0473
fc91
ff4f
f765
0687
f9a8
ffe1
ff91
fd3f
fdce
03be
ffaa
fea9
040c
ff90
ff55
fe51
ff38
01ba
0313
0170
021c
fdfa
00bf
010e
fd32
ffaa
fe6b
042e
0917
0178
fb7f
ffd9
061a
00af
fd4b
f9dc
ffa8
0675
f9d3
0120
0256
022f
ff0e
fbfe
007c
01b3
03b9
0548
0235
fff9
0331
007c
fe32
0024
00cb
fbfb
032e
0156
0170
ff6e
013c
003c
01b2
03c1
00f7
fd46
02d6
fda7
f6f1
fe22
0116
fcce
0060
fc79
027d
f88c
006d
0258
00a5
fe23
ffc4
00bd
0437
fb18
ffd0
fe99
fc8e
0160
fc4e
0114
03cf
034d
ff74
07e3
ffed
fcb7
0188
0360
029d
fe8e
026d
0949
fd37
ff73
fc32
fb89
0187
fabf
0020
fd95
00e4
fef9
fd62
01aa
0319
0395
fe12
ff0c
f91a
fe49
0939
0232
fe76
fb3a
f9aa
fcce
fbe2
ffb6
ff62
fb51
ffd2
fef5
02a4
03e5
ffaf
008b
fcd2
fc11
02f2
00f3
0581
fe53
0399
fb87
042f
fe0f
037b
00bc
fa88
03fd
01d8
0226
0333
01f2
0002
007c
fc76
fe37
fd18
f970
fca2
fb78
033b
00bd
fc84
0426
fcab
fda8
fedb
01ec
03cb
ffd7
0290
0672
039e
fbbe
0190
0615
0021
0189
ff36
ffcc
ff84
04c7
ffd5
07b6
fd6d
045b
f989
fdcc
fe24
014d
0162
072d
003e
fda6
02a2
f881
fc11
0232
ff13
0029
0413
fdba
feb6
ffc1
00f1
04c9
0040
fdfd
03ec
fc81
fa0d
fa69
ff95
fdaf
fbf9
03c8
02cf
0077
ff84
00c0
ff4f
ff38
fc89
ff2c
0283
0541
00dc
0345
00de
fbb4
ff2f
0374
057f
003d
ff07
0020
0072
025b
ff83
00a6
fafb
ff6e
0307
fe53
05e8
01df
02c8
fbb7
027f
0691
ff3a
fc36
0065
ffee
0042
02cd
fc68
fef3
02e8
fadf
0132
0149
02e9
fb37
fed7
02cb
fd6f
0332
01a6
00c8
0392
00a6
030a
fbce
0411
fc11
00b1
00b5
03b7
067d
02b6
fc5e
fe3e
0037
fd2b
0691
ff87
00e3
016a
0173
01e6
003d
fc6c
024b
0063
fd28
00d5
034a
fd10
00c7
04af
ff5b
fc0b
0528
fed5
01f2
041d
fd80
fcc9
ff09
fd88
fe39
012c
fd47
ff3b
0267
04ec
0196
0897
fdc5
ff6b
ffdd
012d
fdd8
01ed
fcec
fe89
0131
00fa
fe52
ff47
fe33
fdf4
0090
fd5a
ffa9
fc7d
0032
fbec
02c0
fbab
0271
fd44
fdf2
0221
fcf7
fd51
fcf4
ff27
fefd
fd80
0468
002f
0109
fc5c
03d0
ff39
00eb
024e
01c4
0191
ff81
0bce
00d5
ff55
ff3e
0131
02b4
001f
0076
00b5
fcc4
fedd
ff39
0331
ff2e
fba3
02e3
0012
03b0
0196
01c4
007e
fdff
0122
018c
fe5f
fd59
029e
fd8d
00cb
014e
fecf
fe49
0363
ff28
ff0b
02b2
ff68
fef2
0072
0576
fb16
00fe
fac5
fdb2
0155
fbf5
fb78
01a0
f6ed
01e1
fe8c
02fe
01f9
06e5
02a9
fef5
fefe
fe19
f9d0
ff02
fd8f
0577
feb7
001e
ffa6
0041
fe9b
fa95
ff75
fc4b
f8fd
042a
ff32
03fb
0157
feec
fe9f
0649
fecb
fe9f
02a7
ff6d
03a6
0449
fbfe
fb19
fd99
fd3c
ffe2
ff0a
feee
f9e6
0315
043e
fb61
01d8
0431
028f
fb9d
fd4c
0268
0513
fdac
0189
fd43
007b
05c2
ff87
049d
00ae
0078
00e8
0002
fa1c
077f
025c
fa67
03f6
ffbc
0530
03f3
fd60
047f
fd33
fa39
01e4
fcc8
fe17
fc7f
017b
00e8
fee4
fc9a
f94e
fce7
0320
ff19
0122
05fa
fdc8
04a1
fc9a
0664
fe6a
ff90
0100
fe9d
ffd2
fb67
fbfe
fe1e
fdfd
ff14
fe45
feb4
0067
01b5
00da
00f0
fd08
0016
03e4
ffa0
ff10
ff46
fb42
00bb
fce1
0345
fd18
062c
01ea
0078
0112
fc73
fdd3
ff5b
feb3
fbc5
fff4
fa73
01e8
ff50
0254
01ea
004f
01e3
007f
0020
ffb3
fc6c
