ff93
00a3
00b9
03de
fab8
054e
017b
fdee
0207
019c
fc40
fa6f
02df
fdcd
0340
fd34
00fc
00cc
0153
fefd
0198
fe14
0180
fce8
fe33
ffec
fdd7
fee3
fd75
ff75
fedb
fcb1
fd97
fdef
05e0
02fb
007a
0114
ff5c
0543
0261
ffd2
0148
01a8
01d0
031c
00d0
013a
fca4
024a
fff0
fd52
feeb
0249
025d
fb68
0071
0385
0240
fc58
0245
fdf4
fbfd
01f7
fdda
06da
fc29
02f6
fcdf
ff9d
0712
fc85
fd69
07da
0344
fb87
fd1d
ffca
0076
ff68
fd6a
0153
fd03
0836
fdc1
00c4
fddd
ffef
ff7d
019b
ff5c
02e7
fccd
ffef
0013
ff15
fd2a
ff19
ffcc
020b
fec8
02d0
026c
009b
0050
013f
fae4
0366
0586
028e
02f8
ff23
fd79
00c7
00e4
028c
00e9
fe3c
fd0d
00d6
0184
039d
010b
01f2
0203
0000
fd62
0001
01c9
fef8
0353
01f9
fc07
fc76
00f2
fd67
fb01
010f
fe25
01f5
f8eb
ff81
0261
0188
003a
fda8
f5e2
fc1a
00b2
ff13
fedb
fc1b
0264
fbc9
fcc7
ff85
f855
05fd
01cb
0673
02e9
00bb
f89f
fcaa
fbb5
0093
fd45
fc1a
0256
fe53
fc3a
0152
fdb0
fed5
fdd4
fe63
010d
feee
0552
051c
0494
fe47
01fe
0370
ff91
0257
01dc
05ac
fea7
0189
01fd
0315
fbe1
fcc5
0115
fb5d
fcc3
f776
f772
0012
0027
0555
035d
02d0
02b1
030f
0084
0009
ff19
ff50
fd27
fbb0
f88a
023f
fbfc
00b7
fcd7
0032
fce9
01f2
005c
0489
025a
06e8
028b
fd2f
009e
09b6
012d
fcfe
fcfe
fc1b
fc6f
fdc7
fe9f
fc62
0261
fd89
05f3
feb4
0441
fe66
0333
009e
029a
017e
fda7
026e
0c1b
fe82
fc4e
fdd7
01d4
028d
fac1
fdb1
fb26
fcf6
0296
0186
fbc2
fd18
026b
fc24
ff7d
fb1a
025f
0786
fc26
ff3c
fe13
036f
027e
0070
fc97
03dd
fbb1
01c5
00b2
0122
fb6d
ff0e
fd9c
f79f
05b4
046e
ff22
0014
02a5
fedd
ff0c
0132
fec7
ffcb
01dd
006d
fee0
fc44
02d6
fc95
fffc
f7ef
fdb5
fffe
fd81
028e
0772
fc48
0068
fef1
fe28
fda2
0151
0045
fb3d
feee
fe1f
026e
fe09
fce2
0791
fd01
0188
02eb
fef1
0222
fdb1
0213
f7fe
05f6
01db
fc2b
fc76
0097
fb66
fb3a
fa73
05ba
0400
fc8f
fd6a
04c6
01e4
fe9b
fe59
fe2a
0895
0447
ff43
0638
fde9
0154
0301
fcd3
002d
031a
fdba
f83a
00a5
00ea
008e
08e2
0579
0096
000f
00c6
fe74
fd81
036a
0078
fb23
fe8f
018a
02fe
043a
fd09
fe05
ff8d
024a
01d8
fcf7
ff06
ff1c
fe7e
fea8
0094
00ab
008f
0222
fcac
0249
fee1
0051
0194
fb96
02a9
ff4e
0472
045a
0411
fe3a
0168
046f
002f
05c8
fcde
ff17
04de
fd4e
0583
0479
fde5
fe1e
0323
ff6a
03af
021a
0051
0167
fa85
00d8
fd9b
037b
028a
031a
0368
fb18
0196
fc1a
0120
fb16
f899
fab6
ff43
fe1a
ffd2
ff16
0376
0301
05dd
faf6
fb5f
0413
fc68
0037
0184
fede
02ce
01c2
0300
fcd5
f956
fdb3
005c
030f
03b5
0010
02bf
fb26
002a
0001
0794
ff40
0206
fc93
fe9f
032e
0044
ffd1
05b5
f948
000a
ffb6
fd9f
02b7
fde5
fa12
0482
fd7f
feb3
0338
fe86
05fb
0410
0077
0213
fc34
078e
011f
fdc2
0268
ff50
01b2
feac
fe1a
fbca
01f1
0072
057b
041d
028a
fb64
00a3
0095
0278
fdf1
007e
0321
fa7e
fbd2
fe94
fd5f
f92b
fd6f
0366
015c
02e3
05c0
fc39
ff38
fdbd
fa8a
06ab
057f
003a
fcda
03e5
0562
fcc7
ff88
ff53
ff34
03d0
ff1e
03fa
fc28
ff98
ff30
01df
0007
00ef
0460
02f5
05cb
0162
07b8
fcf4
fe0c
042f
ff92
018d
fcf1
ff26
0060
fa76
fff0
0099
01d6
fb3e
fe9c
fe9f
fd85
02f3
00e9
ffc6
04ff
0135
ffc6
fe2d
fd42
023d
fc99
f799
0317
f97b
fe2a
ff9f
061a
fdbe
0089
fee1
01ec
02e7
fcd8
ff2e
0036
f8ac
0113
0387
047f
010e
01f3
fef5
fef7
fec5
ff88
0373
01c9
022a
074c
fb40
fd67
02a2
ffd7
ff96
face
fa4e
0797
02fa
03f3
fb8a
fc7a
0038
fdfe
ffad
ff68
fecc
fa7d
fe33
fe58
00cb
01d8
02a2
074a
052b
009f
fe20
0031
0389
002a
048a
fe83
f952
fe1e
fdd8
fc97
ffe6
fcda
ff73
fc03
000f
fc84
fbc0
0061
00f0
0033
ff86
fc72
0081
ffd7
ff57
0157
fee5
fe70
03ab
ffdd
fd50
fffc
0155
ff0b
fb4d
0121
0069
febf
ffcb
ffc5
fcb5
f923
faf4
fc09
fdf9
003d
fd08
03d1
fbfa
fe88
fbd0
006e
fd95
033d
f985
ffdd
f760
fa6d
fcea
fa44
ff14
fdfa
036b
fbce
027b
019e
0261
ff76
fe43
0367
0106
ff47
009a
fa67
03ec
ff65
fba8
0171
041d
0182
014d
0322
0085
fd56
024c
fee9
f702
f91c
fb8e
fca7
fddd
0625
0299
fe77
fcf2
058f
ff5b
fee5
fe68
fd57
01c3
00fe
fd09
057f
feff
fe54
01b6
009b
0302
fe15
010d
01f3
ff82
01d8
fa30
016a
fd1f
0387
fe3d
fe43
fc26
fe3b
01fc
fed4
fd34
016c
fe09
03c1
ff83
fe76
ff1a
ffcf
05d8
fffc
fd09
fb15
04fe
fe8c
03f4
001f
fed7
ff46
02ee
0103
fc59
fe4f
01c7
fc6f
032c
01f7
ff5d
fbf9
02a8
05cf
fa9f
fcd1
ff6b
fbdf
