ff57
0091
fdb9
0483
03f1
03fb
016a
00d7
fe17
fc6e
02d1
fc6f
fd2a
f9db
fd0c
fdde
fd23
032c
04e0
0134
fe42
00b8
fef7
0229
01a8
ff05
fd23
f90a
0363
0200
021f
0628
0143
ffab
fc1b
fb96
01f9
fed2
fc13
fe2a
031f
0452
fcfd
ff59
f97d
fbe1
0143
fc4c
f6d1
fb94
0053
fd57
02c3
fcef
fff0
0048
fd91
fc86
0220
0125
fbc8
0499
0169
fb31
00d1
fd72
0147
fdf2
fda6
0273
02ff
fedb
0038
0040
fd9e
fd5c
ff7e
0205
0084
ffd0
fda4
fc9d
fedc
056c
ff4c
fdac
ff8f
04b4
00ad
fe61
ffb9
feb0
0295
0123
05ea
03aa
0021
ffa8
fd9f
0106
00bb
0163
0205
fcbe
fe9a
02ae
04a8
01b7
0286
0311
00f6
fe97
0016
fe2f
032a
02b9
0115
fdaf
fc9e
001c
0499
fc4a
01e5
011a
02a8
02f1
0053
0097
fc6f
ff79
fe9e
06bf
fc1e
fe68
feb3
fdf5
ff3f
fcbb
0623
0214
030d
03b3
f972
0274
fd20
ff22
f9f0
fc8e
ff97
005d
002d
f8e0
ffec
fff9
043f
fb2f
fd09
04f6
feb0
ffba
0144
01c4
03d4
0352
fd12
fde3
0021
fd98
fe11
063c
fc15
030e
02bd
fe14
0681
fde9
003c
fe6a
ff70
0568
fed0
0215
fe05
fe59
fdaa
f94e
0177
fdab
024f
0025
0199
fe80
fecf
fd87
ff97
fca1
ff40
017b
ffa5
fd91
041b
f9b4
0238
fe27
ff90
0318
fe1f
fd5d
03ed
fe6e
fd5d
fecd
fa29
016e
fb3c
ff84
0339
fcfe
fa5e
ff1c
03e8
00ff
fdb8
fe55
ff9c
ffb1
fdd6
05d5
fc40
ff96
ff21
001b
fea5
fad2
fba8
f954
021f
01ec
ff16
fc62
013e
01b9
fb12
fb54
fde0
01b3
fee9
0853
ff24
021d
0037
ffaf
0451
0231
02bd
030f
0051
fd24
fd8b
fd4c
ff55
03f8
00b6
fe70
ff10
ff00
fc98
fe99
05cc
ff6b
ffc5
fc93
fe5f
01c0
00af
fd9f
0191
ff23
02f2
fde9
011a
febd
fc68
03e6
faab
0269
00fd
03de
fdb6
fd42
fc2d
fd84
0411
0138
ffc5
fc37
fdf8
fd6c
009d
fe1b
f682
03a0
feec
fea7
fba3
05dd
ff07
ff1f
fb41
02a5
01a9
0369
02c6
fdd6
04c2
00fc
fa13
fdb9
028a
fbcf
01c3
f863
0182
ff05
04cf
fdf7
008d
01b7
f9f3
0051
0449
036d
fbb7
fd37
0677
03ac
016b
04c5
ff58
fcc1
007c
fefb
f969
00f4
046b
fbad
01f7
0147
fd1a
04bd
fa83
0246
0775
fbb6
00ae
07e3
0330
feb8
fdc1
06ec
010e
ffa4
004c
0048
fdf8
fba1
019c
0020
ff21
00ba
0463
013b
0092
ff4d
0276
fc84
fe3d
0016
045b
0260
fe03
feab
f830
0217
0024
ff32
03fd
fb93
042f
ffde
fda9
ff25
0066
fe0f
ffa6
00ce
fff3
fa2f
00ba
faeb
043a
0254
fdac
ff25
ff4a
fefc
fde0
0305
ff8a
05bc
ff6a
003a
fe2f
00dc
fb80
0146
007d
0441
fd36
fe37
0087
fe53
fe01
f994
fe06
fa17
fbdf
fcc7
fcc9
ff2e
007b
fc36
ff23
00c2
010b
01d5
00bb
0485
ff0d
01c5
fe0e
ff68
0394
0112
fe41
0359
fe41
fec3
fd3b
00b0
fe30
010a
0188
02d1
01df
ff7c
014d
00df
fe27
fef4
fc3c
018e
ff9d
0342
fc3d
fbc2
fe79
000e
fca3
f80e
fdf7
ff44
ff64
fefd
03f4
f7a5
03ea
fc78
f835
01f1
f9b7
ff70
025f
fabc
0065
02ae
fd5f
03af
00c0
02c8
fcc9
0123
0007
030a
ff8f
05bd
0064
ff90
0121
ff8b
fd3d
ffc4
fd75
056e
013c
fbff
00b8
fe6e
f8d9
07ae
fecc
0636
fece
ff53
05a7
fbfe
fd7b
fadc
f9f3
039a
feb5
feea
04a8
0660
fffa
0221
f49e
007b
0467
03e1
fca3
fd1e
fe31
0029
fb9b
018e
022d
fb6e
0023
055b
011b
01f9
fcab
fe62
fce7
f74a
0438
0541
00c6
0544
fed5
fbcc
01c4
04a1
fd2e
fe29
05fc
0187
00d1
ffb4
0053
0344
0278
ff32
fbcf
04a6
04af
fcf7
fc4d
fb4d
026a
01b2
02e3
fbc1
006f
fed3
05e1
011e
0290
0091
fccc
025e
fdeb
01ec
06dd
00be
0091
002b
fe1a
fee6
fec7
fece
02cd
fe8f
fda0
fffe
ffc2
053b
02fc
ff06
ff36
06c2
00fc
0658
0722
0497
ffba
0671
022c
00f4
fe71
ffa0
0243
004b
014a
028b
fb25
02a4
03f3
00a7
fd24
0289
0626
0755
feb7
0078
0581
ff81
ff57
fd41
ffea
ff55
027f
fdf6
ffab
fa6c
ff80
fffb
fd86
ff75
fdd5
ff5f
0166
f863
02bd
ff74
fe8e
fba7
0426
fd6b
fe45
0021
fc53
02fc
00b4
0113
0287
fff0
fa82
fadb
0293
0202
fc2e
0467
feda
fcd0
f986
ff10
fe6d
fd06
fb31
0395
fc38
015e
0059
ff89
020e
0015
0111
fa2d
fbde
0132
fdd9
ff25
fef7
036f
ffc0
00d5
0012
02ea
fd7c
017a
fd2a
0439
ff14
fd4a
02f8
030d
00cc
02e2
01ad
01a7
fec4
fba5
0032
ff41
f847
fb2e
05d7
ff02
0293
0440
fdb4
fd7a
00e7
01f6
faeb
0322
00dd
fff2
ff6a
ff28
fe43
fa7a
0166
017a
fb08
f8a9
0220
0231
06d7
0092
fd4e
0233
ff47
fd29
026e
0169
ff61
057b
fe3a
fe36
0508
011e
fe83
fe41
ff74
0349
fcbe
06c1
fdc6
ff7e
01e5
0077
006f
0231
ff2d
0413
ff7a
ff10
0026
fe0a
0197
ff63
015c
03c6
0239
fbcf
00c4
fff7
032e
fac9
01f1
01b7
028c
0192
03f0
00dd
0a14
01fc
fd86
010a
00a4
0637
