fe10
fac8
0478
ff58
0851
fb23
ff6d
00d0
02b7
044c
fdd6
ffc1
fe95
0324
01e7
fae3
04a1
024d
00ed
ffdd
0086
f8d6
07e8
036a
01f2
fd55
fe82
fd54
0325
fd75
fb2f
0272
00e0
fd42
030c
fb91
fcd3
fafb
0101
018c
fd5f
fd7b
ff01
002e
01ff
fbda
fec0
0087
005f
f8e2
f8fc
fec7
f9fa
f792
015e
056e
fff0
fa2a
ff91
01d0
00ae
fe7e
fdd4
ffeb
fae9
fdd4
fd11
01aa
fcd1
ffeb
00f9
000c
fb96
ffaf
01c3
fffa
00ad
fea5
0420
049d
019d
05d0
0275
005f
fbef
04a8
0361
ffdb
fd9b
0671
0cf2
fffd
ffdb
0384
0219
00c6
fe10
fb09
025a
fccf
fe46
fedb
ffd8
fdab
fef7
02eb
05a7
ff6a
fa6c
05a8
03c9
ffe3
fad8
0260
fd7a
00bd
010c
fc11
0414
f902
fcc5
fe8c
0115
f9ff
008d
03c4
054f
01ae
ffd8
0098
01d3
00be
f6f4
fabc
fe46
0128
fe4c
0281
00be
ff76
038e
00e5
ff3f
fe1e
0165
fde1
feb7
0007
fca6
0390
ff78
0148
ff8e
0456
ff88
ff54
fc11
0068
feaa
feeb
003d
fd94
fc35
0574
fdd8
0331
0292
0302
fd90
fdaf
05e8
fece
02cf
01b1
000f
014e
00f4
014b
fd4d
fb5e
070b
06b2
fa17
007e
ff25
001f
fc31
01ef
fe0c
fe88
ff3d
fd75
fca4
033e
0054
fff3
019b
073c
02fe
017b
0521
fc31
fd3d
ffe2
0115
fb3a
00eb
039e
fd09
0430
ff07
03d5
fe4c
f7ec
0136
fd9f
fc30
01e3
01e2
ffb3
f9ba
fcb1
0415
fdc0
0082
0109
0372
fe2d
01cf
01fb
01d7
ffb6
fe87
fbce
ffcc
0015
ff95
ff55
0173
fd09
fea0
fa3f
fef7
0425
fb2f
fce3
fd3a
fc49
039c
fa59
0216
fda0
01a4
028c
0204
ff41
ff40
ffd4
01fc
fe91
fd28
fb3b
fbdf
00fc
0160
0360
0085
fc60
00cd
ff35
04d1
04e9
ff6b
fe27
fe57
ff2d
fd5b
048b
01c4
fc57
fb79
0363
fe08
fd47
fe51
fd53
fc6f
0196
fb2c
fd47
fa9b
0187
0008
0686
0195
0125
fe3d
f97d
fc30
fcd7
ffbf
0261
fe39
ffdd
fffb
001a
04b3
001b
ff82
fcf3
0238
f821
fc39
fdaf
ffe2
0350
fab7
03ab
fd80
0552
fd5a
0344
00cf
fbeb
02d4
0214
faf4
ffa3
0155
0190
059c
fdf3
0068
039f
03e8
f9b3
023c
0003
00cc
fdf0
ff93
fd03
ffde
fe07
fe12
fb89
fe1c
054b
fa3d
00d2
fdab
fc0c
027c
f803
0553
0666
fc23
024a
fdea
0300
02a5
0544
05a4
038a
00a0
ffed
ff4b
f9fb
00b2
0073
0781
06ec
025f
fd43
fd34
ffcf
fd36
0313
fff8
02a4
fe5e
fef2
01e6
00af
031d
fc8c
fd05
04e0
0101
0538
ffb1
0108
facf
0055
fccd
0248
ff12
037e
fe2d
072e
fd39
fde0
ff95
ff96
fcea
fcc8
ffc3
00e7
fb50
ff0a
054e
0695
0193
fd90
05d2
feb9
01d7
fe62
0254
fce1
015d
fe2b
fe97
02fc
0090
fae8
ff23
fc26
fb96
fc6d
041e
fe07
fb91
0250
0513
0034
febd
f9ef
0158
fddb
fb32
0256
0185
fc07
ff74
01f7
0272
fd16
02db
ffee
fc08
026a
ff12
026f
fe19
0175
0268
0070
fef1
ffae
f7be
fa23
fc32
fed6
03f3
ff97
fcfc
fcd1
0529
004b
fe4d
0185
fd75
fe23
fcfa
fd63
0000
fc8b
01eb
fc82
00a6
fe9b
0342
0299
00b8
0485
0356
00fb
fb53
fef1
0010
fd96
fc39
0281
fd17
fe90
ffd9
024d
012e
fe8a
fa39
0000
0405
000a
0140
04ec
fcad
ff3a
00e1
fd86
01d9
0434
0277
ff72
fa4c
00d2
fece
007f
fb52
f95e
fb9e
fe02
ffbf
0329
ff45
fe84
0116
039c
03d3
0007
fe03
fa4f
ff21
fd66
f930
00f3
ff58
0196
00f6
fdf0
fef8
03bf
01bf
ffe2
01bf
0088
0911
0497
fad8
fd49
ff4c
fd31
fe3c
fd8e
fd06
fe56
000e
ff3d
fd0e
fcf0
051e
ff7f
ff3b
ff32
fe4f
024b
02ae
032e
fc03
0640
fbf9
01c8
0490
fdec
003d
fc1a
00a4
025c
02e1
0008
ffb3
ffe2
f8fc
fd22
0324
f80c
03c5
00f4
fee8
feb8
fff1
0101
0586
047f
006a
f841
ffb2
029a
0050
005d
0156
fe38
ff23
0066
001f
fccd
fef2
fc90
0301
039c
ffbf
056c
030e
fb10
00fb
02ff
0174
00d9
fcc9
fbd9
ff6f
fdf9
0290
020e
03e6
04f0
fd18
fe4e
01df
fedd
fd1f
02a0
fd84
ff99
ff02
fed4
093f
ff19
fffc
fd95
006d
0328
046b
0505
0336
fd1c
fe28
01a8
fed8
fe06
feb9
f920
ffb4
0408
fba5
ff4c
f93c
ff9e
0185
fb62
0136
0205
fd49
fce9
0479
f8c4
010a
009e
fb58
f796
ffc6
fcbb
0342
002f
f893
ff58
fc59
fe82
fa3d
026f
01b2
fd91
ffef
ff0f
004a
0423
0480
0124
fae8
0678
00fc
fe9a
ff75
0068
0354
031c
03b6
0226
0442
027e
0358
fe7e
ff2b
fe6a
020c
02d4
0268
0304
fb2a
fc2a
02d1
fc4f
0416
0211
fe95
011e
00e3
0795
fdf5
fe7d
0608
0677
ff28
fe73
0366
fcd8
031c
061f
0239
02fa
fc61
02f4
024f
ff7f
fb78
021e
0306
05bb
ff7b
fe5a
ff46
02a8
020c
fffc
fb98
0635
fd21
0438
0189
fce1
0253
ff2f
fc25
fb8e
00fe
ffb9
0237
fc87
02cb
fd52
0512
fdb3
fd74
ffff
fefb
feae
fcfc
fc36
fee5
ff38
fcf3
009f
fee0
02d9
0139
0163
0498
fb78
ff37
ffa6
02db
022c
fe80
00ba
