0451
faaa
fdd5
fe03
fe41
001f
ff09
fe8e
fb43
ffd7
fe83
fc60
ff91
fbb7
fa6c
fd3d
fd0e
fff8
fe8d
021f
fdb4
ff4b
fc53
0226
fcf3
ffb3
fe38
0076
fcc4
047c
fd62
fe66
ff63
0000
007e
fbdc
fbbe
024c
0332
03cd
01e1
011c
014a
01d6
0560
fff2
052f
0025
009e
0256
00bf
01b1
0230
fe8d
fce9
01c5
fd15
0261
00f0
00fb
0682
fe23
fa11
0679
ff5e
02aa
0210
fea8
fd2a
0343
fea8
f891
fde9
fee0
026f
000c
ff85
fd6d
fa74
02c0
ff43
0201
006d
ff2d
0185
038e
0634
015a
0156
ffcc
fe6e
00fd
fcdd
02d6
038c
fb22
01af
0213
0088
ff6a
027d
0065
0411
fde3
fde6
03e4
0110
026a
048e
ffc3
0617
fc82
034b
07c4
fcf1
fc81
fd04
fef4
04b5
fc09
faac
f5e2
fd6f
f96a
006e
037d
ff2b
0351
03c2
025f
fc4d
02d7
040e
feab
059a
fdb6
0189
fb2c
fe8a
ff4c
0369
003a
fcbf
018f
020e
042f
0546
fde3
faaf
05be
0016
03a3
fbbb
033b
03da
03e0
04cf
01dc
fd5b
0087
ff78
fcfd
f8c1
fe22
01e0
0137
ffdf
ff5c
0256
ff24
fea2
fd40
ff60
0058
fc1e
0464
017e
ffe2
fb87
060a
05ce
fd18
ffae
ffbb
0157
014f
fe1e
fa81
fb65
02f3
fe32
016a
03fb
f924
f927
0325
fe31
fbd8
fd62
fe6a
0076
04b9
0100
fc86
026e
088a
ffde
0297
fdd6
ffaa
fc8e
025f
047b
005e
0023
0042
04cd
fad0
ffd1
f71b
fecb
016d
ff1c
00fe
fe62
06ee
fe3e
03ef
ff62
ff02
fc9a
fde1
fae3
0006
00fe
fb1f
f890
0096
fc4a
03c0
0300
fc01
fbcf
0467
00fd
ff42
0263
ffda
fbf3
05e2
0398
fcad
02a6
0287
ff52
feca
ff99
01fc
fe85
033e
fea6
0105
0690
ff23
fb7e
0317
fc05
fe79
0107
0125
04af
03e5
00ce
feb2
009a
fa47
07b7
0473
02fe
fcdf
051f
fad7
0188
056c
0190
07a2
fd31
039d
0785
ffa9
01ee
006d
0124
fdef
00ca
fb83
01c6
feec
fe21
03bc
03a3
053f
f855
fed5
0555
0023
000e
fb08
fea3
fd3a
0122
fcf3
fd90
001d
fee8
fef3
009f
0173
080b
f9b5
fe1a
fd7c
fc92
ff28
040b
0218
05b6
05cf
043b
02ee
fdb2
ff9c
fcb6
017d
fee4
04ae
03f3
0217
0664
fed6
032a
02a7
022e
028f
fe9e
fa98
0430
fc68
03bd
098b
0069
ff8d
fd7f
fdcb
0058
0039
01a5
feeb
fde3
003c
021e
0007
016c
037c
0110
ff8a
031a
028d
04f3
fa6a
05d9
fda3
f9fc
fe62
fa44
fdf0
fea8
0092
039f
01bb
fc8d
0542
019a
0107
032a
fad5
fe19
fd65
0416
0295
0288
038b
02b9
fe25
fee9
fda7
0318
0406
0291
fcce
026c
03b8
fa02
07c7
000b
fa7d
fc88
ffa2
01a6
fb69
0232
f94d
0720
0096
fbcb
fdf7
fc45
018c
0277
fcdd
fc56
032c
009c
0035
fbd5
041b
fb19
0190
0252
ffd9
00b0
fff6
fe97
0007
ff0c
0100
fd76
013a
fe8a
0208
fb33
0490
037e
04c4
fc91
094d
00c0
ffb5
fb8c
021e
002a
f95c
022e
0071
fc5d
fca5
0454
0121
0584
fac2
fb4b
05c7
ff76
01b1
fcb1
07a4
0018
00f3
07eb
ff1e
ff86
03e0
ffe8
01a0
fe9e
fc15
0069
02cf
fa12
021b
00c8
ffd1
04c0
fee7
ffa2
0051
006a
00c3
fd1c
0073
ff33
faae
fa4e
fe1e
025c
0113
00fc
ff19
ff94
fec5
fc8a
feaf
fe17
03c0
ff26
fb04
fdd6
025f
01fe
ff4a
fe9a
fd0d
fcd8
0263
00cc
05a7
f97c
01bd
fcf3
00fa
031e
fdaf
0030
fa84
0184
0549
fb24
0000
0016
01f9
0055
ff7b
0126
fc9c
ff90
ff1e
008c
06ce
0079
fa95
0394
014b
0340
fa9d
03f1
f73e
03bc
0289
037b
fbb5
008f
fb76
039f
03f9
fc07
055a
00c6
fe18
021c
0208
0384
0351
0068
fb7c
ff4c
0031
fd37
02ec
fa40
0253
009e
ff20
fff2
fdd0
fb46
fcc5
00dc
fe92
0121
fd4f
ffbe
ff0a
027d
0266
078f
00ef
ff86
fc6b
00a0
faa4
0747
fd63
fd0a
03f7
00b2
0572
ff26
fc96
04ba
02cb
fde7
02e5
0635
f9ab
fe44
fd26
fbc7
fedf
f7da
02e9
0188
ff71
fd56
014a
fcfc
fbfa
0179
fe03
fc3f
0208
0214
fd64
05fb
ff3d
015d
fd8a
0270
fb0e
fd57
0011
fd5e
0043
ff49
fef8
039a
0107
ffec
0255
004b
0211
ff6d
f9ac
fb77
ff1c
fe39
f90f
0256
fd65
fd97
00b8
fdc9
fd00
00a6
feab
fd7f
008f
fc98
fde0
fcc5
feb9
fd6f
fc69
00d0
ff15
0234
fd5c
ffc6
ff15
05f0
fbfc
ff08
05f8
f92f
fe35
ff89
fd1c
021d
feec
ff64
0191
0000
02bd
fdcf
00ab
feac
003a
01a0
00ac
fed0
fd83
ffd2
fdc3
01e5
fb89
0331
fdbc
0204
040b
0094
fddd
0277
031c
ffa0
02de
ffe1
ff17
fed0
0124
ff40
04e1
02a6
facc
0024
fe22
fd43
015e
00fd
0806
006b
051a
0092
0098
fd74
0002
fa9a
0518
ffb2
0024
fcfe
0206
fb60
fc9a
034d
0052
ff09
fd8f
036f
0294
00eb
04d6
044b
fe59
fe5e
fcd8
008d
033b
020a
02e6
fc33
0211
0060
0181
0228
0263
0383
0155
00ae
00bb
0481
04d4
02ce
fedd
01f4
ff64
0335
fcc8
0288
fd35
0004
01c6
047f
fc67
01c6
01e6
fd5a
0121
012a
03e8
07a5
04a7
00d7
ff0a
fea4
01b0
