04c8
0174
0122
ff79
fc31
fe3a
02f0
0696
0047
002e
00a9
0466
01c0
0670
fff3
fe55
fe12
04ac
fbe3
0056
ff9a
ffd5
f9e4
fd5b
01a8
fee1
fa53
fc4f
fceb
012b
00cc
00d6
00aa
fdaf
ff3e
ffbd
006a
052e
fa80
0181
072c
00b2
00c8
f78a
ff61
f988
01ab
fef1
0232
ffac
0249
fdfc
0077
fd06
fd09
ff17
fb48
019f
ff1e
fe09
fff1
052f
fd2d
00d7
fea8
04f2
fd4c
01b1
fd55
ffe3
fe71
00bb
ffeb
0238
016a
010b
0221
0432
fb60
03ad
ffa1
015e
0270
02b3
0030
fc46
02f6
fe5a
fe07
feb8
fd01
fe4c
ffd4
fefc
fc4d
0674
fe74
0347
fe90
fffe
01bd
056f
009c
019e
fd02
0771
fdfb
fb4d
fd25
fff2
fbba
f981
0500
02a1
006b
017f
fff5
01b6
f88a
fb48
fd83
000f
0385
fe4c
0007
00de
fdde
fe36
01a9
0425
fcca
0198
fe10
f9bb
04bf
0411
fe94
fdf7
0350
fe3f
0163
ff9b
ff7c
fec7
fe59
fe97
fc97
ffc0
05de
fd40
fb00
012a
fce2
ff46
0197
ff4d
fc37
feb6
0111
0394
ff42
ffd4
ffa7
0218
02e1
fb0a
047c
fdd0
fd56
fba4
fd31
010d
03bc
fe53
0116
fa90
01ba
0269
04c2
01a2
00bf
02a5
fc67
03d7
02ff
0488
01a6
0117
012b
fece
fd17
fda9
015f
00ae
0465
ffcc
fc00
fd6b
ff59
0049
fbba
0446
029a
fec9
0017
03e3
fef9
03be
fdf2
00ab
022c
fe00
fd74
00e7
0020
fbd9
ff1c
ff6a
ff37
0076
051a
ff60
04a1
fe4a
0028
03d1
fcbf
fc55
fe98
0191
03d6
fc3e
ffcb
00be
0117
0000
01d4
fb7d
0527
003c
00b4
ff8d
02b6
fe8b
fd46
fea4
0073
0294
049e
ffa2
03b4
00a7
009b
fbcb
038b
ffce
0227
fff5
ff85
fc2a
ff2a
fea3
fe6d
00d3
0683
fedb
0221
009f
004c
052f
03bf
fa1c
0159
fe7c
ffdd
0a1c
fed2
fecf
019c
fed5
02a3
ffbd
fff5
0606
fbc4
027e
012c
02fe
01b5
06fc
fdd3
fa8e
f806
01d7
fb0c
fe0b
fd8b
fc55
fc83
fc44
fe8d
ffc9
fff7
fe4c
f9d0
fd27
fca2
fb59
0131
0a46
f994
02f1
ff99
fff7
fc47
fd5c
007d
0538
0786
0274
fe94
02c6
fd31
01e6
ffc1
0194
0149
fb26
ff45
01e7
0262
04f6
fd19
ff9f
0189
ffdd
fdd3
fd8e
005d
01ec
0116
fa94
fcde
0012
fd70
0011
03d6
fbfc
fe5b
fca0
fe82
04d3
00d7
fd9d
fe7a
004f
0497
001f
036f
00d7
fff9
0131
fdf4
0506
fd99
fd39
03ab
0307
fb55
fda8
ff99
00a7
0077
ff06
fc7a
014a
040d
f8c1
0167
fb1c
fa32
01da
fe23
fd55
00bb
fc56
0087
f9e8
fdc1
05b0
fe9a
0a24
fde5
00c7
fca5
fed7
0302
059d
002f
00c9
0309
f8ff
fdd9
ff80
0209
0026
fe34
fda7
f913
04d4
ffc7
fbe6
fcf7
00fc
fdaa
01d9
041a
0253
feda
021c
fded
00f0
03c1
fa92
02d2
00ff
0297
fc13
ff51
05a8
fd78
0489
ff88
ff8c
ffcc
fc88
01b8
ff2a
fcae
ff28
0388
ffe1
01f7
0145
fc64
ff0e
000b
fec8
0271
ff7c
fe39
fbd2
0331
01fe
02ac
fb96
00a4
0312
01b4
047e
fd86
00ff
0446
0064
0066
0084
008b
f94d
021f
03a3
fea9
fc3b
fd76
fd1a
0512
fc61
fed2
feee
00e7
ff73
015e
fa00
0138
0297
ff34
ff29
fc68
05d4
00ba
00c4
03c8
fe73
fb97
fe4d
fb2c
01fb
fdba
feeb
fdd8
074d
01ef
fcfb
ffdd
fafc
fa5d
fe14
02f4
fec1
0298
0220
01bb
fae0
fc54
fd90
000b
02a6
fadf
fc81
f89e
fec2
00aa
ff91
0058
020a
04c2
fef2
02eb
fc96
fd35
0065
fea6
ff9a
f9f9
0147
ffd3
0229
019f
fa8c
069f
ff60
ff73
ffd5
fa03
0524
013c
01ca
fe3a
00e1
03c9
fd1f
fd80
fb5b
01ea
ffa6
01ff
02cd
0179
fbd5
0137
047f
fe16
00a9
02b6
ff00
0116
01df
fd3c
fea3
fc81
0489
0121
fd25
ffda
ff8f
fbf0
03f9
fb89
fd99
01e6
fea4
0079
01c2
0303
fee5
fa32
fefc
fec8
0215
003d
0210
ffd8
fcfa
09f2
00f2
fff2
ff3e
004a
002c
fa47
0426
01b7
ff4a
0109
fe62
00de
06f9
0386
03c5
03cb
fe76
ffd4
fc73
02fd
fbb0
feb7
fec3
01a2
04d3
ff03
fdfe
ffb3
0249
fcf8
f817
ff57
0064
feab
fe2e
fcb5
ffcc
04b3
0020
0075
ffad
fb25
00cb
fba3
00c6
fe61
0086
fe76
ffb0
fd93
010a
fd85
fe7e
03bb
fb40
00b5
ff13
0381
03e0
fd95
006a
016d
fc47
fca4
002d
ff42
ff68
fe79
01e2
048b
feff
fff0
fe6e
0427
ffa3
fccf
0668
01df
f957
0418
fad3
ff1a
fe7b
0522
00a6
020a
02b4
fca5
040d
0326
04ba
fbb0
0139
fe23
0091
02c0
023b
fd02
fb78
03a5
0089
ffb4
fd81
fcbe
01b8
fd4d
fb02
0053
035c
030b
0140
fdaa
02a9
fb32
02b8
ffa8
0432
0028
ff47
fa8e
feb5
0313
039b
0271
0a32
00fd
faf2
ffe7
0696
026b
02aa
0597
00ca
01ad
fcd2
014b
042d
fc66
fb61
fb14
fdac
0378
ff44
0282
0343
ffc3
ffbc
0098
fd5c
0074
0128
0256
0427
00b2
fcde
fe23
0262
0105
00d8
ffb5
fa72
fc40
fd94
05be
03e8
000e
0243
0522
fbad
037d
fff9
ff1f
0093
0233
02f2
0493
fe67
fef0
fce8
051c
fd7e
04e3
00b3
ff72
07e9
fe5a
0136
0113
0217
fa97
fee4
