00c6
0796
0483
03c7
fbaf
fe0b
012c
0308
0480
fd0e
00ff
00c2
0341
010c
043f
005c
00b9
0094
fdbd
fc61
028b
00c7
013b
03e3
0658
ffd0
fda2
03c1
fd25
fe2a
fecb
004c
fc37
f825
018b
0260
fe4a
0254
fab9
fb0f
fc34
ffc4
fc29
02cf
fe6d
03ef
fda7
fe0c
feb9
feb4
fe98
024e
fe07
fe70
ff15
0482
fe8f
01b6
00f1
0564
0106
fe44
0147
ff20
f908
08d9
fff2
fd19
ff58
fa31
022d
fcda
0051
fce7
03ae
02ab
f8e2
fffc
fadd
fcad
fe5b
fe8e
0175
07b2
02c3
04b7
fccf
fd62
0023
fe59
fd0f
fe31
fdca
0663
0446
028c
fedc
fde9
fe08
ff41
00b6
009d
fec2
ff00
fced
fe86
fd1a
fea1
ff8d
0025
fd0e
0031
0298
ff0c
f71a
fc9e
067b
fe68
0147
fdd3
fe19
fc9d
00f3
05c6
028f
0502
007c
023d
fff4
00d4
fa85
fd43
0083
0017
fc4f
ff52
036c
fff1
ff93
01ae
fad5
fee5
04f7
fd6e
ffb6
f59e
ff6a
ff99
f9fb
ff81
fd7d
0048
ffab
fe02
0854
fd16
0057
feee
f9cb
023f
015f
fd11
0886
04a9
002c
f77e
fe22
030a
fb5a
0132
ff39
fdfe
039d
fe29
0058
ffc0
00a4
02cb
0079
fcac
029c
0916
ff19
fcaa
f5c5
ff51
011f
02da
0516
fe38
018b
02bf
06a1
fe03
fe21
046f
ffe0
00e9
0103
044c
fd11
fd4a
00a3
01c3
fc9c
fdbc
014c
f9b3
fdaf
058a
fea3
0685
fc3d
01f1
024e
0221
fce6
0068
ffb9
fe88
07a4
02bb
ff2c
fedd
0155
0174
0345
02dd
0411
fdfb
04a2
fc70
0090
f94a
0043
0613
02f1
02cf
feba
07ad
009d
fabb
fda5
ff28
fdbb
0284
fcbe
0265
fecf
faac
f5e7
0320
0310
0070
fbc7
fb6a
fc88
ffff
fe69
fedd
ff9a
0001
02dd
045c
fe7c
ff86
fd19
ffd9
010d
fec2
ff59
ff6a
fd5a
fb4c
004c
0251
01b3
ffa7
0263
022c
fc3d
0216
fe54
ffa7
013a
0294
01c7
0038
02f8
ff62
02f4
009e
fcf9
ff87
021a
016b
fdb4
00d8
fbae
02e5
fc58
fb7f
01cb
fd8f
00df
00bb
03cd
01b6
fce1
ff38
ff8e
029f
0071
04e1
01a5
fdb5
023b
00ba
fb93
028e
ffce
ff2c
fc59
fc96
0397
02f6
fe67
0287
fe4b
07d6
012b
0443
fdd7
01ba
0048
fed0
fe4e
fd3f
015b
ff66
01fe
fdd4
0017
fd66
fd1f
04c1
fcc7
fcf8
00fd
01d2
05f3
fdb4
00c4
fc43
fe04
feb6
014a
0019
fcd5
fbdb
01a4
fd43
0399
0045
fbed
ff29
060c
fd14
055b
035f
001e
0508
feca
fd1f
fc07
0353
f978
0057
fc72
ff16
034d
ff58
fc86
0196
ff7b
0317
033c
0479
fc78
feb9
ffab
fb94
fcf6
fae2
0428
ff72
07bc
04b9
ff97
0438
01d6
fffe
021c
0162
fc02
0173
fdcd
ffdf
0146
fd99
0034
022c
fc1d
fdc2
fe8b
00a0
fbf2
f7e6
0082
fee7
fcca
01c4
ffcf
0326
0062
fe3f
fea7
0678
0203
025d
ffb5
0177
fcfa
fec8
fd25
01cb
fd3b
03d2
02e4
068f
00e8
fe18
0193
031d
02fc
fafc
01cb
fbeb
fade
fc3d
05c4
fdca
073a
02a6
fe80
0116
ff17
fa06
0089
01a9
018b
fcf7
054a
fab4
00b1
0376
fe9d
0259
fb49
fdbc
fd8b
0091
fedd
fde5
ff78
fe3a
001d
0347
ff45
fff3
fa5b
03d6
fb88
0348
03cf
fff9
03bf
05a2
0229
04d4
0420
02a9
006b
ff9a
0194
0256
0679
02f2
007a
0203
fd72
0125
fdf1
0051
ff37
039f
01ff
0941
02a5
010e
ffcf
021a
feae
fd1b
fd23
ff8f
0223
0319
0288
00dc
fb67
f9ea
00e5
ff86
01f8
02a1
fc06
fdb8
0220
02b1
fe9a
0287
fcef
ff72
0316
f8a8
01cd
f9f9
fca7
fd21
ffe3
016e
fcf1
074a
fdcd
0447
fc1e
ff90
02cf
029b
01da
fc9e
0352
f8c8
fd2f
02aa
017a
013d
009c
fe46
ffd9
01cf
00c5
014f
03a2
ff2e
fcb3
007d
061c
00da
042a
ffb4
fd8a
fd71
05d6
0525
006b
0146
fbd8
0073
0293
0321
ff65
0264
028a
037d
ff05
fe62
007f
f8a3
fa9d
0019
03d1
041c
ff8e
f8d4
0030
0498
fc1a
fb52
03d0
fc4e
f904
fdda
f9a7
02fa
0283
0158
02c0
0358
ff9f
ff01
00a6
fa9a
0052
00c9
fc91
fd4e
fe74
01fc
0032
0058
fd4c
ff26
ffef
060d
02e9
0113
fc9d
0453
ff22
fd7c
0003
ff84
fe7a
fd3f
fcb6
072c
036d
fc01
011c
02da
ff41
010e
0060
0217
087e
023c
0172
ff6d
ff2f
fed8
fe86
ffa0
ff8d
0487
03ef
fd1c
0262
0249
ffbe
0081
ff7c
0458
fc5d
01ff
fe18
ffdd
fe51
0200
0284
011f
fe89
fedf
0119
0319
fe46
fc35
081e
02f0
fc03
fde6
fa1b
fb08
fd85
01af
ff01
0518
fd5f
fb74
fc50
0224
037f
fd5f
f9da
030f
037c
feb8
fe4f
0298
fb18
fb7b
ff64
024c
fe30
0337
fe49
fb56
fed2
ff49
fce5
fc37
00f4
0004
fe36
fdf1
fba0
ff4b
049d
041b
fa55
fcae
020b
fd43
019f
ffe0
ff35
fc62
fdbe
0142
0ad1
ffc6
04c2
fc82
0192
01c8
ffec
fc38
f8e0
fe8f
fde5
00c2
000b
032e
ff23
f99c
04a9
fb08
06c3
ffe3
fbd1
0526
04f0
01c9
010c
feac
00ba
0015
00b7
00d2
ff15
019f
0137
022b
fbc2
0414
fbc0
f906
02d0
0066
0107
ff03
fec8
0354
ff40
fccc
fcbf
0065
03b4
ffd7
01f4
0187
fee7
03e1
