01c5
0856
ff36
ff01
ff82
fd83
08f9
0185
ff94
0058
ff84
04fb
fc97
01b5
fdcb
01af
0230
023c
fefc
fd18
fdd0
fde9
00b6
ff51
05f5
0039
030a
fd83
03fd
0058
fff1
ffac
064b
fd94
fc1a
0123
ffae
fa21
fce7
fb2e
0243
fc82
fc29
029f
04e9
0239
fe3e
f9a3
00b9
0441
fe54
fe07
0417
ff06
00b9
fd4d
fb3e
030b
fe3b
fd20
feab
ff8d
004e
fe23
fb7a
0119
ff6b
fcc5
0217
fd94
01ec
ffa2
fd30
fa84
046e
fd9f
fbfe
015f
fbc3
01fe
03e3
0253
01a1
022e
032e
0226
fe52
0183
ffac
014c
f952
0383
06c4
00f4
fdf3
019d
fee6
02d0
fdd1
fe5d
fc73
fa42
fcde
fe04
018f
0209
ff09
fec4
03a9
ff21
0046
fe04
fd77
035b
01bd
026b
0000
fe5f
0297
0130
0041
033d
ff24
fdfe
014b
fdb3
faac
fdc8
0312
fc8e
fe26
ff73
0024
ff1f
0320
0207
03ee
00f9
fefb
05f0
05f6
0007
0230
ffe2
fe27
fd9d
017c
0351
fd9f
0292
01b0
016b
064f
0096
00a1
fcda
fc8a
0325
fed1
0295
fa8d
0314
fef9
fff1
fb5a
0178
ff30
014b
001f
0183
fe9a
fabe
feff
0075
f93c
02dd
f9c6
015b
fe63
fca9
fd83
fe70
fd43
02ed
013a
fef2
0283
0506
fe95
02ed
fcc9
fce1
fcac
ffa3
ff09
03b3
faed
fdd2
fff9
fbc0
00d5
0316
fd0a
fa58
fb3c
02aa
0191
fdf3
fe44
fe65
0339
fd5d
ffa7
00ea
ffe6
ff3e
0264
064c
fdf6
001a
fbf7
fffe
fe5e
0411
ff29
0476
0424
04f8
fe12
00ef
ff9e
fffe
039f
fee4
fcb8
0353
ff1c
025d
013c
024f
048b
fffe
fe45
ffe6
ff04
ff97
ff3a
060c
0087
00d2
015a
07e9
ff2e
fa88
ffcd
fe3d
fe7e
0232
012c
ffd6
fb50
04e3
febf
019a
fdc5
fa6b
fff1
026f
fddc
0234
05ed
0443
010f
058f
0408
00cd
0025
00b2
0071
fffe
feb3
00c7
ff28
fe90
0356
fca0
fe17
036b
ff99
04fa
03c5
ff16
0331
ff64
000a
0072
ffd5
fe06
fdf1
000a
0374
ff86
04bf
01b4
025f
f528
01c8
00e5
00dd
03a4
fda4
0140
faf0
ffa4
ff6c
fd7b
019d
fbff
0125
faf5
02aa
fcf3
ff40
fd2c
fc00
fa7a
fe62
03d1
0134
ff6b
fe95
fbc4
027b
01d2
00a3
0097
0195
ff61
f9fd
fcb3
0052
fe75
ff12
045f
013d
fd53
ffb2
ffc3
0202
00e6
001a
febd
0119
fd94
020f
f9c4
051d
0204
02f0
f8f9
0198
0253
0296
04a5
ff9a
025c
04a3
fd3a
fdc1
fbce
febf
ff1e
0126
02bf
05ab
fa81
0025
020b
059a
02eb
ff29
ff33
018d
032e
fe8a
fd50
ffd4
f8b5
fe74
fe95
fe0d
faf5
0a4e
fe03
0338
faa8
012a
009f
fcb0
05e7
fad7
f901
ff94
02d2
feb1
020d
fea5
00b7
043b
fd8c
fcbd
03e5
057d
0070
0502
fe7c
003c
0115
fca6
f8fa
fbf7
ff55
01fb
fcd9
fced
028a
fb9a
00fc
fbb8
ffd3
fd15
01b7
fe9b
ff06
fcd4
0260
00f3
00b3
fe29
fcf0
04c3
007c
001b
0299
fc51
fedd
04e2
fc59
016e
fe4c
01a4
ffbd
0695
fe4d
02dc
04b0
010c
ff9f
ff0d
fddb
0471
fcb3
0104
03ef
feef
fe65
015a
fd3c
ffef
fc60
fcc0
ff30
00ca
040b
fd68
0125
0137
fd0f
02b9
fa31
fff7
fa13
fc7f
00af
fb1a
0102
0322
ff41
ff2b
0348
0189
ff80
0344
ff1b
018a
01f8
fbb4
fdbc
00fc
fb6d
0013
fdf2
0237
0366
00ce
0106
fdc9
0147
0380
fe59
0408
004d
fe06
0579
0218
feea
026d
013c
0103
003e
001f
04a2
0254
ffbb
fa8d
0286
0192
00c2
fc3a
0462
03b6
feb9
0178
00c9
0440
ff65
024e
ff8e
022a
0014
0434
0060
fdd2
f98f
00c4
fc07
fef5
0279
fedf
02a5
005f
01b9
fd2e
006d
042d
ff3f
0099
fd64
023d
022a
fe17
fe63
fcc9
fc46
fe43
faae
fd1d
fd05
0070
fbf6
fa87
ff5d
feb1
fea2
00e3
fa74
03fd
0056
fc68
fd50
0386
ff7b
06a1
0143
faf8
fe76
01d3
00d3
00f9
004c
008e
ffa1
fb1a
fbdc
f864
01a3
fe9f
fd56
043f
fce5
0119
ff92
041c
fe0f
ff96
fbee
ffb0
0394
01be
09e6
f926
ff04
f9ec
fea7
fe60
0402
018b
ffb4
feaa
0357
fe6f
fe19
fdee
feaa
ff9e
0172
faf4
fc36
00d1
ffcd
fef0
fe80
01f9
0285
02df
ffbf
fc64
fce8
020d
f971
06b7
fe63
08ed
fd3b
fd39
01df
f9e0
03f4
0466
fcdf
fa8c
fd53
fde8
fc1f
fc4b
01a0
04c3
0041
0174
ffe2
0013
0092
fedb
fe80
0339
080e
01ce
00f0
fb61
ff72
fad6
00f8
f9f7
fe2b
fe68
03ce
fe3b
fc51
00d0
01d2
fd8b
fddc
ff71
fba1
04d9
039d
0057
fd3c
011d
fd7b
fba3
ff84
fea1
009e
04a2
fb82
0051
fbd8
007a
0102
01a6
ff60
fe6e
fc00
fdf2
fe73
030e
01ed
fac8
009f
fe2f
fd53
02b1
028b
0105
fd39
0267
fead
fe66
05bd
0209
fe88
f9da
fac1
063c
0291
053c
00a2
fe78
fd53
0240
faf6
007f
0099
00ec
fd75
024e
0100
fd8a
01b3
0097
ff60
fdb4
0246
02ae
009c
fed2
fe51
fb28
fd4c
0055
ff85
f8e9
fa92
0136
fce3
feef
05b2
052c
001d
ff77
fd18
ff0e
ffd6
00e4
fe90
ff15
fe5b
fefd
fea0
fdd4
ff41
fbcf
00f0
fc9c
ffe0
fda3
fd37
fb01
fa65
ff4f
f9ab
0313
fae7
