03c7
fcce
fedb
f83a
000d
fbce
fb3d
fe2c
038b
fe1b
fcec
fea4
fff0
041b
043c
fcf7
ffe8
018f
0373
ff53
03e4
0442
0810
0312
fd8d
fedf
0199
fcb0
ff9a
fcc1
01b5
00f1
0532
fddd
fb9f
fd3e
060c
005e
0082
ff8f
fdd3
ff86
03d4
fdb8
fefc
02a6
ff13
ff02
ffc9
004d
0130
fb26
0261
01d5
fd63
fd6d
fd24
fac5
0221
0198
0185
fcd5
fdd1
048d
03b6
fbb6
fe30
0462
fe28
00fd
fd73
fff8
fdcf
fe0e
ff7c
fe60
ff58
014e
fdd1
07b2
0318
fec4
0048
0531
fda0
fab3
03e9
fd10
ffa0
0075
03fa
06b6
04d3
02bf
fc11
004b
fc3b
fa23
0215
ff52
fe50
0437
fcb1
ff31
0167
027d
fd4d
0139
ff4f
fda3
fd6a
083d
07e5
0063
ffb7
fe67
005a
025b
046a
0145
fb6e
fb7c
ff20
fc90
01f6
024d
fdc3
0835
fe18
008b
feac
f948
00d2
ff70
01ed
fe09
fdf7
0212
0201
0472
02d1
fe9d
ff35
017f
0073
0194
0238
030b
0013
ff74
0169
fee6
fbfa
037e
fda6
fbe3
fe86
0253
ff64
0268
0514
0082
ff49
008d
011e
00dd
02ce
02d5
fd1d
0115
0026
004d
fe59
0248
04bb
01fc
019a
0304
fdf4
fcbf
ff76
01cf
ffed
045d
01e3
fe5f
00d5
011d
0170
fd52
fadc
ff52
066c
f995
ff9d
0735
03ca
035d
0491
03c2
fc30
faf4
01f2
ff94
fdb6
fe76
0048
ffb9
fd4f
01d6
ff8c
01cc
04f7
f9b0
fe32
fef9
ff76
fede
ff41
03bc
0220
feb8
03b1
03dd
0136
080e
ff38
fcd3
00b0
000f
0020
01ab
0224
020d
0266
00d6
008c
fd9c
001c
fea9
fce9
fb76
fe43
01ad
ff2f
02dc
fa21
fec2
026d
012b
03bf
0280
fec4
fa51
fbe7
03e9
00f2
fc5f
02a8
fea9
01ec
045d
fd77
ffcf
0104
fa81
03f8
000d
03f1
fd9a
01bb
ff16
ffe3
fff8
ffac
03fb
0342
ffaf
fe6e
00b6
01dd
fb0a
0034
024c
ff77
0151
02f7
fe7b
0079
0039
faad
04e5
febd
fd5a
fec2
ffd5
00e9
fe45
0096
03f8
ff83
0336
0279
ffa8
00a1
fe86
f9e4
fbf5
fea4
fedb
fc62
fe83
fd6c
fc1a
06be
fd42
0124
07af
0302
02c7
fa7e
fdb0
0040
0316
fec8
0314
fe18
feb3
0152
0030
fefb
fd55
ff24
ff94
fd0a
0500
0011
fd73
0259
fe50
029e
f9d4
0794
ff2c
00b2
fa9c
fd8b
fcf9
04f4
0146
ffdb
f9c0
fb40
f966
0104
035b
f67b
02f6
ff22
0146
02b9
02ae
fd55
fbfa
ffd3
0067
fe30
042e
fc71
fd67
fcf1
ff04
fb59
ffbb
045d
01df
ff3f
fe0b
0445
fa57
fbaa
ff75
04b9
fd2e
fde3
00e8
03ec
04ea
fdde
02aa
fc4a
fcb9
00ff
fd81
0212
fe8d
fba9
01b8
fd35
fee7
048f
0271
fe6f
046e
013b
ff78
fd17
0306
000b
f6ea
ffb4
0134
04bb
00ca
0132
fc74
035a
0606
0023
00e3
03b9
fe4c
fdcc
fc20
ff6b
020f
01b0
011d
fed7
0083
f7f7
fd2c
0154
fde1
0291
0042
0437
ffb3
ff36
0257
0245
0053
0155
fe43
ffc0
02f5
043b
00c9
fd70
04a2
029a
00b5
01dd
fddb
035e
060c
0379
fef0
fd20
fc86
0075
04ef
fe40
016f
004d
0092
008d
00cb
0894
0314
ff93
0134
0542
034f
fefd
fdbf
fe2f
fd4a
015b
fdf1
01eb
0214
fd9c
01aa
0423
009b
f6cc
fee5
0095
fb81
ffcf
fab4
0226
f5d8
02a7
fde6
0198
fdd3
033b
fbe7
fa64
03d2
fe8e
01e1
fe8a
f7dd
ff4d
ff98
ff00
035a
02d6
ff3b
fb43
029c
fbf2
fedd
0034
ff31
0005
0296
01c0
ff0a
ff77
00d9
0308
00f4
0125
fc2a
fcf9
01d2
ff1e
fee3
fecc
fc36
04b1
0223
0285
0000
02e6
fd20
0445
fefa
026c
0463
fc81
01ad
0192
fede
fc3b
03ac
fd6c
fb42
fc60
ff06
00f2
ff9c
02e6
fd60
04f9
ff9b
042c
0154
04ff
fb00
fd4f
f9cb
ff52
011d
00d1
fd78
0275
03dd
01de
00e4
fd5b
014c
ff03
ffc8
fd15
fab6
0240
fe83
0048
fbd8
fb33
0278
f8b1
0355
025f
fe85
fffd
0061
fa70
ff8a
0259
01a8
fe13
0586
08d1
02ab
fe28
0238
fcef
01bf
ff58
00db
fdf6
ff9b
fdfd
f715
fe1f
ffcd
fa04
00ae
0616
023d
02e7
015f
004f
fdd5
0751
ff5b
02ad
fdf2
fae6
01a3
fe4c
036c
0012
015d
fcca
0129
0352
0176
03d2
fd7d
fda5
ffa8
043f
0227
fcd1
0617
feb9
02af
fff3
ff14
fac3
016b
fc8f
04f3
0601
027d
fed4
0095
04f8
01c6
f7d7
f91d
0301
fa9e
feed
0153
ff4a
02c5
fd2d
fea7
fd07
fb06
011f
00b7
fb56
0058
fe6f
fc74
fc99
0366
0431
fdc5
ff31
ffdb
f9c8
0264
01a3
fe32
0033
fd5b
feb7
01e4
01c7
0523
fd2b
fdd4
fc8a
fd6c
ff94
033b
0161
fd80
fc19
02fb
06a1
0001
fda0
00e8
0042
fec3
03f8
facd
0590
00aa
fee7
0688
ffcc
fc38
ffe4
01f5
fc72
fda8
035e
0273
fbdd
fece
05a9
f7f3
015a
00b3
fdee
fa98
0373
fcc8
fcc8
00e2
fa77
0129
ff51
fea3
0624
02dd
fbfd
0090
f9c1
fe82
019c
0495
0374
0013
fbc4
0374
feef
ff0c
ff7b
fdf7
fd7b
ffdc
ff8f
0369
ffb8
fe0f
01c2
0359
f928
055e
00b8
fea2
045a
0129
fbf2
f2a8
fd99
fed8
018a
fc35
fa4d
f78b
01fe
0314
f99e
fe43
fa71
0533
fd41
fcdc
038b
026b
