02aa
fdce
f9fe
fddb
feed
fe0a
00db
02f6
fb8b
01af
04cb
0384
fe04
021f
fbe0
ff8c
ff4f
01f1
fbaf
0433
fac6
02b5
fc63
f8db
fed7
f979
0384
ff18
fdd8
fe15
fc25
032a
02ed
ff5c
fadd
012e
fdb4
0209
fe58
01ac
fd47
020b
fe3b
028a
fc70
fef3
06ad
face
0078
01db
052d
fd32
00bf
fd19
fdfa
f809
fcfc
01a4
0008
ff32
fcf2
0858
0456
034c
fc4d
00d2
0328
fe1a
fcb5
fdec
0432
0065
fc99
fd2c
0002
fe89
faf3
ff74
015a
fbec
fe53
fde7
fe25
0125
fe01
0342
fed7
fed5
026c
070c
fcb8
00c9
013b
fbd0
fcc5
0056
0640
07b1
fb8c
0153
0428
02ae
fecc
02a5
01c9
0008
fc2d
fc9c
0494
fcb9
fcba
0502
fdc6
fe36
fc56
0012
fc8e
04c7
fed5
012a
fe29
031b
ff70
0193
0100
003c
06d9
0339
fe71
fda6
f6e5
0319
03d3
0137
0473
fe9e
034f
021c
00ab
02ea
0480
082a
fe7a
ff98
fe0e
05cf
005d
fd8b
fd76
ff4f
fe37
005f
fd2e
0140
04cc
fd9e
0107
ff9a
fdb5
fee6
f9ab
ffb2
046a
fe20
0413
fb27
020f
05f6
ffa5
f88b
fd0a
01ea
003c
fc79
0143
fdcb
0037
0511
00ec
fcae
0364
fd3e
0991
fdbb
f9bf
ff59
046f
06de
051b
03c3
03f1
022a
0732
0068
0146
0222
00a4
0584
0471
ff01
fe47
ff2b
002e
008d
fd6f
fc0e
fd8c
ffef
fd9e
003d
04a6
ff7d
0219
fcd2
008e
01ce
fc4f
fe4e
fb44
03d0
ffb1
04f0
fe85
0457
02d1
0487
fcad
0073
fb5c
0543
fe40
fb98
fdd1
fdba
febf
f9f5
fe67
feb7
f906
fbd6
ffdd
00b5
fd43
fe53
fa45
fbcb
07be
ff82
ff68
00b0
ff25
feca
fcdf
f825
01c4
0545
08ad
fdcf
03fb
0227
fb42
fc9c
ff0c
0259
0381
05e4
02ce
ffb5
fcae
fad3
0024
00a2
fe19
fc82
f9c8
0210
ff7b
037b
01c5
0443
01b4
ffae
00e3
fcf8
ff2c
002c
fd34
00c7
fe78
07af
ff9e
ffb9
fc31
06c0
0323
fed9
03ae
01b1
01c9
fbab
0264
fe70
00ac
00e8
017b
fecc
01f2
02d3
00f7
0087
fed8
fb68
0362
000d
04a0
00df
0358
0061
0133
fe4a
037d
010e
ffdb
fee4
00f4
020d
fb86
fb5f
feb1
031b
fd09
fde9
0014
fd5f
00f3
fe6d
fdd7
fdf8
fde2
ff24
fcd7
07d2
03a5
ffa6
ff8e
fcec
fa40
fec2
fece
0607
0014
fe62
01a5
feed
01f2
fd9c
0112
0389
ff94
feb0
0224
fc1a
fa08
02d9
0219
020d
00df
fec8
fc9a
014c
03c4
fd54
005f
fed0
04d3
fdd7
fdbe
ffec
fef0
019b
fa27
ff12
ff1c
fbb8
03bc
fcf2
02f5
0158
02b0
004f
fa5b
ffef
fc35
fd08
fd8b
0268
fe1d
0229
0459
fc52
fe29
f98c
fcbc
fd2b
065b
feee
fc4b
fb95
0331
026e
feda
fc6c
05ce
fd87
04ac
fca3
ff25
01b9
fc81
01e4
fcdc
01da
005a
0040
ff3a
f908
fb83
01d0
0207
0290
fe92
fbf8
fdd4
fa58
0130
01b0
051e
fee6
ff33
0163
fc57
ffc8
fd77
fede
04d4
ff8b
fa0c
ff75
0045
fbdc
ff8b
ffa1
fd20
04e0
016a
fc5d
0373
fecf
faeb
0651
ff40
fcdd
05c3
0539
fdaa
021b
fe16
012a
00c2
feae
fba0
ff4a
01ca
0187
03ad
ffff
ff27
fb8e
00c8
fefd
fd4c
fda5
fdd1
fee7
02d0
fd52
01ae
02f5
02b7
fa39
001b
0157
0951
fdbb
ffba
00db
fc61
00ab
fcc8
fc16
00b4
fef6
fda9
02a0
046b
01ed
ffad
fd49
024e
0158
0269
fa15
018c
0030
017e
fcde
fcd5
f8dd
03a6
fdd9
fcfe
07be
fdea
009e
0158
01f6
06a9
fc7f
feed
fec2
06dc
03dc
fd24
fb16
00cb
010b
fffb
0008
02c4
f933
0187
062d
fb3e
f991
012a
00c1
027f
056c
fedd
ff6d
021d
00a1
010d
0222
fddf
ffec
01a9
046f
fe2d
01c5
0516
ff87
00bc
00e9
fac3
ff82
fe08
fe94
0768
010c
fe91
fe58
0475
01a0
fad9
00e4
00bc
01d5
fed6
ffc5
faf9
f968
092b
00bf
fe12
fff9
010b
fec8
02e0
032a
0564
f98a
0032
fd1c
fc55
ff87
ff7d
0319
0109
00fc
f87b
02d2
04b6
fe34
055f
0163
fde7
0649
ff5b
045d
fefc
fed8
ff46
003d
024a
fb61
00f2
fb7c
01c5
fd96
fdaa
009f
00c0
fc26
ff30
ffe5
fdf8
fe93
fe6e
fcf3
faf4
fae4
ff49
0367
0684
0343
0030
fd66
0172
0595
f93d
fa82
fa60
fd5d
fbbd
fdfc
fed0
004a
f676
020e
0475
0116
ffb2
ff88
fde2
ff3b
0117
fe99
fa8c
ffea
03d0
0160
045f
01a7
005d
ffa3
f8bb
00a9
fff3
fe27
048d
ffca
0311
0142
0327
0391
02f5
f8b1
ff06
061a
03ac
05fa
ff11
fef4
ffeb
fdb5
033e
fff5
031b
0223
01c7
ff47
0219
026c
0231
ff2f
042f
fd86
0006
055e
fdfc
fb40
0162
0301
fe4e
fee9
0081
fbc5
ff92
0430
fd27
00a7
fa51
02de
011b
02bb
fee1
f8ae
009b
00a3
fb93
fd46
fcf1
ff64
fa89
fc71
fc68
f9d3
00cf
fceb
038c
0220
fc48
fead
fe83
fe51
fa66
ff23
01a9
0189
06a4
ffdb
0422
006c
ffb6
00da
03b4
02ca
fdc9
0568
fb35
0119
ffe6
0565
fc22
ffb7
0050
02cf
fb1a
02a2
fbf1
0008
fd2c
016b
031b
ff89
0367
ff71
fc31
00cc
0254
0253
fcc6
01f2
fee4
0533
0465
fee7
fbb5
0049
0573
0285
0620
fce4
