fb6d
0126
fe16
fd16
0371
0113
022b
0032
ffd3
fa49
04f2
012c
fb7f
f745
ffea
0059
fe6d
0000
03c8
04af
0229
ffe2
00c3
ff96
fec0
01b7
fa9b
02bd
fcf3
026a
0816
0410
016f
ffee
03ee
fb50
fd9c
ff7c
01c0
0756
0475
04a1
ffe9
fba7
0289
ff34
fdb8
0346
ff01
010a
0348
ff29
fa46
fe8c
fceb
0122
fbdd
fb0e
0188
025e
fe5b
036a
0115
00c7
0027
03b4
fcdc
0625
ff75
ff72
00cf
0106
0352
0126
f7a1
faae
00eb
01de
fd1a
01d2
0475
0055
fec9
fc4c
feaa
fd96
f9a6
0208
fcd5
050c
0400
fcd0
fd5c
0376
fc72
01cc
f8d5
0174
fec9
03d3
0046
fcf7
fee4
fd3f
fe70
fa72
fce4
0058
058c
01bb
055b
ffba
fe0a
fbaf
05b3
fed5
024e
007e
000b
01ab
fd1b
fe2c
01ed
0009
0092
feea
0218
039d
fee7
0004
fc06
fa3a
fda0
060d
054e
ff8a
fe30
001b
0492
fc00
0507
ff7b
0032
02c7
0344
00f6
0096
fed4
0352
ffff
00ed
02c8
fc39
fe97
ff38
f84a
fefc
fd73
fa0a
0463
0481
fe64
051b
0498
0195
f913
fea3
fee2
0115
024c
ff4c
0188
0445
060e
0393
fbbe
f80e
fcd7
fcc3
0413
0481
02fa
071d
ffe8
0575
fa65
fed5
033a
fbcf
0579
fdd7
0540
fff3
fd7f
fc23
0462
0090
0039
ff15
02c5
031e
ffc3
025d
ffa2
fb8e
03fc
ffbc
fd4f
0337
0436
0394
ff86
01b0
034d
0078
00a2
fd65
047e
010a
0032
0046
00e2
fd2d
ffd7
01ad
ffa5
ffa8
fc68
fbb0
002c
01a0
fec9
fe96
01be
fdfb
01c2
00fe
00b9
0a07
fb0d
00fe
fc9a
00e1
fe34
00d3
fb69
0820
fc87
0096
fe06
003e
03ad
fe4b
0283
fc5f
00c7
0232
fa88
fea4
fe9d
04fa
01b3
fcad
fc41
ff6c
ffb5
04a8
02ce
0395
00ee
fcf4
01cb
0016
fffb
01f8
0038
fd41
fb88
01fc
ff29
fc64
02c5
0216
fe2f
013c
0362
ff55
fb51
fabd
ffd1
f980
0008
00bd
020c
00d6
ff22
0052
0326
0060
ff60
fdba
0174
0204
0570
0319
043a
0343
015e
ff40
f7f7
ffa7
00b4
04ee
fd90
04d3
fb7f
05e4
fcae
0455
0041
ff8a
00a3
ff74
fec0
fffb
014a
feab
02c8
fbaa
fe33
ff0b
fc55
fd53
fba6
0165
fc9c
fee4
fe35
02e5
fcc5
0009
ffa9
018b
fc09
03e5
fe45
fd2d
0121
fc36
fc2b
ff9d
01c2
fce5
fc00
001c
fe8e
fde8
fbd6
0124
00ec
01d3
fcec
fdac
fbf4
03ee
fca7
02b1
035f
fee6
0236
faeb
ffa2
0166
016c
fff6
fee7
04cb
fc53
00ad
ffc3
fc4b
fd03
012b
fe07
01d1
fefc
fc3a
034b
fde6
ff4f
0510
fcd5
01f1
02ce
024e
f5ff
fe46
0174
ff7e
0286
ff84
007d
0399
fd26
ffee
0107
fd1f
01ec
fdea
0456
fc72
fe73
003e
04d7
fe21
fda3
fec0
ff77
089b
ff0d
ff2c
0326
04a7
fe03
ffc3
fe35
06a8
04a0
fc5b
043b
0012
029c
03cf
fb85
fecd
fe72
fadd
031d
05b2
ff30
fe06
0021
fd6f
0486
0073
ff09
0432
000f
0271
fe84
fe78
fe57
fc9e
0063
0113
0458
00ec
0214
0280
fe2d
fb47
0033
024e
ff60
faaa
fd6f
015e
ffd2
0218
007f
0196
005d
fecb
fad2
0203
00d6
0488
0222
0618
ffd0
00fd
025f
fc0d
00e1
00bf
fbf5
fb8f
02bf
fc6c
fe81
042b
f960
0215
fffd
fcd8
fed4
fc3a
ff00
03bd
0123
00e8
000d
fde7
fe8f
fba3
fd8e
014d
fc9d
ffd2
feda
05d3
fdd4
02ac
048b
fc42
017b
028d
02e6
01d6
00a2
054f
029d
ff34
fee7
fce2
0112
000c
fc31
feb0
01b2
fe70
fe49
013b
002e
0587
04f0
fdd8
f962
fe46
fdb7
0084
fe66
fe3f
ffff
fdca
fd16
0185
fc91
fc86
025f
018e
027b
fc20
ff3b
ffb2
0394
fe33
0144
02e6
f9ca
fdfa
0093
0458
feab
0258
faad
02e6
0266
fe07
fc7f
fb29
03ca
00b0
fb8d
fc8e
f934
fcb6
03fb
fba7
02f8
fe05
031f
00d5
0618
012f
feb6
0117
0564
ff75
fdbe
036a
034d
fffc
00c2
005d
fd0a
0109
0112
fff8
fef6
fd1b
0031
0666
fd5b
fcb0
feff
fd11
02d9
f6fa
ff51
ffd4
014a
fd61
0781
ffbc
0274
fd07
032c
ff81
fddb
feb3
0331
0423
0522
0654
0583
01b6
00c4
0009
0266
f60d
0168
fdcf
0422
0162
02fd
001d
fd79
0292
021b
0620
fff7
fc2b
006e
fd1a
fb5a
051b
fe78
00b5
0527
fd87
fbf5
020a
0285
fd9c
021e
027d
07da
00f7
01a6
fe07
f9a5
fea7
0126
00d6
feb3
ff3f
02ac
023b
0119
00bd
fb51
fe19
0501
ffbc
ffe8
fd47
fc9d
fe0e
fbf7
0124
fff6
fd2b
0024
fec4
ff73
ff7d
fc9c
f94e
fa0a
fd5d
fd1d
fadf
fef3
ff4c
fb8c
0112
ffed
fced
0036
fb1f
fe5e
fe2e
fe6e
0527
0153
fda8
fc3b
031c
01e1
038b
0301
fadf
018d
ff27
037e
fd75
0040
ffbb
018c
fb1f
02f4
f82d
ff8e
004a
fd1a
0149
03df
0402
fd5d
02ad
fbc0
fdca
fe72
02bc
0374
0619
faf7
fc8c
fdf6
fe0c
03ab
fd0a
0035
fba9
fbbf
fced
063d
02c1
fad7
009e
04f8
0122
fd45
faaa
ffe0
fd77
025f
01b6
f9aa
fecc
0189
ff38
f710
009d
fd69
0272
fd62
fe75
028b
0341
ff93
0238
f82f
074f
023f
01aa
0085
064e
fec5
fbe9
ff78
01c6
ff2a
