23d3
121b
0080
02bd
0bfe
0f1e
eb4d
e7f0
f84b
f87c
1264
14b4
d7f6
ddad
ff7d
f0c9
ef66
0651
0536
0678
e52c
f0cd
183c
d92b
2341
fe5e
eec0
21bc
fe36
d94a
03db
f87c
01b2
06d8
03a2
1609
1a54
f9f9
e52c
ed3c
0099
124f
fc8a
f451
ffa5
1520
f391
f6e1
1ab8
1e8f
0618
de93
0c76
e42c
f471
f71e
e424
1239
cf09
11b2
015a
fab1
1373
1694
1965
f5f5
1d7c
d2fa
23a0
0da9
1bcb
07d3
1a80
f813
0d3a
d849
011b
1f2e
0a86
0274
fbe7
e06f
fcfd
2fe8
013f
1163
2231
c82b
033f
05b6
04a1
0e9f
04e9
3d16
12f8
e0a3
fcd1
053b
2cdc
343a
115e
10e5
fa62
e471
e522
fcb8
024c
0ec3
1ee3
e2a5
f798
0f16
f6b3
f883
f250
fbd5
0b11
08f2
de08
069b
ec7e
e471
40d0
2329
0314
01ee
f688
03e1
e195
12b2
2f23
db63
eeab
00fa
1803
ea47
1342
000c
1c88
f145
fd20
e536
0ce6
04de
ec8e
d7da
f8d6
f93b
03e9
1007
0375
e94b
1ddd
2037
f466
fd19
d7f4
fd38
06c9
0c6f
0a2f
108c
f81c
ee95
0689
fbaa
2689
09ec
d9c9
ee61
0a69
004d
180a
f274
f0f5
faa5
e84c
fb54
183b
1d3e
1fa6
f819
f858
fec5
0625
0860
dd84
17d9
f8dc
21b0
1415
156a
1e51
15a0
0dbc
0162
de35
fbdc
f2a5
1b76
0609
ef7d
e244
0cb0
ef3a
f210
fce0
ffaa
f426
eeda
1515
ec20
ec0c
e543
f632
021b
12df
ea55
1717
3f6f
19ce
e5ee
10e9
eb18
e1f6
29f0
03b2
e102
ebdc
0aa1
0ff6
0093
030f
05ae
15cd
f971
fcfc
4e88
01ed
13a9
0621
2c12
06ed
fa8b
0759
f18b
11fe
0281
f1a0
ef85
0e12
12ba
e7f3
25aa
eff3
d325
