0066
01bb
00ed
03ab
0107
fc35
fde6
05e1
02fd
0410
fc43
01b1
0352
0202
fdbf
00a6
01f5
037a
ff63
fc4e
01f5
00a6
01f6
fce5
02fd
06e9
fed3
0540
fbf1
053c
0063
01e8
0312
047d
fb98
0558
fd6c
0200
0225
fda7
018a
016d
fd78
0250
fdcb
fc7a
fd38
01a6
0344
04f9
0223
fe2f
0287
fcdf
fcd5
fe7e
fdcb
ff4a
05c4
fbb3
fe69
faa9
fe77
f85d
00df
fdd8
ff7f
ff2d
0214
fc66
00c9
0480
ff97
021c
02b8
01e2
015c
fe50
fdc6
0125
fdaa
fcc9
02e6
0376
fb5c
f9ca
018f
0047
0060
fe4b
fa75
fe52
fdbd
ffa0
05df
001c
fe79
0483
fe7f
fde1
fe25
0340
fbb7
070a
0233
0034
0675
013e
fe88
ff17
017d
0111
027d
0103
fd06
001c
fbd8
00f8
034f
fef4
0409
ffd4
0096
fdc4
ff22
fb71
fc44
01ba
fc73
ffb9
ff72
fde7
fe7a
ff51
0239
03b0
0392
fe38
0045
01ea
fc02
fab3
fe4e
ff66
fd02
fc6f
fc7d
01dd
03ba
00df
fc31
fda5
03f0
04b8
ff5f
fe1f
0395
0146
0480
ff0c
0215
ff67
0547
f998
ff57
037f
fe68
00bd
f96a
fe0d
005c
feba
ff66
fba3
00c5
fa7a
ffe2
ffd9
0068
0101
0037
007a
051c
014c
fd40
fcc5
feb6
03dc
ff38
ff05
fe94
0353
fd8f
00b6
fc16
fd00
007b
0184
fe3f
ff99
fb89
023c
fb76
02ae
0107
0819
03a0
fda2
0107
04cc
fbfd
fefa
fe0e
00b6
05bd
023b
fba6
017f
ff0d
0151
fb63
0322
00df
fedd
fad9
ffdd
fffc
feea
fdd7
ffe9
0324
01e3
ff13
0216
fc2f
016e
fc6a
01a3
008f
f975
00d2
03c0
00cd
fd61
0001
013f
0265
ff09
fdad
ffeb
00f8
01c6
043d
f96b
0449
001c
01db
058a
fe83
0351
0067
fc29
fc35
ffad
0150
048a
ff75
fee6
ff6a
fb5e
0218
ff86
fba5
fe74
0419
04dc
028e
01a6
fdba
fdf0
028e
ffab
ff70
f684
057b
ffbb
00f8
f95c
fea4
00a4
0083
0355
0150
fee7
008a
00c7
fe7a
0113
01fa
059a
fa72
01bf
ff03
032e
f75f
0412
fe4a
ffa1
09eb
fcd2
010d
06e5
fda6
035d
fe60
fa47
ffa6
fed2
fa18
fb51
fd40
0187
fe90
00ea
fb95
fe98
0128
017e
ffbd
fea4
febd
fb2e
ff20
fe30
ff73
007a
fe9b
0454
fca7
0236
0264
f774
029c
0524
03c7
fe46
0078
0099
f666
fd2c
fd8a
fbae
0086
ff71
0090
ffe8
ff45
ff75
02f6
fdbc
ffb3
fe38
fc4c
ff8f
0584
fafe
fa96
0082
ff56
00c9
fe67
0277
0190
fe70
0148
fec4
ffe9
ff0e
00da
ffc7
fdc9
0165
fd7e
fe99
fc36
0043
f9f7
ff28
fd08
fd6c
04cb
ffbe
01e9
0390
fa30
0357
00d5
0478
019d
fdc0
074d
013a
fd58
0019
fe54
fce7
fa33
0251
fc1a
07f8
03e5
0277
0265
fdb0
03f9
fced
015e
fd7c
069c
fbd0
fbc5
012e
ff8b
fd87
fe62
fd90
001d
0104
0243
ff5c
009d
0644
0304
0331
001c
0205
00ac
ffe1
026c
fe55
02a6
0040
fdcb
000d
f7d5
0349
0292
0788
fc2e
0307
011f
fda6
fcbf
ff29
0207
00c8
fe5a
000f
fa62
000e
ffb4
03c4
008b
f8b5
040a
fd2c
ffd5
f9de
fdbc
ffc7
03aa
f95d
0505
04a3
033b
0051
01d4
02dd
011e
0495
fd7b
0432
fd4e
facf
fece
0029
fcea
0109
0060
0408
087c
0312
fe9d
0265
ffe9
02d9
feb7
0041
ff97
00e7
feb8
010e
02eb
fbf5
02e7
fd4a
fe14
fa74
fe37
0406
05b9
ff74
01cf
05dd
feca
fc77
fc12
ffa4
0217
03b4
04f6
feba
0205
ff81
ffef
054f
fe81
fcf9
0294
feeb
01ff
ff26
0361
0306
ff8c
fd6b
fefa
fa16
03f5
ff5f
fed9
002d
013e
fe79
0120
f6e6
fbc7
01ab
015f
028b
fec5
02a4
ff32
01b8
032b
fe47
00ea
fd73
fe8c
03ef
fb0a
fdfd
0688
0365
03a2
03d1
0031
0056
fef3
019d
007b
002c
02b2
fd34
fe6e
fccc
fe50
03ea
fe85
ff48
030f
ffaa
fd83
ff1e
0467
fc9d
ff36
047c
0243
ff8d
fd51
0513
fe5a
01c1
fd44
fd2b
0158
fb86
fbf0
0442
0018
fdce
fa48
05c5
0088
0043
0664
fd8c
fde3
f8d4
fdd6
fd59
fdda
ff47
fbdc
fe13
00d2
fc8f
001a
004a
0091
01d1
fe9a
fe1c
fe39
feae
03ee
ff3f
ffbc
049c
0363
fa4d
ff7f
fc5b
ffa0
fbdf
fa97
fc5a
00ed
fe1e
fc14
0648
ff41
fe05
feda
fece
03d5
03b8
fc24
0792
0590
02c2
01e7
fa38
ff89
00b6
fe80
f5ad
fe99
fa9e
03d7
fd80
fda3
0077
fb66
075e
0213
0481
0413
01cc
009c
0214
0463
fbb3
ffe8
02f4
0623
0004
fb67
fd18
0034
fd07
fbfa
ff90
fa1f
0245
00f9
ff6b
ff80
0351
0205
00aa
0484
ff27
0129
fc5a
05e6
0065
03f1
ff5b
00ae
0290
fe0a
0511
0232
fe1c
ffc1
fffc
ff7a
fae9
0384
fff3
f73c
044b
01d6
fcad
fe5d
fca4
0443
01f7
00b2
0c0a
043d
fb50
01e1
fd6c
feb2
02f2
01b0
fddc
fe7e
0021
ffc2
ff27
0302
054b
0220
011a
fda0
fb3d
011d
ff05
fca5
03f6
fed7
0254
faac
02db
fba0
067f
fe27
fd60
feb8
ff2c
f9c5
0267
0220
fe04
0549
fbe4
f9d7
0265
0407
02f0
0500
034a
f973
024d
0244
fb3c
fdc5
fc7e
0092
fe56
0304
fad1
fe2c
fb4c
03e6
04c3
046a
02f8
012f
00ee
