ffda
0030
fdd5
fd3c
fe56
fa91
fb9d
0027
fcac
fb4b
0491
f968
0086
fe26
000e
f9c8
057e
03c7
fcb9
fde1
ffe6
fcae
f94c
ff9f
0091
0255
ff5d
ff52
fd33
0312
fcb4
ff79
06d4
00eb
0643
016c
ff6e
fc1b
fb90
fc38
00d9
fd3a
0232
fef4
ffb0
febc
0464
fe05
fdff
017b
fe39
fe4b
f972
0499
fff5
fcfa
f9e9
0237
ffc4
fc1c
00bb
faf6
0468
fca0
fe98
ffc9
057b
058f
fe04
02c4
028b
fd1f
fdb4
02b8
02b3
fcc6
03a3
00f0
f958
043e
0459
ffc2
fe83
0213
042b
fe79
f7e5
00cd
fd14
02e4
035e
fbdf
0234
fe6a
0016
0345
fe0c
03ba
fe94
01cf
f9f5
feb7
fb8c
fdab
01fa
012e
fdeb
0211
073d
05dd
05ee
01b7
02f6
020a
057b
0228
fbc9
fa06
fdc7
00ca
ffea
fab8
fabf
ff58
02f3
01a6
fbc6
fcd0
020b
0293
fc98
fe7e
0378
fdaf
ff70
0819
00f9
000b
0142
0227
fcf9
02f2
043c
0568
010b
fcd7
012b
05ee
04f4
feb5
fc09
fd4a
f3b9
fed0
ff4b
fe0b
0169
0193
00bb
fd34
01b9
fef3
fe8e
fe43
02bd
feeb
ffa2
f9fa
fde6
0402
fc79
ff18
fe2c
03a5
0499
014c
03b1
00e4
fe78
fcb3
fd0e
fe4d
fc02
fbd1
02a6
034d
006a
014d
fe8b
0330
002d
01cd
ffa6
fcdc
fa87
0121
01b5
0182
fd0c
042e
ff23
feeb
0384
feac
0097
0278
ff55
fdc8
0225
01bb
ff70
0160
fe78
fda7
ff6b
ffd5
021d
0089
f8c6
034f
fca5
01a8
fe48
006e
01ea
fd68
012d
0033
06ef
02e7
fb97
ff36
ffba
042f
011b
fe55
fc0c
fc41
feba
006b
fb34
ffa6
fdb4
fc3b
02e3
03e9
feae
fd86
fe05
061f
0120
0010
04e1
fb0a
fdd7
035e
fe1b
fd2c
ff97
0128
ffa3
0265
0739
fbe1
fdf4
02ee
0112
fdbb
022c
0307
00c3
0957
049e
fd1a
06cc
01d5
01b3
ff14
03dd
fe14
fb55
fad6
fe89
fd71
fa46
fbca
ffde
fdf7
fb2f
0420
006c
02a8
0276
08f0
fbe6
fdca
00ee
fe62
013b
0259
fe53
f792
03e5
fbaf
ff9b
fb5d
fd2d
0439
0261
0139
036e
021b
fb47
fb93
fb1c
0162
fdfc
fb9e
016e
febf
0234
009d
fe48
049c
06f8
fe26
fc7f
06e9
f993
ffba
0019
0409
fd46
0316
fe99
ffe6
019a
fbb4
ff32
0286
ff8e
ffcd
fd49
03d2
01ae
f9c9
01c7
023d
ffa3
ffd0
fc3f
0331
044f
fe95
005d
0324
fcee
0284
fd09
f8a1
fcfe
ffab
0005
014c
013a
018d
fe69
0451
fc40
0087
0106
ffab
fed6
02cf
0215
02a8
fb61
01f1
0022
f9e2
0ad4
fba4
fc05
0349
0117
fb0d
04bf
0835
ff4c
ffc9
fa6d
fff3
ff8b
fd25
0315
fbe0
fb5e
00e6
0135
0293
fe67
0183
ff18
0248
0203
027e
03dd
0053
013d
01e1
fe38
fcb4
0089
faac
02cb
018a
0082
010d
0071
fef7
031c
fdc0
ffb3
000e
fd92
fb4a
fe58
ff42
01ef
fcf4
05bf
fd05
fbc5
04ea
ff52
fecb
fd41
f9a5
fa0b
fbd3
0141
0322
ff31
03da
025d
056a
04a2
ff70
016e
fc72
0199
fa9e
0194
fe0f
fff6
002b
fd5a
fbde
004d
fdee
fdcc
fb03
fab4
0103
0317
ffca
07fd
fe3a
fc29
021b
fb0b
000e
ff0b
fc91
0144
0109
fcd0
005d
fde9
ff08
fef2
052f
01b4
007a
fda3
fce0
fe33
f851
fd1f
fbdc
001f
0261
0562
0451
fde3
fc0b
060b
fe8a
0093
01ee
046e
0360
fb68
0233
0394
01a0
0937
ff33
02aa
fe59
0232
ffe0
ff4d
fd72
013b
fe7d
005c
0436
fe3f
0320
0169
000d
004c
0364
fef6
04c7
ffc4
fff8
0105
fe69
fcb8
069f
03cb
02f8
0a02
ff2e
0292
0042
fc2b
fbba
00ae
fd97
fe81
ffb5
00f2
01e2
fe34
fa0a
fb89
f9a3
fe74
01fd
0142
00a7
017d
02be
068f
ffd3
fe5e
059f
fa91
00be
fee5
0238
fbba
0703
fe92
0490
feaa
ffb2
037b
fd7d
025e
fcc2
fea9
0124
fdb4
fd70
fe17
033c
f8fa
031e
05e5
fc8f
ffba
fb12
033d
01b2
fd34
00cd
032e
ff0d
01e4
fccf
fdf8
026c
05c9
f87f
06fa
fee2
050d
ff2f
f961
03a8
fd63
001c
049b
ffc0
021b
002e
fef3
ffd9
f99d
0403
04a7
0344
041b
fe27
fdd9
00e2
fe9d
00f0
fc9e
feef
008e
04c9
0521
ffc0
019a
ffcd
fb40
04c4
fc9b
002d
01d2
f867
fe43
fac3
02c4
fff6
fd75
0050
058a
fdb6
fe9e
fd5f
f959
0028
ff56
029e
00a5
0543
0087
fa4c
00a4
0363
fe8c
042d
0382
fd96
fe06
fc32
fd2b
02cf
ff70
01e8
fdef
0142
0280
ff5f
01cf
febd
f867
f8f3
feb8
021e
05a1
006d
fce3
ffae
0309
007c
0487
03da
0023
fba5
f8fd
0050
ff0c
ff0d
0010
030e
fd75
0432
02f8
0072
ffca
01e5
fda6
fc37
004d
023e
fab2
006d
00b6
fe54
018d
fbff
0374
ff0e
fd6b
0111
001f
0208
fb61
039a
0279
ffd3
ffef
0442
00d4
00ac
ffce
043f
fe88
fefc
01d2
03dd
fde1
0278
f971
0299
fee5
fd7e
0129
fff6
fa23
fa0b
fc46
feb1
00c3
ffe9
0135
0381
0437
f883
ff8c
02dd
fe41
fdd4
fc93
00d4
feaf
fde8
fbcc
009a
fec3
ff8b
02b8
fa70
0437
01e9
031f
fc33
00c9
fdc2
02cb
fc82
02bd
fb27
fdd1
fc3d
fbcd
0413
000d
0190
ff2c
fade
0254
02e1
fe6f
ffdf
04a7
00e8
