fe76
0195
002c
fc84
fbdb
0123
fc95
070e
00f9
0303
fab7
0339
02ee
053c
f9cd
ffd6
ffde
0060
024d
fd99
fe5d
fdbc
010c
034f
fe5d
fb86
0501
010e
0121
fd88
0473
fefb
0213
063c
01f4
fe94
fe96
0363
ff42
ff76
0522
02a6
fd7b
04d0
f988
0679
ff5c
fca2
000f
006a
f848
0153
f902
026e
fec7
011a
fce6
0398
feb4
fb89
047b
0180
01b3
ff42
0650
ff55
fec3
05cb
018e
0269
fe93
fe27
fd0c
0295
000a
fb69
ff2c
0342
fa1f
fd15
ff77
005d
fb51
ffe4
04a8
fcdd
fe26
fce0
ff56
007c
01b3
f90f
0206
fa97
02d9
0334
fcb5
0250
01d7
fff0
0549
fe19
013d
03bc
fe24
fcd7
00ad
022b
fe61
fd8a
fe04
0101
fd3c
ff82
fd61
fe85
ff9d
0850
fa4f
feca
fac2
ff7f
fde3
feda
057e
026b
021a
fe13
fac0
0018
04ae
fa14
ff0c
0362
010b
032b
ffd4
0530
0283
fb0c
fffa
0554
00b2
fe93
fd44
fddd
04be
001c
fba6
01d3
03d1
002e
fc98
fd16
0156
fee0
0563
ffeb
006f
0049
ff52
fa84
ffe4
fe37
0100
fcb0
0368
ff19
011c
00dc
f93b
06a1
fc22
fbb0
033c
fce9
02d3
fd0c
0042
0092
fd7d
04f3
fe7d
0209
fda9
0083
fdc1
004f
0144
ffa5
04ae
ffd0
f791
fc98
04b9
00ec
0398
0007
ff03
02df
fd68
ffea
fbd6
ff2f
febb
0063
018b
0442
02d4
fbf6
0322
0657
00f2
00f4
ff7e
fec5
02cb
00e5
00c4
0348
fe0b
facb
0395
02ab
fff2
fde6
0366
fc6f
01a6
fd60
058d
01d0
0489
ffae
fd9d
0262
027b
0428
fd1c
fea3
0052
fd0c
018d
0319
fd69
02a0
07ac
018f
fb3e
0213
ffa5
fe1d
017d
014b
02b6
fd28
030e
03f0
00a4
012b
0129
0370
ffe1
fc20
02a7
0354
0188
00bf
0378
fdac
ff85
fe89
005d
0390
035f
008f
0122
fb0e
00b2
ff8a
fe59
ffdf
fc59
fe94
0296
03e6
00e9
01a2
001b
fe8f
fcbb
0419
01b8
fcee
fbe2
031a
07c5
0037
fc04
fb41
0020
ffbd
fd3a
fdfd
04cb
fe3b
fd3a
0245
fdeb
03b8
034d
fa3a
0179
091d
018e
0261
fc1d
ffc1
0631
fd79
ff3f
0040
0189
fc7e
01c8
fec1
fe55
01ed
ff81
02d0
011c
fe52
fc7c
fcc7
ffac
fd63
0450
0359
fcbd
051b
0118
ffc8
02dd
01f3
ffba
fd62
ff87
fb64
fcbf
02a5
fdb7
ff74
0444
0573
00a3
00b8
fea6
02e4
febf
fe16
0570
fe70
f881
ff0b
fb1c
042e
0346
0021
fbe8
fda5
fc8e
0297
0317
fea7
003d
0378
feb1
faf7
03d0
ffc3
042e
0108
fa1e
fe2d
f63d
faa2
046a
fea6
01d8
f9fc
fb24
f9e9
ff10
fe01
fdcd
0276
ff0e
ffa9
006e
0073
ff25
ff20
0033
00b9
fc13
016c
02a6
0220
03c3
00b9
0401
03ea
0176
f99a
0104
fe2a
01b2
036d
fd6e
0192
04ff
017e
004a
fb95
fbcc
017b
05ec
0120
006a
ff83
0495
fefa
fbc0
00e4
fe69
fef6
ff21
02eb
fec6
fadc
0238
fbcf
fe92
febe
0493
00c4
ff8b
f96c
fc5f
0016
ff4c
04d7
01ec
01f8
030e
fe07
0026
fb11
01cc
0056
fd3c
027d
043e
0221
fe1c
010e
02e1
016f
00f4
ffd5
ff1c
fd85
046b
015a
fc70
fe01
ffa0
0314
fc38
00ba
fd05
fe3f
0412
042c
08b6
0464
fb75
021b
fd67
01c1
02c7
0359
001d
005c
fea1
ff1f
06d9
fb5d
fcfc
f91a
03a1
010e
0478
fe65
fdce
fad1
0256
fe33
047f
03da
fd53
043d
fc48
00a0
0262
fdcb
ff5d
fc86
feed
ffea
ff66
ff5c
0086
ff75
01ea
ff41
0433
0147
0255
fe3f
ffcf
fe80
01e5
fdc5
0074
fd43
0407
fcc6
ffbb
0129
018e
0051
0325
fbc8
00f3
ff81
fb2a
0468
023c
fd20
0277
f926
06dc
ff12
fe05
fee7
fba6
038c
00fa
fcb7
ff15
fe58
ff9b
febe
ff31
fdb9
0035
f78c
feae
042c
025e
fff2
fe1c
04bc
fce0
03e7
fd85
fda8
ffe6
0020
fc62
fd9b
ff8c
00bf
0445
ffca
00ac
faea
fd83
0021
00a1
004c
fc05
feaf
ff12
03ab
fde1
0099
01a3
fff7
0205
0414
0645
fbbc
fe8e
01bb
0254
0051
ff0b
03a6
02a6
035f
fd42
002a
0053
fdec
fd52
0201
0045
0425
f9ee
03c8
0083
feae
0714
017a
0098
fd15
0571
fe10
fe3f
012b
fca7
0051
fe35
029e
034f
fe4d
fe5f
f9e4
fa10
fe7a
f7ef
03b8
fc42
fef2
03aa
fcbf
0245
072c
fd33
fe96
fe6f
f962
02c1
fa96
01ad
00d8
fd46
fccd
0362
036f
feea
ff54
fd6b
fc3a
f83d
0409
fa6a
020b
fd79
fcaf
00ac
02bd
fe8d
faa1
fe62
ff7e
fa60
0075
fcf2
03ec
ffff
feae
0070
fd83
fb00
0182
04b2
fef0
0251
0046
035e
021b
0482
fd2e
0030
0090
0027
fd2f
0287
0112
fef2
ffe2
ff6f
033c
fc8a
fed8
00cf
04ef
0383
0306
fbc7
01d8
ff87
036e
02de
05b5
02d2
01be
ff58
fce6
ffc0
fcb4
fd84
fbf0
0132
fc15
019b
fe24
fce0
00ce
fc79
faf6
fa3b
0217
fff9
fc43
00c6
fe7c
01e5
fe80
006b
fca7
0162
fee8
071e
018c
fdab
0233
fd70
ffab
00ad
0312
febb
0122
034e
fbd4
037e
fb8c
fbdd
0157
ff81
0416
00ae
0095
ff9a
02a9
ff70
fede
ff21
0504
0127
0074
013e
fb20
fcfe
03ce
ff6d
008b
fc68
fe07
ffa6
fe0e
