0062
022c
fb02
fe4c
0436
fca1
0204
05a4
fd8e
0343
0672
fcb3
0129
fe30
fbb8
00c5
062d
ff16
fbe0
ffdc
030b
fefd
ffd7
00cb
0104
00f5
000a
fcf0
fe2b
fe0d
04ab
fb17
ffd7
00ee
0467
0016
0343
fd77
03f0
0659
fe5c
0500
fd04
0167
069f
0289
fd7a
fbb6
ffff
fd22
fe83
0106
00ba
0188
0027
ff2d
fc67
ff46
f99f
0021
ffc4
fc53
0211
02e8
ff24
fd8f
03bc
fd9a
faab
fd53
01c6
fc40
fde2
fd3e
fe6e
0324
fe0f
fee4
fed0
fd55
feb5
fe18
0092
fa62
0058
0525
fd82
02c6
0007
021a
fe3a
ff1a
fd92
f900
fea7
fb82
06ff
0246
032c
004c
fc25
00b9
0134
fd63
ff37
0151
0034
0367
04b2
0034
01e0
0143
fcc5
0382
0201
fe9d
fd84
fedb
0228
fb0a
fb97
0023
01a8
fe49
ff01
fdc8
021f
0191
001c
02b8
f597
0146
fde2
02c8
0169
fba4
0324
fd66
feed
03a8
003a
016e
fbfb
fc8c
011f
019d
feb1
030b
0541
facc
0157
018f
fc45
01d0
fc8d
fef1
0443
0125
fbe3
00b6
0097
fdf5
ffec
038b
0091
fde3
fb62
fe55
f8ab
fe16
faca
036b
0308
02da
ff44
fae0
0211
006a
0379
ff5a
0147
04ed
fd9d
0056
fcce
00e5
00be
00ff
0356
fb3f
fb81
fcf8
fcd8
05cc
f9ad
0157
ff9e
fb40
fcb3
0100
fc33
02c2
fda8
007f
ffc9
007b
ffba
fcd3
00f5
05f7
0238
fbec
0533
0301
03b1
00b2
01fe
0082
0407
fd7d
fd20
04dc
00f6
fa16
fe5c
ffd7
fce3
ff4c
025d
0166
00c3
ffaf
01fc
08a5
ff57
fdad
03d3
0455
01e3
079d
fe82
fd1b
fe2e
0092
02b2
fc5d
fb50
ffff
ff09
ff35
0064
02f4
003f
febd
f741
fd40
ffcc
023c
f9f4
fcc8
fbcf
fcae
ff46
fd11
fc0d
01ea
fbef
0466
0201
ff1c
012c
00d5
fd98
fbfa
ff2d
f83d
fa35
0277
fdcc
fba2
fec2
01ba
0090
ff74
00e0
fb4a
0594
0171
00c5
0743
fde4
00e0
0002
fce1
04e9
ffeb
03ee
fe17
0541
0744
ffa1
014a
fda7
fd01
ff40
fff8
0009
0666
0169
001b
fa07
0247
0135
ff25
f932
fe8c
01f9
0380
ffc6
ff9d
01b1
fd4c
0085
0104
04a2
09e0
ffcf
0105
00e6
ff16
0319
012b
00e9
01b1
fba4
01d4
0385
fead
ffb8
03de
024d
02d2
ffee
fff8
fb6f
026c
ff2b
f7dd
0422
013c
02d5
fe96
018f
00ef
0090
fc5d
fd6f
fefb
f9ea
fb0d
0572
ff66
fc43
01e3
056e
0131
0243
0128
01dd
0621
00e0
0134
ff9d
0115
fb33
fede
fc9f
00fb
03ae
ffd7
005f
0384
ff2f
ffde
fde1
fc64
0024
fdf3
03f2
fc74
fdfe
0395
0127
ffa9
02a6
ffa6
fe15
fc7b
064d
034b
0061
fb6c
005c
fa75
019b
0463
fe59
fc6a
029f
009e
01b2
03c4
fb96
fcfd
fef0
0489
ff01
ff87
01ce
0165
01f6
02f9
0100
0323
f88b
0056
f9ef
fcf0
01e8
ffbf
099f
029e
017f
ff0d
04a5
fc60
fd16
fdec
03c7
ff7b
ff9e
fce0
fb0c
ff81
02d4
fdce
fb5c
ff02
046b
feb1
fd5c
02e3
00e5
fc7e
ff23
00ed
fd13
0257
fe51
0084
fbc1
0169
019c
02ef
ff7d
fe53
04cf
fb89
fdf0
fb3e
fd49
fca4
02fb
0155
0141
fdee
f8e0
ff35
ffff
fed9
04ee
ffc9
fee4
fc33
fc1d
034b
ff76
0348
ff06
0178
0032
00a3
fd39
fccb
0089
00ea
fe00
005b
fed2
00eb
fbf0
0037
f9de
fb53
fdf9
067c
018b
01b8
fca8
0194
0140
0112
008a
0507
fd4c
0312
041c
0358
0122
ffcd
0033
03f6
ff5e
fd14
003a
fe42
fdac
0292
0363
0308
fc8b
03fc
ff32
0132
003b
04fc
06ea
fb87
00c4
ff19
fe48
ff16
fec2
0134
007a
ffca
01f2
006b
00ce
fd6b
0202
f9b6
0147
fb87
fcb5
fce1
fdf7
0183
0313
ff23
035a
0752
047c
fd21
01de
fe9e
fdab
01df
066b
020e
fe54
04b6
ff0e
0122
00d6
0632
ffc9
023b
02ba
f51c
ff49
f987
fdd0
fdd6
01dd
00d7
fe7b
fe3f
fedd
ff41
ff92
fe59
ff8f
fe16
fda8
fe4f
010a
033d
feb1
ffe8
06d6
fd70
ffa3
f9e4
ffa1
00c7
ff4e
fc2a
0520
fd4b
0141
014c
0188
044d
022e
0251
02ff
ffd5
fee4
fe5f
fe28
0234
fff3
fe39
006d
0126
fd31
01d3
feab
f704
0077
f9f6
ff7c
fda1
0215
0296
0470
00c3
025c
fa1c
04c6
015e
01b0
023e
0436
0482
fcd1
0242
fea0
01f3
02be
ff4d
fae6
00a2
0599
fd0f
fdf2
fd89
01d8
fe7b
04fa
fbb5
ff3c
03ef
00bf
0149
feb4
ffe7
fb4b
ff0c
0100
058d
fdce
ffd3
03c7
035b
00bc
0513
03e2
0359
fa2f
02e5
0046
fbaa
fe0a
04a0
fdbe
0229
0559
fe4e
00b6
feba
f928
fc76
ffdd
0806
ff4a
01e2
011e
00ab
01ba
fd78
fb34
fe51
fdc9
0436
fc48
0386
006e
fc96
026e
ff24
032f
fbf1
fd2e
034d
fbe1
0766
fd85
03fc
ff41
081b
0321
0227
ff55
02f2
02de
ffb6
00fe
0070
ff29
0302
febf
037b
0278
fb4a
03a1
0350
01dc
02e8
fd36
0436
fcb0
fcd3
01a6
00cf
ffdd
004d
063d
0656
fb8d
0384
0101
fef2
f73b
01b5
002e
0364
01a7
01d4
026c
012f
00bb
fd4b
f910
ff46
fefc
0021
049d
fcdf
ff96
ffda
030f
fdc4
fd65
0073
fd23
fd7e
005e
fe37
fe2e
fbfa
0446
fc00
