02a9
04cb
0b62
fd11
0090
fc8e
fffa
fd93
fd96
025c
0002
00f6
ff7f
fa8f
fda0
f76a
0027
000e
fc61
0519
0092
0128
06de
0148
ff6e
04e0
0343
ff55
f7fc
fe88
ff50
02ad
fe10
0a8b
0175
fe78
fcf0
fee2
fedf
facc
fdd6
0319
fb38
fdd3
ff29
fc9e
fd9a
01c0
ff7f
02c7
02c1
077d
03b5
0024
04a4
fc09
fd1b
002c
0158
fd6c
0480
0726
ff2b
063b
038f
0167
ff30
0526
01aa
0083
ffc2
fddd
fec7
0108
02f6
fc89
fcd9
fbc2
04da
0323
fe22
0037
fc53
ffa3
fcc0
02bf
00c9
fe30
02db
fc8c
0462
fc10
ff7a
0347
ffcb
02b7
033d
0251
fdd0
0005
fee8
ff68
faf1
0292
04a6
ff3b
016f
fbc5
0126
fb13
0134
02f2
001c
01f1
fed7
fe94
0308
fbcf
02df
012d
01a2
0067
fbed
061b
0391
fcb7
fed7
0198
01bf
f5a1
feed
03cb
fc77
f9da
0209
04a7
fd42
ffca
0078
0447
fde6
fd25
01ca
0212
00b6
fe4d
fbc1
fd69
ff1b
0940
ff0a
0547
fd37
ff7d
043b
fd85
fcf9
0098
005e
f916
0003
0070
fcf8
fbbe
fd2f
02ca
0138
00db
006f
ff03
0171
fe4b
fd1c
00e7
034d
035f
0232
02f8
021a
fdb7
041f
013a
0394
03cd
ff3a
033b
0347
fc33
02a7
00b2
fbcf
fe2a
fee3
01f6
025b
056e
05e6
f955
04af
0436
0184
fda2
fedf
0111
0080
ff3c
04bb
01db
ffda
fcab
00f8
04b4
031e
fe7b
fdca
0203
0097
03a8
fc99
fb42
ff0a
fb5c
01b9
0012
ffc9
fd7e
026f
00fa
03d7
fe77
fe3b
fb09
01cb
01b0
0141
00b4
02da
fce1
0366
ff72
02d8
02a2
fe4a
002f
fda6
0061
ffda
fe56
ff0b
0189
033b
02b4
0237
f8f9
fe1a
041b
001d
fb43
fedb
ff7a
0272
0043
0366
fed8
03b7
0002
01d5
02f6
004e
022f
0360
fbda
01dd
fcd9
01df
0050
03b9
fdcc
ffb9
fe98
fc7e
fe2d
00f5
0104
032b
ff15
fcd2
ffed
01d0
fb0b
ff7e
ff34
016a
0685
ff5f
002e
0200
0220
03d1
0381
020e
fe7a
ff3a
fe93
00de
fe5e
0075
0342
f9ff
0473
feb2
00bd
ff3a
0343
fc14
02bf
0298
feaa
fee6
fa30
02f2
ff00
023b
ffd3
ff65
0121
0076
fdc2
fd30
02c8
0152
ff74
ff3f
04c9
faed
0111
0127
00cd
01f4
00b8
fe6f
fda8
04ba
fe40
fc40
0381
05ba
fd2b
01fa
004f
00be
ff8f
ff4e
fd67
0643
f89c
fff6
0315
ff19
ff9a
0581
ff07
ff68
fce7
001f
fc66
021c
fac9
fe91
00fb
fd00
0018
01bf
02f8
ffbb
054f
fd53
fc04
038c
fb89
02db
00e7
ff11
ffef
03af
ffdb
fe72
feca
ffc7
fe70
fd11
0311
ff93
fed3
fb42
fedc
fe4d
0015
0111
fd37
009d
fcd6
0903
01ae
00e9
fe7d
0140
0514
fefa
fe16
0215
fd26
fd9b
02f6
fd7e
fdf8
0090
02bf
00bf
05b7
096e
ff29
023c
04a0
fe32
00e1
fee2
0073
0016
04e4
ff4c
fc8d
fdeb
fd1b
01e4
0742
00b9
0195
fcaa
fdb6
0640
fe1d
fe4c
fc32
fbb4
fdc1
fd4d
01f0
0356
fff8
01f2
003c
00f4
ff52
04f6
fee8
f8f6
fdc5
fd02
01c5
033d
fd18
ffce
fba9
fd85
ffde
fe1b
0316
0410
fd41
046c
fca4
02b4
fff4
ff9c
feac
050d
00e0
0100
0073
fcf9
fd8d
fc67
029e
08d4
0507
fc17
fe41
fe33
ff8a
ff41
ffba
0037
f923
ff6c
005f
020f
0226
01f0
faab
fc6a
fbaf
fca4
ff91
0390
0012
fd41
ff00
ff90
0396
04be
0132
03d6
fd7b
038c
059c
ffe0
faee
0685
01e1
0231
fe4a
01e2
08d8
fe47
0534
fb41
ff84
04ec
feb3
0575
ff12
fceb
fba5
01b8
fb92
fc31
0245
fe8a
0222
fd2a
0185
fb5a
fcbf
01f2
025e
0447
00bc
04c3
0149
fe46
03d7
0054
fdb5
fd58
fecb
fa84
02fc
fd07
fdd5
fe34
02a9
009a
040c
0119
027e
f8e2
fd0b
00a7
02c1
fd78
fb6b
0028
0572
01dc
feb0
ff1c
03f2
0176
0232
ff08
019c
f9c7
fa4a
019f
00e6
033c
00db
fe19
005b
00a2
0443
013c
fcda
052a
02c8
0542
fe2a
fd15
02a3
ff99
0266
0380
0337
fde7
0402
ff12
06c5
0084
01cc
faa1
01c3
fef0
fcf6
ff98
0163
013d
04c9
fd7c
0185
feb9
fe69
016a
006f
fd55
05ab
06f2
0295
0041
fc7a
0200
fe52
0412
0292
ff9c
0172
ff21
fecb
fd70
0225
008c
ff9f
0148
0266
019e
0130
fe40
fccc
fec0
00c5
02d0
fdc6
03bb
025d
049b
fb70
035a
fecd
0136
fae4
0481
0014
fd44
03e3
fbda
0295
004b
fc4b
0192
fd22
0138
04a7
fbd8
009c
fcd6
fcaa
07f9
04af
00c7
011c
0540
00e6
012a
fcd8
fc25
01c7
0813
00fc
feb6
fc44
0465
009f
fbb7
0118
03dc
0130
0123
015d
fc89
01f6
019c
fb5e
fc8a
fbf7
01d7
0155
fc8d
fe54
fba0
05e6
0059
0037
ffce
04c1
fdf0
fb36
fef8
0088
fe85
fcb1
0292
0092
0212
031b
ff36
0302
fc41
fd9f
007e
03a4
019d
fcff
016d
0473
fee7
0322
0113
f823
0212
0172
fb99
fc64
054f
00f7
fcbe
fd9f
0201
fda8
fd3c
01e7
fec9
0123
ffb9
0521
faf9
0000
ff3b
fef4
fde3
0128
fc93
0233
0400
03f8
0322
fc0a
0141
017e
0351
069b
0158
02ec
ff73
ff6c
0194
ffb5
04e5
fe38
ff35
ffd2
ffc8
fb6c
fb02
fe80
