0028
fe92
fd48
0075
0167
0254
05f4
fd16
0246
fc22
0461
085b
fe35
0095
047f
ff37
facc
01cc
0443
0432
fd56
0203
012d
fe3e
044f
056a
fb58
01e3
ff3a
f9a2
fb4f
ff76
012e
010c
0405
fea7
038a
010e
0179
0108
fd9b
fc75
03f9
f61e
043f
06a7
fd9c
0426
022a
0718
00da
feed
034f
fe65
0366
fef4
faa9
ffc2
ff7d
03ab
f9cf
0714
ff7f
ff3b
006a
fe3c
f8ea
0130
0319
0010
fdca
fe56
fe53
ffa4
016e
0313
fe74
0178
fc84
001d
045f
fe95
fd7e
0442
fe5b
02dc
01e1
0243
fcec
02ee
fe41
fbce
fde1
05cd
029e
0029
ffce
feb2
03b8
fea3
fea1
07d3
fae1
013e
0158
00ed
009b
012f
04ab
fb66
0199
fdaf
00aa
02f6
03cc
fbd3
0256
fbf6
0000
009c
033e
03bf
fda2
01f9
0194
ff9e
0009
fee9
fa83
fe17
fde0
ff1a
fd96
025e
01f2
037a
0510
fc9e
0401
0319
fefb
fb3e
fc52
01cd
02ac
0077
0197
0212
ffa6
ff60
052f
012d
fdda
0130
fc13
04f4
f9fc
0160
fe6a
052b
07aa
ff61
06d1
feca
021c
00ea
fcad
06a4
fcf1
01c4
020c
01de
0012
0195
fa77
001a
f852
03ac
fdf6
00cb
0166
0034
fd00
0228
fe8f
0244
06ea
04ad
0490
0039
fc70
feb2
02b3
001e
fe85
fe35
00a1
0018
ff6f
ff6c
04ed
090d
0587
03d7
0554
ff59
fdfd
0315
fe29
0006
0279
fc04
0274
07bf
027e
ff7f
ff8a
fb61
fa8b
fca4
fdab
02a5
fda0
fe83
01be
fb64
fe5a
fd7d
0342
043e
03b3
07d2
0047
fc4f
ffdf
02ed
fcd5
fff8
0021
fe6f
feee
0278
0076
ff99
014d
fed7
04c7
fa70
fee7
fb57
0280
013c
002d
02ae
fe99
03d5
041d
086e
00d8
fe34
01b7
fd8c
f6f2
03b2
019d
02b7
ff82
fcc0
f6f5
00a5
fafa
fba2
0300
002b
022c
fd38
0243
ffb5
f9ce
00f4
fd12
005a
ffac
0142
ff58
f9f3
fe89
012a
fda3
fa5d
023e
ff78
fca1
0477
f946
fb72
ffc1
ff0a
ffe8
09c3
05be
012a
05a7
ff0a
ff02
feb1
008d
0568
fc63
0647
029f
0582
fe2d
06f8
fde4
fbe5
00e9
036e
ffc9
01ea
05a2
041e
fdf3
032c
ff2b
ff63
01c8
0018
fe6a
fd97
0087
fa8e
fcad
019e
fec6
fe6e
0186
04a0
ff11
0069
fe33
00f4
004b
012e
000f
fbdf
fdf5
fa76
0389
fd09
01a2
fbce
0090
0553
02e0
033d
ff19
fc43
0343
002b
0048
f969
0172
fdf9
ff11
fbf8
00ea
fe73
03c6
fdbc
009d
fe3a
fc45
fa19
ff05
fdd6
0002
faa2
01ac
0316
ffa0
04b8
01ce
0139
03eb
fe67
fb32
01aa
01c0
fd97
ffc0
018c
ff63
0595
026d
fcfa
0394
0064
045c
015b
fb99
fe78
0020
fe6d
00e6
028a
001d
fd59
002b
fd99
fe02
ffe6
fa57
01ff
01fb
fed0
0188
02e4
00d4
010f
fde3
fdab
f909
fff4
fe7b
02f5
04fc
038e
013f
fd5d
022a
facf
0204
0346
003d
fcc6
ffbd
fffb
00bf
048f
fad8
0080
04c3
ffe4
0197
03ee
0038
04a7
007f
0015
fb85
fbb2
fede
024c
fea1
03b9
0123
ff97
ff5b
034f
ffe2
0220
0040
0317
fec3
0226
0369
fd03
0330
01c3
fe7b
00b2
03a0
fdcd
fdf4
ffde
ffc4
070c
0299
fcb6
0049
fcf3
03dc
fc71
ff5f
0285
0010
0372
fe95
fc89
004a
021b
fded
fe75
fd04
ffbd
fd92
0007
02e1
070e
0150
0089
051e
0261
fac8
0448
0054
01fd
fe63
f9f3
ffd2
015d
fe06
0111
fb4d
010e
ff97
01eb
fe3c
fe07
0377
fe42
fdeb
0236
0348
01c3
fd81
0267
021b
f7cb
03b8
02bb
fc41
0448
033e
00ac
05db
fa85
f9a5
023e
0078
0210
ffa2
fd34
feaf
ff08
0103
00b0
08e0
00c9
0636
0150
01df
0189
fcb5
ff0a
0292
ff9c
f7cb
fe06
fd82
fb5c
fd76
fe0b
f994
ffa6
fc9e
03eb
fdd1
fb46
fea3
fe7f
fcb9
f97d
03a4
fec4
fdae
fbff
ff01
01e3
011b
01a1
015c
fb85
fea8
ff03
ff77
0603
f9cb
0138
03bf
03b5
fe48
0067
0337
0379
01a6
0514
0038
004c
fd4c
faa4
01a9
02c6
fe4f
fbdd
0391
fffd
f953
065a
fc35
fde9
026c
0029
001c
fcd6
fdfe
feba
0257
fe2a
00c7
ff1e
fee4
ff60
fdea
f872
00cf
02e6
021a
ff78
01c7
00c0
0550
022e
0041
fa4f
0255
fdb7
006f
fd8f
ffca
00fc
fd6a
0323
f800
fd64
0564
0274
ff9e
fd1f
fa09
faf9
0088
fc81
0294
fedc
010c
ffcb
023f
ff97
fe19
026a
fd90
feeb
fbcd
04c9
fde7
01a1
ff31
02b6
fc18
fb1e
01ad
fe4e
fe4b
fb16
01b1
0053
fda1
fdbf
035d
0595
fc7a
feeb
037c
0363
f936
ff3d
fedb
00fc
01a6
fd98
ffae
05d7
06ab
01af
007e
00cc
0509
008a
fe95
fc7e
023b
fc87
fb18
fe97
003a
0058
00a5
0288
ffd6
0422
fe77
00fb
faf5
fdc9
0171
fe2b
01c8
fd3e
ff46
fa1b
0305
066b
000b
00db
0204
018f
fd71
0168
fd02
fcb0
fe79
fd80
011c
0141
ff27
00f3
002c
047c
0361
ff01
0283
fcf7
fe3a
fd4c
00df
fc96
fe84
fdbb
0454
00e9
0084
02f9
ffa8
0218
0174
fe62
0898
0011
0061
02c6
00cf
056e
0319
00d7
fe20
0372
05db
fbe6
fde8
fcc2
ff35
026e
f9d9
fc95
fc51
0160
019d
07ee
0195
fff7
0033
02a7
