ff28
0287
fe80
035c
fe7e
fd42
00c0
0425
004d
0278
00df
0250
01fe
fdc7
ff78
fb98
0191
fea2
fdaf
0058
fedc
fe70
fd82
fdf5
0293
0084
0469
0028
0227
fe4f
ff63
0015
015e
0055
0005
feb2
f895
0214
00e7
0797
fe73
ff2c
fcad
0157
011a
0276
04ed
0145
047a
fd29
0283
00ab
0077
0044
fffd
fd85
051f
fe31
00b3
ffe2
018d
0016
00a7
fd13
fdb0
fe28
03fc
feb3
0343
f69a
01eb
fa85
01a3
ff0f
04ee
fd7a
ff36
07e7
fec1
03d9
fe5f
fff6
ff1e
fcd2
00ce
004b
01c4
015b
0202
008d
fa57
ffc3
01c6
0069
022c
00a7
00f9
ff4b
ff26
f847
0045
ffc2
ffa5
fc0c
ff1f
f79c
00fb
fc4f
04f1
fdf9
fd93
fd18
fddd
02b0
05aa
04f1
00f9
fc23
0137
ffbe
00af
fd4d
ff4a
032c
027d
02c8
fb26
fe74
0044
fb7a
f9d0
ff41
012d
014c
0192
0352
0118
fb29
0493
fe72
015b
0053
05b6
ff55
fe88
008a
ff58
00fe
fbfc
fbfe
043c
ffd0
fae5
fc9f
024a
0166
0118
fc3f
fc60
00fa
fd5a
0073
fdba
00f2
009f
0432
033d
01c1
ffc3
fcb6
ff8d
fffb
0021
00b5
0253
0441
fe30
02a5
0157
ffdc
ff43
046c
0284
fc67
02ce
013a
009f
ffbc
fefe
0374
0169
03fa
0088
ff42
fe1c
ff0d
0213
02a1
fff5
fcc3
03cb
00c8
fd9b
03da
0114
fe52
ffa5
04a8
fdfa
0443
0633
047f
02d3
fe67
008b
037c
ff7d
0297
fc19
00c3
03f5
fdbd
0080
0094
faba
00df
0009
01a5
0378
037c
f7b7
02e1
fd15
fee9
005a
fcc7
fe75
0203
fccc
ff7e
fee2
00ba
038b
ff61
00dd
0130
fffb
06af
01d8
ff38
fea3
fbef
039e
033d
0001
ffb3
ff9c
0191
0564
0088
0073
ff64
fe2f
0384
037c
fdd1
fe86
0090
017c
00f8
0004
009b
fc0d
014f
0250
0547
ff43
fbb2
023c
fec4
ff4d
ff83
04a1
fd9e
fc8e
fee8
0204
ff85
feec
04a2
fd41
0282
0273
fec1
0653
fc79
0458
0355
f888
fb17
fd79
fe0a
ff83
013f
fdbe
fb46
0051
f939
0063
0037
fefe
006a
031e
0221
0776
001c
08c1
fd01
fcf0
0006
05e6
0808
0317
fed0
00a3
0406
ff68
047b
fe45
0273
026c
057c
ff19
07a6
fe67
0333
03a5
fd78
fe60
0252
00b7
f885
fa17
f9be
ff59
fc4c
03ea
0265
fea5
fb28
fe60
04cf
02d8
ff98
ffac
0034
009b
fc85
02d4
f8e4
04a0
fd1b
041b
fb16
0398
ffba
0226
fdd9
fe3e
0443
0408
fc62
fece
0062
fdf9
feff
0274
0286
ff65
f966
03b3
01d4
00b7
ffb5
03dc
02c4
00fd
0000
fc5e
0641
01fb
fff7
022e
fd5b
00e7
05fe
03ae
f6b6
ff40
0228
ffcf
ff7f
008a
01fc
fbc2
03cf
05b4
0381
0149
fdb8
0426
ffda
fcc0
00f3
ffe8
064f
fcc9
ffb7
fb73
ffef
0245
ff71
0235
fe0e
ffdb
fd8a
0401
032b
fdcc
0611
0473
f980
fed0
ff1a
060e
feea
02c1
031d
04e0
fc64
0436
00d7
0085
01ca
fd11
00a2
f8b6
fb4b
ff42
0535
047b
002f
ff49
0371
fc8e
fef2
012b
04a0
0156
ff7b
086d
01ba
fe32
0519
0213
ff69
0664
00e7
021c
fa28
01f7
fabf
fb9c
fc95
fefd
02de
014a
ffe3
020c
026c
023d
fec1
026d
01d5
ff5b
ffdb
fbeb
fec3
ff73
0394
fd8b
fe28
01c9
fc1c
0190
fec0
fafe
0269
fecd
ff43
fd6c
fb1d
0044
ff4e
fa97
fee6
f858
0067
ff74
fe07
fdd0
002b
027a
00a9
fead
fee9
fdb5
fc47
03b0
fb4f
0044
fb1a
fc63
fca5
010f
02c5
0175
ffe8
006b
00fd
fd93
02ac
004f
ffc4
fda8
fb6b
0634
fff1
002e
fe8e
0376
01f1
0230
0162
f9e5
002a
0566
f9f2
ff88
0213
022f
fc0e
fa7b
024d
021e
0103
fc76
00be
fec6
0104
fcd5
03f3
fe07
fe1c
fa9a
fead
fdc3
fbfd
054b
fe2a
fe2c
00d7
fed4
0072
0542
0006
003e
0162
fe6c
0734
038f
fc77
022f
0213
feb4
fe17
0090
ffd5
0331
007d
ff16
ffce
0001
fe61
0032
0041
fe50
ff8e
00af
040d
0076
0009
fed8
010f
00f3
0236
02d9
ffa0
febc
00a3
fde1
ff1c
fe91
0122
016d
fd2f
017d
fdc7
0099
0068
fe03
fc6f
0036
ff12
03a7
0000
fc4e
027d
fb78
febc
0391
0145
04f6
fad0
fea5
05a5
fd51
0024
fc6d
000e
01da
fca3
ff05
03d5
043a
0045
00f3
ff50
fd26
ff58
00a2
0040
018b
fcf8
fe8c
0101
03d4
0254
fe5b
01e2
0536
008b
0206
fb8c
ff62
0093
01db
0196
0709
04d9
0503
fe21
0227
0294
0175
0362
00bf
ff65
f996
014d
0074
0270
0449
fd8e
0703
02c5
022c
fdeb
03c7
fece
ff35
fd87
fa91
03fa
036d
0090
009a
00ab
fe9c
ff59
00c7
02fe
0000
02a5
fec9
fa1c
fefb
0071
0427
fdcb
ffd3
fe6e
ff20
069f
0087
feb3
00e7
048e
01df
00b2
0092
00ed
02b7
01a1
ff59
fd5c
0090
05c0
04fb
05da
fb50
fcb7
fde0
02ad
0046
00bf
0550
0147
0364
ffda
fdc8
0183
f892
0066
021b
0019
01c2
0378
fe1c
03b1
fb80
0159
0151
0022
fba7
fcac
feac
00ed
fc1b
008d
fe03
fc39
fe5e
fef0
fd23
0451
00d2
00c2
fd3e
01e4
fbf3
fd7a
00a9
0020
015e
fe85
fd5e
ff78
f7de
feea
fb3a
00af
fb97
f996
