03a7
00c8
fab6
028b
ffc2
fff3
fee4
01a5
002f
0225
0710
023b
fbec
04bd
fd51
0271
ffdd
003a
030a
013a
00bf
ff34
0144
0128
0218
fdd9
ff65
fdae
fe69
f897
011c
0060
0031
ff9b
0051
030e
ffaf
02d7
ff39
00c2
04d4
ff50
facc
fee1
ff3f
02e4
fc40
fdee
0154
00e8
fa44
04ea
f9b5
ff1f
fce4
ffad
fdaa
00fe
0441
fbe5
00be
fcd1
fa27
02d8
00aa
0498
00df
0100
fd74
0036
0059
ff61
fc6e
0523
fd9c
00e8
0435
ff48
fd9e
04bc
f837
ff8f
fd78
fcb1
004f
01cf
00eb
ff5c
ffc3
ff4f
00d3
ffbc
ff1c
ff0c
0302
0004
00fe
0365
0642
0424
fffc
fe6b
ff46
ff9e
00a2
fbe3
01ff
fed0
fa80
fd5b
fd8b
ff24
fed4
fbc1
fccf
0227
fc4b
fd48
00e7
ffe8
fb9f
039e
feea
fe5f
feea
ff87
03ce
fe80
0250
0298
0027
fed9
0192
008e
05c3
fcc4
0141
0037
fc0a
0353
fba0
0240
038b
0056
00c3
0283
fb33
fd1f
0243
fb99
0516
fd17
02ed
028b
035b
ffb7
fe71
0525
023b
0592
fe32
fdb1
02d1
0043
049e
020a
fbc1
0450
03ef
033b
f5a0
fcbf
00a6
fd47
ff4c
035b
fc75
f979
0046
ff7d
0232
0378
ff1e
00aa
0621
f947
ff6b
0273
02b0
fe0a
0706
fd11
0142
fc1d
0370
03b6
0192
fc79
049c
00d7
0000
03f8
fe23
fb5f
fce6
0112
fed6
00b6
fd71
0272
fe47
00ad
0552
0101
ffd8
fee9
ff90
ffda
030d
f3cc
fea7
04a3
0064
fef2
0389
0132
fbb0
006d
0361
fed7
fbf2
0110
00b6
05ba
01a9
f895
fa92
0120
fa92
0210
fccd
0351
fcf9
ff79
0814
029b
ff97
0252
fd22
02eb
fe06
02b0
027a
0391
ff5f
0012
fba7
0071
fed7
0291
fd3c
0188
feac
faf2
fe1d
050b
025b
fbf4
02f0
fa2e
fcb1
00d8
0493
02a7
03b2
0204
fd64
0232
fad7
0000
02ba
ffe7
fa56
01f0
0289
ff45
00c1
00c9
fe52
fea9
fd8f
fb7b
032c
023b
fc5e
ff2c
fd38
feef
029b
ff64
0116
02f5
001a
ff23
fa80
fcb8
0111
0179
00f3
fd7f
001f
fff5
fdef
ff0d
fd64
04db
02e2
febb
fec9
fdda
fe60
005a
06e7
feb1
0239
007c
0279
fd41
fbcc
fc86
f8bf
007d
fbc5
fc59
00b7
03cd
0047
fa99
0148
fe19
fbfa
ffa7
fcd3
0178
03c6
01c2
05e1
017a
0456
01fc
fe79
fdaa
00fa
01c1
fea6
fd16
fb43
00b7
08ad
ffd1
010d
fdb6
ffbc
fd74
01fb
015d
004a
ffa6
fe4e
ff87
00ca
03be
f9da
ffa8
00dd
fc59
0000
0121
0244
011f
00cb
00ef
061f
fec8
05cd
ff97
ff7d
01d7
fcf1
fa4e
012a
01d0
fd59
007f
00fc
03ca
0735
00fc
0478
fd8d
0327
03a0
0225
fdb1
fe7b
fcd5
feb5
005d
fc36
00a9
0526
fd88
033a
ff55
fd16
0122
fe1f
01f7
0421
02f1
0491
000e
0388
0154
fef1
fadb
ffb4
04a3
0647
ff37
037e
0080
fddb
0062
00a3
00f4
fda5
048e
fbcf
fb8c
f804
fcaa
01c3
fad6
01be
00fd
042d
0175
024c
fb77
ff75
0567
faf6
0709
00ae
02ea
fdc7
0077
fdbd
0318
0010
fcbe
fb84
ffb1
fe6b
00bf
01c0
07bf
03b1
0349
0595
fb79
056d
fc05
fde6
f933
fc96
fd86
fc32
0175
fdeb
00e4
fece
059a
fcd9
0094
026a
0564
fedb
02e9
fc0e
fdce
0200
0322
fdbd
ffcd
fab4
01b7
01c5
02d3
0376
0265
f92f
fde5
fcfb
fa4f
fdf2
fa2c
0275
01d8
02ba
fc08
00e7
fe7d
0181
fc46
fee3
fc1b
00c5
00c6
0265
03fc
0055
0aaf
fe32
fb73
ff48
04e9
048e
0294
ffc9
043a
01e0
0571
0166
0055
ffd4
ff49
ff7c
ffd9
fc74
ffc9
fea9
0037
017f
058c
fec8
0415
fcbd
fea0
ff46
ff63
00d2
02f5
02d2
fbc5
fd7c
0059
0013
ff33
01ed
fb2e
fdcf
fd27
feb6
fc29
0295
ff6d
01f6
fc0a
0102
fd2d
ffc2
ff5d
f7bb
fbf9
fc0c
feed
fe84
ff02
009f
01af
01ac
fe07
fe3b
01bd
0396
06c8
f988
fc4f
fa0a
fbc4
01f2
fcfa
0475
fe13
01f9
fd96
fe27
06ba
01cd
fbaf
00a0
fcf9
00ea
0025
fd89
0342
fdef
01c6
02da
007c
f81b
00fd
0065
fffd
01e2
00c7
05f2
fe68
fbcc
024e
fd21
02e6
fc05
fcc3
fca0
fa67
fbe9
093a
011f
0200
053b
fff9
03a4
fdae
ffbc
001a
fbcc
0460
ffe5
0068
00f6
03ce
0245
05f1
ffdc
0346
f842
019a
fc34
03fb
fc72
fedd
0073
0512
0126
fd09
fcb8
050a
fd03
fc99
fdde
0089
0140
05e8
050d
00fe
010f
0276
fa83
fecc
00de
fdeb
0137
0032
fbbc
ff2d
017e
fff1
fffc
09ff
fc98
001b
fd67
04f6
0191
fd55
fec5
0479
017d
f8b5
fbcc
017b
0476
00b1
ffc7
fe3a
01c2
0106
fcbc
fd33
003a
0475
fe00
ffd0
fd5b
ffb4
fee7
0553
0124
fede
fdfd
003c
fd99
fe69
fe82
0241
063b
014f
0043
0758
04dd
024b
00d5
069e
03eb
021e
00f5
fb7a
fd48
06ee
0132
fe24
fcd2
0058
0208
fba1
fa5f
fbe4
0375
fc4b
fb4d
ff7c
045b
fe07
fcab
fe1d
000d
ff76
fcc9
0307
0069
042d
02be
0130
ff67
ff16
fdf9
fb26
015b
038f
fdc3
0100
0167
061c
0007
044a
0038
fb95
fdc3
02f8
0372
00a8
01f0
0571
fe07
fd37
01a7
fda6
fe72
0649
fdd6
00a3
