fe6b
00e9
fd3f
fe09
02e3
ffed
0088
041e
028c
fd9c
002b
039f
02ec
ff1e
00c3
fd76
0191
0047
0581
fc92
0017
0589
fba4
032a
0186
02a8
fdae
020c
ff8b
fdd9
02f5
013e
f9a3
fcb4
0445
fd15
ffdc
fd25
01bb
0067
fc79
0352
fbfd
fd71
0068
0419
ffba
01cf
0090
fe25
048a
ff5f
0306
ffb6
fdf8
fec4
fcf6
01a2
0009
0294
0393
ff34
02f7
f91f
fe74
fd24
fec4
fbc8
fd78
0319
0099
032d
fe43
04a7
0153
0495
003e
02e7
fe4f
02a2
0345
fb6d
01c7
fe60
ffd1
fc92
fe71
0200
ffe2
002f
fd73
fe2d
00ae
0566
fe67
030d
fece
03f5
ffe7
06ce
fdea
01a4
ffa2
fea9
fdd2
ffd3
ff8c
fd2e
fd9d
fe45
0149
fa88
0192
fc39
fe9e
01c3
00f2
fe06
026d
0483
00d3
ff01
0522
fe14
fe15
fd1b
fe10
fe52
fd13
07b6
fdf1
fdcc
04ef
03a6
00a9
0290
ff0a
ffea
fbf8
009e
02cb
fd4d
05a3
ff86
02ac
0821
02b0
fc6b
024e
00fe
0750
01ec
02ab
ff09
fd87
04b6
03fc
0168
037b
fde6
0325
fc72
ffd7
f7f4
032a
04e3
fe3e
039e
fd11
0125
fe79
014e
fcbb
fc12
006f
0265
ffc8
fd2c
fe5a
fa74
04ba
fb3e
ff76
00f8
fcce
fdba
fc68
fd4a
0044
00c3
0727
02f0
017e
0214
f838
03c4
02e5
fe8e
fe1f
fc4d
fa5d
fe4e
002a
fefd
01cc
04f1
069d
0453
0083
fa1f
01ba
fea9
ff9f
00bd
012e
048c
fab9
0131
ff03
061d
ffd2
0054
0334
0101
00b8
0396
071f
017f
ffc7
f862
fd72
fa5c
0827
00ab
0411
01e5
fcf3
0214
fb99
fc7e
ffd5
013f
0057
0359
01cd
fe43
fd2a
fc95
f76f
02a2
fd73
fde6
04e6
f8ee
016e
02f0
0286
05d9
031c
0183
fb13
016b
fea3
049b
fac9
f858
0560
ffbe
fd12
0336
ff99
0080
ffe0
fdcc
fe70
ff2c
025a
fe69
f871
02df
02ec
01a8
fe26
fd7b
038c
ff3d
feee
feaa
0184
ff9d
02d0
00c4
03fa
fe9c
003c
005f
fe2f
f9a3
fbab
fdd9
fac2
022f
fb19
0247
01bf
fbd6
fd0f
ffca
0314
ffd8
fdbf
0213
fdf6
014a
faea
fbe7
fefe
f8da
0729
01ba
fc94
010c
fc1f
00de
ff1d
fe28
fd3b
fbed
fd2d
00ad
005c
ffda
feae
fdae
0451
0544
02d3
fe9c
02ab
00e2
fc33
01c4
037b
feea
fdeb
ffc7
fd7b
05f0
00ab
0137
014e
fc55
020b
018f
ff3b
00e5
03ad
04d8
fe75
ff82
ff46
0216
fecd
0249
0623
fd00
01fe
00a7
ff20
0213
fede
0032
fece
fe52
fff8
fd83
ffb2
fe61
ffce
fedc
02c3
fee9
00f7
ff43
007d
01f5
0077
fde1
fcb0
019d
fde8
f8e9
fde2
019a
fbc4
0166
032e
ff23
fe6b
059e
fd84
035b
ff1f
031a
ff21
0119
ff4a
03af
ff08
fcac
ffaa
0359
0133
fe57
033d
fee3
fa63
01ca
feb1
fcf3
01c9
0008
059c
009c
fd1f
02b2
ff2f
04f0
ff59
00b9
fa43
fcea
01f6
0044
0137
0350
001f
011d
0280
019b
faec
fedc
fd57
fd3a
012e
feb9
fd81
ff22
ffba
00a9
fa2b
f99b
ffc7
fd8b
fcfb
fb1b
0304
0246
039d
ff14
00a1
feda
0184
ff47
0345
fe61
fc75
0098
ff74
ffd6
022b
fff3
fad4
02b1
ffa5
0628
02f7
030f
fc2c
00e0
032f
01c8
0060
0262
fd05
fd6c
fcc3
02ad
f953
fdb4
02a5
fdb0
fcbb
feba
0090
0081
09cd
026a
043a
0135
ffe5
ffa8
fdd1
f7a9
0033
053a
0458
feb5
ff6c
045e
04d1
040e
fe2f
fe9b
fc10
040f
fd8f
001b
fce7
ff42
faf9
01d3
040d
0577
fd72
feb3
fe80
fcd4
fda3
ff39
fb58
fbaf
fdd9
00d5
0236
fe86
04ea
fe67
fe79
ffe9
ffd2
0773
0110
ff7b
fa62
023d
01f2
fe68
fd01
0189
02c8
0712
fd18
ff4d
056d
06cf
fce2
fe78
ff6a
fd3f
0449
fd24
03ac
fc42
0313
062d
fed9
00cb
0399
fcc6
030a
0075
0496
00aa
07df
ffa9
0075
036c
0979
fe88
030f
0226
03f9
ffb8
0489
fd6f
fdcb
fde3
ff59
fc19
fdb3
0572
0600
fdea
00ae
0488
fad3
05df
ffe7
037f
fc2d
f56a
015d
0892
ff85
06c3
ffac
ff6f
fdc5
f900
ff68
00ef
fe13
015a
0098
009f
ff3b
065c
0248
fdf8
f79e
049e
f9b4
008a
ffe9
0148
00a3
02ab
ff95
0750
023a
0108
fde5
fceb
002b
0028
07f7
ff6f
02d4
0517
f86e
fd7b
fd3f
00c4
fc4c
0130
f70b
fc7d
0196
0382
ff7f
0089
fd7e
ffb8
fa1f
0578
ffe5
0487
fcc3
03cc
f7bb
0675
04fa
0492
ff3a
0155
00c9
04f9
0118
00ca
fd98
f5c5
000d
fea8
ff49
0329
f91b
03f2
ffdb
fcea
0045
fed2
feac
0074
ff18
fa0b
00d5
03cc
fa9c
004d
033f
fced
fe35
030b
f889
01cb
0231
facb
fa42
fee6
ff95
ffe2
01a3
000e
0348
fb72
016f
0092
fdcd
0094
008f
0168
0219
048e
fcfb
fd40
ff4e
00ff
ffda
ff51
fc37
ff8b
0540
0106
02c6
01d1
002a
ffc3
fd74
fef6
00dd
03ff
01aa
0457
035a
fe4a
fb04
fc6b
fa35
0127
006f
fce9
05a5
00ad
ff26
f9f5
0532
ff72
febe
0050
fd92
0431
030c
069f
fed8
fec1
fbd5
fdd1
01fa
028e
fe6d
fd23
030f
ffa7
00b2
fe56
0052
fde1
fead
01a6
fd0c
fec1
fad9
fa10
01a0
ff05
023c
023d
fad8
fe92
0295
fec8
0185
faa1
