fcec
fe21
fed7
fdbb
03d9
0032
0045
0016
fe3a
f710
fc62
01aa
fdc0
fdbf
0711
0309
034f
fa33
01f3
fd2e
fba6
0078
0273
fad9
0153
fbb1
fe17
0092
ffc4
ffb0
ff44
fe43
fd2f
fd0a
0275
faa5
0273
fe2f
fdee
05ca
fbf0
0070
feeb
fff9
00e3
f7c0
015a
fe96
fc5b
009c
ff7d
05cb
fdf8
feaf
f974
011b
0070
0177
00f7
03b1
0136
0431
ff3e
fbcf
05bf
fdd8
fff2
041d
011b
fdf7
0135
fbda
ff40
0137
fc36
faf6
fb5e
01f9
0527
0260
ff19
0092
fc17
0074
00d5
fc2f
008c
07c8
ff42
fef5
05ef
00b9
03e0
07d0
fff7
035c
fd4d
00ba
005a
04e7
0296
0218
ffe6
010c
01f9
ffd0
03fa
fafc
02ef
f918
fbcf
0178
001d
0693
039e
fe4d
0313
fffd
feda
fea2
0206
fd78
ff50
ff01
00c8
032a
03db
fdf4
fc12
002d
ff27
03d3
01a7
fcd0
fda4
fd6b
0002
011f
fd49
f6a4
004d
fefa
f969
0299
0396
037b
fa20
fcbf
fd04
fbd5
fe61
005d
ff89
fefe
0997
04b3
0622
ffab
fc89
fd01
0428
fe67
fabd
00b9
ff39
ff67
00ab
ff26
01d2
feac
ff64
fe7d
fcdd
0286
fcc7
feb5
fdf9
0416
01a3
04c0
0099
fd52
00e9
08a3
0655
f607
ff4b
fc31
f8ee
0326
ffbb
0192
017b
fd72
fe7f
fb77
fc6b
01fb
ff35
01f5
00ba
ff61
ffa8
0443
ffe7
01de
ffee
fe94
0397
0391
fcc8
0297
ffdf
fe53
0435
0384
037f
0132
fd46
04bf
0396
024b
ffe8
ff2f
0023
0433
0325
fde4
03f2
0281
00d7
fea3
04f3
fcb8
004e
fdd1
0084
0120
018b
0091
ffa5
fe8f
0223
fc74
fce9
fab8
0550
fcf5
01fa
ffcb
00ab
ffba
00b7
fe61
0309
0178
fe9e
fa3a
02e8
0074
035b
fdfc
fba4
fd92
fdf8
fc94
fd4a
03a1
01ad
00c0
fea1
0161
fcfe
0148
ffa0
057b
0201
0115
ff93
fe31
00a9
fc00
011a
01db
0230
046c
fef7
fc93
0377
fac6
0296
ffe4
02fa
fbf6
0292
00bf
fd85
fe9d
066e
fc96
050e
ff49
fdd2
ff4f
013f
043c
ff70
fcdb
024b
0066
fdf9
ff5c
028a
045b
03ed
01f8
fe21
0093
0399
05c9
0380
0090
ffc8
fedc
fd8f
fdb2
01e0
05b4
0435
01e9
0082
fbdc
02ce
0417
fc1e
fe72
00b7
0541
fed0
01ac
ff75
fe09
fbd5
0046
046c
feb3
f9f4
fd23
0021
fca2
0250
042d
034d
0377
fdaa
fe16
ff0e
04f0
002f
031a
0712
03d1
f7cf
0038
055a
0127
f9cf
fab5
0159
ff8e
fe85
0027
0236
066d
00a3
030d
feaf
fd13
072e
fe7b
0126
0052
fbad
ffcb
fd12
fcdb
fde6
0219
005d
fe02
fedc
03cc
0237
0103
fbd4
0111
fa17
fda3
046e
0572
0316
fc0a
054b
facf
027d
fefa
03ea
fa9b
01f9
039e
0102
fcf7
018f
fc2e
0837
0461
fe66
05f6
fba8
f8aa
0000
fed9
0592
00da
fdc5
00ca
02ab
03b7
0070
ff3f
02a0
0312
07ac
04d0
fdf1
016f
0696
05ef
fe08
000c
ff27
fff8
00a6
040c
02eb
029c
04c1
fe40
0180
00bd
0312
005d
fe65
0047
02aa
02ba
0150
0118
ffbb
05ee
fc64
fb54
fef7
05a7
00c3
00ee
0261
fa0b
0161
026f
fdf6
fbd5
0185
ff69
ffc7
fc4a
0407
fdda
fe91
ffb6
f91b
0039
fbee
01af
00fe
00cb
0484
0086
fefe
fa60
021f
fef5
00ab
ffc0
ffb9
0238
006a
fce8
07f3
ffd8
f847
0030
01f6
fce7
feef
04e5
02bc
fd34
fd70
fca1
022c
fb9b
04ac
029d
0127
0060
04ab
ffb1
0218
fac2
0693
007d
ff0e
fbda
01fb
ffeb
fdf0
0841
fd63
026e
02ad
feac
fc99
0603
fe18
feb7
0106
03b2
fe58
0504
00c8
fb7f
fe5e
fd24
00ac
fb7f
feeb
00bb
0573
fbc2
032b
fe95
ff0c
fbc8
fe5e
ffd6
f9d9
0062
fcc8
0194
ff10
0271
002b
febf
fe61
032d
05fc
049c
fc4b
01b6
053f
fdc1
023a
0142
00fe
fcce
fe88
fed2
fd1a
00f8
fcf8
00b5
fe02
ff91
03c3
041b
03af
029c
032a
0405
0051
04e8
0227
fc2d
fe64
0042
0349
0081
fc2e
f914
01d7
fffe
fb7d
003d
ff6b
00c0
02e2
0137
04f1
021b
f9ac
0152
fca8
fd15
fcd0
fc83
02e7
04f1
ff14
020d
fe66
025f
0249
0188
fdfc
00a9
0094
f952
faac
fce5
009b
0162
fc4e
0083
fd12
ff95
fcaa
ffcf
00ae
f83c
04c5
048d
fbb8
ff52
fe48
007a
fec1
000d
037b
fd29
fd0e
0309
fca0
fb3b
00ae
fd35
fd1a
04dc
0564
00ca
0538
fd69
002c
02e6
0391
fa6e
ff62
f978
ff8a
fff6
fe74
fcf3
000a
f9f2
ffa1
fdb7
0208
01d5
fe01
ff94
ffb4
fbe1
fe93
fbaf
04e8
023a
00bf
feb5
f83e
ff5d
0129
fcbf
02ca
0379
ff34
0446
035b
feb0
078e
fb61
fcc7
05f5
00ad
06a4
0383
02b2
fa05
03ab
ff7f
fc17
fa94
0476
046b
016f
fcfd
fcef
fa4a
034d
fb35
fefe
04a0
ffdc
08d0
043b
fb5a
0030
01d5
ffd6
0289
fdfe
02cc
0340
fa17
0064
028a
0088
fc08
00f0
007f
fce3
00c6
febb
fee6
0192
fae3
fed4
0341
ff94
04db
fed4
fdaa
fe5f
fb78
fe39
0041
0014
fef5
fd6b
fead
ffc0
0182
0456
0393
ff99
fac9
0099
0103
0017
fd9a
ffad
fef2
fe14
fe67
00ad
fcaa
fb2a
0075
00ad
07a2
006f
004a
ff27
00a3
fe62
