0296
0227
01c3
fd78
0734
fd99
ff43
fde8
0178
fe65
019f
0043
04ad
fe14
fec5
f832
fd2d
0003
ff16
fc4b
fc0a
0248
fe64
fcfb
041e
0386
fb5a
feba
fb07
0120
fe65
0037
014b
feee
fc09
0320
0023
fef1
0413
fff4
fb9b
01cc
ffdb
ffc6
03d8
0374
0198
fe81
017c
fe0d
05f7
ff9d
fd56
0685
02d6
02dd
00cc
fcb6
fa96
fcbc
fe4e
0247
03b4
03b3
fe93
032c
0630
00b4
0209
0545
0201
ff6a
fc39
fadc
043f
0454
f91f
00a3
01df
ff9b
feb8
023d
0596
ff27
ffcd
040f
fe56
019d
fd76
fbc2
ff94
0444
fbf0
f9ad
fcf4
0266
02be
0269
03e6
01eb
0701
0062
fcd5
0521
033f
0130
00f7
0415
0043
0180
04a5
00d6
0249
fbef
fe89
fea3
fc53
00da
fe69
06af
004e
0001
03ef
fa01
01de
fe04
ff45
ffa9
f9b5
fdba
01ac
febe
0349
ff8b
fe21
0232
feb5
fcaf
02d3
fb03
01a0
ffae
fb6a
014b
f8e6
fc8a
ffaa
ff4c
02cb
0544
059c
fc5b
f9ba
0200
00b1
fba8
024f
fcd9
fda1
fd4d
0076
00bb
fe58
02d8
00b4
0416
feef
00ae
fdba
faef
fca3
fd0b
025d
006c
fdc5
fbda
00ab
03e4
fea2
0300
01b8
01c8
046c
ff8b
0346
fb9f
01b0
02e2
01e2
ff25
045a
0388
fdfb
0429
04f6
01c0
00f2
0228
ff7e
fb4b
0351
04fa
fde1
0126
036a
008c
fc62
007b
fc75
034e
ffac
05e2
fdb8
0418
03c0
000c
0015
019c
fcdb
fe93
fe1a
016e
ff72
fe7e
fdef
f8a7
ff4a
02e7
f86f
000a
04c1
fd68
fc70
00af
023a
ffc5
fdd0
011d
fbe7
fe29
ff17
02c2
fb6a
ffca
feb3
feec
03e6
ff7d
fe37
0122
02f2
02bb
04d2
0684
05a9
046b
fc4d
009b
037b
ffb9
ff0a
023c
0113
fa94
074f
f8c3
0184
0251
02d1
fcc7
034a
04e4
0111
ff8b
0060
0105
ff2c
fdcb
fa73
00ae
fc33
0394
0438
02fd
0150
0320
0064
fdf1
fede
ff19
017e
0298
0163
0093
fd4b
ff48
00bb
0132
0243
fc67
ffd6
fd1a
fc7b
0091
fc9b
fb32
05ed
0657
01bd
022c
fa12
0063
fd73
fe5e
0109
004c
fe55
fc53
000c
fe7c
ff21
fecd
0223
fdb8
05bc
fc00
fb4a
fbf7
fa78
ffd6
010f
feb8
00af
0218
0295
0574
ff9e
0413
fe36
01c2
0012
fdbc
0153
0144
fb45
032d
fde4
0044
0228
01d9
0119
048e
ff6f
feab
0265
fc43
fe35
00d1
fec4
0025
fe36
fd9a
fd5b
017c
0083
0251
ffa8
04dd
fdf6
0405
018b
0518
033b
feca
fa57
fdab
fdde
02cb
fe4d
02a8
0177
ff0a
00b0
fba1
00f9
fe08
0166
0188
ffde
0896
0082
058f
feee
015e
02eb
034f
f9de
ff87
fffd
00c5
fa66
0271
0107
0179
fe72
ff42
0051
fc68
013f
fd7e
fb15
ff94
020c
0347
008e
018f
ffef
fbe1
0173
001e
013c
ff38
0428
0264
0559
fc4f
03aa
00f2
f810
06c5
fe79
f71f
04e6
fbb9
008d
fcad
ff9c
0490
0283
02d0
feac
fe26
0158
0305
ffe0
0126
fc32
ff07
fe7d
fd5d
ff07
fdc4
063f
ff40
0078
fd12
fde6
0037
fd27
0214
00d1
fbc4
fe7f
ff5c
02d4
fcc8
fda9
fab7
ff1d
ffe2
02e2
0055
feea
fbca
0103
05bb
ffef
fe5e
fe43
fe5b
023a
0737
f8d4
fd58
fff6
fc8e
0301
0035
0205
00e6
fa66
f8b3
fcd5
0600
ffc8
00db
0283
020d
fe03
ff71
fb9c
fcfd
fed4
01c3
fd5f
04db
01ee
00a6
0021
fe93
fd28
01f7
00ab
01d6
02dd
037e
fa0c
0256
028e
04fb
fbfc
fabd
01be
042e
fd4c
015e
02c5
045e
02a4
05d2
0128
fd94
0044
0281
051d
fe36
0416
f9d3
fe9d
0119
fab9
fb5a
fd24
004a
025d
0107
0409
fd3a
ff45
ff3c
010c
019b
fffb
fdde
0035
030f
fd62
034a
0215
0014
ffbc
fd57
038a
0168
fc5e
fafa
00e1
026a
0397
fe19
0025
f7b7
01ce
04e8
fe59
fe61
0675
04e8
fc5c
ffd8
079c
07e2
059f
0228
fb6a
ff81
fbb3
fcc4
ff18
05db
0252
055b
fc1d
fb68
0303
00bf
fcb5
fff8
fd35
ffbd
05f8
fce4
023f
fdca
fb03
ff08
00fd
00a1
ff8e
fe5a
04f8
0055
0226
fce4
01c6
f8ec
ff18
fc77
037e
037d
0614
ffaa
032f
0411
ffba
011b
019b
027f
0403
fde1
0177
fd3d
ff1d
0062
0077
02ad
0186
0341
fe8d
fa50
020e
fc29
0306
0269
019b
fd02
0799
fc87
0330
0035
0604
fec1
ffe6
052d
fba0
016e
fdbc
03ba
0041
00fd
0141
032d
fe2b
fc7c
018e
0274
0290
02fe
018d
fa06
02eb
f7f3
ff99
fc69
fd59
fd1a
05ca
fe56
f9c2
fa82
fa5d
0055
0202
fe96
ffbc
008c
fcec
0444
0034
01c4
fab8
0044
00a4
03ca
fe90
0031
0227
ff8e
0042
f828
03df
fd73
fde4
ff11
015a
00e3
fe0b
fdf5
fe6b
01dc
03e3
fd82
fc80
02d5
0323
001e
0027
0300
03c5
05a4
ff95
fdbb
0100
ffad
03bf
f603
f8e5
024f
fb57
fd5d
fdc0
05a1
fcd9
0095
001b
fe2e
01d5
fd4a
0527
fe0e
fb80
012d
fdd6
ff83
f5be
06a1
fb3d
005e
01c8
001a
043f
ff0b
018e
fe7e
0170
044d
0011
00cf
fd8f
fe5f
fd55
024c
fdd8
fb70
04c2
0017
f92c
ff31
fefc
fc79
00b6
0566
fec4
fc2c
0063
06de
ff71
fbf4
00d6
003e
0051
fdc5
039f
0069
