036c
fed3
031a
fad4
0158
05f4
013a
fa2a
0220
ff4d
0204
febe
0366
fe63
fb11
fc86
0338
001c
fd30
045a
00a6
fedf
00fb
0050
02aa
03a8
03ad
fd85
fdcc
001a
07d1
feed
ff1b
fe25
fee6
00d9
01b9
04c0
02f6
03fd
fd10
0138
0441
fe5a
028a
0262
fff3
ff07
02b9
ffee
0041
0479
0159
02a8
07d0
fe3b
f93b
fe9f
f845
02d4
0022
0221
fe91
fbc6
02c3
ff9d
01a1
009b
024a
fd2d
01a5
fa4b
0211
fa7e
024b
fc3d
005e
043d
0100
02bd
0114
03ae
0999
015b
04b7
ffed
016f
ff9e
00f1
fce0
02d4
f7cb
fe62
fffd
0140
01af
fd45
0060
fb54
fef2
007d
034c
053a
0274
0217
06a8
0576
fec2
0086
0472
0038
fea6
fdb7
f705
fc8e
ffbd
fa94
01f6
fead
00a2
0206
fdbf
01c3
01bd
0361
0473
00ab
fdd2
faee
faac
f9ca
028d
fb0d
fe3b
004e
01d3
ffa0
ffe6
037c
003c
fc74
ff78
00f5
0434
ffee
0090
030b
feef
fede
ffa6
012b
0035
faec
fef9
fb4e
0475
ff01
fda9
fc21
fdd9
feb3
028d
ffe5
0687
feb9
f9b0
fdc3
fdb8
03e5
fd8e
f77e
fde5
003b
ff2e
ff00
fc02
015b
03cc
05b3
fceb
fee5
feba
fb8f
0522
fc68
fd3f
fc82
fbf1
f946
fc43
0318
0114
0244
fa19
f9a3
fe37
0617
ffd2
fdb6
fe32
005c
f9ce
0577
ff3a
fcbc
fec1
022e
011c
fedc
014a
0337
f595
f9db
0228
01c6
0102
005e
03d4
01ea
026b
00f3
fb53
fe42
fee6
fe05
09ef
0196
003f
ffa0
fb72
fd28
fdea
049d
fdeb
feac
face
fcb2
fcbd
0376
025a
0365
004e
ff04
029e
ffcd
fcaa
0505
fea4
f958
fce9
f945
03bf
013a
fda4
ffaf
03f6
017e
fabc
059e
fee0
fd1f
feb9
01fa
0085
0500
ff9c
fdcb
fdc5
fc15
07e4
04ec
049c
04e9
fb96
fd56
ffda
fd37
fc62
ff15
ffaa
fe8a
fe10
0222
0630
0224
ff06
0896
ff13
0525
00fe
fe9c
01fc
009d
0121
fd3d
fa65
fa2e
fb9d
0486
fb63
fffe
0619
0125
fa7a
fbb9
048b
ff09
ff14
0320
0095
fb29
ff64
ff65
0058
07a6
fc7a
fbd0
02b1
01f5
0143
03cd
ffd2
0536
fc9f
0260
ff0a
00fc
0022
fd22
fdc3
ff77
00cb
0030
0092
fdf8
02de
037c
feed
fe83
ff17
043c
0008
016e
fd29
fd56
fc95
fa7f
fd68
02f3
ff5f
0625
ff04
0177
023b
027d
f85c
fffd
014a
0059
0501
03d9
ffbc
fea8
fbfb
fa79
fef9
03cf
04de
028c
fbee
fa20
0115
00a5
feb5
f6d8
00f6
ffe5
0412
fd92
ff97
00b5
004b
fdb4
006c
006e
039d
031b
03e6
fe83
fe1d
fdae
fffd
fedf
0222
fbe0
fcb8
027f
ffcc
fdeb
ff60
ffb8
fc24
025c
04a7
0160
fdb1
ff8c
058a
06d0
fda9
02e9
fe23
007b
0270
fb6c
043c
fb69
04a6
fd5d
fe24
fef1
017e
fffc
011d
ff28
ff9a
03b2
fc4b
fb07
ffd0
fa33
0161
fd8d
0391
ff60
fbe2
0636
041f
0058
fdc0
fdb1
ff42
02e3
fc21
fbaa
fc30
01a2
fd18
012f
ff9b
0410
fe51
0485
ff33
fcbc
f6fd
0162
fedb
05b1
0337
01a0
fee9
012f
fe02
fecc
ff60
fcce
00a4
0052
0367
0391
fe2f
04d5
0297
00a8
ff84
047b
fdb7
03d7
fa87
fd6e
fadb
0155
0326
03be
00f7
ff5c
fff6
02f0
032b
fd34
faf5
ff4d
0140
00b6
0176
0019
0094
01e0
fabc
fe61
00bc
0a89
fedb
0225
febb
0285
019a
fd59
0399
fd68
fa4e
fe79
fc86
0266
fe27
02c3
fe03
ff74
fe4c
0120
0153
faad
030b
fea5
0219
000a
ff65
fe58
0223
fdba
0237
03d5
02ae
ffb6
0346
0052
fe39
f90d
fe33
fe50
fbe5
fe3b
049b
fe8b
051f
ffc3
ff73
fefe
fc05
feb8
01f2
fea4
fd6d
0072
ff50
feec
fc90
0035
fcbd
fd59
0016
fc02
024f
049c
fc26
0047
02f5
fa61
ff52
0152
ffb4
fcdb
fc2c
ffed
01a8
ffbb
060f
051b
01e9
fe46
fc5b
fdec
048e
02e4
03a9
03c5
00e8
028c
05cf
fee6
fc9a
05f5
fe0b
0207
fefa
0380
01a3
fe18
fc77
fd5e
fb2b
ff26
020e
f9e2
034c
fddb
ff75
0069
0087
03e7
fe0a
ff34
f8da
fe4f
fb10
0187
fb82
fe74
01c9
0027
0030
faca
0582
05bb
fc12
01bd
01a2
fe3b
0273
03ba
049e
02d2
fefe
03a7
fd7d
fec7
0186
fc6c
01f4
fcd2
0079
02a9
033e
05be
0490
fcc8
01bc
fbbe
fa5f
fd56
fb2e
0383
0088
fe5e
ffc9
ff1b
00bc
006c
fd28
09d4
fe75
0302
ff0d
04eb
0022
fca9
fecc
fbf8
fbd9
ff50
004d
fe0d
017c
02ab
fe07
ff26
0083
fd98
fe8c
008e
fb60
ffb8
0206
fe2c
0306
ff7b
fe82
fc5f
0086
02c8
fd2e
02e8
ff0d
fbc4
fdc9
0795
f96e
004b
0077
0073
04c7
004b
ff65
fba9
04aa
fc0d
ff33
01b2
04b9
fde3
01ec
fdc1
022d
ff64
fff1
0143
fa8c
02b2
ff4c
004c
019f
fe62
03cd
03f4
fcec
000c
fde6
fdde
fe43
0033
ffa2
fd2c
01c1
01c3
ffe8
017f
fb27
fce2
ffa5
024b
0317
017b
fdcb
ff92
fc2c
ffc5
053f
fe10
0119
fe0d
fe9a
f7ee
0270
025b
fe6c
fdde
0532
0061
fe38
fe2b
fdae
ff03
02cc
06c7
0270
ff0f
ffe1
fd9b
0372
01c1
0344
02dd
fbe7
037b
ff45
ff01
fdd0
fad0
fd8a
fe22
00b6
fdcf
032e
