fb7f
0371
0230
004d
057f
fdc2
fa31
05f2
05b8
ff59
0394
08dc
0507
0324
fb29
fc9a
028a
fef7
fe6e
02ea
fd3f
02ab
00b9
003b
fe14
0302
0362
fd9f
fe2a
fc36
fa97
fab7
0360
ff05
fc71
fe39
016f
010a
ffbb
032d
fd60
01e6
ff5d
03fe
00f1
ffde
0218
032c
ff81
0441
01ac
fef4
fa6e
fbb6
01ba
0140
ff1e
0257
036f
fafa
04bf
03d0
03db
fd81
ff18
063e
fee6
005f
001d
fdda
fcd9
0340
01c0
f9cf
04b4
fb18
04f3
fe01
0322
ff43
fd67
0402
fcb6
042d
0202
fd86
fcf2
003e
fa21
fb4a
ff04
fc61
0153
ff0f
0065
00c4
0493
ffa7
045b
00c8
ffaf
fdc2
fc30
f9da
f85a
fd8e
fff8
00ce
02c3
00a8
0234
0129
0513
01dd
0524
00c4
ff87
0157
00c8
012c
ffd3
ff1a
ff53
fea0
fca5
ff63
fd77
010f
fae5
0578
fdd4
fa49
ff51
ff2e
0401
0132
03c8
faed
fa5d
ff37
00f1
ff4b
0209
ff14
fa89
fde6
057e
02ee
0146
0245
0465
08ec
08b7
00a4
fe72
feb2
01df
fe29
ff1c
fd08
ff3e
fee4
fe6a
038f
0066
04bd
02af
fe11
fd67
ff0c
00e8
fc36
028d
0532
02da
0461
fdad
02a4
03e2
034a
fd26
0249
01fd
fc31
05e3
ffd8
0285
fa93
0653
fdcd
fefe
fb77
fcba
021f
02d5
fd0e
0295
fd32
0026
01d4
fe45
fe88
0628
ff04
ff53
fa19
01dd
ffa7
02ea
fd4a
fc2c
00a2
09f2
fea7
0087
fb58
01f4
040b
fa44
fe2f
01b4
00a2
fe1f
fa4e
fe92
fb4c
00b5
fff1
01c5
fd21
f819
0490
022d
fce5
f932
0253
04e2
0084
006d
fdd7
00cd
fe93
fec9
ffb4
fc24
fbc3
050c
04ac
fac6
0041
035a
033a
fe11
fe5e
fce3
fd56
ff16
0359
0084
0082
fe6e
0292
fd53
fdf8
03e2
fb69
fe99
01b9
00ff
026f
009c
fe24
0126
000d
fe92
ff87
ffcd
fd3a
ff14
0298
01c5
fc5a
fdeb
04f2
0298
fddb
ff2c
04de
fedf
00dd
00ca
00ba
005d
f69d
ff7f
0201
0383
0904
01a8
fdad
fd27
00e9
019d
fd1f
00d8
00b2
028e
fcf5
034e
0245
0059
019a
009e
fbc9
f81f
fc1d
023f
ff12
013f
fc9e
fe13
01bc
fef8
053b
fde1
03bd
0324
00f2
fe5a
fb4a
00f8
fc9b
0182
0437
0274
0166
fb52
ff3d
fba4
f9e1
008d
f6d9
fc35
fd92
ff77
fcc0
01f7
fe32
fe2f
fee4
fe15
fdb7
022c
057c
007c
ff94
04e2
f9a2
0156
fdbe
0168
011c
fcba
0226
fcfd
fbbc
0488
021c
fee4
063c
ff8b
029b
fb56
ff78
01d0
f9ae
fc0a
0188
0458
03a2
0521
ff2a
fbc2
fbd3
fff0
0248
01d9
00e4
01f2
005b
0290
03bc
ffa5
fee3
fd01
01f2
ff5a
02f3
ff3a
fe5e
05e3
023b
fc98
ff62
007e
fcb9
ffbe
01ac
01cb
fcee
fd06
fdf7
02e2
0232
fd70
0634
02af
fc4a
00be
044c
fde5
00aa
feac
02a0
ff65
fc12
fe81
06f4
ffd6
fd16
ff24
fa47
fe52
fbac
ff66
01ff
011d
05b4
041c
0295
01a9
ff48
f9f8
fe83
01f7
fc92
0336
ffe6
0016
0595
058a
0532
fd95
fe73
016e
01af
fe9b
fe3e
ffc3
fdd8
ff1e
fe32
ff3c
0191
faea
02d3
0077
0197
0206
0348
fb5a
00a3
fdfc
fb16
03d0
0674
ff34
ff60
002e
02be
ff26
fe05
02c5
f8e6
fe63
fb81
ff80
fbdd
00f6
fd4a
fe67
fb28
fe4e
03a4
fe4b
fe9e
f99b
03cb
00da
0151
034b
ffb9
fd3f
0864
0297
f973
fe79
fd3d
04ef
fd00
fddd
0782
021c
ff84
f871
00ed
0216
ff5d
fafb
0416
fe02
0307
02e1
0172
fa4a
ffe9
ff29
0133
f98d
03d2
fed9
fdb2
ff4c
05a3
fa1e
014b
fcf2
050f
05f1
06c7
fc81
01f1
fe04
0067
00ee
fbf2
044a
fdcf
fe8d
0510
0374
ff1e
04fd
0230
0073
0323
fda8
03ed
0084
fd78
001e
0321
02f4
00ff
fe30
0282
0180
fc8c
fd2b
ff32
ffbf
fed9
006c
02cb
fe5c
fcec
00c0
0167
ffa2
0517
01c9
fca0
002e
fd6a
0436
0058
feed
f969
0121
fdd0
fe6f
fee7
ff01
0333
01ef
ffbb
0512
fd2d
fdf3
ff8c
faf4
fe9a
00af
0109
f5ef
0230
f967
fcba
06c7
ff5f
ff7d
004c
fbf3
03fa
fcd1
0348
fbb8
fbbb
ffa2
0132
0266
fc53
fc66
035b
04fc
01ac
0348
fd86
0029
0013
00e1
02e4
0572
fc3b
fff4
fdfe
0233
03ce
0117
0450
fc59
02d7
03e5
fbd2
026b
001b
02a3
fc88
ffa0
046e
03de
0240
fba5
fd23
fed5
f631
ff70
04d9
00e3
fee0
043b
0067
fe9a
fd74
fe07
fe15
fa2f
013a
02ce
00a4
00f0
0460
fb3a
048b
0608
03eb
03cf
05a4
01e9
01f5
ff2d
fd06
0135
0249
00f6
0446
02f4
fdb8
fa8a
0152
fed0
feaa
0111
fe52
01ef
fe3e
00c2
0398
068e
0158
03d1
06d4
fd5d
01cc
032e
00c9
ff1c
fbb7
fa93
fdf3
0125
0398
fd68
fd43
03d6
0062
fe41
feb9
0068
fb14
fff7
fcf2
ff3e
ff46
00dc
fe10
015b
02e7
0273
007e
fe93
059b
fe54
00b2
ff7b
019d
ff7a
fe0a
0023
0b4f
045a
fd52
008d
01f5
03a0
fbc6
ffce
04dc
fd93
fe22
026c
026b
02ed
ff27
0023
ff75
fd13
0621
021d
fdd8
fd91
02f5
0149
ff77
0046
ffac
0149
ff4e
ff95
02d3
005d
00a8
fc99
00f9
00b6
fc2a
0480
fba3
00a9
0180
fd76
fe32
fc5b
0088
