fd8a
0051
fd3b
fd4b
fd6d
ff2c
002c
0158
0592
02f3
ff4f
0585
0171
0054
fcfb
0473
fb18
037a
f830
fc47
fc6b
0421
f9bf
ff0e
0602
fcae
f9ac
feb1
fda2
fabf
0086
f9e4
feca
f9c9
fca3
fe4a
fc82
0299
00e2
fe73
fbda
00af
0007
fca5
01be
ffdb
0381
0196
01c2
fc38
fdbb
ffc0
02bd
fdb6
039e
ffe2
0302
ff06
01c8
04f1
0246
fda4
fcd3
0009
05b8
fe47
ff59
fd34
0692
fec5
01f1
02ac
003a
fb28
faa0
0070
fd0f
fca5
fd7b
fef4
fc21
05e3
00aa
0013
042e
fb5c
01c0
0046
ffd2
01f6
00ed
fc9e
02ab
f99a
fd31
0251
fea5
020c
fca4
00c2
0779
fd75
0258
047d
fe3f
0454
ff13
013c
01f8
fac9
ff3a
0252
0486
0444
048c
ff7b
078e
01a4
ff13
f9dd
fedf
001e
0246
ffec
fd49
0053
02f7
02f9
0205
f91c
021c
fd46
f71f
fa28
fc54
fffd
fff7
00cd
01cc
ff9b
03e9
0097
017d
f9d8
00d3
01d7
fb01
fe97
05c0
fbec
feca
040e
fc43
0363
fc78
fd1d
ffef
008b
fef8
026d
fbbe
0229
f8d0
0313
02ea
fcea
04e9
03e5
0023
fe14
02c6
0169
058b
fd76
0062
fe84
fcb2
f776
fff1
05a8
0332
fd88
ffc8
fed5
fd18
fdd4
fe25
0097
01bc
02c7
0039
082c
fc46
fe1c
002e
fff9
05e8
ff2b
0161
0044
01c4
008f
ff63
fce6
fc91
0343
01f1
fbe2
011b
05cc
0042
0176
fada
0475
f882
043c
0114
0513
febf
fcf6
06d3
ff15
029b
0018
fe74
04ad
017a
fc61
05fb
0486
0193
0a06
fe08
001b
fe59
fe6b
ffc0
fbcc
fa99
000a
0469
fec5
ff01
fdaa
014d
0357
fdf4
fdfb
032f
fcb4
0094
ffb0
fb56
03d7
fb8c
fb6c
015e
0534
fdca
009b
004a
0078
03ac
fe08
037e
015a
fe96
0190
fde4
0214
f856
faa9
fcf3
01c7
fe1f
f9d2
fec7
00d9
fee9
0107
fc42
febf
00db
01d1
fce8
01f1
feaa
03f8
fed6
0121
fe0d
fc42
04dd
01db
febb
01b6
0446
ff0d
0264
0342
0498
042f
023f
fdf9
02b2
fdf1
03c6
fe52
0212
febe
0129
fd33
fa6b
fbd6
020d
05a2
fc73
012c
02a6
040c
067c
00d9
014e
0403
fac8
00d2
0386
020f
ffb4
ff88
fe28
fc4a
008b
0537
fb65
020b
ff93
fa2f
0298
fc34
0107
f89d
0288
ff6b
0105
fb8a
ff13
0374
fc55
ff00
ffcd
fe9b
077a
fdb1
ff4d
0491
06cc
002b
0000
ff63
03a4
0287
02f7
01a7
002e
042c
fed4
fadb
ff25
008d
faf7
ff1d
01fc
fa7b
0109
051e
fd6d
fe94
0071
00d9
017e
00a7
052d
0306
007a
01ce
fffe
030b
fb7a
019f
00b8
ff00
0091
fe77
0100
05ec
fa4a
fd4b
03e3
0147
fd90
f9dd
fddf
0517
05c2
ff99
050e
f9af
fcab
ffea
068d
0375
ffff
fae0
ff9d
0160
0389
fdec
ff56
0017
fe8f
001a
fead
ff2e
0054
030c
0248
010f
0459
fced
0050
001c
047a
ff7b
023d
febb
ffd5
0456
fe6c
ffd5
0082
04a2
fef3
f70c
fcce
ff56
0483
0184
037b
fb28
f54f
0475
fc89
fd7b
0426
013f
fe2b
fc1b
ff59
ff1d
01e0
fb1a
fbd4
0235
0452
00e2
ff9d
00be
0036
fa26
f966
fd91
00f7
00ed
01a3
006e
0218
fcef
fd8e
fd4d
fd61
0247
fb41
ffcf
01fd
fe23
06a4
fd2f
00b5
010d
fae0
0211
0065
00b2
01e1
ffed
0113
031e
f899
0068
fb42
03f0
0272
ff31
00f4
faaf
00de
fed8
0169
f86a
ff80
00a1
fc24
f8b1
0194
0031
fd95
015a
f9d5
ffa0
ff53
0195
fcdd
057a
fd25
ff0c
ff5a
fece
031c
ff0f
05ab
01a2
fe98
fd6e
ffdb
030b
00b6
fb5c
fe17
02bf
ff5f
fd46
0420
ff7e
ff1a
fdfa
fdaa
02f5
ff60
02e7
0091
04bf
fdaf
0060
f9e6
0210
ffad
fc33
02cd
0427
0085
fff4
05ad
01c6
fdcf
f9e3
ffdf
03ac
00cb
f9f2
fd7f
ff1e
00a1
01ea
003b
fde9
f87a
fc1b
03f0
fd47
071d
0161
0350
fd77
0339
fdc3
fac5
ffc5
04d2
fd01
ff58
ffa7
001d
ffa7
fd8a
05f3
0418
fd30
fbb5
fcb5
0425
fd6e
0240
fbdc
ff87
fedb
0479
0004
fd59
05db
fa8a
fed6
fec2
fc0b
01cc
01ff
fefa
fd89
fe3c
feab
02a2
ffa4
02fc
010e
ffd8
fb7d
fe0e
02a2
06a2
ff04
0159
ff4b
0236
fe90
fcbf
00b3
fd8c
ffc0
ff31
fe38
00ec
02b1
ff51
029c
ff7d
fb51
009a
fff1
ffe0
fc07
fe94
05dc
fdd2
035a
fc6e
fd01
02d7
ff14
fec4
00c2
fece
fef5
05c2
fd33
06a7
ffd2
fa07
01fe
ffc4
ffb7
0547
0248
0229
fe8b
0233
ff33
fca0
fda1
03a0
03f8
0255
02a7
01df
02e5
fdee
00f9
fb7a
fe6e
007d
fd6b
ff18
0271
00a7
ff96
fdea
04cd
02b9
0390
0090
055e
ff4a
0491
fc0e
00df
fb84
01bd
faad
f861
027d
fc21
fc72
ff0a
fee0
fd37
fd22
fe67
fecf
fdf6
0328
05f0
017e
f9a7
01f5
03f4
fe6a
fe92
017a
fe00
ff33
fb62
fbd9
fcb5
fdde
01e5
0281
03f1
feb1
00cd
fced
fe6f
019e
03c9
fd6e
ffe5
ff1d
017c
030c
fb76
06c2
0205
02cc
04b6
01c2
fff4
fae4
00ae
0092
03e1
0163
fe36
ff92
0260
fd83
ff2c
fd87
0139
ff27
0338
0218
fdc1
ff66
0238
f8e6
0187
fe32
f98b
fec4
0553
010c
019b
012a
f989
fdb1
04d6
