fd41
004f
fb71
feb0
01c9
ff01
046b
fc1d
03c1
fe83
03a8
ff57
0221
0348
fd10
00ad
0375
07ba
fda1
ff40
02ce
fbd3
010f
fe6c
0219
fec9
0076
fcef
01a8
02d1
004e
0334
fdd1
016f
02c5
fdd5
0192
04ac
fe80
0193
0097
ff8f
ff86
fe40
ff4e
010b
0563
01e1
07ee
00b4
0311
fbab
fdf6
02a0
0260
006e
fb57
fc7e
055c
fc33
fe39
ff7d
fe81
fd64
ffd9
fe9e
fd97
0142
0114
fb93
fe86
f977
012a
f893
ff89
f7a2
fed6
04df
fe1c
fc31
02ed
04e6
0471
ff33
037d
f91a
fc97
fe9a
ff03
ff38
f8c8
ff8a
00e6
011c
0025
f58c
fcce
f7b6
fd78
008c
fe76
fc1c
0251
ffc9
faef
0321
fd59
ff40
01fc
fc0f
04df
ff87
024c
ffec
fdc1
0477
00c0
fbbf
0133
fb84
fd2a
012b
0388
ff25
0211
00d8
f990
0293
fc73
fc86
02bc
0093
029b
0186
fcb6
fde0
ff34
0756
fedc
00b5
042c
00b4
ff80
fe49
001c
016c
0253
ff14
01c6
0599
ffd2
fd79
0148
0338
fc85
06c6
ff39
fad2
0369
02bd
fe53
fb19
0787
0024
058c
ffc0
ffe8
ff20
ff95
02e7
01a4
fe01
fb88
fc68
0088
fd12
02d6
fe2a
020f
fe9d
fc8b
f80d
fb2c
fdb6
fb1d
053e
ff77
0003
fd07
fe71
fefb
fce8
0048
00de
03da
01dd
0373
03db
ff1e
fd49
ffc2
0272
fd14
fe11
06c3
ffb9
f9f2
ffa7
fd79
02fc
0009
00f9
01cd
018f
fd50
0543
012d
fc7e
fc03
003e
fc0b
05ca
0437
038d
0361
06b8
0203
00a9
049b
fb26
02b8
fe4b
ffac
fd63
fd2c
fd80
f9c5
01c9
fd88
fe2f
fecc
fdff
fec4
ffdb
fa1c
fd33
0064
0400
0219
fe61
ffbe
01d7
fd06
0456
036c
01f0
01c7
fd0a
026e
0045
fc61
fd91
fe54
015e
014a
011e
03c1
fbd5
0164
fb22
fad2
fd78
fbb6
fbe2
06b8
fd47
fff5
ff98
fd0c
fda5
fc39
01a4
fd74
fe49
0425
00fd
0146
ff66
01dc
00c9
f9d3
f7fe
0379
0144
05eb
05d9
fa67
fc3a
02a5
0173
fe19
0188
0247
fcb8
040d
0184
ffbc
03e6
078c
fd64
026a
fb62
01d0
0463
0218
0036
0292
fb32
fbc3
fe76
fbfc
01cc
033e
ffc8
fb73
0119
034a
0095
fee7
0125
02b1
0342
fffd
0654
00b2
fe15
fe92
0097
ff10
fd68
013b
f799
0324
f92d
0066
01ec
facd
018d
fecb
0129
fa09
febe
014b
002c
0886
0122
03ec
0316
fbcc
fde1
fba0
0115
feb5
00b2
fdb6
fc99
fc3d
ffa3
fe43
faf0
0023
0076
fd30
0178
f966
ff05
fd8f
fc4b
fed2
fc5f
fd63
014f
02b5
03a7
03cb
ff19
0193
ff08
fc0e
fc98
ff05
fed9
0063
0315
fd4f
fbe6
fc65
0192
00ed
0570
f8f9
f8dc
03c4
0708
fca0
fd80
fb19
0065
fdcc
0434
ffcd
fd46
0288
ff16
f9e5
008a
fb87
0507
ffa4
00f5
03da
faa5
fdaf
fc04
f908
fb9e
feeb
0376
0555
fe40
ff32
025b
fd7f
fe36
01f0
fcef
061b
053f
fc5a
fdfa
fa55
fa3d
ff20
009c
04a1
f97a
0187
001c
0192
feda
037f
fb04
004e
ff99
fa72
0276
fdf1
006d
fdc9
0206
00fd
0135
f9de
f8ae
0038
ff46
0179
fe86
0200
fde2
0358
05b3
fa81
f93f
03eb
fcc8
0099
fe67
fe7b
fec4
00b6
07eb
025f
fec9
0323
0501
fe2d
fda8
f93a
04e3
f767
fc80
ff5f
00dd
ff07
ff49
ff0a
019a
01fe
0120
0342
04c8
001c
0263
0082
f994
fe6b
04ac
fa6b
0240
007f
fe21
fcfe
056a
03be
ffcb
02ab
01be
fc96
fde8
003f
02d5
0385
01ce
fef3
04ac
0162
0250
fd77
050d
01c1
fb4d
faec
0049
ffea
faca
fcea
00ac
00c0
fd5a
fdc6
029b
ffcb
026d
03a8
0196
fb15
fd6c
fca3
0008
fde2
0127
fea0
fd3b
fcef
02eb
fc8e
fff9
0268
0159
ff63
012b
f9cc
00b8
fe5d
fe33
0300
fd69
028f
ffe1
fcd4
02e5
0023
00dc
fb10
0384
0341
0214
04dc
081c
04d3
018e
fd78
fcbd
fa0d
0414
f65d
03e0
0573
fcdd
0000
02f5
f95e
0108
00b6
0103
fe48
01b3
045d
fee3
fda0
088f
02bc
006f
082f
04a3
fa63
02e6
01b9
ff4f
01ba
008b
0245
021c
fcaa
0404
0211
009a
05d9
fc4a
fc52
0045
009e
0214
00b2
fcae
fe3a
fffb
fb8f
0166
fea4
fcaf
0102
0415
00fd
009a
feb3
fcf9
ffdf
040a
fd3f
0095
fef8
fba1
0334
05ae
0298
fc7c
0278
055a
005d
01cb
fe44
fb72
fd54
02c4
01b6
0136
ff27
03cb
0315
0273
feee
ff58
04fd
fcb9
fade
fd37
fd15
0447
fdcc
ff6a
0210
feea
ff74
00b6
05b8
026a
fcef
0125
fd29
01bf
fdc2
0201
02db
0221
fbd1
03e8
0043
fb44
0357
01cc
04c1
0230
040a
fe40
fff0
fc1c
fc7c
fc5f
ffdb
f9af
00ab
fede
0038
03bf
07c0
005d
0579
faf6
0309
feaa
fafc
fe9e
01d4
007f
fc4d
012b
fc7c
fd3d
02d8
fde3
0420
ffdb
016c
ffd1
013f
fb69
00aa
00e5
0126
fd30
06d3
01e8
fbf0
00da
008a
fd88
02f6
fbdc
fc5c
fc6f
fc49
f947
00c3
0102
00a2
ffb0
00ab
fff9
0388
0343
02f2
fd55
feb2
0072
fef6
0429
fb99
00a8
fb98
00b3
03fd
ff69
03b0
fd37
058c
fa0d
03b2
fff6
feae
fd50
fee3
fe9c
ff32
02c1
0252
0277
ffeb
ff7f
fdf0
ffe8
fef1
0359
