fd83
030e
ffab
041a
005a
005c
08e3
036e
fcf3
0459
fdee
ff39
028c
02e2
fe53
f8ff
0280
06bb
0004
fd22
fc02
f9a0
027b
fe23
0498
f868
fdc1
fbf7
fb6f
021b
0294
01b8
f6a6
fc6a
0229
0062
00f6
0009
016d
04db
02a3
ff72
ff08
ff55
fe64
fe1f
072c
013f
004b
0132
0176
072f
0079
0113
03e8
fb3f
0048
fef3
fcc0
fa55
014c
fc4c
ff28
0250
044d
ff7b
feca
fccc
fe42
ff5c
fd9a
0021
fbbb
03e1
00f3
fc6c
fa47
0034
ff84
fd97
fc6f
f9f8
05ec
0579
026f
fed7
ff6e
fac7
fe85
fa64
0255
feab
01cd
fb49
fdd6
0285
fed4
00f9
00e0
0090
fc84
02a0
00a6
fd8a
051a
ff6e
055d
fdd4
fde7
fbb5
07aa
018b
fe6f
fd9c
0046
fd4a
005b
063d
ff49
fef1
fd9f
0246
ff6f
fbc7
fbe6
fd10
0383
0005
faaa
015b
f845
fe92
fa38
fbcd
085a
0582
0381
02f7
04af
fd60
fc1d
fe20
03b5
04a0
0468
0230
fc5f
06a2
fe9c
00b1
0775
fdfb
020c
fc5a
0047
fffa
0183
fe43
fefe
009a
ffa0
fde0
fea3
fc00
ffce
03f2
fa70
fbfa
0273
fb17
0404
fe5f
fc90
fc35
00c0
01a3
ffef
ff10
03b7
0385
0345
0083
0372
04e6
02a3
fea6
07db
fab7
ff97
0377
fc5c
043d
02a1
066e
0249
ff3d
fd58
0284
ff53
fb99
006e
fe21
fe52
0183
ff0e
0255
fe0d
006d
03ac
0273
0171
02e1
fcd2
ff1b
02c4
0670
fba5
fe8f
fc30
0012
feb2
ff35
fc6a
029a
fc7a
ffa6
0178
ff1f
0110
fdd5
faf2
f763
fb4b
0037
021f
015e
0126
020a
ff76
014e
fbeb
0215
ff29
ff85
fd12
fec0
014a
fe56
0209
0096
ff15
fd89
052c
0048
018e
fd3c
fe4b
0015
05d1
00c5
04d8
0216
ff69
ff9f
0203
febf
045f
01cb
fd12
fef1
f79c
fd9c
fe5d
ff4e
0000
04aa
00ab
fac8
030a
fc2a
0263
ff1a
fdfb
fc52
fd65
0276
0169
04d7
007c
045f
03ea
0890
fa47
016a
fffe
0052
0612
01ef
00bb
ffef
08e0
022a
fbce
fff0
fe5f
ff3a
fcd7
fba4
fd11
fead
00fd
fdac
fbc1
fc62
0301
f9f1
fe51
043a
fe37
0057
ff16
0252
ff6e
fc16
fee3
00b6
fe97
0592
0193
03ad
00d1
fe6d
fbf3
0007
0013
02f1
01e6
fb6a
febd
04e5
ff73
fcdd
ff44
ff55
0166
ffd3
fc37
0083
ffeb
f9cb
0227
ffbb
fde1
f9fa
ffb7
0579
fe48
fe0e
0262
fc42
02f9
011c
042e
007e
fea4
f696
ff3c
fc73
fea2
0186
0149
feda
0332
0699
02f1
010c
fb5b
059f
0120
0119
0054
fc18
fc2b
fdcc
0344
0510
04a8
0005
ff1d
0587
03ed
03b2
04d1
f9ce
0010
fd7d
fe5c
00f5
00ff
03f8
005b
0122
0045
fc97
0185
014b
ffb4
0028
f90c
fc65
013f
0005
fea5
fdc4
ffe4
ffdb
0105
0416
fcdb
0065
0176
0119
fbf8
043f
f9a4
0187
0221
01a7
005d
ff1c
fca4
fb16
f865
ff38
026c
fd5b
0494
fdf6
fd39
0205
fed5
0510
0000
fada
fe58
020c
f9ed
f9b0
000d
0200
05cb
fe0a
0289
fe3a
036d
fb19
ff79
01cb
0175
ff6f
023f
01b7
fe67
0253
04d6
034b
00f7
fb10
03ad
0099
fe3f
f877
045d
0573
0080
013b
0151
fdf6
fa52
fbe4
00d5
fcce
02c4
ff95
fc7d
fddc
fc7b
ff7e
0321
016f
fa38
05b0
01e4
fef6
fe12
01e5
ff52
0270
01fb
00d0
03dc
fe08
fd90
fe18
018a
00c5
02b7
008e
ff9c
fe21
fdcf
fc99
fbec
f894
fea0
013c
0346
fbff
04c5
0454
03e0
010d
ff55
02bd
055a
0298
061c
00f6
042e
fe78
fd4a
fdf2
fd1c
fbdb
0005
0720
fec9
04c6
00a9
0288
fd50
fd1b
fd5c
01ba
02ad
06f2
fe65
fe7c
008a
051f
ffde
fe84
fdde
004c
fc04
fef6
fd8f
0250
fdcb
ff05
0126
0254
ff1b
fec9
fdf6
01b7
f87d
0042
0132
04ba
fedd
fcd3
0064
fe61
ff52
059c
fd0b
0745
ffec
ff2b
fbc6
013f
fe87
fd37
fad3
ffe0
02dc
fe4f
fcd5
0046
ff2f
01b0
fce4
fe35
0484
fdcd
074b
fe10
fd9d
01af
04ed
fe36
005d
fedc
ff9d
011d
012f
00b3
007c
fd2c
faf7
ffce
f97b
022b
fd3e
0305
fbc7
fecc
ff38
ffe6
fa13
0116
fca9
04ab
fc99
0015
fb79
fcb6
fedd
ff82
0208
fec4
fca1
fdc7
fc31
fdf3
049c
046f
f8ba
0241
fd86
0463
fa24
fd35
ff8c
ffa2
004d
03e1
0065
fc38
035b
02eb
026e
fbec
018c
01ba
ffb5
0061
04d2
011e
03aa
fd4e
fd68
ff2f
0030
ff27
015c
fc70
fcb5
0349
ff74
ff54
ffcd
ff8c
f9b0
03e4
f9f5
0314
fd65
f9bc
f98a
fe78
0424
014b
ffcc
0051
fec1
001f
fdd1
fe8e
0695
05b2
00ce
079b
ff4e
fe09
052a
057a
017b
01df
fd12
fe9f
01c4
ff50
0484
002f
01ef
0228
0092
fda2
0488
056e
04c1
0076
feb1
0694
0417
046e
fbf4
0470
f84e
ffc8
058c
ff99
ffb6
ffba
fcff
fd84
0190
fbfa
00af
002b
0066
04b5
fd58
ffe4
000e
039b
010f
fed4
fb59
ff3f
fc4b
ff0f
0095
00ed
fd59
0703
0380
fd2e
0353
0214
fbe8
faf7
0024
ffb9
fe11
007a
fea3
fc9d
ffb9
f83b
fef9
0380
fb3c
fe93
ff7f
00f5
fb2f
fd38
ff4f
01b3
045b
ff58
ff66
fd3a
02cd
0121
fdc7
007d
fc7d
ffca
fcd0
fd49
