0292
fa18
ff1a
0316
04f7
fc65
fdb4
01e1
ff37
0371
fd0b
024f
fffb
ff10
ff07
fe7b
ff3c
fd16
faf3
fbb9
01c0
02d9
fe3a
025c
06c3
0353
01a1
ff16
01e1
ff16
01ec
0087
fc99
00e8
02ec
fbb5
0434
0010
ff12
fb3f
ffee
fe6c
0308
f9c8
0689
0477
fbf4
016e
045d
ffcb
0258
fd16
f8c6
013a
fad9
f96d
fe22
fe7f
0228
fd18
ff97
055c
01c6
01fe
f8d2
016a
fdd0
01ed
053b
fb40
0138
0195
0216
0262
fc9a
048f
0129
fc14
002d
0319
fe21
ffa2
fef6
fbd5
0385
ff65
fee3
ff4d
096e
fc85
02e3
fe8d
04cb
051f
fd3a
fd1c
ff3b
078f
008f
fb98
fad5
0627
f956
025c
fc85
02bb
fd01
fc8d
fec6
0087
03b7
fe6f
fbf6
006e
ffa7
02fa
0492
02eb
fe53
0042
018c
ff52
0063
ff3e
0202
ffdd
0272
ff95
039d
fd42
00f5
fd98
fedc
012d
01d0
ffd5
fce2
0545
0215
02c8
039f
fcc6
ff6c
0303
fd79
ffaf
04de
028c
0433
ff3f
fbb9
ffa4
fae0
02bd
ff86
fac1
fe8d
ffc7
0317
00e8
fb52
fd6d
ffbe
feb5
fcf0
faa3
02bc
0461
039a
feec
00b5
01cc
ff94
0324
0146
011d
fb4d
fd65
fbed
ffa3
00b2
fd28
0125
00e6
ff19
001a
021f
00be
fd86
fd34
01bb
ff0c
ffc8
01e7
ffce
f82c
fed2
fd7a
0272
01ed
038c
fefd
0235
04d0
ffbf
0437
fc4f
0316
fe3c
0468
016e
0181
fccf
fe96
ffc5
fef1
fd6d
018a
fe30
fe95
00de
032e
0320
fe47
04eb
fb01
fd23
fea9
f955
042e
001b
fd27
016f
fdac
ff24
ff38
00fe
03af
011a
fd04
012b
014e
001c
0449
fe0a
fe03
036b
03ae
0567
01fb
00fd
015f
0068
fdb8
ff88
02a9
fd57
fb5e
029a
041d
01d7
017b
ffc1
0089
fc5e
fecb
fca2
fadd
06aa
001d
ffe3
00fc
0099
fe72
f704
0290
fca6
03c5
02f5
fdd2
01dc
fd1e
050f
05ad
fc74
0071
0469
fd42
004f
03b2
fe5a
0495
feb6
0178
0165
03cb
0524
010b
0265
007c
02b6
0305
016c
fa32
fe03
ffb2
035c
0151
025a
fc40
fef1
fe7e
fe88
010d
fe5b
0208
04c4
ff34
ff6c
fe62
feb6
0175
043f
0255
fae5
058f
fc2a
0124
03b7
fda4
ff48
fff8
0071
fcd6
fde4
0637
019d
0033
0274
feab
01cf
0021
0562
00bb
0185
006b
036d
01fa
0218
0187
01ad
036c
fd84
fdc3
fe1b
00b8
06d2
fdce
0048
fdb7
04f5
fb2e
01d6
fe64
0333
033d
013f
0111
0150
03f1
014d
01c6
fdfd
016a
0074
fd95
003d
01aa
f9fd
fe30
fb38
fcc3
0148
00be
fb9b
fe0f
01b0
fb46
fbc1
01e4
ff0c
0180
003f
f4dc
013a
fe57
fca0
ff57
01a0
01fa
feb4
fafe
02cd
fe05
0198
fdf5
0421
013c
0428
0415
062b
ff14
005d
ffd4
fe64
0271
fe4a
fb84
fcb7
fcce
fccd
ff09
fb31
0275
fd17
fb09
fc63
fcd9
fe4b
06c9
0271
fec4
fc5c
fdf1
027c
0518
fc5d
faf2
01da
fdaf
045f
0286
fc6e
0223
ff1e
fc19
fb3f
0212
ff60
0030
fec4
05f6
ff69
ff7f
fe8f
01e5
020f
ff4c
0093
fce6
019f
0145
07ba
02d1
ff4b
fc6f
fdba
02fb
fe7b
012b
ffd2
036b
03b2
ffa3
014d
ffbd
fcd3
0028
fd80
fa97
fdbc
f99b
00a0
f82d
0006
0017
fd7a
ff73
01f8
0445
fef2
0323
fb91
0369
fbe7
033e
fd23
fcae
feaa
00ab
0333
039a
fe3f
faf3
fe9d
03c5
081d
fbc4
fd15
01c7
0108
fbfb
fb96
fdf0
023e
fed1
014a
04d6
0670
0392
fd84
02bb
0067
ffc5
000b
fca8
044c
009f
fc72
0400
0334
0063
f966
ff56
026c
fbd4
0323
fe82
0248
fee4
0492
0093
0126
fd01
02bb
fb67
fc0f
02df
009e
ff77
0249
0321
fd87
f8e0
0571
01d8
fbce
fe91
0548
fc2d
fea5
fd27
05b7
0623
fcaf
fc01
013d
0467
010f
01df
fe4b
0220
02c7
06cc
ffe0
fc0d
0501
fb75
019b
0144
fd34
029b
0354
ff61
ffe6
031b
00fb
fc65
0345
fe2a
0521
05bb
0236
faf3
00d5
0078
00e1
fabb
fc39
0131
fbf3
012e
fdd1
0172
007a
03a0
019a
fd6b
051c
0115
007d
0257
fcce
f96b
fd20
fe52
0329
fcf3
fed7
0328
fd96
fc61
fbd6
fe78
035b
fe03
00aa
fd61
ff5b
004f
fc17
01a1
019c
00cb
0170
0210
00e7
034d
fca2
01f5
0130
fff7
f8be
fd91
02b3
019d
0849
0185
ff26
fce1
fe75
ff0f
f873
ffcc
0175
ff8f
012a
fe9b
fccf
ff46
fc0f
fef4
0111
0079
faad
fd12
fc5c
022b
085d
0285
fb72
00c1
009c
0303
0131
024e
02df
049e
0401
0523
0489
fc6e
02d0
0030
011a
fe6f
fc9c
0213
018b
01e0
f97f
0524
ff57
fb4b
05b9
01dd
ff1c
ff7b
0000
05a9
fd5a
0512
fc0a
004c
0775
f990
fb73
f97a
0138
0042
0414
0815
ffa5
faa6
fe50
01c0
037d
f993
fd97
ffe7
037c
fe04
0410
fef8
0080
0036
00e1
0181
01ed
03c0
fe1a
0385
0191
0227
00fd
fcfe
fcf2
042f
0392
01a6
0604
fd9a
fd88
ffac
fdb8
fb18
03d7
ff0f
02c3
fae1
001c
ff7a
feca
fede
0495
0265
ffbe
034a
fcee
ff05
fb95
0050
02b6
fd2c
0230
fdef
008e
ffff
0460
058c
fe52
08df
0079
03e1
fb0f
0129
005c
fccf
029c
029a
03d2
fc88
fd15
0076
