0243
ffb5
fdb9
05d6
f94a
02d1
0693
062f
00c5
fd38
012e
04c5
0159
00a8
fba8
06e7
0375
fafa
facb
031d
fefb
fee2
fcbb
036d
fead
ff6d
fc30
ff59
07aa
0334
0398
0218
fe82
05d2
0526
fe88
0269
fbe6
096f
00d8
0078
fd6f
fb47
fbb8
021a
fce4
0423
0451
fe0d
03d4
01ff
00c3
01ad
fbbd
ffba
0660
00d9
0126
ff9b
0071
011d
016b
01b0
fe7b
03d9
ffb0
0035
f52e
fedc
04e9
024f
0409
ff66
015a
fdca
024b
fd24
01ce
fce1
01f4
fcbe
03cb
febf
f9f9
ffe1
052b
fddd
fe08
0079
0081
fd04
f9b4
fee9
fe43
0218
ff0c
ff4d
00a4
feba
fd92
fed2
0002
0026
0016
fd9d
01a5
ffcb
fe62
05d5
03e0
fcea
0298
000d
fed1
0306
fe22
ffc8
fdf1
02b1
fed8
037b
0095
038b
00f4
02c4
ffba
ffdd
025a
05c5
0647
0079
0162
f911
fd21
ff82
fd6e
fe47
fea9
ff62
ffb6
fde1
0216
fbf5
fd15
fd1f
00e8
fb19
fc88
053c
fe8a
029b
0345
fbd9
feaa
ffe3
0263
f8eb
000d
fd01
fda0
fc93
ffad
fbd9
01fd
fa60
ffc4
fda2
ff63
ff20
fedb
017f
fc39
fc36
04b3
007e
fefc
0327
ff78
02fe
fbe0
ff74
fe78
02f1
fc7a
ff31
fc4c
fa22
fb9a
feff
fea5
03de
02b2
0131
00ae
fc51
01b6
ff31
033c
fe1b
025f
02df
fe38
fe35
ff8c
fa76
faf7
ff4e
0651
00a3
088d
fec1
0137
fb63
0286
ff0c
fdcb
017f
01c9
005b
fb38
0178
fdba
fb10
fca2
00de
0797
fe56
fc49
01aa
fe96
ffb8
0388
0531
feaa
0526
fdfc
fe2c
fe27
fcb6
0007
ff15
008e
004e
023b
0289
03ab
fe77
ffc6
04c0
0483
06ed
fc72
fdee
0338
011b
fdf8
02fb
0631
043e
01fa
027c
fff7
03e7
ffba
0032
01d9
f9b2
fb9e
0367
05f3
fad7
04da
fcd4
fd44
ff75
fde3
fee4
01c0
0820
0154
028a
08bc
fffe
0536
0339
feda
0280
fd31
ff35
0229
ff4d
fcb5
065c
033e
f990
0657
0156
fb88
0293
0028
fdd6
00a4
ffb3
fed1
ffd3
01c7
0475
ffe6
006a
043b
fee7
fcc1
fba5
00d6
ffc1
fd72
feff
fd17
fe77
000c
ffb2
fde4
0170
fc1e
fc95
fbc1
fd6b
03cb
fc82
0200
0298
01f0
0215
0250
010f
fbc3
fe8e
ff24
00c4
fc74
ff77
fb0a
016c
01be
fedf
0085
ffd3
fe85
0542
00e3
0084
feca
00e4
0585
02bc
fa31
04d1
ff95
0397
0444
fe85
0a38
fdb6
0171
0406
01b1
fce8
00ce
029e
ffb5
ffdf
0235
fc74
f9b8
fb22
05a7
017c
fc6f
fb7d
02bc
fd46
016e
03d3
049a
037e
014c
fcf4
0054
fa7a
fe80
f984
037e
01fe
ffb3
03e5
fcb6
fd29
000d
ff5d
fe7d
060d
01cd
fa01
ffd8
0244
fea5
ffc0
00a1
0406
fdb8
fc6e
01d8
015d
fd66
03d1
0090
000f
f864
fc98
ff48
fd25
f6e5
0484
0359
0061
017f
00fa
fab7
ffaa
01fc
012b
0063
0164
fddf
ffc7
fedb
0057
001c
fe91
fecc
ffa6
00d7
f9ee
01ec
ffc7
051e
02ca
0119
ff97
fda0
fe26
0098
ff86
fd0d
0571
0324
fe81
fe0b
fca0
042b
fa1d
0127
fca3
0689
ffa6
ffb0
f8f0
0255
fc19
fb1b
fe15
fa9a
02fe
fc08
fd9b
0182
fae5
04c2
ff4b
02c1
fa8e
02c9
0540
fda9
005e
fc86
f929
f69d
ff6a
0013
0344
0785
01e1
00e7
0130
0786
0282
00ee
030d
05c8
0708
fa6a
02e5
ffd6
0127
fd66
fd47
fe14
fb0b
0234
fc64
fdf7
fd3a
0335
00a6
fd27
017c
003d
036b
03f2
ff95
006f
fef8
0374
ff7d
0226
fc99
fd66
ff94
03f9
02f2
fe11
ff58
fcc3
ff25
fedf
020d
fab4
f8e2
ffa2
fe97
feb7
fd0c
02e3
fce9
fdf2
fda8
fbb7
027e
0054
001f
fe09
084a
000e
fc79
0065
01d1
0397
02e8
058f
fd56
ffc4
facd
0413
fe13
fe6a
fc78
06ae
0440
fd83
ff8c
00b5
0201
fdf9
fcfb
0194
020b
0625
0032
0383
ffcf
0574
0052
01dc
0285
fbaf
ff3d
0071
01fa
fc0e
fc16
ff3c
fa99
f799
fd04
fdd3
fd70
05fd
fec8
01b8
0268
00a9
01df
0293
06be
ff04
feb3
06a7
047d
fd2c
0583
f997
fcc6
fc14
0174
027a
010b
0159
fd59
fe6b
fe7a
0120
fedc
fec5
0104
feed
ff70
fb54
f92e
fd38
0455
0204
ff57
ffd7
0489
fd24
fbb1
ffac
ff4b
00f3
fced
0737
fe03
00f0
fd61
029b
0243
fdbc
001a
fce4
01cf
fde1
041c
fb1f
fd51
ffe3
ff50
febe
071b
fed1
ff26
faf5
0081
03b3
fca4
02c6
0084
01f9
ff85
0015
0240
fe5a
fe75
0437
fff7
01e0
0244
ff4f
012c
fcb6
028e
ff97
03e9
011d
014f
fabc
fe0b
fd86
0158
000d
00a6
034e
fc37
fe03
0122
0329
010c
0067
ffd6
fe0c
f9d6
022f
0263
fbb0
033b
011a
fd5d
fec0
04c6
00dd
01ec
fcb4
00c7
04a5
fb10
fea4
fa21
02ea
0098
022d
f9ad
ff60
0280
fe15
004f
03e6
ff86
fdb0
fdbd
ff12
017d
0262
ff97
037e
fbc4
fe8a
02c5
0414
ffc0
0390
0287
fb16
036f
fff3
ffcb
0762
0104
00c4
f842
fcdf
0011
fb9d
ffd2
0332
01af
ff26
0031
fc46
0284
0016
ff28
00a7
ff24
ff54
ff16
fb5b
029f
01f5
05ac
0239
022e
fdd1
fcd5
00a6
04fc
0048
063c
03b7
0551
043d
005b
0138
0080
fc42
