d8fc
c608
f451
f686
e0c9
0dae
0837
ebe6
053b
d0b0
fd74
0d5c
1b6a
10df
060f
02e1
38cc
0ccf
0ac3
0b21
12f5
f591
e607
fdf3
d7f2
0271
15db
186a
f6a4
e577
1435
0455
e79f
0b37
b228
0aad
20f4
e105
fc37
e2f6
4afb
19a5
f73f
fc89
1fcf
dd62
0874
1ad2
0a22
f7bf
0fa4
f9f7
f167
1cdc
fd9b
275d
1e4a
ee39
f2a8
131a
01d8
f223
fa7b
2943
0919
44f9
24ce
f9b2
16fe
2628
c0bf
0dfb
f848
e269
131d
0cee
1a7e
f321
df6f
b653
14ee
e403
d91b
f599
e915
dd5f
e62e
e667
e37a
0c18
fa45
1688
002a
fc3b
1cf7
03a9
0413
0ab8
1e09
d5ad
ef6b
c34f
0108
01bb
03b1
f8aa
1cd3
ffa0
d0bf
fd14
0dd8
17c3
0a74
0a0e
07fd
15d2
0686
efc9
1156
cc2f
34d3
0d7e
2507
1fef
0255
ee72
d8f9
16cd
f2ee
c577
f5a1
f61e
f4c8
f98d
f365
f457
f534
cf02
e2be
e74f
1327
077d
0580
cef3
f6ee
01c0
040e
02f6
23c5
0239
247f
122c
0801
03e3
f37b
12db
fb37
07b1
0a46
d522
fca6
1f0b
e185
170a
0f0f
e127
03cb
f053
ed61
f053
049a
ea61
fab2
119a
f81d
d770
055b
0471
04a2
0f9c
f862
1293
f578
f070
0389
e0c8
30d8
2953
0e37
0d90
1790
0cfa
f503
e378
ff12
f7ca
db15
004b
0fbb
11d0
f941
e54a
14f1
df7c
0bb0
0077
e66a
296f
ef80
035c
1065
03f0
1173
fd14
fb34
112b
fd04
f1db
fba3
ec58
d9ff
0c76
ffba
ea16
f21c
05d6
fcab
0f4d
fd07
ee40
fa33
ef0c
110b
2322
0a5b
ffc2
1892
0265
074e
2451
f4ed
0894
f894
0471
f0ee
ff53
0623
ef2f
0ec5
e706
1f19
fbd3
04be
2006
2988
2f1f
