01ca
0066
ff0c
fd7d
00bd
fc86
000a
fd36
00be
031c
0375
0253
fe9f
f8f3
ffe9
ffa2
0385
00d3
ff50
fe85
fb63
02ee
fe6e
009d
fe8b
0810
0594
0008
fbe9
fa4e
fe06
f8f7
03cf
02e3
fe38
0094
0005
fe35
fff3
ffd9
fe28
0434
03b9
0380
03ae
00dc
fcdb
00b4
00a1
fa51
01aa
07f6
fe33
0421
fb83
fd1f
fd61
fc3a
fed1
fd28
fe88
fb48
fa91
0377
fb79
031c
0258
01c6
0178
f9d0
058d
fc90
fea6
021f
ff63
fbe1
04aa
fdcf
fe30
fec3
fbed
fcc8
fc70
ff4a
fe94
fc6e
01da
0182
0243
0133
fdb6
fb3b
0271
fd18
0279
fcac
ff5c
fcd0
0778
fc6a
fbe4
0285
fd91
ff14
0285
0230
0197
03c5
fceb
046d
0644
01ed
f9a6
0482
fdc9
0309
fdbe
f9b4
02e9
fd64
02fa
00ab
01ff
fd5f
ff12
ffa5
0125
faea
fe0e
fdb9
0592
fe44
ffa1
02f8
fcd2
070f
fe72
01f1
fe32
0356
004c
ffa4
051c
ffd1
ff89
03c3
009b
00c8
05a4
fd07
ff77
ffd4
fe74
feca
0338
050b
feb8
018c
fccd
ffa9
ff05
003b
003e
fed2
022d
fee5
039a
feaa
0203
feae
fccc
03fd
0646
04a9
fbe8
0130
0480
fdf7
fb90
feb8
fa9b
fffb
0049
ff2f
feb0
054f
fde3
fa41
ff5f
01d5
fbf3
fbda
042f
02fc
035e
0041
fdfa
fefc
ff4f
04d1
0044
febe
0501
00ea
fde3
fd67
fde7
fda1
00e0
03c8
0162
0046
ff17
fec0
05eb
0268
00a0
fb83
03a1
fd54
076e
fe7c
fde5
ff97
00c7
ff3f
fe7b
fbbc
04c2
0637
0248
ffe2
01be
0548
fbe4
0347
fefe
01bb
fd27
0046
fcbd
fc8a
ff0c
fd15
021e
04fc
ff98
fda1
00c6
02cc
fd82
fc6f
016a
0011
0342
0623
fe77
00ee
0174
ffaa
001b
fd2a
ffca
0114
fdfb
0126
07db
0690
02a1
f81b
ffc2
0211
fd77
fe20
ffe4
00ad
fda5
0297
ff02
00ac
02af
fd0c
003b
fff0
062c
fd75
fff6
0999
018e
ffc5
fb81
0801
fc68
02cb
0141
f8fe
ff72
fb1b
ff49
fd4f
fccf
0252
025a
fd17
063e
fc9d
fce2
f9c4
016e
007e
03a9
061e
ff89
08c4
00f2
fe6b
0102
07a5
ff62
fda2
00cf
02c9
0267
0019
026b
fdda
0021
fbb1
01ec
0377
ff22
f865
00fb
000c
ff05
03d9
0181
fc7b
fe13
03de
ffc5
02a1
07ff
0020
01cc
02c2
011d
ffb9
0131
0290
fd12
ffe0
fc68
02ff
feb6
032c
013c
fafa
0762
03a2
fedb
08ab
02f1
fe23
006a
f63d
ff94
00fd
fcb3
fcba
ffe4
fd4d
02e5
03bd
012e
fe24
03d9
0130
0115
03af
fe3c
fcbc
fd61
00a1
0043
fd94
fb34
fddd
0284
ff2b
fc05
03ff
00a1
057e
fefb
0122
feb5
0403
ff83
ff53
ff71
fa34
fd67
fc77
0618
0078
04a9
fd15
fec0
fde5
01d5
05dd
fcad
fd46
ff4b
0097
fe84
ff48
ff25
033b
ff48
fa1d
00d7
024a
0117
0251
01f3
0437
00e8
fbac
0269
fedb
0490
fff9
fdd7
000c
f831
ff58
0541
000b
0183
fcd8
fcc1
ff8f
fc0b
fe77
fe22
03a2
fc30
00e7
0193
02d4
ff09
ff07
025d
ff89
f70d
fd2e
00c4
01dc
fcbc
ffed
fd0b
fec1
ff5e
0036
022b
00c3
fd33
05ed
0020
fe64
fd60
0522
0405
03ae
01bc
04df
03a9
feca
010b
067b
ff9c
fdab
03ed
fb8d
00c8
fe82
01c6
0019
fe32
fae6
fbd3
ff71
00c7
f6ff
0312
087c
fcd6
ff6a
023d
fb09
fbe3
ff52
fe12
0206
fcb2
043e
010d
032d
01b7
0257
0200
010c
fe1d
03e4
0252
0063
011d
fe2b
fe99
fb46
ff2b
fdac
02e2
0283
03e7
fffa
0275
fa9f
fd31
0156
ff0b
02c9
01b3
fde2
fd16
0071
0081
fdff
0152
060f
03c3
ff58
fcaa
01b8
fcb2
fe97
050e
ff33
03a2
ff72
fbfc
ffa8
fb11
fd34
0106
fc60
f722
ff27
fd8b
f7ae
ff4c
fb19
fdb7
0101
ff6b
009f
fcf8
012c
0431
f9e9
fec8
004b
f9ba
fd7b
fe16
fd09
070c
01b0
fae5
02ff
009f
ff5c
029b
0226
025e
0568
00cf
fe30
fef5
fc37
03bd
fe64
029f
ff4e
fe34
feec
03fb
fe74
0454
fb84
fde5
01f1
02f4
ff9e
ff94
fe69
0318
0061
0220
0094
fe4b
0320
0255
0268
0852
014f
018e
0160
fd5a
ffd4
0434
012c
02ed
0299
00ba
fdf1
03c3
00f1
fca2
fe32
fe34
0109
00f9
0535
fcf9
fcd3
03f6
075a
038e
02f4
0560
fe2e
01ab
ff04
0192
fb4c
fddc
fe5b
ff24
fd3e
f99d
032e
0159
fcc7
04b5
ff80
ff5d
0061
fd0c
0206
fff1
02f8
fe86
006e
0072
019c
fdb5
019f
0108
0400
ff24
0809
fd16
fa86
f910
feb8
0120
0185
fc20
fae1
fca0
ff8f
ff62
ff2f
ff81
fc2a
fc39
fc51
fe9b
fc1e
fbe3
fd11
fd4b
02c6
0667
f8e7
fc6b
0389
ffae
0213
ffa6
ffb2
03b0
03f4
0095
0010
0328
fec7
f9e9
02ac
0672
03ce
018b
03bd
f693
04c1
feb3
f9fc
0071
00dc
031d
fcf6
0112
0146
fe7f
fed2
fc93
00d8
0627
014e
0065
0260
03d3
003d
0095
fd29
018d
fece
036a
fe14
01f3
01a9
0148
0105
fb20
fe6b
fef8
0178
fbc7
fec2
f8b3
fb71
fc6b
0161
012c
fd52
fd79
06d8
fdd8
022d
0098
fde1
faea
02f6
0177
0023
011c
fd60
0050
028d
fbb7
027b
fb6f
028f
0286
00cb
02cf
004a
02f7
03de
03cb
fe6a
