030c
fffe
016d
ff4a
0139
003f
ff6e
05ab
ffa5
00f1
0436
fe0a
fce9
fe05
0258
fda8
0101
015b
fe48
fbee
0226
ff61
01b2
ff46
0464
fd4f
fd3b
02e4
000e
0218
013b
02c5
ffcd
0704
ff14
fb5f
0240
f7ae
03f4
0192
ff30
fee6
0137
022a
00af
fc61
025c
fb11
fefa
fff7
0157
0151
ff1d
ffef
f9fd
fbac
0086
ff1a
fce2
fe9b
fc2c
000e
f9bf
0468
fde9
02a6
0451
fff0
038e
fabf
0228
ff23
0204
0009
feca
0234
00e6
03a9
0307
ff54
0509
fc37
0305
0525
022e
058a
fd56
01ae
0444
0026
0682
fda6
fad1
00e7
02c2
ffb6
fd50
fa8d
004c
01ba
ffdf
fbaf
fce6
ff56
0126
0134
fff8
0496
0084
002b
027a
ff19
fe4d
014c
ff23
03d1
00a5
0049
fbc8
0036
fab8
fd2c
007f
ff3a
fd30
0482
fab2
0618
01b0
051a
ff43
075d
03a3
fc81
fddb
04c0
0124
fd65
fe21
0325
fb93
fafe
fcc0
01d8
021a
facd
fd44
0024
03f6
fc25
0279
0532
00ed
04cb
00a5
005e
0578
0274
040a
fdab
00c3
02cf
02a6
fef7
fe64
fc26
03ac
ff5a
fec3
facd
02cf
00f6
fd86
fb7e
0114
0081
ff0a
018c
01fc
fe6a
0274
fe53
0372
fcfa
0130
0094
fef1
006c
fba8
fc4e
ff20
0090
020d
009a
ffa9
01ae
fb0f
ffe9
042b
fd67
0426
fc2b
ffc9
fc91
013c
fb6b
ff3a
018b
ff1b
fe5b
fc50
fb9b
05a5
01a3
ffce
f78a
ffdb
fe6e
f8ce
03c0
018c
ff7e
ff50
ff54
0190
003e
047b
0208
ff86
0048
fd89
f6ff
fc6d
001f
ffde
021e
03d3
021b
001b
09a5
fccf
ff45
0092
fecb
fe94
016e
feec
fc53
ff0d
ff33
fa7f
049c
000d
fce4
fe81
013b
06d9
02e1
02c4
0498
fc2c
0148
02ee
feb0
0305
fd0a
fe8b
0083
fda0
01bb
fee6
fed6
f85b
0000
0048
0323
01ae
ffea
00cd
fffc
0317
033b
fee0
009b
fed0
0155
ff86
033c
fa11
fea8
fc6c
fe57
03ea
fd66
0004
f8f1
f7f9
fe4c
fe61
023d
0276
02f3
f98d
ff8c
fe3f
ff51
0221
f7d7
002a
00ce
00a0
fe3a
01a5
0187
fff3
0224
03a1
004f
fed9
fd50
0107
ffcc
01e9
02fb
02c5
fd40
0390
011e
fe3c
020a
fdef
0519
01ea
0376
fe70
0188
fb92
fb3d
fd3a
035e
fee7
00fa
0352
fcd6
0190
ffcc
ffee
0135
fd89
0050
0274
01e4
016c
fca5
00e7
043e
fb5f
003d
fe5c
fa16
024a
04d1
0818
0088
05c5
f978
fd5c
00af
0213
001b
ff65
fc58
ff37
021f
04e1
0035
0161
fc51
04d4
01e9
02e6
01a0
0131
fc74
fb35
01c9
fcc4
fc2f
ff5e
fe72
0054
02c9
fe53
fcd1
06ff
03d9
fdc0
02dd
0645
0640
ffd1
fd43
024b
0228
f738
02d9
02b2
06be
fe9a
fc1a
057b
fed0
fe93
fbb4
fc88
0713
ff2f
f9c5
fc1c
ffdc
fd7c
fe20
04ee
fc55
fbd8
fff4
07b7
fdd5
044b
02d6
01e1
fe36
020f
01c4
fa6d
007d
fb1f
fe87
012e
fd77
fe5a
faa7
0298
000e
0527
fefa
0372
fd96
02ee
019b
0545
fc59
fd83
fe1d
fe63
fda9
fafb
03c9
fd65
0093
fe56
feb2
fd65
032b
fbb6
030c
ff8f
fe17
fd51
fa12
fcaf
0101
fa1f
fe27
fbdd
fc07
0068
fb15
fec6
fb77
03fe
f8eb
fd1a
ffc3
fbdf
009a
052c
fa99
0127
0633
f9b0
fbe8
0034
003a
0003
009f
ffd4
ff2e
fd3a
02e1
0313
0007
ff15
009a
ff2b
ff79
f85a
0025
fd58
01d9
fc70
00c3
0246
ffe0
0169
0138
fa5b
fd83
fdb3
05ae
f887
fe2a
fe8f
fe6c
ffe8
fe3c
fcad
01cd
f8f9
0277
016a
05b9
fc6e
f8b6
f96d
fb22
ffd2
025a
fee5
fcc5
011a
fce3
00a5
febf
fbf9
fcca
fda4
0433
fd6f
fe55
fd97
fd5d
ff9d
0056
fd95
0092
feee
fd9f
fada
034b
0133
ffc6
fded
fea7
04e2
fd58
0284
fece
fb26
0022
fd5a
fad8
007e
010b
0486
0105
01e3
fb07
fead
f917
06e7
fe95
02d9
0049
fc32
027d
07f4
0567
0339
fe23
0273
0510
02cf
fc15
fd13
fcc5
01e2
f8c3
fe40
faed
f587
fe66
ffad
ff3e
01fe
00ba
00d1
002e
00ab
ff25
fdfa
0400
fda3
02ab
027f
037b
0025
fd27
fffa
044d
ff2d
007a
01f0
01d5
f8ae
0427
fe17
fdea
00ba
fc06
fa61
0422
fb5c
00de
0054
0273
fcfd
00fc
ffb4
ffc7
fbbf
feee
0453
fd4d
fbd7
fa6d
fe50
fd76
fe76
04d2
fa6d
fd76
fc7c
fd7a
fd9e
015e
0118
005f
ffa4
ff2b
062d
fae7
01a3
fd51
00b4
0294
fdb0
01c9
ff9f
05b0
fe16
0034
0336
0000
0163
fcf5
fea7
0230
fc72
f7c9
fae2
016a
fad9
0249
fc31
02fa
019b
02c9
0142
0233
00fc
002d
fe36
006f
fd78
0000
fccf
0235
fde5
fc65
063c
fb27
0047
00d7
fee3
ff1d
fda5
fca7
0093
ff2b
0068
febc
0632
0107
03e5
fb94
016e
fdad
ffcb
ff50
0142
fcc5
f87a
005f
01c7
fedb
044b
ff1c
fc06
fd4c
00e1
ff0c
0095
fe16
fa4c
01c4
fe25
fade
fc35
05a0
ff55
ffef
0523
0123
fee0
fe71
078c
0283
fd4c
0023
0368
00db
fd17
faf0
02d5
fc41
086a
fd50
0159
fcc9
ff46
0500
04da
ff69
020f
03b8
fbc6
ff01
04d5
01e1
fa54
050b
0225
fa58
016d
03d2
0202
fbb4
fd28
02a7
fd3c
fc09
00f7
042c
