059f
0119
fde2
0300
026a
0259
0650
fd70
ff99
fde6
fef9
008f
04ce
0207
0207
ff23
04df
fbbb
0456
ff0c
0011
019d
0206
f7cf
02ec
fc7e
fe96
fecc
0085
02a5
fef3
ff77
002a
04f5
0076
feba
f80a
feec
ffe5
ffe8
00c8
0182
047e
fe13
fdd3
031f
0712
fc39
0078
fa79
024e
ffad
ff16
fe69
0095
0554
fdcc
0046
feb2
00c7
0045
fdf1
fe7e
ff39
fe91
00c1
02ba
fdd8
0002
0164
f9cc
01d6
0332
0080
fe1e
030a
ff99
fc16
ff39
fd7f
0462
f94a
fe6f
05ce
fe09
ff70
02ae
feb7
005e
fadd
ff26
0110
0091
00e8
ff6c
ff3e
0546
0340
07ad
044b
037f
fed0
01fc
0115
02c4
03d9
0712
0404
fb5b
0795
0258
0378
02a6
fbe5
01bf
0834
03ff
fdc3
fd32
0565
ffd8
fe22
fb4c
fe18
032f
059b
0316
fee2
fe17
fb51
024e
fb8e
fa52
ff86
fcae
ff37
0147
00cf
01a2
f969
ff98
fead
00fd
0110
ff2a
f711
fdf4
038d
fd41
0223
ffa1
fc94
004d
0143
0387
fcb9
0186
fede
fc72
01db
00f6
ff1e
04d4
fefc
07d0
ff2a
0690
054f
058c
00b6
ff17
0b5c
014c
061b
0150
030f
039d
fc55
0184
f962
ff97
f9b7
ffb7
fb7b
fe8e
fa38
0097
00d1
ff37
027f
fca8
00f7
ffd3
021e
0389
fbe9
0293
ff02
ffcc
0154
0175
fe70
04f7
000b
fffc
031e
005c
fe1a
fea4
fbef
ff3f
fcf9
fffd
fe14
fb7b
fc4a
fac7
0039
020b
fc9c
008c
0163
0087
05e2
fb65
032b
fcb3
fe7d
0252
fd70
035d
0232
fbb1
fef3
020d
03df
023d
fced
fd54
01af
fd28
0518
ffa2
00ea
ff8d
018a
fc18
fe97
fdbe
fe74
fcf7
004b
003d
fc8a
fd70
0372
fea3
0034
f493
003a
fd49
fd9a
fe1c
039e
01fc
02b5
fb4e
f995
fbb7
04c4
028f
ff03
0101
ffdf
fbde
ff8b
fe9f
00ff
fdb2
076b
0139
ffba
067b
fc36
fa0a
fb49
01c5
fced
0167
044a
04ec
0063
fe88
06b6
fe06
fde1
0231
fd68
00d1
00a7
008d
ffd8
0257
04d7
01d6
04ae
02f2
fe7e
0059
feb9
ffa2
ff8b
ff06
0432
01a7
fba6
fb94
ffa6
015b
ff9e
0051
02a8
024f
0081
fec5
0013
fe06
ffdd
fec7
009a
03a2
fdfc
f953
018d
fde6
fe6e
0095
fc18
056f
06d3
ffe8
00c3
fd06
0249
fcfa
0030
000d
02f6
f910
02c7
fd2f
fc9e
00c4
fd4e
ff59
024e
fd0d
065f
0270
fb43
084e
fbe2
f761
fac5
011a
fdcb
01a3
fc19
fcd2
0187
fba8
083a
00f9
0796
0073
ff62
0318
fd28
fba8
ff5c
fd77
fc69
00bf
04b3
0110
002a
00cb
f9a1
fc99
fb24
facb
0137
fbe7
ff27
fe9f
f984
ffb8
0497
01ec
fcb8
fe77
04c5
fbf6
fab8
043b
fbbb
022b
03cb
0594
ffd5
ffcb
0268
03ac
03be
fdf1
03ea
fe0d
0333
fd63
00b3
008b
fc83
fe3c
034d
0188
0035
fd84
fe78
ff65
035c
0179
061a
017b
0050
034a
fca5
01e8
ffc2
00c1
feec
00fe
030e
fce1
0148
fcd3
fac4
fccd
fc25
0661
035e
0811
032c
01b6
0315
fcbd
feef
0438
05e1
fae0
ffc0
0381
fa46
02e7
0bba
00c6
0160
fdd7
0447
02f8
fcfa
fb12
ff5e
fbd7
fca9
fc4f
fde1
feb1
0053
0057
0153
00c7
fd3b
fdba
0121
ff9f
ff2b
fec3
fdf0
fba9
fd56
04d7
0416
0099
0507
fea0
ffd1
ff82
0267
0332
ff25
fff0
045e
0094
01b1
fee9
ff87
0945
03b5
02a8
007a
ff8f
0756
0790
fa61
ffd1
04a3
01b2
01a1
fb9b
0414
fee0
0168
00f4
ff6e
fefd
007e
fdcc
ffc2
04e2
021a
feb6
fd5c
ff52
fdca
fcb1
fef2
0420
0155
016a
fcaf
026e
0209
fdd6
fdb1
fd0d
fdff
fdbc
ff0d
02c1
fd55
fe82
0211
0221
feed
02c2
038d
01d8
fabd
fd6b
033c
002d
fd5a
0513
0126
fcee
0151
01e5
00d6
ff0d
fc77
fd95
ff47
ffb7
fc95
ff18
fab5
0107
fdfa
04de
ff9e
010a
02d1
fa8a
fdb4
fec2
fcd9
fb9a
fd5d
fcbc
fe0b
02ba
01cb
fecd
ff51
fb38
008b
00d6
0645
03ac
0104
00fe
0276
ffd7
fa8c
fef5
0123
ff3a
fdc1
fe82
0220
fe66
fc70
fd1e
05bc
fa04
ff11
01f2
010c
03c6
03dd
0355
0161
fdd0
0570
0271
0306
f9f2
046c
0396
009f
02fb
febd
fd9e
0432
001e
ff93
f97a
01da
00f6
fe45
02de
fe1a
00f3
ff0a
fb83
fabc
0247
01ec
058d
fb4f
fcb0
01f3
ff2c
fbce
06c4
fd1f
00e8
0415
ffd1
fe15
fdc4
f991
fe6d
016b
070a
0007
000f
fb46
002e
00ea
02b7
fec4
00df
fff6
f988
0572
0514
fd23
020b
01d7
fe5b
fdae
02c1
fda9
feed
fd66
fa68
03eb
fd85
ff12
0357
fd57
f990
01ba
00ec
fde7
0602
fc72
0648
0142
022b
fff4
fc9c
0007
02cf
ff32
ffca
0198
fc1b
fef3
ff45
fb7b
0768
0227
044a
0331
ffc3
ffe5
fc66
0361
ff27
0130
014b
fcaa
060f
0202
01c2
00c8
024f
03dc
fff5
00f3
fed0
030a
01a3
fbef
010f
03f4
000f
ffe5
fddb
fd44
0379
fbd6
fc64
0057
fef8
fca6
03ab
fc8d
03ec
036a
fef5
08ee
045d
fd5e
0397
01d6
011f
00f5
00a9
017d
fea5
0418
fbd9
fd03
fc9d
fecc
0601
01d2
fc7b
fed4
00e0
ff79
0014
007a
fe63
feed
fe4c
02d7
03fb
0618
019a
fbe9
