ffe9
043c
053b
0645
0251
0173
fe45
fb80
0296
fcbb
024a
fef3
ff17
03a2
ff1c
ff02
fe96
f895
0222
0407
fa13
fb88
fc58
fc69
02c7
006a
fcdf
ffd6
024a
0604
fcf7
fe68
0057
fb0d
fe5a
fedb
031f
ff23
faaa
060f
fb64
fdbc
0066
00a9
01ea
ff59
0202
03e5
fd1d
025c
018f
03ba
fed2
fa9e
0186
fe4d
0205
050d
012d
00fc
fd03
fbdf
00f5
ffee
fc02
fd27
fccf
fb53
0655
048e
0537
04d3
fd99
ff37
f585
fe7b
ffc6
fe32
fac2
feb4
03ce
fef4
0095
024a
fe37
fb56
028a
000e
0183
fdab
fd96
fa3d
fe3d
0274
0199
00ba
0472
fd2b
019c
fd1a
fc43
0192
fa3b
0038
0070
fd95
fb84
015a
feb0
01d2
fed2
037d
ff50
fc26
fe92
fed7
fff9
0231
ff92
febb
fd17
fe95
f9d4
fe1c
01c8
0598
ffa5
fc0c
ff6a
02ec
0014
fe79
01fb
fd26
fd4e
fe55
ff96
07b9
fee0
05d4
ff0f
fd7c
0068
fe96
02a6
fdc5
fe6a
ff22
fdcc
fd8c
0084
fe56
02e3
001f
0186
fa9c
059c
0098
0117
0647
0038
fe57
fdd2
05d9
fdd2
fccb
fbc1
fae4
025f
fd30
009d
06d0
01c1
fb97
04fa
0134
0166
fdbf
fdf8
fa91
fbd5
0531
fde4
ffa1
00a7
0738
feaa
014d
f5bf
fe1d
ff70
fb00
fd26
023b
fad9
07a4
0798
fbe9
0263
0106
feac
04b7
ff7a
0268
fc67
04f2
faab
ff38
04c5
ff5f
fa4b
fd85
004f
0499
0433
0114
fb16
00c3
004c
02e9
0275
fdba
0317
053a
03cc
0381
fa5c
ff0b
0358
00b8
ffc6
00d6
004e
fdb0
01d3
062c
01f2
ff18
ff97
0118
0362
01ed
ff71
02ef
0733
ff67
fcaf
0266
ffe3
fc7b
02b7
0212
ff39
063c
050b
fdfb
fef6
ffea
fec0
028f
0170
00b7
0071
058b
02e2
fed2
fe03
fe4c
0098
0011
feba
01a8
ff04
ffdf
0393
fe6c
03d2
fc10
0188
fd88
0265
f89e
0127
0067
ffaa
ff59
fc48
ffe2
fe7e
fc04
024c
06c3
0022
001c
fbaf
06b1
fdf6
fe40
03fe
00b7
fe26
f90e
04e9
fff0
0089
fc81
fc57
fa25
01e5
0117
f7d6
f8be
faca
fdb0
0552
fd3f
ff42
fef9
0208
0057
002c
0087
03a5
028d
00c4
0048
0232
ff57
0291
00b2
0219
0267
f9e7
ff4f
fe13
fb67
fc87
0627
ff72
01b3
fb1f
0159
00e6
0387
0262
01c7
06a0
fad1
0475
035a
ff17
00e7
fe6e
021c
fab3
0112
fd28
002b
0428
facd
02d2
015a
ffcb
fd68
fd13
fe6d
fb0d
ff03
fd55
05ac
fbc0
fd80
fee0
00ae
001f
ff77
04ea
fcea
fb6b
0294
01f9
fae3
fc17
0406
fdb3
04a9
0194
ffad
fd40
fb96
fc56
02a1
feeb
0369
fcb1
0563
ff27
fde3
0727
ff9f
fe25
0553
0217
febf
04ba
fe52
fee1
fd62
fd2e
01b9
01d5
0060
0383
027a
f863
fcba
f9fc
0482
fe98
03c5
fccb
0175
01fc
fbff
fcf3
ffe0
02e9
022f
f9ce
ffb5
fea5
00b4
ff01
0030
fd1a
035c
0060
0316
0204
0252
fe76
0021
fec0
0091
fb29
ff52
fbde
fe95
0356
fd62
fb9d
fa6a
fa77
0181
fdb8
fc7a
015c
0186
01bc
0080
0192
00d4
00ae
0234
0219
0081
0492
00b2
feae
fe5d
f933
034e
0023
0479
0242
013e
feff
0274
0645
fcd9
fdc5
fc60
06ee
fe78
f8c6
006b
fe79
0148
0076
0004
035f
ff51
fd6a
fbe7
0600
0404
01b7
0009
0065
f9ed
ff5c
ff6a
00c7
00c1
02f6
0288
0180
fe06
0197
0232
03c2
fb46
ff2c
01e5
0103
fc70
010b
0411
fda9
02e2
0494
ff1f
ff8f
0582
0415
fb6e
fa53
fa5e
ffb3
ff3c
fb0b
fcd2
f74b
01e5
0206
ff68
0132
04a7
00eb
006a
0085
003d
fdd0
07b4
fe41
053a
0116
ff99
fe09
0321
0337
fd3a
0227
01a9
017f
f60e
043b
fe1d
006c
0097
fdcf
059c
feda
ff47
006c
ffa6
04aa
01a9
01fe
fb4c
0382
f788
fc9c
0094
0766
fcdb
024a
ff9d
027c
0125
063a
ffcd
0110
ffad
0574
fbda
0094
04a0
fd06
fbd7
0076
0095
03b8
fb69
ff75
055f
ff89
0628
0151
ff3b
0462
0155
fed9
ffab
001d
fac5
fbba
00a1
fb14
00c0
065c
0245
f930
0293
feb6
ffd0
fd22
fee4
000f
033d
00d7
0141
fcd5
fd5f
02dc
fb1d
000d
ff51
0060
025d
053b
0280
fd97
05ca
00bd
019f
04fd
fd37
fb71
fec9
0266
0063
ff11
ff97
027d
03c9
0286
fe8c
0460
0287
fde6
feb1
ff79
f9af
ffac
0156
ff47
fe51
025b
0098
ff12
fa99
fcd8
02ad
fe6a
0515
02c2
0143
01f9
f8b6
ff62
05e5
053e
0027
017d
009f
feba
ff84
fd6d
f77c
0398
fff5
0078
02bf
fd74
042a
feda
f928
fc2d
0009
051a
06c0
fe94
00e5
fd1a
fff1
0401
024e
fb1d
0016
00aa
fe11
fdc5
fe7a
f7f9
0021
ffb7
ff83
0204
ff17
0402
fb94
fb23
fef4
0140
fd89
020c
fdba
07bd
018e
fd3d
fef9
003f
03e2
f93f
034b
fdfd
0107
037c
0133
066b
0724
fe01
045c
ff41
0061
ff9e
017f
fa13
fe48
fb23
0212
ff48
fd3c
ff6e
fcc3
ff93
fea9
fec4
01c2
fbfa
fdd5
01d7
fd35
009d
0063
00c6
0128
fd67
00a7
0288
fdcd
047d
00e0
ff00
0080
f863
0056
03da
fdc7
ffee
fc8c
04fe
fd08
fc62
0192
00aa
fba2
018f
fc38
fac1
076a
fd72
0295
