000a
0367
fcce
005f
023b
02f7
05cf
01f4
0135
f95f
0162
00c0
ffc2
02d6
00f7
0110
fdc8
04dd
fb79
0246
0068
ff05
ffbd
0662
00e9
014b
f607
0061
01f3
fb86
027b
04e7
0024
fc62
fb8b
fc81
004a
fa93
0179
02c6
02be
fb1b
025a
fffd
026f
08a8
fbdd
03b5
015b
0290
017c
fcab
faaa
0142
020b
04a7
fe8a
0020
0376
0198
fb85
0244
0271
060a
0588
fc09
fdec
02d6
00dd
fc12
fd56
fd3a
0346
0353
00c0
04f1
031d
fb71
049c
faf5
056d
01bf
ffd3
fd27
0184
fef6
fe6c
01a6
003b
ff64
fda2
00e7
fd75
00f8
ffe6
04a0
fdd9
022e
0104
fdbf
057f
03a2
fcd4
00b7
fe30
ff9f
fbef
0150
fff7
003c
01c2
fddc
02c7
034a
0281
01a8
062d
0448
fbbc
002a
fed2
fd15
02be
029c
01b9
fcc4
ff4b
017b
01ae
fda7
0552
02b0
02ec
ffc2
036a
0260
00ad
0079
fe55
ffd9
00bc
043a
fba5
ff94
fda5
fb5a
ff6b
06e3
035c
fb2a
01da
038e
0242
0115
ff54
00b6
045d
fec7
f9ef
feb6
03b3
00fe
ff8c
00ea
004c
fda9
f8e0
fd0b
fe02
00f6
fea5
faf6
fcce
ff62
04c5
fd14
fcdd
0113
ff36
f8db
f9f2
fff1
075d
f947
04d7
0003
0269
0126
056f
008b
fcde
0046
fdf3
038a
0138
fefc
feac
ff86
fef9
ff7c
ff8c
0271
009a
fc2d
f8ff
0204
fb16
00c7
fdca
0342
ff80
029f
0459
0337
00b0
0029
04e5
ff51
0297
fdd0
fc2d
fefe
ff1a
012b
02d7
00b6
0352
021f
fcac
0382
ff93
f6fd
017c
0046
fd9f
0823
00e8
feda
fdf6
03ad
046e
02a2
fff7
029c
fee9
06a8
f9ae
0341
fff3
fe58
fb8b
fdc3
00db
febd
0000
fbbc
ffcb
fdd5
01c4
ff10
fd08
fc4b
0118
0037
0236
fd0d
0235
fbb6
053d
01f5
0027
0433
fd50
fbdc
fc15
fe31
fea3
fb49
0024
0153
042a
004b
016e
03af
02ec
00ac
0005
052f
fcf6
fc7c
ff89
01cb
fda8
01d9
ff55
07e7
fdf9
fbb5
032c
fb57
fb90
0430
0288
0121
ffca
02a5
040e
ff44
02cb
fd90
fe6b
02a4
fe1d
fe23
01a7
f7fb
00f1
f7ca
fe32
ffc0
fefa
ff15
07a8
03ae
0254
0491
ff4d
00b1
00f2
038f
fb3a
fe62
0224
ff60
002e
fc31
0107
fc06
0111
fdf9
0061
ff0e
fb8f
fff7
0430
f8ee
ffc4
ff93
025c
0189
0102
fc89
ff73
0038
02c1
fa2a
fd9e
0126
05bf
fff6
0453
017a
0174
00fe
fcc8
fd1a
fb24
006f
04dd
ff7b
02c0
03d6
fa09
0148
ff2d
fdf1
0304
ff9a
fcad
050f
013b
01ac
0156
0418
03fe
fd14
fccf
0122
fa65
fe54
0073
fe05
015c
fc38
0302
fd98
fcb1
fea6
01a4
ff09
fa72
faa1
00d1
0279
0204
fd11
01d2
0010
fde7
014f
02d7
0264
0389
0555
03a2
01b0
01ea
fb2b
fbcc
0248
fd92
fc17
fe8d
0385
fe7c
fed9
0409
fdb5
01db
00c3
00ff
fc4d
04c5
037e
00c1
fc5c
fcd9
fb2c
05ea
004d
fdfe
0172
0049
ffdc
0004
0011
fd6a
00b7
020c
01c1
0517
0206
031a
fedc
030b
fdfc
fa82
008b
013b
fea9
0208
ff4f
ff4e
0050
fd51
fd69
feea
fec2
0475
ffab
fb14
0016
f8f8
ffe4
04c4
fbf2
0283
fa9b
01a2
05c1
0301
fcde
010b
006c
fb34
fe80
ff2f
0467
fe8b
030c
01a5
fc16
fd69
02d5
0040
fe2c
ffc4
0316
fe87
0425
fccb
fcb3
00bf
01ce
ff2b
ff72
ff1a
0568
032c
f75b
0220
fdd2
0485
fa6d
fbf2
0269
0006
ffbc
fe31
ffcb
f992
0122
fd73
05ad
ffcb
fbde
fed9
fd67
0127
ff80
ffcc
00a9
05c8
f977
fb74
00b6
fddd
00d9
f855
fc4b
ff85
03f7
01df
001a
ffff
003d
01cb
ff6e
fdb2
06a5
021e
0293
00dd
fe78
0465
0056
ff58
ff65
ff4d
02e9
04b6
fe3f
ff11
fd0e
fe6a
00a8
003e
02b7
00d6
fd4c
fdc0
0204
fb6b
ffc9
0013
008e
03e0
f812
ff19
fe50
fcac
0078
fdf6
fa83
fe2a
fba8
fe44
029c
fdb1
fd51
024b
0100
fdca
026e
fe15
fe5f
f97c
fe14
01c3
fee4
ff3f
00cf
03a4
019b
0496
0112
fcfd
fea5
0141
0312
fdc8
0395
fb25
03d9
00ad
ff83
021d
020c
feb2
0190
076a
0188
0025
02c3
fb7a
0197
024d
00d3
fe7b
00a5
fd97
00b8
06a7
05a4
00e6
020c
fae7
fd90
fd84
fe53
fee3
ff79
0067
0441
ffa6
036b
01ef
0326
fb53
01b8
0032
0428
067f
05c5
0109
044e
fbf7
fef5
ffc2
0029
fcf3
0074
02c0
fcd4
024b
fcd9
fa6f
fd4d
fb13
0073
faaa
042e
facd
00e7
008d
0252
0431
03ed
ffde
0346
fdb3
ff3d
faf8
fcab
fcdc
007d
0211
0278
ff4d
fbcb
03ac
0125
f9f4
01ee
ff52
feed
ffac
ff15
02f1
fd8b
f913
fe9e
036b
fd21
019f
fb56
fd30
ff1b
fff1
fda8
fcf5
0000
0240
070b
0764
fea5
019c
0144
00cd
fd10
fdd7
03e2
fcd3
0309
03d1
003d
fd86
070a
03f3
0433
003b
ff3c
ff22
fcd5
fe73
019b
00d6
013e
fe80
fa49
fe51
01c0
0323
fee7
0362
039a
0503
0128
0538
03dd
0016
fd7a
0318
fe1e
0091
0242
00b8
0232
006a
fef4
01b2
01ee
00f8
0147
fd12
fe41
071f
fc73
fd88
01d2
04f9
fda5
fca9
fb06
fedd
00b5
fb0f
00b4
0057
fa87
ff61
017b
fea0
08cf
