032b
fc76
fb55
01ed
0259
061b
fc4f
0496
03c4
fcea
fed4
002a
ff55
feed
04be
009f
0079
fc85
024d
fe46
0228
000b
fcd1
0146
024d
0647
fc54
fa2b
fff6
fe06
006c
0176
02c2
ff70
ffdd
00a0
fefd
02c7
0129
02de
0263
0436
034c
fb54
0358
ff13
fa9e
ff25
fb38
fdde
04ba
ff6f
fdaf
0311
fbac
0592
0030
0397
02b0
0222
fc0b
ff5b
00ad
0299
02dc
02e8
03d9
ffd2
0448
00ab
fd9b
fd8a
fc13
fd8d
fd2e
fde5
fe1a
0355
ff65
fe36
fd77
03ad
0000
0153
0713
0036
0007
f887
02b0
0358
02b9
facb
fd38
0496
00cf
0273
0074
f951
fbc0
0192
fe92
00e6
00a8
0044
fdf6
fad1
025a
01ac
ff2d
001b
01fe
ff73
fd9c
016d
fd7d
0098
00d3
f9f9
ffb4
fac8
02d8
fa1e
fdfb
fcc4
0323
013e
0479
ff2a
f9fa
0248
fb8b
fa51
fa7c
fd71
03fa
ff59
febf
00e8
0896
fc71
fd9a
02f9
015d
fd05
feee
0391
0233
01cb
0105
00b3
ffe8
ff72
04b9
00ed
fe49
0300
ff5f
01ab
049f
ff4c
fea8
fdb9
0336
0016
01ba
fb01
fe79
05c0
0041
fa22
026f
049b
0033
038b
0064
016b
fee0
ffb3
fd10
f7fa
02e4
fe45
fcdb
019c
00aa
013d
fbba
000a
fc6c
0449
0229
fec0
ffcb
00da
062d
fffd
010f
fd12
fe77
01b4
014f
fef4
fedd
ffad
011e
fe8b
fbfb
0127
fae8
0000
05eb
03a7
fda8
022b
ff53
004c
fa91
0197
ff13
0531
fcad
025c
fd38
02f8
043e
fa7a
0311
057c
01d4
fe7c
0079
fe35
fe99
0114
fe08
f9ba
00a0
013b
0051
f6ff
ff02
feb7
fb68
fdb7
ffb8
0162
028f
0001
fea2
0643
ff5b
026d
fffb
01b1
0184
00ca
061b
03c9
00d5
fe0a
fc45
fdf3
0692
00b0
fd5b
0740
ff56
02b7
fead
fadf
01bd
fd76
fce4
fa81
0258
fcd3
fb91
fd4c
045b
04c2
fef7
0043
004d
fa98
ffb2
ff86
0072
024d
ff0e
0088
fe1c
01bd
fe2f
ffa9
ff43
005d
feca
fe55
03b9
fe47
fab3
fd21
00fc
f887
fb73
fdaf
0153
fb67
ffd9
00a7
04d9
036f
fe03
fd43
01de
00ba
ffaa
0351
fdeb
fa49
02d7
02bf
fe8a
fb0e
fb4c
fd12
fff3
fed3
0109
068e
fc86
fd55
fb64
fff5
fdfb
fd85
feb9
0494
01fd
0925
0119
04e3
fe0d
fd58
fb15
0198
06eb
fc47
018d
004d
fe34
0325
ff4f
fd93
fe68
fc58
fdfa
043a
03aa
0419
fe51
0200
0599
fde1
0093
ff38
0434
ffd7
fdd5
0543
fcc6
fc9c
01fe
0462
02c2
fffc
ff03
fd6a
0054
02d5
0067
05f7
00dc
038e
fe08
fcc0
0020
fc62
fef6
ff5c
fff4
0067
ff6b
fbfe
03e0
0035
0263
03ce
0117
023f
0234
011b
03f4
033c
01da
feb8
0152
0280
fb8a
0395
fefe
ff5f
00da
feb1
02e5
0278
fcc6
04a0
ff2b
035a
fbb6
008b
001d
fe9e
fd9b
ff4d
0387
fbb8
0137
fd86
fca4
fe2c
05ed
04c2
ff94
0288
01ce
060e
fc92
0098
00fa
0253
ff40
fc48
00dd
f644
01f7
fb73
fd74
feae
fe6b
fd28
fff6
009c
054c
fee6
0257
03ba
fabf
fd3a
009c
f8ea
01d2
fc8e
0159
02ee
fec3
fd2f
0141
fdf8
ff6b
ff45
022a
fc72
ffba
0109
012b
04c8
fb71
032f
fdaf
0205
0334
f8bb
fdc6
ffb1
fc02
0327
022a
fb37
00ba
fdc8
feab
fa42
0088
0222
0121
fb54
03ea
f962
027b
033c
fc4c
f709
fed3
fda6
fa7b
fe6e
fffc
03b6
ff56
03a8
026e
fb99
fec3
0249
0526
0016
0322
f9dd
ff41
00ca
ffc4
ffb9
0068
fb82
fffe
020f
ffd0
fd7a
feea
ffca
01ff
fede
faa9
fcde
009a
019b
027e
fbfb
0089
fc5d
fff4
fff4
054c
ff16
fa81
fcbd
ff6d
fcfb
fea9
008a
feee
fc6c
0219
07a9
0022
fb97
0046
02e8
fccb
fec6
ff06
ff72
fe29
fff6
039b
fbfa
fe83
00de
017a
ff16
00de
01ee
018b
fb62
0102
024e
f991
02c1
045f
fed0
f7f9
ff55
03d9
0144
ff29
fd12
040c
03c3
029a
00b3
0417
fb6e
fcf8
ffd2
fe76
fff5
fe60
010c
0787
00a1
fc50
fc4f
0585
041d
fb98
0053
fdd7
0072
fe02
0319
0252
fdcb
0114
07e9
ff47
04de
020a
fd02
01bb
00dc
fdaa
faa1
0250
015e
0260
03ee
023e
0327
0725
ff64
082f
0671
0196
fd98
04cf
012d
fcf4
0300
0104
02bf
0064
0284
fe62
0384
fd0d
fde6
040a
05ef
031a
0330
f6f2
fc7c
fd23
0551
02a0
0199
005c
fcff
0420
009f
02de
0121
0100
ff43
fe59
feaf
fd53
0079
f991
ff08
fa57
ff78
00d5
0173
ff4d
03dc
0000
ff0d
0050
fdc3
02b2
ffe9
0545
fd8b
02e7
ffed
fe45
009e
fa87
ffa9
fafb
ff85
0293
0453
fe7f
0031
fdf2
fd0b
0304
fa6d
fd2d
febe
ffe6
02cb
034a
0195
ff6e
fe42
fdda
003a
03eb
0418
08f2
ffdb
ff30
02f0
03c6
fb69
02f9
0207
0323
0033
00c1
036f
0030
ff68
023b
fde3
01e7
063a
fc94
040f
ff12
fcf2
ff69
0176
0596
fad0
0122
ffe4
ff41
ffd0
03fe
fec8
fc7a
fcd0
0459
fb7e
0133
fea4
0208
fd08
041c
ff0e
0292
00cc
fbd8
021c
ff21
ffbd
fe3b
055b
02b5
fd7a
0303
ffda
008a
00d1
fa33
0201
ff37
0025
0007
ffee
00cb
fecb
fdaf
0087
fc16
faf7
01a4
027f
