ff7f
fe93
0487
fbeb
0158
fe54
048e
0456
feac
fe6c
068a
fcef
051b
026f
0253
0018
0317
02c2
0047
ffbb
f7f2
0434
f7ee
017e
0181
0223
023e
fe6a
05a1
ff70
03f4
fe9c
fbeb
ffea
ffe1
feac
fdd2
fbaa
ff49
ff2e
0362
0326
0176
0291
fef7
ff1a
024b
04d4
fd5a
ffd2
fff0
fd06
fd40
01dd
0011
0172
fc4a
fdb1
0144
fd3b
0120
ff09
fbf8
ff0e
fdab
fdff
ff1b
fb0a
041c
fc02
0296
072f
017e
01ed
0001
fe1c
ffb9
fb6b
ff73
0895
fe05
fd87
fc06
0717
03fb
fff0
0217
02aa
fff6
fc0b
fad8
fbb0
04b2
fe3a
ff89
fff1
0134
fe8f
fd8d
0056
ff04
008e
ffe4
ff29
0025
015b
04a6
00cc
02d2
fc39
fd76
00cd
ff30
fde9
fd25
ffe9
fe0d
fead
02ea
fcf5
05bb
00bd
fccf
fc03
028b
fd3c
ff52
02a2
ff58
00e1
fee5
067b
ff2b
fb1c
01ac
007c
0346
05ce
037b
0524
ff6d
004d
01ab
0239
f81e
fc48
fde5
ff98
fd7a
fd37
fde8
0225
fe97
02a0
fde1
044b
fa8d
0951
fdd4
fcdb
032c
01b3
ff4b
ff4b
0024
ff38
fc96
039d
0071
ff9a
0392
fcf5
fb14
fe15
00e9
0273
fcb9
fe85
0395
fef2
ff30
fdcd
02e2
04a8
006a
01f8
01fe
005b
018c
fdaf
00dc
ff48
fecc
fffb
ff54
028a
0269
0531
019b
ff99
0211
01f4
0220
0643
014a
04f2
fdc1
fc9a
fef6
0260
028d
f8fc
0507
026a
feff
fe5c
00eb
ff81
07ed
02a8
fd70
ffdf
fe80
fcee
ff01
ffc4
018c
fff4
04c8
ffec
fb0d
0066
fcbc
04a0
0684
0042
fdbd
0228
01d7
0080
0267
ff29
03f4
0010
fd7b
fd02
00e7
f60a
03c5
fd9d
025e
fc6b
ffd2
0130
fd6d
fb49
fda3
0353
fea8
ffd6
00a7
023f
fcac
0172
f937
0196
02f3
fd61
fdbd
026c
fb7f
fdfe
0315
ff82
02e6
fed5
fb28
00ef
fd6c
fde6
feac
0060
fcc3
032a
0008
0374
017b
03ef
fc15
034a
013c
fe5a
0101
fea6
01a1
fed9
ff4e
002e
0670
0258
fd6d
fc0f
0280
fead
0207
ff13
fe5f
07ba
fde0
ff7a
faef
fb00
0111
038e
0358
fea1
ff97
005a
fb03
0602
fcde
fce9
feab
febc
0046
fce6
fef5
fd67
ff34
00b7
002a
fe5a
fcc0
02d5
f9f2
030c
0102
0063
0573
fd65
0507
fd09
0148
ff5c
0321
00e5
0121
fdf5
0100
0196
02bb
ff1e
02bd
fbb8
023d
fe11
0243
0247
0334
039b
01ce
018a
00dd
0094
0259
fed6
034a
0233
01d5
fc0f
0159
02aa
fcba
01d7
ff24
02f0
fd5c
fe48
fd2d
019a
0079
f922
fe30
04cf
0126
ffe0
fc3d
ff6b
fdd9
ff32
00a4
fbc1
01ee
f9cf
fc9f
ff3d
0348
0257
fa00
ff7e
0162
fed9
0139
00aa
ffa2
fcfe
ffad
ff27
01d3
ffee
fd9e
ffb5
056f
fccd
fee5
feb0
0755
02db
fafa
0126
009d
009d
fe57
fb67
046e
01fa
fd53
0287
fd9f
fb75
ffae
021c
fc8e
044c
fff5
f999
0115
0144
fff0
ffd0
0000
0309
071e
fa90
fbf7
02a7
ff03
fe36
01c5
0340
fa9f
fa94
fd39
04d7
0176
0275
fe9a
00ad
03a1
0402
03c4
06f3
00c0
fd99
fe03
003f
fc35
0300
005e
fb44
03c2
ffa1
0251
0106
ffcf
fe33
0159
fd3f
02f8
fe7f
fcdc
007d
ff91
fc3e
fe52
ff2a
0437
fe31
07b3
f810
0506
0084
ff4f
fdcc
00aa
faa3
0523
0098
fcf0
ff3b
fa02
fb86
0400
0364
ff4b
ff1b
fef4
fc4a
03ba
04af
fda6
fdd6
f8e6
fd64
031b
070d
fd43
051a
fa18
0025
0494
01c4
0089
0351
029e
0197
0477
fe4e
fad0
035f
0111
fce3
fd5c
05ad
fba1
fd67
feb9
fd07
fc4e
048b
048a
ff5b
01cb
03e3
0098
0349
0100
fdff
fd9a
f8d8
0290
fc9f
01f8
fb19
fa9f
01d2
ff8b
021f
063e
0170
022b
00b2
ffa8
fd53
089a
feb8
fe4f
fbc8
00d1
fcf3
fd6c
fd9a
0387
ff94
0274
0344
0084
02d1
0023
008f
fde7
fcc4
ff6c
0803
fd1c
f917
ffd5
fec0
fb3d
00d1
0223
025e
fb59
0353
ffef
ffb8
03b1
00e3
ff38
009b
00c0
0000
fe86
0001
f855
02fa
059d
0229
ff17
049b
012a
002e
0353
fc12
ff69
fb98
04ed
02a5
061b
fe0c
fc58
fbac
032a
fd30
fcdf
ff6a
038e
fd96
025b
0048
0039
030a
fc92
ff4f
fb04
fc40
0270
02c7
021d
05d5
f9a7
fffc
fffa
fe4a
ff40
0381
042d
fcb1
060d
fe3a
fdfd
fe40
fde7
014d
fc0a
033b
fd3c
01f0
ff35
ffde
fb1d
fe08
00bb
0074
0320
fff1
fd24
f9fe
0234
0016
01d4
fffc
fbf7
024d
fc97
0002
fb34
fe72
00d1
00bb
ffe0
fdc0
ff39
fbd4
057c
0175
fdf9
0588
fedd
0082
0143
fec9
0048
01f9
fd6c
038b
01df
00e6
fc9b
0323
03c9
01d4
05b7
01bf
01b5
fec6
fd9b
fecf
ffca
f85e
0039
029f
001b
ffc4
0260
0158
017b
ff18
02c9
0222
018c
0224
fffe
01a2
026f
fec8
02b4
024a
fcf1
023a
0047
fe2a
fe6f
0065
fcf7
fce4
fe56
fe41
ff4e
0312
fdb8
ff0f
feb2
f70a
054d
fdec
024b
fe64
0294
0345
021e
ff96
fe72
00f0
fb08
050b
fcf6
00ca
fd12
0292
0024
0055
00bf
ff97
004a
fc2f
0151
fd84
fa9a
0174
034b
0410
01c6
0319
020d
fb62
0052
fcaf
0076
fe26
0113
02c5
fa63
01aa
