fed7
fee2
0058
fe27
01b1
fec7
fbd8
01a7
006a
ffc6
fdeb
fd7c
fe55
0274
fb42
00ec
fd74
ffce
fbf7
ffa4
fd15
fe27
01cf
0196
043a
fd26
ff8a
064e
01cc
00ce
ff7e
fbf9
fe17
0360
016c
0130
fe1b
01c3
ff11
fd65
fb78
00f5
0390
024f
ffcf
fd7e
fba6
fcf8
ffa4
02a6
fc1b
fd03
00ac
fc99
fda3
fd26
0231
014d
0106
fd9b
fb85
f99b
ff61
062b
ff4d
03f4
fe83
fff3
066e
0467
fd28
012b
02d1
fdce
ff29
fdf4
0042
fe1b
fecf
021a
f982
f98c
fd35
fe76
021c
0357
0645
ff8f
fea6
017b
fbb8
f9b7
01fa
05a6
fd5b
00cd
fdfe
0484
055e
ff35
0336
029f
fd94
023c
fdf6
fcf4
03d5
02b3
04c9
00f5
fc19
0181
0450
fde2
0674
045c
fcdb
fd46
01a4
016c
fa5c
0091
038b
fce6
fced
fbcc
ff48
0483
ffae
00fe
fb7e
0315
fe45
fb3e
091d
fd59
002d
0171
0570
038f
fdb2
0136
0097
03f9
01d6
fdb8
0542
0271
fccb
025c
fd9e
ff91
f6d8
fc0e
fc18
0305
0138
fbf5
fe45
fd4b
f848
0224
01f9
fe17
fbb6
01e1
0150
f8de
0182
044e
fd31
ff93
fe1d
ff05
01c3
fd55
0042
feb9
00fd
0791
fccd
0389
0664
0114
03e8
04ee
fdd4
017f
f833
fc8f
f959
f4f8
fb1f
ff25
fe19
0582
ffdb
044b
ff6a
fb44
ff3e
00df
0383
0201
0458
02a0
01f2
fef2
fd26
03f2
fff6
ffba
0311
0066
fe83
030b
070e
035b
0107
fd4e
0179
0708
fedd
ff56
0533
0440
ffc3
fee7
ffbb
013c
fb06
fe42
0009
02eb
ff9a
0292
ff6b
fdda
00c6
014a
01f8
ff90
fea0
fb5b
fd1c
fe5a
ffb0
0347
fb1e
fe39
01e9
00b2
0105
fde5
032e
ff2a
fe22
fa3d
fe75
fec8
03d3
fb2c
010f
0164
ffd8
fe8b
fdfa
011e
0274
f7c3
0274
036b
00e8
f97e
ff2c
feb4
ffb2
fef4
fd8a
fe67
ff04
ff99
fd62
fa21
0172
fb71
fe42
fff9
0042
ffb1
fe52
ff14
fd76
024c
fbe2
0164
0011
09ef
fdfe
fbd9
0161
0016
00b5
0263
f6ff
00e6
fe21
fef4
037e
0125
ffc2
02e8
ff6e
ff4d
0037
0088
046c
ff5f
fe3a
fee8
0239
005b
00ad
02ad
fd11
01bb
fd4f
0259
ff31
0113
fc62
ff54
fbc2
ff45
02b9
02b3
036d
035a
0191
ff85
fa9e
0064
0604
fe17
fe8d
fe79
02b1
fe9e
fea8
020f
ff44
01f3
f964
04cb
0113
0367
05f8
00d0
fe81
fef8
0084
00ac
00ff
fc2a
ff2b
ff60
0096
fee1
004f
0227
fe14
fffd
01d8
045b
fd93
fcf9
ff2f
fea4
fa0f
0251
02c3
050b
00f5
0198
f949
fe98
016b
f718
047d
fcb6
0097
fdab
fd18
01cb
01b0
0238
ff4a
0007
02ee
01b5
fdf4
fdcd
fd4d
fe69
00ef
f9e0
021f
fca3
ff4d
0302
0134
0002
feec
0103
01bb
fd83
fe18
fc52
ff45
ffee
0116
0418
fe1d
ffa4
019b
fc1e
006d
0039
fd54
fe56
fef7
020a
fd40
fd98
00d8
01b2
fcf3
0119
03ae
0288
fb24
02fe
02e2
fd06
0199
0622
fe41
0587
0576
01b8
ff6d
04bd
01a0
ff16
018d
038e
0097
03e6
fe3a
fa14
fe4e
003c
fe5a
0004
0314
ff42
f950
017d
fd40
02dc
fdd4
0115
fc7d
ff7e
fddb
ff1e
01ac
0445
fde9
ff38
fefc
fcda
047f
fe65
ffa5
0215
ffea
050d
fda1
051f
fe50
fe48
ff8d
006d
ffd7
ffe2
f949
ff59
fc85
f8ad
0680
0012
0043
ff9a
040f
01a7
fb76
fea7
fc84
0054
02e7
ffdb
fef4
0113
0280
00fc
fb16
0384
0012
009e
005a
f93e
fefe
028e
037a
ff05
fd75
0083
fd5c
0252
fd41
fb25
0104
058c
fe0a
f986
0365
0358
01bc
ff9a
037b
025e
03a8
038a
00c1
faad
02e6
02a0
ffb4
f8cf
000d
fdb0
fd3c
0402
040d
fda9
007d
fe43
01f0
ff10
fd20
fd83
fd8e
021d
02b4
009c
0293
ffb1
028b
fd04
0096
0644
fbfd
fbef
ff36
02cc
f89f
0463
00da
ffaf
fff9
0037
0167
0261
001e
ff74
0012
ff15
fd7e
0634
0634
0691
feed
fb8e
fdac
fd74
030c
00ce
03b7
001e
fd63
016f
fead
0573
02f9
0093
02d8
0196
03a6
f988
ff9d
06ea
02be
fcfe
f75c
002e
022a
feb8
f8d0
0180
05b2
06f4
0164
024f
006c
004c
fdc2
fd31
014e
fde2
06c9
feb5
fb29
025a
0412
fdc6
fe81
fd75
fe2b
01bb
0063
0039
fed7
fa8c
fdbc
fd00
fa3e
ff2d
fdb0
0106
fe41
fa24
ff1e
fce8
fef6
0089
ff6c
fd36
fa26
031b
066a
fd4e
fd4a
0623
fd8c
fd85
fde6
0012
0081
032b
ff8f
04cb
0009
fdd6
03d1
06e2
fcbc
fb2e
febd
fbab
0581
fbd4
0591
0608
00e9
fc44
0042
ff50
02a2
04b5
fe5f
ffc3
f979
fe6a
0355
0201
fcb9
ffe6
fdda
fa95
fce7
069f
0400
01d4
fd47
ff85
fe61
fe22
011e
fd6a
fd8d
fd8d
feec
04db
05a9
fecd
fd70
f918
048c
01dd
fb19
ff3c
ffbc
06b9
00b6
ffad
01c0
fe97
f82a
02e0
ffbb
064e
fdc4
fc97
f6ec
057c
fef4
02a8
fe4e
02d4
fb01
fcb1
0005
ffd6
00af
ff24
feb4
028e
0130
fca6
051f
fff6
fa1b
01b2
fe7d
0266
fbd4
01c4
00ce
00df
01da
008c
fcb4
017c
fcf0
01f8
03f9
ff2d
038c
fe7c
0398
02a5
fd74
ffc3
03c4
024e
feb4
feb1
ff70
035d
0192
038a
fef6
05b1
