fbcc
0015
fdbe
fd67
fd68
0411
ff31
006d
fd63
fbcb
03d9
fb5f
039d
04b3
ff3b
0196
fb62
fdff
02d6
008a
fded
fbe2
fd91
015c
fb44
0050
01bb
04d2
01c9
ff1d
010a
fe6f
fc29
0640
ff23
0022
0695
006f
ff10
0631
ff51
04c2
fadb
031c
fc99
fcfb
fe51
fc11
feed
ff6c
fbc6
fbba
ff52
fbb1
fa72
feef
fdd6
faf3
fcc2
01a4
0090
0472
fec8
009b
03cb
02dd
fe4c
fe9b
02f7
fe07
fae4
fe4e
fbdd
0052
fda0
028f
ffae
fff8
feb8
f78c
fe35
f7fe
00e4
00ae
ffd0
031b
01e9
01fa
0504
fbf8
ff0c
fc2a
0310
f9ca
00d0
0029
008b
0309
ff57
01e1
03ec
fa27
fb92
fe76
000d
0557
019a
0304
fd40
03bd
fe87
fc11
ff1a
01c3
00c9
fe36
feb7
fea8
fadb
048b
fa10
fa76
04c7
03e6
fe26
fc16
fc4d
fa66
fe20
027d
03d4
0437
fb28
fca2
0480
019a
02b4
ffda
fdeb
01f6
f982
031c
02b0
fdd4
fd11
fd2f
ffb1
0145
fc08
0774
fea1
02d1
f9ef
0313
036a
00f0
fe06
0246
02d6
055a
01cb
fc9b
ff35
021e
fc92
0886
00ca
03d5
03ff
fda4
fe87
fb29
01c1
0247
0135
faab
0347
fb3f
fe8b
01a4
ffc8
049c
079d
0000
ff7e
fd9b
fe1a
01c4
0250
01bc
03c3
ff7e
fc41
0040
04a4
ff68
0101
fdbc
fe73
fdc8
0401
fd0d
070f
ff39
02b9
fe98
fbba
ff5c
feb2
032c
ffdd
003e
042b
044d
fd98
00eb
0248
029c
fdbb
00cf
0234
f8e6
01bc
001b
fb86
ffbd
fe3b
028a
06e8
feb5
0075
0113
fcb7
ff21
febd
0160
0165
fc94
0130
0131
014b
02d2
011f
fefc
f842
ffe4
fd70
0113
ff15
0469
01ba
fdff
0044
fae0
fa9d
fe44
004a
ff69
fc50
03a1
fd70
021a
0021
04df
01b5
0208
045b
0251
fd10
016f
0430
ffe7
02a5
fea0
fe6b
fc50
0194
0105
ff36
0131
fdda
021b
02da
0354
fe64
fc73
fce2
fded
0098
fed6
ff97
033c
fd72
ff4c
0219
fee6
03ab
02d3
07dd
0450
0035
0372
01ff
0313
01dc
0041
028a
fcf1
017a
02de
023a
007b
fe07
fb7b
fc41
036e
0114
01d6
fc1c
ffad
02c5
01bb
003b
faca
ff88
02ff
fc27
05a1
f953
009d
016a
fd15
f9c3
0605
0248
fb72
f861
fccd
0437
003e
fd2c
04b1
02eb
01c9
0107
ffdc
0352
00f8
f885
049c
fc47
0270
feef
fff5
0072
fa26
f9d2
0119
00cb
fdcd
fdb7
026f
00db
0402
0390
03ce
fd76
03c0
018b
fd3e
00f3
00d8
ff6f
fed6
fd61
ff0b
032b
00f4
00fd
01a2
fd08
03de
0295
fbc0
02bc
0538
0447
0299
ffcb
fb45
fe4a
ff6f
007c
0088
fcb3
02d1
0069
0213
fd12
fff1
ff43
00c5
fe00
0021
fd42
0672
ff09
fd1e
ff52
007a
05d5
fcf0
fced
fcdf
043a
011c
feea
fdf7
005e
00d9
fb57
010f
fdd4
054d
02c4
01e6
fe35
005f
fe50
056f
fc9e
feaa
fc1b
fe97
fed4
0810
fdd2
fc27
ff7f
005a
0118
ff01
fe92
0511
fff6
ffed
022e
f6d0
fc45
fed0
ff3c
fc6d
fc00
feef
fa99
002c
020e
04bf
fc72
ff9f
ff61
fce3
ff70
f986
00d8
faf8
0033
fefd
ff56
fd3f
fb8d
0054
049c
fe18
0385
fc6f
feff
00f3
fecf
026e
02dc
ffc0
0263
02b2
ff37
f9e8
fcfb
fe66
00c6
0424
0424
0161
ffa5
fe8f
0036
0110
0297
ff5c
02a6
ffba
fc85
ff05
0325
03d8
0130
ffdf
fca2
03a4
0038
0291
00b4
052d
073c
f64b
fe32
0403
02de
fdce
fdb8
ff55
02e9
00e4
ff07
fe84
fd8a
0098
04ec
fcdb
ffe4
011e
0131
0025
ffd5
ffa7
00c7
0209
054a
ff88
fff9
fd56
ff8e
fff8
fde8
0899
0003
ff6d
f9f1
fc58
f914
fcf5
fe36
00ea
025a
00a7
fbd7
057e
045f
013d
00a7
0305
fc5d
f7ee
fec7
fe27
06c2
00d0
fd65
01d6
03ca
fa22
0256
fd81
0177
fc33
0133
fada
050e
0050
fec1
f8f9
0118
fd49
fe1e
03bd
ffed
047b
0335
fb91
fb5b
0017
000f
040a
fe55
062f
ffcf
fb23
fddc
fd8a
fdbd
f9ae
f9b9
0400
02b1
0220
036c
0235
03f6
0121
0423
ff1a
fd31
fd50
0313
fcd2
faa2
0590
fe2e
fddf
ff3d
fc4a
08ee
fe3d
fc12
fba4
fcd5
0070
046b
0331
056b
00b6
0208
fedf
fa69
fddc
0383
004f
fcc2
ffcd
053c
ff65
0115
0115
fc26
00a2
fc0d
0022
0426
00e0
0292
fd7f
037a
0068
ff9b
059d
fcc3
0352
fde9
fd60
00a3
fbfa
ff17
ff84
fc20
fd4c
02d7
f734
fd9a
ffe4
f8d0
fef8
fccd
020d
fcef
fc4d
0262
fd78
03bb
fc87
013d
04ec
019f
ffe1
fa0c
0636
ff43
03c7
fe96
fd07
fd68
01f8
05cc
01c0
0470
ffd9
0177
fe49
fc06
0609
004e
009f
f9b3
fabc
fd08
ff13
00a6
fed3
03ee
048f
03dd
fc5f
01ec
ffce
ff50
00c7
ff4d
ff08
ff56
fca8
024d
00b2
ff10
ff52
fc9f
003e
0393
004b
04fc
fe8b
013c
0080
fd1f
fed6
f8db
0054
02b0
01ae
fbb9
ffc2
fd04
06a9
fde7
fbe9
ffd0
0047
ffa0
fe90
ff69
0250
049d
fb48
0449
fe87
fbdd
fbd8
fd56
02e9
fdbd
031f
fb51
fe73
0088
ffc8
ff4b
03fa
fddf
fd7f
ff27
004f
fcff
fd16
0130
0524
ffad
fffa
fdf4
035a
0047
00b7
031c
032a
fcf3
fc3c
fee6
ffd9
