fc77
ffc6
ff29
fdd8
01c4
010e
f950
fe44
030f
00d4
fea3
f926
ffd9
fcf0
faa9
0093
fb85
06ec
fe4d
fe48
0042
ff12
fe44
f9ed
fa97
0020
fa3e
fc24
f733
fede
f9dd
011b
01c3
ffd7
fcfb
fd1c
fb83
01d6
ffba
05bc
010a
fc76
fecd
01d9
ff53
fff5
fbe5
0100
0afb
014c
04f7
fc63
02fe
ff4f
ffc8
0790
02f2
003f
fff3
06ab
048e
fd2a
00fe
020d
03c4
ff0c
fec5
fef7
ffad
0004
0371
ff0b
fdde
fba4
ffa7
ff9a
fdd7
fd9e
01fa
0438
00ee
01e0
017a
03e5
fec7
01d2
02e9
04cc
fd60
0383
02b6
006f
0091
030e
fc11
fd7a
03f6
fcc3
021f
00b3
fc47
fe81
faa6
0173
036b
0112
0179
fe0f
fdad
fb5e
0302
0387
0322
0431
036d
0592
ff27
0292
040d
ff73
0404
0000
ff6a
fc74
08bf
0365
004a
007e
0348
0081
fe23
03bd
034b
fd0f
fd4c
0197
023c
fdfb
02d1
02d2
fc21
fce3
0199
fe4a
fd11
ff74
0053
0687
ff4e
0403
0757
0206
fd4f
01fa
0086
02dc
05b7
072f
053a
0523
fc51
014f
fc90
0157
0523
039c
00b9
fe79
0190
010e
0052
fd39
ff4d
040f
ffe2
ff89
0319
fd08
0185
faae
fdf1
01c1
ff85
01ba
fafb
0489
fb81
fd95
fec3
fe39
002f
ffc6
0086
ff19
f797
06c1
fe95
fadf
041a
0063
0476
0183
0577
002d
fdce
fe76
0491
ff65
0532
ff7d
0460
fde5
03fe
fbae
0415
fd9f
04ad
006a
0515
0002
fb0a
ff35
05a5
00c9
01e4
ff78
0026
ff8d
053c
fef3
fe82
0489
0169
fe41
015c
fa71
fc31
0429
fd3f
03aa
0468
03de
fb34
018e
001d
ffc1
ffb9
016e
0202
0355
fd3a
0273
fad2
fc71
0210
fdbb
0276
0124
0304
fe5c
ffb7
053b
ff04
01fb
fff9
016a
ffcd
fec3
014d
03a7
02f2
fff9
07ac
0229
04db
ff33
0434
fd00
fe58
051f
0416
00af
020e
0101
ffdd
0637
0547
ff2c
032b
fe44
005f
0050
f958
fc03
0457
fb27
fb88
ff73
0289
fda5
046e
fea5
fe47
0425
fda2
fef3
0085
061c
fd54
01ef
fc17
0448
04ae
040b
0069
fec3
fcfc
00ce
0169
014d
06a4
0010
003a
0631
03ab
015b
01cf
fd9d
00d9
ff3a
021a
fe5b
fe9b
fdf6
029e
0285
fced
ff87
fb2b
0351
ff4d
048a
fe69
0696
014e
0625
01d8
ffb7
fb81
fe2c
06fe
0167
f971
0431
fa56
f9a4
fce5
03cd
02ee
00d0
0204
f9af
0046
fd86
01bf
066a
fd92
0089
046a
00a1
fe12
fe5f
0489
fc79
fea0
fd05
fae9
febf
feb6
fbce
01e7
fdf0
01e5
fe00
01f6
fd84
ff80
02ac
fd4f
fc7e
06ea
fe9e
fccc
fef5
04a5
fee6
ff96
fb16
034e
01dd
0448
fefc
fedf
fe0f
02a5
fd72
fc15
fe0c
ffa5
fa09
0036
01f8
fa8c
fe34
fd05
fefc
fe1c
0578
0191
013d
ff3c
0753
034d
050b
fb5a
fef8
fc3f
fec2
0853
feb2
043a
ffe6
fb14
fcaf
fdc8
ffd3
0075
0548
fdc3
fb8d
ff9e
f771
ff11
00bd
fff7
fe71
fbea
0491
0035
00e9
0201
0001
031a
02e6
0092
fddc
fd5a
fc16
f8f8
0212
05ae
0255
0261
00f4
fc12
07b6
fb27
fd8b
080b
fc6a
012a
0179
0188
0147
fc34
0196
ff57
fb32
ffc5
036d
02ca
ffe5
fcca
fc94
fd2a
fd3b
01e2
feef
fcc7
fec0
ff7d
01b5
0553
043b
021a
fc5b
ff1a
fcfb
ff4a
021e
ffa8
010b
fe09
fc20
0314
fdf1
f986
01b3
fbec
fbbd
006f
feac
022e
04d8
ff81
fe33
ff94
fe9c
0022
01f4
fd9f
fec0
ffcb
ff72
016b
fa01
ff31
ffdf
ff74
040d
ff62
fa48
ff50
022b
ff92
ff80
feea
011d
0437
feb2
ff7a
06b9
ffc0
ff1c
ff19
feef
ffd1
0446
04ae
03e4
01c7
0224
0121
fcd1
fa7d
faa8
0205
07d7
0209
fdf8
0131
fc66
ff59
ff5a
085a
fe5b
045a
01bd
0230
fc2a
0102
055c
fd6f
ffbb
05aa
0088
01ed
fb26
fcab
fc9d
fcc6
fcfb
06e9
fdb7
f891
026c
018f
023c
f889
fea8
fca3
0006
0453
00db
f9a8
0591
ff7c
fce0
002a
0084
fe7c
0119
fbeb
0153
ffec
02dd
0268
014a
01a9
01e5
fe21
fef5
006e
04ed
0186
fc4b
01e8
0199
f9d5
032f
fd9d
fdc5
02ad
0275
fd72
fc20
fcc5
010d
fe8a
0135
ff49
0424
ffa7
0182
fd75
0210
fe09
0283
fe05
0036
fe97
009f
fc66
01f8
fd29
0335
009a
fd8a
fc29
0179
01cb
fea8
01bc
0146
02a8
049b
f9a5
0636
fd83
ffcd
0763
ff2a
0388
058d
0056
ff1a
fea2
0044
03a2
0126
004b
fc9b
0437
fd0a
feaa
01a2
0065
0044
06c0
03a1
fe40
0061
00ce
04c8
fe6d
fca7
0316
fd77
00d0
ffb9
0402
fe5d
0444
0270
0152
fbdc
0140
fb58
0385
ff9d
01bb
035c
00e7
001b
00a8
fdab
0577
020a
fd4a
ff7c
fb3f
00a3
046c
fcf0
01fd
fb65
06bb
02e2
f879
01ce
fb94
fb51
0601
fcba
fde6
fa65
ff1d
ff29
0675
fda8
fb3c
f708
fb93
0276
02f1
fc50
ffa9
f903
fe05
0471
fe44
0068
02f9
fb43
03fb
00e6
03eb
044f
0080
fd2e
02a6
021d
0551
0445
0727
00f6
febf
fc81
0120
00f5
0000
05d4
ff51
fcc8
ff5e
fe2e
fef0
021f
fbc8
ff0e
03b1
0192
ff6e
0551
ffab
0060
0215
0247
0069
01ed
0371
02ea
0054
0196
