fd0a
0078
0129
041f
ffc2
034d
fe05
0206
ffb7
ff9e
ffad
0769
0108
0085
02db
0173
fc53
fa89
ff6e
01e1
0393
fc28
ff62
0027
0217
fcd2
029d
fb0c
fc37
025d
02d7
03fc
fcbc
0221
fef4
013a
fe22
fce1
fdaf
02ab
01a3
0237
fcf0
0234
0079
fefa
00fa
fbc6
fd67
008e
0269
06c8
031a
05de
0278
028f
060e
fe7f
fe0d
fc18
fd4a
fecd
fbf0
022e
fd3f
02a7
0314
fc03
ff8c
00cc
0039
ffe4
02c1
fd71
fa97
ff4d
f656
0348
01d6
03ed
0477
fef0
003a
fe5e
fe88
00bc
03ea
0119
0384
f9e7
ff07
ff49
02a3
fb5f
0021
fe07
fe46
0031
013a
0201
fd1e
fdd0
ff40
0004
01cc
0228
016e
fe88
ff91
0001
fb4b
ffdd
ff20
fb92
f9fe
fee3
ffb9
02b1
fb27
ffd4
fff9
0575
fd27
06ea
056a
01de
02ac
0600
fd50
01b5
01bd
0178
fd10
0661
fe72
02f5
0715
fdbf
048d
fd89
0167
00cc
fffc
ffdd
fe1f
ff56
0131
f7f6
037e
0653
fee9
0277
04f6
0135
fe84
feb4
fee7
0685
f9d8
fe92
fb0c
fea5
ff98
02c9
0437
fe97
014f
fa58
0111
0465
0567
fce5
f8cb
fe79
00c8
fedd
0105
04e1
0406
0142
009a
03eb
fecb
00f1
fce1
0311
ff8b
fbd3
0075
ff6b
00c8
ff28
003d
014d
0535
00c2
0095
0442
fd57
fe20
fea1
01e9
fa5b
fd9d
fff6
fe86
02b9
000c
00d3
fe60
ff56
03f0
03ed
fec2
ff33
fd70
ffb9
fc59
fcdd
f788
03c1
0270
03f8
fcc4
046c
fad3
043f
fd26
ffec
fc24
fecc
fc26
067b
013b
ff49
00d4
0033
fb96
fdb0
fd8c
fd45
fede
0175
ff69
fb8f
00c7
0297
04b2
020d
0198
0005
f7b8
0259
0382
fe9f
ff7b
ff2e
fb61
fb82
feaf
f8e8
02de
ffa2
01ce
feac
017d
089a
0193
fe85
fbf5
0312
0441
fb8b
02e1
0296
0423
f9ca
0682
0198
fb58
0070
fe90
007e
ff90
0587
0173
ff34
03aa
02d0
fe6a
fe4c
f8a4
fc7f
f8ea
fb86
ffd0
fdde
036d
fe42
ffed
fc93
fdb2
054d
fea4
0464
ff44
fc97
fcad
fecb
f9f5
0051
046f
015e
facb
fdab
fefd
00b9
000f
fede
0072
fea3
fb31
f9d1
fa6c
ff3d
fea1
ff80
01ec
fe0f
06e8
02ad
ff64
01e8
fbe6
fe27
fee1
fcd8
0100
fe82
fbdd
00a3
0045
fac7
f7c3
ff52
fe3a
079f
fd3a
038a
fd34
003b
fd91
fb69
0032
0099
fd70
04e3
fb82
ffec
fb4a
0000
fbe3
03b7
fdb0
fe71
fca4
0311
0199
0004
fe19
fd4d
fc3e
fee8
09ed
0256
04a7
005d
0009
00e7
0094
008c
01ae
ffc3
fd3d
fcb4
0232
fef5
fd3f
0222
01c4
03ba
01cf
ff3d
fc93
053f
fd8d
f783
fb08
fe16
fce0
02f1
020e
fd5e
fd39
ff53
0262
02d9
013d
fe03
02f1
fafe
0356
0553
0060
fd41
fdfe
0740
03d3
0878
fb42
0441
fd76
0009
03fc
01a3
00c3
fea8
0072
fd4e
0534
fd15
03c5
02af
fc12
ffbe
fce7
fc91
0135
ff74
fbd4
0171
049b
0260
01cf
04d5
f848
fe05
06a2
02da
0273
0151
ff07
fab3
fc35
0707
0140
0338
02e7
fbd9
06da
fe50
0031
012d
0554
02fb
fdf9
ff14
0145
fc9d
0112
062e
ff65
ffac
fca2
fa2f
0006
fa0d
ff5f
0028
fef3
ffa5
033e
fd15
ffec
fda0
0536
04a2
01a0
fdcb
00ae
010b
00c4
fe38
fd9c
01e5
f895
026f
fe98
0284
fffe
fefc
fc6c
ff34
05fe
ffe8
fe4b
fd1b
fc78
fbae
0102
fe92
fe65
fd50
fc28
ff02
fd64
0132
00c3
0037
fff6
0021
01dc
04de
000e
02c2
fc5a
0172
0562
0068
0014
fe7b
0217
011b
03a0
f99d
02fa
0167
ff28
fc00
01e0
024c
ff1b
045a
0475
056f
00e9
ff05
fcba
00ba
fef8
fb81
0144
fefe
fd0c
006b
fe67
fea1
fdef
05d6
001c
fe0d
03d0
fa1f
fb0b
fee9
0480
fc9f
fc4c
033c
00e5
fd7c
0123
ffab
0166
ff1f
ff75
025e
fa32
03d7
fca4
0694
fec1
0231
0061
006c
ff52
0543
01e2
fdbc
024d
fc9f
0330
0409
fbcf
fd52
fad4
facb
fd37
036e
fe14
00d3
fb2b
01f8
04e8
fdd9
fc6f
02bf
ff51
fb5e
ffe2
01b4
01a5
fe10
fbf6
019c
02d7
fb80
01f0
fde7
fe22
05d8
fea5
00ec
0621
fd84
02d1
fc32
0317
ff36
fd67
0627
f821
ff99
fb81
03aa
f981
00b7
fe56
0248
002b
fe3b
faf7
fb25
035c
ff23
000b
fd25
ffeb
fdff
010f
0272
0116
006c
fcf6
ff71
00fd
fbf6
fbce
03cf
fe2c
fffe
fffc
012b
05a3
027f
03a3
00bc
0019
0410
01b2
f9d1
0397
fc71
030e
fba0
0275
ff33
0059
fd6f
ff78
0308
0583
ff57
0101
fb9e
ff18
ff68
025c
fac6
036b
ffc9
f947
ffe0
0026
00da
ffa2
fc0f
fe3c
fe41
fcc4
fc46
03fa
fe4a
fb0f
0147
fe96
01f9
0138
fc17
08d1
0083
fc88
ff7d
0560
fd69
fc27
00f0
fec0
fe9f
040b
fd5d
0003
08d4
0364
fc8f
0153
0036
048d
0185
0390
fd4f
00c0
024c
ff7c
fefc
014d
ff7a
fc1d
ff71
ff2e
01b3
ff28
fa58
f831
05f0
0572
030f
ff28
01cf
ff3b
015b
ff4a
fdbf
fab9
0091
03f7
fdc3
045c
05b5
fc46
004e
0025
0366
ffbb
0109
feff
fc72
fd2f
01b6
018c
05b9
0100
fb3b
008e
00fd
fdfb
ff3b
f9dc
01e6
065c
f90b
0071
f54b
0364
