fe6a
0419
fb79
feaf
014a
f76f
03a2
fcc5
fe99
fec8
0048
013f
ffb2
00d0
ff11
ff05
f96f
ff19
ffb1
0048
05c7
0064
003f
fa06
00a3
0155
fab0
03aa
002a
03b4
f5c4
017d
0084
00fb
0239
fd83
fa89
03b7
0275
fbc4
0455
0528
003e
fd0b
0624
011d
01b8
ff32
00ad
fde7
0395
fd5a
fb16
fc4b
001d
00f9
fff1
01e3
022e
fbe0
fe9f
fef5
ffda
fff9
fdf3
ff73
ffbd
fac7
0348
00d2
03b5
f84b
ff1a
0224
0183
fbb5
fac9
fd35
fe98
fdeb
0405
06d1
fe10
0364
0699
0300
ff5b
00c6
fed7
ffa4
0339
fe57
fcaf
fde0
01bb
00f8
014c
fda1
f980
fc42
014b
ffd4
fc59
fd97
fef4
ffb1
04d5
07e1
fd19
0338
fea9
fd06
071c
0291
ff68
fe5d
ff2b
03a6
ff0b
fbcd
03b8
0162
0022
04b9
fd1a
0048
0365
05c8
fcac
fcc5
024c
0313
010c
ff4e
0202
faf6
0122
029f
03e3
fe15
fd66
ffe0
03b5
ff65
08f2
0028
ff59
004d
0319
0130
ff19
fdb2
02e7
fcd5
0036
023c
03fd
fecf
fe72
029a
fe72
04da
029c
026b
fd73
fcf6
fc3b
ff9c
0235
feb6
fd0a
ff32
023b
ff26
0553
0116
01c5
015c
01bd
00a5
0155
fbdd
000e
0019
fece
081d
0534
0021
ff53
fd0d
04be
004b
ff75
fb3a
022f
fc09
fdec
fe8f
018a
ff0b
ff1e
0623
060b
0013
06fb
ff7a
0189
01c2
fd2d
03bb
0246
fee3
fc23
fe58
fe4e
002b
fffe
0587
0087
0146
ffdb
faf3
fea5
fdd5
02a2
036b
0367
fb0d
00ce
02a0
02a5
fd55
01c4
012d
01b2
0370
027a
ff46
027d
fe9b
00e7
fe4a
012a
fe72
00d3
f897
fc2e
fe01
fdb7
017d
fbe7
0374
ff96
0034
0155
01d6
0208
0188
04ec
ffb2
04f8
fd4a
0294
0459
0043
036c
02a5
035b
01e9
0120
feef
012d
ff61
fe2a
fddf
fb05
fcf8
ff3e
fead
0525
03a1
ffd6
0036
f7c8
fccf
ffb9
0105
fbd9
ffa7
0119
ff6a
feef
02f8
00f6
018c
fbc9
045a
0128
facb
fb60
fadc
04b9
0018
fce9
02e1
fe1b
fcf4
fb85
0331
01a5
fef4
02e5
05e6
00fe
0208
fd22
0077
fc4d
ff9c
fb3e
0727
fbff
ffb4
fdf0
ff2e
03c3
0481
0643
fcaa
0096
0079
ff78
04fb
fe7b
02d6
0250
fe55
018b
fa17
02af
00de
fe4d
fd8b
001d
fc49
063a
ffec
ffff
fb29
fc74
037c
027b
fe99
010e
06c4
041b
fec0
ff5c
fce9
0227
fe17
0437
ff1a
f673
fadc
0313
fd3b
043d
fd15
fe2e
ffdf
fb8c
0448
fe58
fda7
03fb
feb4
ffd3
0086
fdd6
ff7d
fcc1
ff5c
01a6
ff93
fcf9
fd57
fee6
0633
fda5
06fb
0010
03d8
01bf
017c
0395
f94f
fb18
fe7d
fe1b
ffce
0465
fd0d
012a
02e1
fccf
01c5
0743
0270
04fa
ff34
fe22
fec3
0053
fc60
042c
05d7
ff05
0236
fcb5
ff02
03c6
fef3
00c4
03d5
ffd4
f65a
0000
06b0
ffa3
ffa8
fdef
fe85
005b
01ea
ff9b
fc8a
ff29
00d3
ff51
f814
0216
fe69
0120
fed7
0065
fce7
ff40
fafa
ffec
0113
0407
fae9
07fe
fe71
0367
02df
00e1
ff3a
0067
fef5
fdef
f8c4
02cb
fe3c
feac
0682
f940
fee2
03a1
fdce
009c
04e9
00f6
0046
03c8
011b
ffe3
0255
013a
00b2
fc47
02c1
feac
ff3b
fcc2
fb2f
ff00
006d
fd9c
0063
02e9
fff5
06fb
042a
0141
ff00
feb6
014a
f93d
0154
00a3
06a0
05f0
036a
025b
fc40
0444
fc99
00a4
fece
f999
faff
02e3
fe79
fac9
00ba
0043
0114
faf5
fe8f
0280
03a2
063c
03cd
0138
fe0d
022e
fee7
0343
0269
0289
03a7
fd86
0082
0388
ff72
0126
067c
fe9c
04a3
03ba
0037
0543
fabf
048d
f87e
f8a2
fceb
fd76
0563
f91d
03bc
f967
00c6
fb9c
00d8
01dd
fd2f
ffe7
fbf8
0283
05fd
0298
fd7f
fcaf
0281
fff7
fda4
fe95
fc5f
ffd1
fb11
fc50
fc8b
fe32
01d0
01e9
020e
0053
fef9
ff5b
fb0e
06c4
00d7
0533
06bf
0596
03a5
fc96
ff98
0069
fec3
fe45
ff33
fb74
0564
f8f9
fedc
fecf
fd72
064b
fb53
01b6
fc69
fec9
04c3
015c
04b0
fe25
fca2
ffdd
02fe
087f
05be
fef6
03af
fb29
ffb9
004d
fea0
010e
ff48
0273
0019
fd69
0578
0444
fd54
0687
fbce
fc61
fd43
0267
0203
0185
f886
ffb8
014e
03d9
fdb4
0477
02dd
fcb4
0479
089a
fedd
fc87
04b9
faff
0310
fd48
ffae
0572
0390
ff97
01a1
06d3
ff4c
007a
0261
01b6
ffdc
ff78
0707
08c8
02e0
0233
011f
fc79
01c1
fbbd
fe1a
fd5b
0076
fdce
fb25
ff6c
01c3
057e
fd93
0164
fa80
030a
ff86
0607
ff3a
07e2
0420
ff3b
044b
fc0f
fb31
03d7
ffb1
0085
f831
02a1
fc46
fac0
0013
fb79
0772
ffd3
01c0
ff45
0241
fdc8
0047
02fd
0146
0173
0315
fda7
fc3e
fe8f
022d
ff17
fe62
009c
fddb
ffa6
0238
fd83
02ae
fe41
0135
fa85
fee4
01f4
fc87
001b
0192
01f7
0078
fc3e
fccb
0105
05f8
005e
02ef
f9a8
fd46
0045
01f1
fb46
fd0f
0358
02a2
0139
00af
fe09
01f0
0213
002b
0288
fd6b
fd48
0080
0209
056f
fdd7
fffe
ffe5
ff33
0148
fab2
fded
00ff
ff90
fea6
f96a
fb81
fef7
01e2
0090
fc23
0062
00ba
02bf
031f
fc53
026e
fe49
