0120
fea9
039c
0709
018f
fd63
01a2
fda7
0001
00f4
0590
01c7
012c
fee5
0041
03b3
045d
fb5f
fe95
fdee
fd6f
0562
f9cd
01be
02d1
01a1
02fe
03e6
043c
006f
0301
fb40
02bb
0201
fd84
02c7
fb35
056b
006f
fe2c
00d9
fce8
01af
ff5c
05d9
0036
0014
01da
f97f
01a0
fc19
0452
03c0
0320
fc30
fe22
060d
0564
fb4e
064e
03de
fc8d
027b
045c
feaa
003c
02c4
fb7c
fffb
f7f0
fdf8
fc29
fec5
00fc
0022
01ef
fe19
fe0e
fd1e
0684
011f
048f
ff42
0355
fdff
03ec
0095
04ff
019c
fe51
011c
fddf
fe36
fc12
fb51
0067
05d7
0350
0439
feb9
0460
fa60
0298
0168
fd0b
00ee
06f1
0000
fe65
fe0e
ffd7
feb9
fb4a
fff8
0367
ff8e
0065
022e
020c
03b5
ff58
0213
ff7b
09b7
fff8
fc31
fdbc
fee3
00c6
011c
001b
01fe
fea4
ffd6
ff0c
ff41
0099
042d
fefd
feb7
005f
ff2a
0012
ff2d
fc0a
0189
fed6
fce1
fe56
fecf
0046
058f
003f
01a6
fece
0218
fc00
0528
00aa
ffab
fe82
ff10
febe
ff87
0142
0296
00a3
fb46
fe3e
ff19
0075
fb57
0229
02e9
039a
fdd3
ff5e
0312
0413
fd5d
fe9e
ff1e
00f4
ff0a
fdd2
02e6
039c
ff30
06b6
fd70
055a
ff58
019b
0330
0422
00b7
0081
01ad
ff7c
facb
0381
fe0b
0177
004d
fec6
ff8a
0056
fe01
064c
fc2d
fad8
050b
ffbf
f932
fb0a
0207
fc92
ffa9
0219
fe11
007b
fdf2
fad5
0518
0331
00ab
0245
fb5c
fe65
0294
02da
ff79
017b
fca7
04e5
fcbb
0284
003b
00d0
fe29
fb95
ff2b
0280
0033
01e4
ffd6
ff2b
fe06
fb58
0052
01c4
fe96
fea0
00a6
01da
fdee
fbe4
017b
ff1c
0647
fe16
00ab
ff61
faf5
fcb3
fb9d
ffb0
03e8
fefc
fea7
0203
ffcc
00a1
067e
0363
021f
0114
fb9f
06bb
0123
fb1c
fa39
fed8
03ac
fd2e
fad3
fe1a
fbc7
f706
fdf8
fe6a
fe26
019b
febf
0209
0064
0203
08c5
042b
02be
fcf6
0090
fec9
00d6
0190
02be
009a
00c1
0129
022e
0172
fefc
00d3
018d
ff7d
ff36
023d
ff27
fed8
0359
f91e
fdee
fe50
f9ec
0504
0247
fbe7
0505
fd5c
ff00
0023
02e6
01e0
0004
0080
0329
01e1
ffd9
fe1c
fde6
f711
fdee
0042
feb6
fc7f
fc55
fda1
02b2
ff21
fe89
feff
ff89
033f
fd7e
02f0
03dd
01a2
005b
01b8
fced
0170
fecd
fee0
fad4
fffe
fb5e
f947
01ea
01ae
ff22
01cc
00f6
fd98
fd73
fbf2
014b
03c3
026a
0262
ff6c
fe0e
fd09
009f
00c4
0037
ffc8
f928
06c9
00aa
ffe9
059e
016d
fd9e
fd97
0229
02d2
0286
f8ea
06f8
01b3
fb9b
0348
fcda
f890
01cd
fc39
01d9
0089
005a
fff9
fce6
0123
ff39
0052
fdd7
ff75
fe4f
0584
0226
fe7e
fb0e
ff70
feaa
ffdc
01c7
0111
023a
0ac8
0183
0077
fe09
ff88
fc87
fb8d
fa6a
009d
0145
fa70
040e
fa02
0112
ff46
fcda
fb18
02a9
fca3
042f
069c
ff1f
fa23
0108
02f2
fdfb
fbc8
fc7f
fd3f
007b
0209
fc0d
00f8
029d
0395
04a7
fbc7
f9bb
007b
fd4f
000a
fedb
fa80
ffe6
f8a9
fd5f
0214
fbfa
ff3d
fe9e
05e2
fdce
fe7d
0484
fb6b
fe34
fe67
fdae
010e
0126
03cd
018e
ff82
fe06
071e
0215
0164
ffbc
036f
fef7
068e
03da
02a2
fa9a
fe51
fc8e
fca0
00ae
fc69
fed1
fcb6
0713
fa11
0297
03bb
0072
0375
014e
fa05
fee1
00fe
067e
fa66
03ec
06f9
006c
feba
ffec
02d9
00d6
0194
0293
0531
fb46
feff
0511
fa7c
0026
ff45
fe60
05cf
0112
002a
054f
0307
02bf
fa13
0182
0326
029a
ff5e
ffc8
02db
0283
01d8
034c
00e8
fe14
fde6
0007
faa0
026a
0034
0272
fcd9
ff12
ff00
fdfe
028b
ffaf
06c0
fc36
ff49
036b
fce8
fedd
ff5a
04ef
0493
fd14
fd15
03e8
0064
ff5b
02ff
033a
ffd0
0180
fe99
044f
0120
ffdd
035e
03c3
0623
0112
02af
05ec
0071
fdfb
0043
fe41
0325
fe0c
ff3d
041a
006a
fe34
fe72
0477
0455
03bd
fc79
fbdf
fd63
ffb3
0116
fdf9
054b
019e
005f
fcbe
01a4
02be
0145
0661
0344
06ea
06cd
019c
ff59
fc08
fef8
03f2
009a
00ff
062f
ff9d
fffd
fbfc
fe8d
0186
01df
feae
0075
0290
ff15
fc0d
fc78
fdd8
f9c8
0503
00eb
02a0
0525
0021
ffa2
011d
fc77
ff90
ff8e
ff7b
f9bc
ff0b
fce0
fe61
ff28
facd
03ca
fbaa
0086
0115
fc9f
02da
fd0e
fc4c
ffe2
006d
0366
fee4
056d
f959
ffe1
0473
fdb0
017b
fd46
0016
0178
fe11
fe6a
058a
0520
01f8
00b1
05f3
01dc
ff7e
00ba
0099
ffc8
ff75
002d
0469
022f
04cf
f80a
041d
01c8
fba4
03e9
fdfc
01a8
011a
02bc
fe51
fca4
ff40
fdce
05c7
fe05
007b
feab
02cd
0221
005e
031a
faa1
fc1e
0298
ffbf
ff3d
faf6
ff78
fc8e
01ee
0227
ff75
0001
002d
01d5
fd1a
fd43
053d
fb06
fdc4
fbf8
fffc
02a9
01dd
fdd0
fe03
0128
fdbb
feb8
fc66
00ed
fda2
f92f
fffa
057f
00ba
0201
0141
02e8
01a2
fd1b
fd82
fe9e
fddf
fead
ff2c
ff4b
00eb
06ea
0b73
fe1e
ff29
fe39
feaf
028d
fc6c
f7d4
fd7c
0083
0084
0409
