f929
ffd9
fef0
0002
01b4
0119
0340
0091
0063
0069
019b
0120
00d7
0392
0304
fc14
ff37
05da
fe44
fd77
ff2c
009a
fb07
fe26
0311
011a
fc5a
fbc2
fcb2
03a0
ffe9
fedb
fd56
fe38
0562
fe07
05b1
0572
fee6
ff36
f7f8
02de
0072
03ba
fcb9
0064
0179
009e
fb8b
fea8
0139
f6ec
ffb0
fc09
ffd9
fe40
f76c
fe65
fd76
fdec
0295
0589
05a7
0096
0054
fb61
fc84
ff05
0044
042f
fd97
ff83
ff51
0104
0588
032a
fb3e
fdea
fdf0
fe9b
ffc1
ff68
fe69
030d
01d7
00f6
03b7
0525
fdd0
02b3
01ba
0337
03e0
fdb4
ffbb
ffda
fe4f
0123
0207
fe3c
ffae
fb43
0049
098a
fce5
03fb
03aa
fb5b
039c
0510
0119
04b8
0051
0580
fcaf
01a5
00c8
fcd3
06a4
0186
fc0e
fe7b
027a
ffa7
fe9e
00ef
ffd7
fe08
fb23
03a6
fb53
ff23
fad4
ff9a
017f
0003
ff7b
01fb
004e
fe90
0275
03e1
0560
01df
0072
f9a9
fc2e
01a9
fbe8
0372
0318
fd9e
fe3d
050f
feee
0457
fefd
f89a
010e
0234
01ee
fdeb
002c
fe60
0128
fcba
fd34
ff2c
fef5
fe3c
00d4
fd16
01eb
fda2
0004
06f1
f8de
03e9
0627
ffad
fe09
01ea
0400
ff10
fde8
f8b6
fe12
fe0b
02f7
fd4a
00ab
042a
ff41
ff4a
0043
032e
ffa5
fcbe
03eb
02fd
00cb
0289
0664
0450
fefd
00f2
ff87
03f1
04d3
faa0
ff4d
02ee
037f
fdfc
0381
02b2
045a
ff5e
0219
0017
f7c1
00bb
0270
007b
fe4c
feaa
045a
007d
020a
0525
048f
fbea
fd9a
fd11
fc51
fb5b
fa3c
fd61
032b
fb05
0272
fee2
fff1
fe12
fc5d
027a
fdba
fee2
0303
fe7b
fab4
0240
01ed
02d6
ff56
fe06
037f
0244
fb5b
0379
0014
fc9e
febb
03b4
008f
00c7
fc03
fc66
fddd
03c8
f83d
faf0
fbee
0346
0205
fd3c
0597
fd86
00d8
fe88
f894
fccf
0195
05f2
032d
0572
00e9
05fd
01dc
0396
004c
fde9
02dd
02f9
032c
fb06
056e
fcfe
0232
00c8
0128
0038
0221
faaa
fba8
ff30
feec
fe5f
05c9
00d2
01c4
fe97
fb5b
fd15
01e1
ff27
fec8
029b
0514
0048
fcdd
f9a9
0124
fe6a
fde9
0118
ffcc
0413
f8c7
fce9
0389
0327
00b5
fcd3
fdd1
ffee
fba2
014d
fb0e
facc
01ad
fc32
051e
0162
fec5
0053
fa46
0237
fc78
ff14
0178
0304
05dc
030d
05b4
01ee
0034
064e
fb5a
0217
ff49
faf3
04e1
02c8
015e
0087
ff6a
051e
fd6b
008b
0578
008c
fa63
01ba
0223
00b0
0221
001a
029c
feb8
0107
03b1
ff3b
010e
fc8e
03cc
fd2b
fbca
006a
fa49
05ac
fbf2
fb37
fe78
0729
0097
fd7b
fd5c
04de
fd9a
022c
0002
01fc
ff29
0497
0371
020e
0009
018c
04ed
ffc9
0142
ff0f
028e
023a
0448
032a
0043
0148
fde8
fea5
0393
fe88
fbf6
fd80
ff89
fca7
0021
ff04
0084
01af
fd16
0356
ffe6
0000
0362
0a83
fc51
0231
fea5
fc8a
02bb
026b
fd8e
fb7e
f9aa
0165
00ef
0547
016e
fc7a
04f3
fdb6
0483
fe00
02ac
fd94
ff90
fb96
fab8
f6ec
055a
fe77
0266
ff7b
fc7b
0080
fd36
fa24
ff9c
ff54
015b
febf
0575
ffe0
fc8e
fb18
fee0
fa1d
02a0
fcba
038f
03f3
fe5b
00a3
0148
04ee
00bd
00a3
ff5e
01c5
feec
fb6b
008e
fc56
fd4b
02f6
022f
00e2
fddb
fca0
ff5c
04ef
055c
0566
00ef
fd06
05b9
fed0
005d
ff01
fb07
fea1
004e
fe37
fec5
057b
020f
fd00
00e4
0087
ffee
fd76
fd3c
061f
fe43
fa0c
ff0e
fbef
0081
fc24
0125
012f
0247
ff19
0552
fbd4
fa4c
094b
fe69
0248
0243
fb13
02fb
0367
f782
0335
0346
ff10
03e7
feed
0090
fce9
00df
fdc2
fda9
04f4
01be
fb91
040b
fe4a
01cc
fe0a
f957
fec2
0238
0576
fea7
fc6b
ff5c
0732
0035
067c
008c
fcce
0107
00b4
0009
0459
0389
0134
fd93
fefe
fd6f
fd90
04d5
01c0
0067
faa1
053b
feba
ff30
014b
011a
01a4
01de
03e5
fcb9
fb6b
fef6
ffd8
fa55
027f
fac8
0082
fe51
0234
fbc2
01e5
fb2a
0601
02a1
fda0
fe59
fcfd
03b4
ff7c
02ae
010d
03c4
02b2
fee3
013e
0585
01a4
02de
00ab
0110
00d7
fa33
00f9
ffbe
00c7
faf9
ffb0
f852
07da
fce0
00c0
0146
0537
0355
fb74
03ef
00db
fe14
02bf
fea6
0423
01c5
fdc4
ffc4
fc14
0689
fda1
01ba
05e7
0321
ff33
fcdb
f954
0105
0286
fdaf
fb8c
0196
fe30
0131
f8f6
fdfe
faa8
01e5
fcb1
005b
0006
fa00
04da
fad2
048b
ff5e
0140
0174
00fb
fea8
0073
fd74
feb4
04bf
0679
0551
fee6
00bd
02a4
fe17
ffb6
fd73
02ac
00a7
00b7
fe9d
fec2
04e2
0102
0412
fc00
f6c3
01da
0123
000f
fe7b
01ed
ffd0
020e
0181
fefb
0059
fbc7
02bc
fdca
0306
fcb3
04cf
01cf
0170
0383
ffdf
01a8
079d
fcb0
010c
fda6
ff10
ffe7
01db
ffa7
0200
fe38
0154
ff3e
fee0
ff4c
0041
0365
0050
0182
fb9d
02da
024e
ff0f
0766
01f0
fb58
ffc6
fa30
fb86
ffe2
faa2
067a
fdee
fd0f
fb52
fe36
fac9
fb7b
0019
fc00
fb85
0075
fdd2
065d
fe46
0205
fd82
feff
ffd8
013b
0288
ff78
0107
f89e
fede
0391
012e
022c
