0497
ffa8
fa7e
0599
ff9d
0098
03c8
026b
026e
0199
feef
0228
0149
00cf
006d
fe70
0003
00de
036a
00b6
f70a
01ee
019b
0117
02ca
0208
0242
fc1a
032d
0367
0189
018a
02a7
fd00
fe4c
00cd
03e0
ff31
fd59
04ca
fc28
01b2
fc08
0439
020b
00fa
03f9
017c
005d
03a4
0339
f8b0
00d6
fbe6
008c
01c2
0047
0252
003a
fff4
fe33
0081
04c7
fed6
ff2b
007f
fc3a
fc8e
fd5b
fddd
fb89
ffac
0372
ff2d
0410
07b4
fefc
0148
0147
0123
0170
06d7
0050
fefd
02d3
00d0
fffc
0768
0267
004a
ffb1
015d
00b4
024d
0339
f78c
00d5
01bd
ff1c
ffc4
017f
ffd9
fc0d
fed5
fcc9
fed8
fc96
feb2
fd55
fe26
016f
fc28
fb45
0273
fbde
fc68
f926
0450
00fd
fce5
ff46
008a
0023
f7cb
033f
0279
0350
fef2
03a1
0075
ff67
04d0
ff2c
0272
fefc
0391
055e
ff71
ffed
0618
011f
fdf2
fd94
fe27
ff1d
0104
f890
01fe
017c
fd33
fde5
00fd
037f
038c
f92d
02a3
00ee
ffcf
fce0
ff37
03ac
fe8b
fac0
ff4d
04f4
fe39
fc67
033a
00df
ffe4
fdd0
00ac
fd37
0093
01ea
05ba
02fb
ffb2
fa7d
fb60
05aa
fbe2
fe66
fe4d
ff06
fbfc
04c1
ffd7
fd6c
fdf5
f999
00da
023c
fff5
00d5
0463
035e
fbdf
00e1
fc8e
0216
fd2d
fa09
ff04
056f
039f
045e
fda3
04f0
019d
fddb
0163
fe3a
0172
f8b2
0085
0346
00c8
0230
febf
febf
0245
01bb
037c
0079
051b
fc4e
0198
00f5
fbd9
03fb
fb6e
fa51
0162
02fe
ff7b
01af
01e4
fdd0
03d4
f8d8
fce4
0016
febd
01cf
00f6
fd26
0438
ffc4
febb
008d
fef7
fe2d
fea2
ffed
0605
032b
00dc
fe85
ffb0
0078
0434
01ab
037a
ffb3
013c
fd88
fd80
fd18
ff43
fce7
0260
fc59
00c6
ffec
fd95
04cc
02bb
0176
ff65
f902
fda1
fb74
03b4
fca7
0239
008b
ff65
feb7
fe6f
0122
fe73
ffaf
ff24
fea1
0429
ff8b
00d2
fdfc
ffaa
01c7
fdae
ffb1
fc77
00ee
0073
0290
f8f7
028f
ff6d
f922
fe9e
ffea
02d3
fc4e
fcf8
f9a5
01e8
05e4
0424
ffa7
026d
0406
ffcb
fbae
03ae
ff8d
03f8
f9ca
036d
ff9c
03ca
0236
0248
fc7a
fb0a
ff04
010d
feb5
009a
fdae
ff93
00ed
fdce
fff9
ff53
033d
04e1
fded
00f4
0356
0006
0228
f839
ff83
02bd
00db
05c0
fbd9
fed2
03f5
026d
0181
fe1f
fbba
01fa
ff4c
fcfa
fd07
0502
fbaf
01e6
ff8f
01d7
016c
0010
0264
fb9f
fa8f
0080
0286
03c5
0086
fd20
0699
02fb
fb47
fab5
fe22
044d
fdbe
fc0f
fda8
02b6
078e
fa65
0446
06d6
0245
fa4e
01c2
01bf
03bd
0039
0310
fd28
0144
068b
00f2
ffdc
feb1
fcc7
044d
0095
051e
fa7a
0154
fea9
02be
fe9b
fb49
fe20
019f
fd0c
01d6
fe56
fcd3
fe1f
0604
018b
030d
fe8c
ff8a
07e1
fb92
f9d9
fed3
fb73
02ff
fcf9
feb1
ffb0
fe00
035e
0318
fe8c
021c
0323
02bf
01df
fd42
07e4
01c4
0834
ffe1
fa76
00ee
01b8
fe9e
00b1
0325
fdc9
fe82
01e4
feac
0736
026a
fce7
0085
0318
022b
027e
02f8
0378
0693
04f4
ffbe
ff27
0312
021d
028a
015d
021a
fe2e
f93b
fbf6
0201
fdb8
04ef
03b8
02fd
001e
00e9
ffdc
ffee
0141
0049
ffec
fa55
feb5
0310
02d3
ff90
0372
0110
046e
02ac
ff20
fc0f
0168
fedc
0227
04ec
feba
fe70
fc78
fdc5
008a
fd61
03a8
01ed
fd00
02c4
fbc8
fafc
015c
0359
fcc4
fef9
0378
fe94
ff1a
0181
0294
027c
ff50
060b
ff28
040d
fc26
fb90
053e
ff19
fc31
fc91
feb2
f778
0137
ff92
050e
0500
fdd0
02d1
fd23
fc73
00ca
fd73
ff1b
ff0a
0364
0136
fb5c
fa91
fc42
020d
fcff
fd2a
00c6
faf8
00a1
041b
fba7
04a6
fa14
fac4
fd8a
022b
fc9b
0545
011b
01ad
04cc
049e
0043
fcb0
fef6
ffa3
0088
02d2
03c8
0427
0230
0250
012e
05c6
fd10
faf7
021b
00a6
ff10
02a2
0052
035d
0234
ff0a
0023
fde9
0344
0642
021c
f840
fff6
03ea
fe04
025d
0194
fbd0
fec1
ffa1
fecd
ff88
fc42
0103
fb7a
fe95
ff08
fecc
0063
011d
01f0
f76e
fcea
078e
fdce
02be
01f4
0868
057b
fb26
0075
fd43
034e
00c2
01c2
04bc
006a
0119
00e3
fece
fd2b
fdfc
fd38
f8e1
036f
fcf0
02f0
fbd8
fe8e
fb9a
ff87
02ec
02e1
fe43
038f
ff2d
ff96
f8d2
fee6
02a5
0547
fd84
0151
fd2f
0233
0355
fc16
0068
041a
ff1c
fc64
036f
03ca
ffbd
fa49
fce6
0324
ff29
010d
f796
fee8
01bb
fc75
05b6
fe52
01c6
006c
fca5
033f
fc1b
0654
0123
001d
02cc
0544
fce6
ff1f
ffd1
015b
f955
fa76
fd74
0181
ff70
048e
0305
01d9
fd0e
0400
fa2c
0070
030d
fd7d
0792
002d
f8d9
0664
fa2c
fe50
0551
0001
f9cc
fc53
01b8
0166
ff58
0438
0207
00be
0584
0158
0150
ff62
fd9a
ffc0
046f
05e5
0229
fe91
001d
059a
018f
01fb
fc24
ff84
fec9
fe9c
044c
ff4e
02a2
0077
0088
00d8
0283
fcd9
fc2f
fcc3
fdab
fbf1
ff2e
fd61
feae
03cd
fe52
fc4b
0077
fc62
03f7
005a
fbdd
fc0c
03d5
02b4
fbfa
fed4
