00b6
0155
fade
027c
045a
00c2
0223
ffbc
038c
fc70
fc11
00bc
0086
0347
001c
fe0b
ffae
fe9a
fc7b
06f7
018a
0237
f894
fd58
0239
febd
016f
ffc1
033d
0024
fee6
ffbc
0106
f839
05b7
005c
0377
ff75
0014
fe53
fe13
017e
000a
ff5c
ff30
fdaf
f906
09f2
0252
00a7
fee1
fe36
fb5c
01ac
01bf
00e6
003b
00ab
0153
059f
fc47
ff12
03bd
0483
fea3
064b
f933
013d
ff0c
f8ee
01fe
04fd
fd21
02c3
fe4d
00a0
00d4
01fa
0046
fcdd
0000
008e
002f
fd64
fecc
036c
0286
fe00
ffb7
fb85
f9e4
02c0
04f7
0160
0172
fdf0
faa6
fb38
fe2e
015e
fed9
fd90
003a
024c
0294
0054
fcab
f7aa
fe35
fdff
05b9
0113
0338
0396
ff1e
f8a7
01d7
0364
00f2
ffec
fd22
fee3
fb84
0409
fc04
fe2b
fc1a
0432
fdaa
03b1
0091
fcde
0006
03a1
020b
0067
fe38
ff55
fb93
ff1b
0423
03d2
0068
fc91
fc12
0144
ffa8
0352
ff4a
feb2
febe
fe8a
ff2d
fcdd
fd2f
fb84
023f
04c4
018b
04db
0416
fe37
0615
009d
fbd8
0227
0129
fd06
011f
046f
08a4
fc30
04a2
0199
fc61
0208
fa2a
fd21
fbcb
0095
ffa8
fe29
0936
fd40
0644
009f
03b8
fccf
ff4c
fb7b
0217
04c9
ff35
0206
fc44
063b
029d
0155
016e
0459
0412
00f5
fbbf
fe3f
fba1
fb7d
0482
0210
0151
fc29
fe60
01ae
fccf
00c7
039c
03b8
00a5
0052
fbc3
ff3a
ff51
00a3
ff88
045e
00dd
fd59
fd76
ff81
fb53
0639
000b
fab3
0360
0522
0357
0619
fe73
0322
00c9
fffc
fc57
fd1c
0113
0021
f945
fd57
fd9f
fffc
02a5
fee4
0377
0335
fecc
0120
096d
fd0e
0355
0156
0152
fea0
0013
fdc3
00cb
fec7
fd15
fff4
00ad
fdfb
03b1
fdaf
0178
044f
0166
feb8
0052
001a
ffde
fff5
fef7
fff4
fdc9
fee6
0122
00e2
fdf8
fc55
0203
fac6
024a
fb73
00ab
02b1
0331
0133
017f
ff5d
0195
0350
010e
0127
07f3
011e
0509
ff81
000e
0061
001b
0461
fe3f
fab1
fd96
ff52
0334
fd7b
023d
0152
02f0
fdfe
ffba
0081
0072
0307
0382
fe40
ff55
034f
016d
000c
016b
fc7d
fe4e
feaa
01dd
0249
024a
00a4
04e6
f568
04ee
ff69
03f8
fda9
ffff
ffd7
ff4d
fe14
057c
03fb
013a
ff1e
0112
0018
fa35
01ca
0068
06ce
04a9
fe99
0665
f932
fe3c
fe86
fe1d
0546
02c5
0406
078e
0045
04a7
fc48
00d3
fa1f
0191
020f
0174
fd47
fda0
ffa0
ff55
fbb8
04dc
001d
0184
fba3
04d9
fdb6
0156
029b
fcaa
0069
01a4
0016
0242
0123
fc2e
045c
03d6
fe4c
fed4
feb7
0135
fdfb
025c
05ef
fefe
fb4f
fbb2
fd8b
fda6
0099
04a8
0228
fe59
0702
fe96
00ff
03b2
fd9b
fe8e
fc5d
fb46
0372
fcf6
fe42
01f7
fb51
0030
fd57
ffe9
0125
ffed
038a
0245
0004
038b
fe54
0565
feaf
fc8a
ffd8
031c
0457
ffde
fe07
fecb
fd4f
002c
fbc1
061b
0159
032c
fcf4
fa70
016e
02a1
01ea
fbcd
005d
fa2d
041c
0451
0023
ff59
febb
f8f4
0392
fe41
fcf9
0405
fd5f
fcaf
017e
0644
fc6b
f6c6
fd3f
0133
fe48
fd31
0132
ff86
017f
fe39
017e
fcb5
018c
0089
fa2f
025a
fe6d
010e
0194
fc56
fc6c
061a
fef2
02db
fbaa
0292
fd91
fbc1
00bf
002e
0308
002d
03b2
fb80
0347
ffad
0201
ff19
03fe
0206
03c3
03e2
023e
fe56
0186
faa3
039a
0219
0077
0112
0506
012a
0483
fea3
ff7a
fd91
01bc
ff5f
feaa
0555
048e
ff83
0175
01d1
fb20
02e0
024b
0561
fc56
feb4
fa48
fea6
024e
00e4
fe20
ff74
fcd4
0165
fc59
ff5b
ff54
0300
032f
fbc3
feb5
fe5e
0233
04b0
ffdc
fed5
004a
03ed
fed5
03db
0035
03ac
00b8
fb4c
00a4
027b
fe11
fe36
fd18
03bf
fdad
01d3
02b5
fca0
fb38
fef7
02f6
fc3b
fc9d
fe44
02bd
00d2
0214
0206
0066
fb53
fba8
fb3f
ff6d
03cf
05c6
ffef
ff6d
ff72
014a
fef1
024d
00d1
03c1
0064
0154
0281
018d
04bb
fe50
fd55
013b
0222
0072
fb25
fe53
04f4
0107
fb83
fe00
fd7a
fe74
fe76
fd6c
fff7
fcf0
ff0d
fdcf
fe56
0304
037c
fc4b
0171
0482
0508
046a
019f
0158
fce4
0337
fcea
fcbd
010d
0240
012d
0300
01c6
01a5
0105
fd43
0164
fcae
feee
01b3
fd53
fe8b
fd4e
fc38
ff9c
fc93
ff6f
00be
02f1
fce8
feae
01e1
02f9
fe03
0135
0596
fdf5
ff29
fe10
fe6a
ff68
ffbb
02b4
00c6
02e6
fe72
fd83
02e8
fa05
fe2f
fe3c
030a
0323
ffb5
01e9
017b
0043
fcbe
04e0
fb5d
fe85
fe04
fd94
02af
016a
ff26
fea7
fecb
0053
0337
ff25
01ef
00a3
0479
fdff
021c
032c
fe07
042e
f9bd
0015
fef3
fbca
03e2
fbc3
fc63
ff37
02af
01ea
ffa5
05bc
fe45
fd64
febd
0131
041e
ff2e
02a5
013a
0156
fc31
0098
ff5a
038f
042f
02f3
feb9
013b
ff15
fa4b
03d9
0188
fe93
0010
fc98
f883
0827
000d
fd6a
fc44
ff36
fa8d
f69a
009f
ffc2
fcf6
0347
072c
005a
fee1
02e1
0173
ffea
023e
0232
001b
00cb
ff8a
fbd2
019f
00f3
04ca
ff26
ffc0
fbac
ffa3
ffeb
0280
