0014
0a20
034b
fe66
005d
ffb5
0420
fe49
ff9a
fc27
facd
003b
038d
0168
fc82
0212
fdd6
001e
ffba
faee
fcab
0374
fc94
ff58
029a
0471
ff6e
034d
028e
00b8
fc40
f8ae
f96d
fae8
0041
ffbb
0057
02a6
00b1
fe62
01b6
ff06
0332
0482
01e5
036c
fd25
0388
0376
00de
fdf1
fd92
0388
fd7f
0243
000d
0060
fc14
0500
0193
fcd2
feb3
fd45
066e
fe90
fce6
0337
fe20
fbb9
faaa
01bc
fb31
fff3
0434
00f6
02a5
0050
0359
01af
00a8
00da
023c
fbaf
011b
03e2
fcf6
feee
fd62
fd76
fc87
fc8b
02e5
020e
0292
fee2
f89b
fd89
01f6
fea8
04b4
0138
fa47
ff02
0211
03bc
fc56
017b
f86e
fed7
03ef
05a2
0410
ff74
fbde
012d
f726
0738
04d5
fb6c
06f2
01ca
fbdb
feaa
00fc
fc5d
0245
fe2c
0746
fb59
fdca
047b
ff11
0553
0087
f8fb
0206
02c9
fb16
ffaf
04b5
0151
000b
fe77
00d4
fadf
061e
ff54
fe89
0175
007e
fd7c
00f8
fc4d
0657
01c8
01aa
0060
0141
01f3
077b
053f
029e
fc9a
f6ab
07c7
fd24
01be
f7f0
fb1b
021e
0546
f7d2
01a5
00ca
044d
fa17
02cf
0085
fcb7
fdeb
ff55
ffce
f9f8
03f1
04b3
ff18
030b
0167
fe5c
0194
0189
02a6
fff0
fe00
02b5
011a
feb3
fd62
ff0a
01a6
f946
fd76
ffe8
004b
ff2f
0211
0032
fd13
03e1
ff5e
00a9
0259
07ac
0239
fe32
007f
0290
fdb6
0056
f9e3
03b8
04a4
0364
071a
feed
fe1d
024a
02ed
fbaf
fc35
00aa
ffb0
fd35
ffe2
fd72
fc90
0047
f9c7
0458
fb1e
020a
ff78
016a
fee1
fbe6
ff0f
04cb
ffd3
00cf
0363
fdf3
fb71
fe39
03b0
01ab
fb75
fc31
fbed
fc1d
fcc0
ff4b
fddd
fe73
ffa2
0612
0054
002a
0075
fed1
fbd9
ff94
041f
0329
0404
0282
002d
fab0
faad
ff0d
0246
009b
014a
fca0
fe89
fda6
00c3
ff40
fc75
00e4
fcab
04e5
fd78
04ea
00cd
ff1a
fcec
fde2
f955
0038
01de
00c9
fffb
ff2b
ff06
ff4e
fcf3
fe35
fb12
0324
0685
0190
013d
006f
02de
febf
00a8
fd49
02fb
fd00
021d
002b
01fa
fb92
00de
fdf2
fc6c
fd04
ffea
fc4d
fb5f
fba9
fc55
ff9d
00db
fdf9
004a
0582
fce4
02c7
0538
fe69
fe8e
ffe8
005c
fe10
fd3e
02d8
fb43
fc85
fb32
01f9
fe2e
ffb5
0410
faa4
0092
fe80
0267
ff98
037b
029e
ffc2
fa3b
fdd6
0004
ffc8
fc17
ff0d
fd22
fefd
ff7c
fdaf
0518
044e
0419
02cf
fea0
f436
05da
ff7b
fbfb
fc52
fb50
01b0
0334
ff4b
009e
03fa
ff14
0193
03aa
fc25
fc9b
fe7c
0231
012f
fcd5
0125
00da
ff0c
f90a
0346
fe14
fb70
0677
003d
0055
fd3b
fe33
fd87
fe60
fc10
02b8
ffce
07d1
0563
0142
02e4
fd5c
fd30
ff01
01b4
f9ad
0216
049a
fe9a
fc1e
feef
01e6
02d1
fcf1
ff1c
0193
fe2b
01ff
ff62
fdd8
013e
03c5
fec9
fe68
0441
ff7b
019d
fd66
02f1
0281
fc92
065f
ff47
fa88
ff7c
02d1
fd75
02e3
0102
05c6
00a6
0121
0203
0166
fd57
0641
00e2
fe0f
fd6c
fb79
f915
fdb3
0158
ffe4
fc25
fd74
007b
01bb
fd75
0091
02d3
fe59
05b1
030b
030b
02da
ff66
ffa0
ff94
fe55
fdfb
fbc2
fb39
058c
02e4
f947
fdf3
faad
020c
0028
033b
0007
f689
02c4
01ee
fd90
fccf
027c
007f
012f
035c
00cd
024c
fbc5
ff27
01df
0252
0591
fdc6
0151
01a4
fe7b
06d0
0203
fe3e
0487
0043
007b
fda8
feb3
006e
fdde
0670
0099
0784
fd37
ffea
fee1
00bc
0239
010b
01d0
f949
fbdc
f9a4
fe5b
0014
fd42
fda5
fe74
ffbb
00ec
003e
fd84
03ab
fe2a
fcc6
04d7
fd72
fa05
0569
fc85
fd1b
fcea
fead
fcf2
010d
ff05
fb40
03da
fc9e
fce4
fb72
fca6
0085
0009
0008
fff5
04d8
0257
0954
01a4
02a1
00c2
01b4
020f
fca8
feca
0165
0057
0227
fbd6
030e
0456
07c6
040c
fbe6
019d
feec
fef7
0593
fcb0
fde6
0081
0278
0767
00f6
0224
fb85
fe4f
02df
0097
ffde
09d2
ffff
fa62
038e
fee6
0777
f97a
fc37
ff94
00aa
ff3e
02a5
03f6
00c1
043d
fce7
fe66
fd3e
ff54
fbe5
fd9c
fec4
014b
fd99
f7f4
041c
fcf3
0601
fc2c
fe00
0100
025b
ff1f
051c
057a
0913
fed1
fcda
fefd
0314
ff1a
fdd3
0324
04fb
00a1
fb34
0260
051d
0119
fe20
01c2
fde6
04cf
f961
ff85
fdc4
0026
0273
ff4a
fc2b
04d8
fe8a
ff78
038a
fceb
ff02
fee1
ff47
0371
fdf0
051d
01f8
f92e
03ca
fb95
ff84
f968
0241
f99b
0042
0251
fd07
fbb0
f923
02ce
0084
fe9d
fc32
fd78
03a4
fcfb
fef0
0045
0728
fc01
000f
fa92
ff94
019f
0290
fc51
feca
024e
0240
fdd5
0785
0449
0276
0264
fcc0
027b
fb26
0434
fd7a
028f
03ab
06c4
027d
01bd
0178
023b
fe12
072e
ff6e
0330
0052
fb47
0287
0191
033e
01ad
ffdd
0553
ff28
0744
0442
fd24
02fd
0176
fdc7
fe0a
0763
0708
003f
ffb6
0596
008f
08d1
042b
faf5
fff9
015f
029d
fc32
021b
fd68
fdd1
0307
0324
0083
fe61
0444
fc84
0284
00da
013d
004d
00d0
fb05
0463
fd4f
0349
fec4
ff2a
