fdc4
ff39
fdcb
fcdb
0197
016a
ff99
fed7
01e4
003e
ff8d
0291
0030
0174
0098
ffc3
ff1c
fe4c
fe6b
041f
fec1
ff16
fd12
fd02
075d
fcdc
02f7
00b2
ff35
ff95
0649
03a6
0139
00ea
feec
027c
fe2e
fac1
fe06
017c
0313
04aa
0230
0298
0191
fcd8
fb76
fede
fcfb
032f
fed3
fea6
02d0
0466
04dd
020c
ff2b
0056
012e
01a1
ffa5
0085
065b
fa5b
ff81
fcfd
fba5
023a
03bc
0361
fc1b
fe82
03ae
fd96
010b
00b3
fbc7
fe8e
004e
fb00
000e
02aa
fd3e
0478
fe0a
fe8f
01ea
ff56
037f
01db
fc95
00c7
fc51
ff9e
fff7
fc6d
03c4
fc1f
fc11
059e
fd47
0434
0040
04ef
0476
055d
00c4
025e
fc28
00c3
0235
008a
0066
f82f
fe57
fe07
033d
0233
02d3
ff38
0166
ffdf
0228
fec0
fd3c
05b9
fdca
04eb
fed6
044a
f968
008d
0269
0324
031e
0254
046d
0079
fe50
fc28
fdec
033c
02d9
0062
05dd
fcc2
feb4
01d8
fc54
ffa2
fb15
fbaf
fca0
0057
fc98
ffcb
0107
02b8
016c
0514
03a6
fe1e
f989
f901
000c
055a
0121
ff6a
0077
fd71
ff82
0083
ff72
06cb
fc26
fc27
fdda
f9b7
fe5f
feda
fd21
0072
fe3c
0258
fe2f
fc46
ff62
ff3e
024a
018a
0092
000d
00a7
ffbf
fb9d
ff0e
fc7e
046a
051c
04da
0382
fd4f
06ac
01e5
01a5
ffcc
f916
03d2
028f
008f
fb03
01ed
0341
02cf
fd45
0128
f869
0109
0032
023b
02a9
fd5a
008a
02f7
ff92
fc1d
0026
046c
00e4
01a9
00cb
02da
fe6e
feed
016e
fa09
fc8d
fd69
fdac
025c
0251
0512
fbee
fb59
03f6
02ef
fe91
fd4c
fcca
0024
011c
0300
014c
fa17
0243
fea4
feb5
ff54
fc8a
fcf0
00a9
fc6d
04c5
02c2
fded
fe95
061b
0480
02cb
ff29
fedd
fecc
0489
0264
01fa
02c7
0025
031a
000f
003d
018c
feb0
03c4
039f
ff4f
03dd
010f
031f
00b8
ff14
01dc
0066
fca1
04b0
feac
00c9
fef8
0458
0453
fb26
fed1
fbf5
fad5
0474
ff06
0471
fc1e
ff55
0289
0156
038a
0442
017b
fea2
f7d4
046c
02ed
ff48
04bc
fb72
00d2
fe33
fc99
fd35
ff16
fe61
0532
ff90
fe2f
032d
06b0
00f5
01c4
027f
fa62
058d
fdd9
fe2c
fdcb
fedf
0199
00c2
fd19
fd35
ffe0
0031
04b7
fe11
0051
ff50
febf
033c
fc1b
f9c1
05f5
0644
00d6
01d5
0978
0153
00f6
0426
fc88
fc01
fd68
fd3a
008d
fc77
00c4
012f
02e2
0065
fcd7
ff9c
006a
fdf0
019b
fdd8
faf0
ffeb
03c1
ff2d
ffc4
fe6b
fdfb
01b7
fbb5
048e
ff24
02cb
fe3c
040b
fa45
fee7
fbf0
fe45
ff34
ff6c
fc94
ff66
fde4
fced
fa86
0147
ff68
fc55
fba5
0353
026e
05db
fa9f
ff77
fba6
febd
0049
0081
00bb
04a6
fab2
073d
ff6a
fabf
03dc
008f
0265
fe15
fe29
0191
f9a4
02c6
fe68
fff8
01e6
fc57
fad4
0192
03f5
ffcd
fc45
ff4f
fc80
010a
01b6
01e2
00e6
0209
072f
fce5
02bf
fdff
056e
02c2
00d6
fe80
0333
04e8
fcbc
01e9
f8f1
027c
fce5
fe2b
f679
feb6
0200
fe38
05f4
050d
0171
052b
ff82
04c8
061d
fd39
fb11
02a6
fe0b
0420
fc3c
040b
0015
ff0a
01d2
fc99
ff2e
000f
f6dc
00eb
05ec
fbd5
0260
011e
0162
0107
0237
fa43
f671
04ae
0117
054e
00c0
ff61
fed1
fe12
0078
fd15
fb83
0245
ff1e
fd63
025c
002c
0124
02a8
fb5d
0037
0124
04fe
ff31
0360
ff9f
fe03
fd9a
010e
fa39
f97b
fcf6
fbb2
fe16
fec1
fb78
fe49
0203
ffb5
0138
00b3
fefe
01db
0759
0385
fb35
025d
041a
00a7
f85c
fbd8
fec6
fc16
0295
fb0b
fefb
0100
0b3e
ff07
fd83
fd20
ffcd
fbb6
039c
03c1
00a4
fbbf
fd57
05f4
ffd0
fa79
fd05
fc74
ff4f
03e1
03d6
009d
ff51
0279
ff18
0897
fd1e
fd0d
005f
04e2
03c8
00ee
fdd5
05a4
fb7b
0379
01a8
020a
ff07
fe4d
fe52
01f4
030a
06ed
fc8f
0140
0017
02ae
064e
020b
fd8e
fe5b
0031
fc07
febd
0275
0354
03aa
04ba
01bd
ff8a
014c
ff36
05d2
fdfd
ff7d
0614
fe36
0147
fe2f
f772
019b
fae1
ff11
01a1
f95e
fc24
031a
fb7a
0091
0842
0213
0003
045d
f930
009c
fe0c
f9b5
ff86
fc95
0092
0062
ff8c
042e
ffa5
010e
0759
00c5
fcbe
08bc
fe63
fe5a
014f
feee
008a
03c1
fdfe
033c
fc93
fdf1
fda6
016b
0134
022a
f89a
fe49
025e
043b
fcfd
fd0b
035a
0369
0035
fbad
03ff
0648
ffca
033a
f902
fb6b
001c
fccc
fb73
028c
036d
01ed
03d2
fb96
0241
fc97
fed9
f886
fc08
029c
fc11
0404
fd58
06e7
01eb
0483
050c
feb1
0033
fed1
00f1
fec6
0680
03d1
ff0d
035e
fdb1
0249
009c
ff80
ff3a
0035
fd2c
02d2
ff25
0107
fcaf
fea4
02b8
fcab
0278
02fb
0255
026d
02c1
ff7d
ff83
04e9
fc99
0143
fffc
0077
00a0
0611
ffe2
feef
ff97
fde6
fe71
00d2
0346
0135
f846
fe61
0741
002c
01be
ff5b
02e0
fca9
0361
0130
04e1
058c
02dc
020c
fd3c
ffd6
026d
fc34
fe1a
0089
0312
0744
049b
fc2f
fe9a
05b3
feb5
0164
046c
013a
f732
fb7d
0494
ffee
fc59
ff8f
03fe
f98b
