057a
fca2
fd3d
0440
fd88
0505
fca1
faa7
fe37
02a7
fe56
fed5
fc0e
009d
fe37
fb6d
0263
0896
fc86
007f
fd2f
fe74
03b9
fe36
fb85
ff63
ff15
0492
0056
03be
fd49
fd5c
04fd
fe1a
0520
ff31
0180
fe7d
00c4
00f4
0220
fece
030f
fa19
0020
fee9
0011
ff1b
004b
0291
fa84
02e8
03d9
fdd3
006a
04f5
004c
fce6
025e
00fe
0289
031b
fd77
0092
016b
03ba
fce2
fe13
0175
0610
06cf
fe00
ff51
0176
01d3
00e4
00d0
fddc
0330
00fd
fe38
01a9
0386
fdf9
fc9b
ffdc
0281
ff30
03ab
fbbe
ff97
fedc
ff82
0180
01a8
ff92
fd17
fec1
01d6
fdc4
ff2a
fea7
02b7
fda6
fe23
01af
fcee
0183
052c
fdca
fb6f
00cd
0022
04f7
ff93
ff6e
0892
fd7b
fee1
fff8
fe96
fd44
fc51
02e6
08cd
031d
fcbe
0327
00bd
01e9
031d
fed5
fd18
fba6
0089
02b1
fe18
fd9e
0526
fe9b
0308
0076
000d
ff12
03a6
01b4
ff48
fa9b
fa4c
fc58
fe1c
ff78
fc8a
0043
fddb
029b
0262
00c8
061e
00ac
00ef
fd5b
fea0
fcc8
fb00
fb7c
fde5
0247
01a7
fa2d
027d
020c
fe44
03de
06e2
04c8
0137
fdd3
00ab
fe63
021e
005b
fc08
ff52
0255
005b
fe2f
fe2b
fe32
ffd6
03a0
fd30
03bf
fb24
ffe7
ff56
00c2
fab5
0116
fece
002e
fe2c
fe6f
005d
00a5
01b2
036c
fd36
fe61
01f9
fd55
feee
02ea
006c
fdd5
01b4
03d6
0276
030a
fe56
fccb
0033
0376
01d2
fc2a
01ee
fc6c
0024
fef4
02eb
fe53
01d2
00cd
01b3
00fb
0399
0026
fe53
fdd4
0445
fdf9
f932
fe9b
fdc9
0056
0144
ffcd
ffce
0150
fe20
ff69
fd51
ff39
0070
f97e
01e4
043c
ff54
0059
fa04
00d2
0069
ff5b
051f
0006
fc07
f837
047c
fe2c
fea1
0176
fe3a
faa4
0489
ffa0
fea8
fd3c
02aa
008b
051d
0304
0248
fd62
0541
017a
fe68
029a
fe54
0073
0442
fe16
0366
0391
00eb
0335
fd85
fde4
0372
0371
01b9
0133
00ea
ffb7
fb10
ff43
02a3
fff3
002c
f7c1
ff3b
fee5
0116
fe51
fec2
fd43
f7de
00d0
0379
00d1
fffe
fe65
03de
0411
fcd5
022e
ffbd
00e3
036a
ff55
fd95
0058
02c6
0488
fb53
fecc
032a
00fb
005a
0465
fb71
0209
0363
01b3
ffe2
fb90
01fb
fead
0345
00fa
fe03
feae
fc10
0197
09e1
00cc
00c8
ffa4
fec4
feaf
0166
fefb
02a8
01df
ffa3
0037
fe8f
01ca
00dc
04e9
fe16
0045
0330
fee8
fcc0
01d7
fed4
016a
ff75
00ac
fcfd
003a
ffce
fa1d
ff23
03c7
fd75
ffa7
fc2b
0062
feaf
0922
ffb9
fb37
fcf2
0354
ff4f
00d2
fab8
ff64
feef
fdf1
01a9
022b
faa8
f95a
fa6f
047f
039f
02ea
02e7
0301
ff1f
01ae
0140
065b
01a8
0224
fca2
fe34
f9ce
ffe3
fcac
0355
fb92
02ab
fd3c
0251
0007
0194
01d5
013c
f97f
fcd7
fbea
fd74
010e
0012
03b5
02e4
0084
0212
fab6
fdc9
fe26
028b
ffff
ffb5
ff37
ff95
0012
014d
024a
02a6
fe4a
ff88
02e6
0216
fec5
fea3
fe93
04fe
fe0b
ffe9
f58f
01ef
0197
fdf7
fd44
fcc6
ff94
fbc2
fbda
0011
02fa
00c2
fd8f
ff11
02c9
0319
fc49
04c8
0043
03ad
0500
fd8d
00d6
01b5
0104
fcd7
0173
0225
030e
fb98
04f3
0072
ff0b
01ee
fa31
054e
fe95
ff4f
f848
ffb0
fbdd
0111
039c
fe7e
0475
008f
007a
0059
035e
030b
0252
fee6
fddd
fe97
ff29
00b2
ff22
fdc9
fafc
0130
02b5
fd9c
051a
017e
fa96
03c5
044e
00a2
00b8
ffd7
fe76
01d3
ffdd
f941
ff6a
033a
01c4
ff8e
febb
0017
0190
ff6b
0628
0336
01d5
0353
00d0
fe83
02dc
ff15
fae8
fa10
fc0b
0697
01c0
fd4e
fe6e
fe34
0258
015d
00e4
fe07
02c3
0262
029d
031b
fe3c
fbd4
fda2
0321
0349
fee2
01fc
042a
0055
0147
f9ad
fe93
fec2
ff61
fa3a
fec5
0173
fbff
0328
03f7
feaf
feec
0377
0244
fc45
feac
0208
0081
007d
006f
01c2
f9ee
fb2c
ff88
fae8
01e9
015a
01a9
0392
fc75
00e5
ff84
0062
03ad
fe81
03d3
025d
fea6
02ef
01a1
fbce
faf6
0295
ff53
001c
0174
fb1d
faf6
0315
fc83
ff00
0390
fdf1
f9b7
02a4
023f
00ff
fb89
0004
03af
fc57
ff7c
ffad
fd60
ff0d
fa6c
0197
03a3
fef8
031e
fd88
ff13
00e4
f9e8
0448
fb85
0138
03aa
ff3c
0289
fe4c
fd68
fe9e
002b
fb9c
f8eb
0421
0421
ff87
00e4
0131
0199
fe1c
0089
fc88
0035
07e8
ff18
05ac
0347
fbaa
009e
0229
03ab
00a8
02d3
fe5c
fd9f
ffd2
00c1
015a
0146
fd9b
005e
09d1
ffa2
0291
0346
fd40
fc54
03e8
00a5
fc93
ffac
fef9
fb63
fb45
ff1c
fa87
ffa5
fcfb
00fb
010d
0094
004c
ff66
ffa8
fff0
ffcc
fef1
003d
ffc4
030a
fc71
ff37
01c8
02b1
fa7a
0450
0461
029b
fc67
02b9
01a1
0291
fa67
fa22
fd42
0378
042f
00d5
fd89
ff16
00b7
fc35
fc5c
00d6
0164
01e5
fd58
fe59
01f7
0169
fae2
0391
02ce
ffcd
fd86
08b6
0403
051d
f6a1
0126
ff45
012c
025e
fd43
fdb6
00cb
ff08
ff2d
febe
f9bb
01fd
00f1
0398
03c8
0203
fe63
04ea
01ee
fd97
0002
ffb5
fda4
