fe60
fe98
fb54
07d0
06d1
012e
0209
0035
0708
fd39
fc73
fe49
03dd
fab0
fdde
012d
ff07
f93c
ff21
04b8
02f9
fe01
fd97
fefc
02c7
028c
03c3
04a7
050a
0501
fe23
fb10
fe43
03b7
02be
fc07
0268
ff1a
0199
ffe9
fb33
fef5
ff83
fc99
fff0
fc21
0367
0068
fe0e
ffc1
fb70
faef
fa44
ff08
fca9
ff7f
0389
fca7
01af
02da
fff6
0213
00a8
00ba
ffa7
faaf
024a
02cd
fed5
f9a8
faa7
fd71
0566
02b7
00b7
fddb
0432
feb7
fb1c
fca3
0179
fe48
f96d
fd0f
02cc
013c
0165
ff23
015b
fb1b
fef0
fd47
040a
02ff
007d
f9ad
0007
fd80
fa39
0615
03b3
ffed
0527
fe06
036a
fed2
fdc9
0156
022e
0150
0394
fcaa
04ff
0206
feea
0177
fa29
ff23
fd7f
0178
ff29
05cb
fb69
00ff
ff6e
fd88
fdac
fde7
0033
0059
03e3
0138
fb33
0310
0260
03a0
0408
fd23
fa80
0378
f88a
0088
fbc4
fea3
fe66
05d9
02ae
fb3d
0670
02a1
fad5
fecf
03b1
fbdc
fe08
0567
0150
fe0e
ff4a
0396
f85f
f8be
fdbb
0054
fe32
0176
fc5f
ff3a
fe5c
fec3
01f6
ff88
0273
fd13
fdde
0115
fec4
03cb
fcce
0058
022f
02bf
0057
fe0d
0431
fe95
fadf
039c
059d
041b
00af
fdd9
ff36
00e3
fd18
023b
02e2
0607
fa02
01fe
0304
fe78
0289
fee8
004d
fce2
0106
fd58
fce9
001c
fbc3
fa5f
fe2c
0154
fea8
03ba
f913
fbef
fd0a
fe2b
0083
0158
0024
f8ce
fd05
01de
03e0
fe8d
fd5c
03fc
0002
fd29
027e
0272
fec6
015e
02f6
fe52
04cf
fcbb
0526
fe53
fc87
fa20
022a
05d8
ff93
fe32
0665
fc87
07eb
003e
feb4
04ff
fcdb
f9ac
00a2
fbe5
ffd1
feb3
003d
fdc1
003d
feb9
021c
fc9f
0476
05fe
ffcd
0050
f9e3
fbd9
0474
053f
04a2
fb6a
0094
0519
049f
02ed
0205
ffc9
fd00
053b
00d5
fe4d
ffef
ffab
fda4
0480
fe7c
fa5b
ffdd
fecd
02dd
fda5
01fd
ffcb
fd3c
0002
0303
0059
fd9d
04e9
032d
03b0
0558
fdea
fda4
055b
fad0
058d
ff5e
0140
fc9a
0677
fea1
028e
0165
01a8
fe7a
fc74
00ff
fefa
fff3
00ca
fca7
ffda
fc0e
ff7e
fe92
fd69
02ac
feb1
00c2
06b7
02d9
040a
face
0180
033c
030f
f782
fbc0
009e
fc4e
02f4
fb88
fc9d
f952
fa0d
f861
0523
fdf0
02ff
fca9
ff2d
ffd0
fd88
fa39
fe6e
03c2
0227
00b9
006d
fada
016e
00f3
00bb
0017
0625
ff81
02d1
0309
fc0c
01a7
f66d
fe85
01b5
fd40
fbe7
016a
fe9b
fd9f
fffa
0118
ffe1
03c9
feb2
ff0e
ff9b
fd23
0364
ff35
0257
032a
03de
ff2b
fb0a
fcac
04d0
fcea
fc6a
0012
fa1f
fd95
030e
ff94
01c7
0721
07d1
f9a6
f8e8
fa73
ff80
014c
fed9
fb62
fde4
ff5e
fc29
0404
ff54
0785
fc25
0060
fd7f
fd53
01d3
ffdb
fc7b
fdc9
fc33
fd40
003a
02fc
024e
ff57
ff52
fcae
0043
00d5
0154
058e
0023
fb10
0504
fd30
0011
fe64
0117
fd5e
faa4
ffff
ff77
fc64
fed5
03c5
fe91
ffc0
ffe5
0511
fc7d
01ab
fe80
feec
02f6
00bf
00dd
f813
fda5
014b
010a
031f
fcf1
feac
fec9
0262
ffcd
fef2
faab
fe62
f61c
fbff
ff23
fe6a
fbef
030b
00e4
ffe8
fddc
fc6f
fb4d
016d
fcef
fdd0
fdb2
fc43
0568
01d7
fc19
0612
0326
0260
fd9d
014e
ff4e
ff7f
fe06
01e1
03c6
fe08
fd47
fc7c
0221
fcb3
fa86
041a
04d5
fe0e
018d
029b
0309
fc83
f956
fab1
fcf3
00b1
ff78
fe9e
faef
0636
fe44
021a
ff1f
fb97
0045
027c
fa75
05fa
fbb1
fdf0
fecf
fce1
00eb
03bf
028f
ff3d
009e
fe3d
0074
0561
019c
037a
0084
01a0
0320
feb7
fe96
0118
fe88
fdfb
001f
052e
fde7
fcf6
0439
ffa5
f7a4
048e
03ea
fa18
feb9
fde3
02a5
f96b
0095
00db
fca8
ff82
0157
fdb9
0159
032c
ff12
03ea
fc61
fe02
ffd1
fe8d
fc65
01de
011c
0487
fe35
feaa
fe29
00fb
04e5
fce0
fb24
00df
fbed
0401
0160
029c
fb61
054a
ffc6
0151
fe37
0146
fdd9
07f1
03a1
0203
034d
01e2
ff85
0504
0214
009b
00c6
06c2
fb65
03b8
fde8
fe10
04ae
0321
fc39
044c
0616
041a
feb2
fcd6
02b9
00d3
ffab
fdbb
fcea
ff0b
0035
039e
fe3f
0529
02af
fd17
ff84
065c
0322
fb95
00cc
fe3a
ff66
fcfb
02f3
fe80
fd8d
fe44
027f
0043
fd25
00af
01c8
0278
f981
fe1f
063b
fe3b
050d
fbc2
ffcb
0544
ffc0
fbfd
fb8d
f9d4
fdde
ff36
fdf4
f9b3
fea6
0233
fa9c
0084
02f5
facf
0051
04a9
0216
02ef
02f7
0369
016a
fe83
f9a3
06e8
0457
0452
0237
01fa
01f5
fe2d
fc45
041c
057d
009e
fbfb
0113
fbd5
0441
fcb1
fcd1
fe15
02d5
0232
fe7c
033f
04d3
029d
0565
fcd0
0228
ff98
00be
0277
fee1
0064
0178
fcc2
07eb
fe67
fd1b
fc29
0310
05c1
0118
04b6
ff4c
0167
ffe8
fc03
fcd2
0219
0031
0013
fe24
fb30
ff91
ff05
0481
07b0
ff0c
0374
ff0e
fcab
00b3
011d
fe58
025a
fb61
fc84
0421
018e
02d9
fe93
fe59
0200
ff90
0046
fb12
0490
fa90
fa89
fd97
f97f
fc38
014c
ff39
fcb1
02c3
fe82
0339
