fe14
faca
fe1c
01cb
02d5
0078
ffd7
0058
fcd0
fe95
02ad
fdcc
fbff
037c
fbd4
012c
02e7
fa48
fdf1
03bd
fc93
fa50
fff8
fa6a
fdfc
fb9c
02e2
fe23
0118
fcb0
015c
fe7d
feed
ff0b
ff83
fd58
0439
02a4
fbc0
fce3
03be
0243
011b
044e
fc4f
0465
0470
fd2a
fd7f
0363
0682
015a
0311
00fb
fe01
ff80
04ad
fe22
fffd
ffc2
0167
fcd6
01ad
02d7
fe14
005a
ff68
0414
0398
ffab
fe64
fe92
01b2
f803
fdf8
ffb2
ff2a
fdc5
fc23
fac7
fc86
fda5
025a
0249
01d6
ffc0
fa60
fdc5
03d4
0002
0451
f7b6
0202
01cb
feef
0245
054b
0215
fe59
0071
023a
fff8
007e
fef6
fbac
ffbf
05b4
0081
0102
ffc0
ff8a
0047
05bc
02c3
f8b8
00d6
ffbf
fbae
0085
fead
0165
0383
fc85
0516
ffd7
fea0
0083
0367
036f
0317
ffab
feb7
fc7c
0325
05ab
ff69
00dd
fdda
0152
fd6e
0014
fd87
fd36
ff84
feda
01ef
fef2
0001
00dc
fd04
ffac
fee6
0582
016d
037c
ff72
0074
fcd4
fb62
fc23
0545
fc1c
fa01
075d
00eb
ffa3
0533
02e8
0282
fec4
ff67
ff3f
fee3
fda9
fef1
fb54
05de
0181
031c
049c
03da
ff61
fb83
01e7
fcab
041c
fec9
015f
fbff
fe78
0132
0502
00a6
ffc0
0118
01b8
066c
febc
028c
01c4
0062
0260
f9e5
025b
fd94
fdad
0392
ff72
089b
039c
fea5
fa68
f856
fe20
051a
0001
05f9
049e
fec5
fe88
00ae
0462
0368
fba6
012d
01de
00c7
fb7b
0350
fe64
002f
fe00
010d
fee5
04e2
0638
011b
fce7
ff9b
0276
fc7b
fc44
0417
fe85
ff1a
02f8
fed3
fe57
0219
fb13
03c1
fecb
fdcc
02a1
fea7
078d
013d
0098
04bc
ff59
ff9f
0040
fea4
ffb7
02ca
fdb9
02d3
fef6
00da
ffa4
0162
0048
0193
fd46
0244
0085
ff04
fdad
f945
f77d
f998
067f
035e
02dc
fa0e
fbbe
05f7
fff3
045e
00e8
fd1c
feb5
ff09
ffd7
01fb
0496
008e
003f
00d3
03dd
ff5b
01e0
0174
01ae
fd93
ffba
ff76
ff4d
048d
0206
00bb
002e
02ce
fe62
018d
faa0
0130
02a3
f940
0005
fd23
fe0e
00bf
fd7e
0346
fe5b
0012
fe43
0308
fd42
0478
0038
0394
0194
0020
fd96
fe3d
fd16
fe84
0119
fc93
0332
fba1
0121
0345
02a7
f975
ff12
ff93
fd9a
016d
00cd
0112
0262
fff7
0130
ff7a
fad6
01a3
02af
033b
0028
03e9
f9be
005c
012d
01cd
ffe2
fe6f
0418
00c8
fed9
fd69
feba
0194
ffe1
fea8
ff63
024a
fe55
fa54
0167
0338
053a
fd16
0432
00e4
0332
0324
fcdc
ff60
0274
fed7
028d
02f2
0234
fc4d
013d
032c
fcfb
035d
fbcf
ffee
01c3
00f1
05e2
ff1a
022d
04d5
fcde
031e
037a
0118
010c
0053
fb68
fe7c
ffb4
03c0
0148
ff4f
f89a
01d9
ffc2
02c1
fd19
ffaa
fd5f
fda5
faec
0057
facf
01f8
fbd8
fd42
04a0
fb11
016a
fff5
fb02
021d
fcf9
003f
fd28
01ce
0422
fecd
fbb2
ff55
ff20
003e
02ac
fe0a
02f2
0361
03a4
f93b
fb61
fb9b
0145
02ba
f9c4
fec8
fce3
0155
02af
023e
ff1d
0171
008b
05c5
ffeb
0503
fd55
011d
0004
ffbe
0527
0212
ffa8
01ee
03f0
05d1
040c
037c
00aa
0532
fd94
fe14
ff74
028e
fd2c
fd42
fdb4
0267
fe76
fe9e
0148
0471
0495
057f
0536
fda1
00da
0357
0353
0439
fe1b
003b
01d7
fe70
feeb
0413
fe01
00fd
05f0
ffd8
0432
fde9
ff39
fe94
ff47
ff6a
fdda
039b
fbd1
fe90
ff15
fcd6
009d
057b
fe4b
f72d
fe5b
0016
008a
fa01
fcb8
fd05
02ef
0395
fd55
ffef
04f1
061a
0014
01ca
fe6f
fe48
02c3
fe13
fe35
0a74
0209
0150
041b
0186
ffa8
fffa
0124
0025
ffd2
fe25
0135
fea2
070c
f9a3
fca7
01b2
ff70
ff38
014f
0083
0578
fefc
0482
00bf
fddd
06b0
01f1
fd69
03fa
fca1
fdcd
fd04
fea5
f8b0
0165
004c
ff40
fff6
040d
01cf
f6af
0251
00bf
fb9a
fa5e
ff83
029f
ff32
fad9
fd1f
fea0
fcc5
0702
063e
02e7
fe5c
0245
0ad8
fad9
ffb1
fd6c
fe0d
004a
fec8
0232
06ff
0261
fc78
fdd3
00c9
ff53
fa1c
0153
fda3
ffcb
0452
fabd
001e
fd60
0211
006f
016f
0206
08d3
fdf8
04e3
0189
fde1
f9c9
009d
0137
0315
01b1
ff5f
fd0e
fece
ffa0
0055
0023
fe1c
fcdc
0141
0481
0158
fbca
043f
01ed
027f
ff83
fd90
0203
fe5a
007c
0071
041f
056c
ffae
fcd0
ff17
0137
0675
fd89
001b
fdca
fff8
008e
fced
fafa
062b
03af
fdd9
0492
fe42
ff10
fd9f
05f1
0001
fdc9
01a6
054f
0207
fd43
011a
0002
fb6d
0185
0407
ffd8
ff04
fc14
0493
01d0
016c
03fe
fc9c
fdd4
019f
fddc
003a
fbb1
01a1
0369
fd52
007e
0353
fc6a
03cf
fb3e
fd4c
ff18
04e4
fe8b
04b5
ff28
00e7
ff1f
f9f7
fca3
0302
003a
fdd5
fb45
021b
fb97
055b
0609
fcc7
fd8d
fc56
0278
fe9b
ff08
fe23
00cf
f658
fe72
ffd4
fea8
01fe
0307
fadc
ff24
f9e1
0010
fd73
0413
fcd2
01c8
0393
f6ca
feb0
ffaa
0198
05c5
fb62
fe6f
06da
fa83
ff30
02f4
fe3d
fcbe
fec2
fe1a
0477
05af
f76a
fdda
fcb8
fe17
02e0
