02a6
fa3e
ff21
025d
0036
fdfb
ff3e
f9c9
06c6
028c
fac0
ff42
fb87
f972
fabe
fe8f
0238
0557
ffe9
fd7c
00a3
fda0
0209
ffec
0659
015f
fd89
fd69
03f5
0365
0326
016a
01d2
0269
0186
043a
0013
fdde
02cc
ffc9
f673
fe18
fe9a
fefd
fedd
03a6
fd74
fd9c
f84f
fdd8
ff62
02c4
01c8
05b4
01c8
fc39
039f
0148
ff55
0331
0518
fe50
facc
02e5
fdbf
fe13
0698
0599
0326
032e
fee5
ff88
02e5
0512
fc9e
0400
fdc4
0182
03c0
013c
0040
0739
fd1b
01ac
fd46
0258
f9f1
005a
ffbf
fd9f
04b7
fc35
fee0
0302
ff2e
016e
01fa
fb5c
faec
01eb
00af
fef5
fa7f
ffb4
030f
015b
fede
ffc5
0015
fd44
0149
0229
07b1
ff4e
ffc1
02c5
fdac
006a
0626
fa5a
fece
03ca
0067
03ec
fc60
ff32
fef6
fe40
020a
0429
00c8
fc55
fc7d
0149
fd3d
0094
049c
01c4
0025
0143
ff8f
fb16
019f
0572
fea0
fb97
012b
fef1
0087
0229
0009
01b8
01ac
fcd4
01f9
03cb
005c
00da
030d
0337
0150
01e9
fa6f
0161
0008
ff5f
0307
fe5a
ff5a
fe1e
03b5
00bf
fd4c
046b
fb1d
fd92
fffd
ff5a
fc46
fe54
0afd
00b7
0305
fd3c
0078
fe92
fe8a
fd54
0103
fd0b
00c9
fdb3
0299
ffd3
fe9a
ff92
0307
019f
ff09
ffa2
fe26
fc8c
ffb6
fc27
ffd4
00a9
01cd
f8a8
0189
ffa3
ffc0
0012
030e
00d8
0465
fe08
ff07
0226
fc96
f8d1
ffb1
fe98
0040
06f9
fc7e
fda2
007a
00ec
fe3d
00ca
005b
0116
01b3
045c
ffc2
fef6
ff0d
fbeb
027e
04fc
0019
fede
001e
fd92
ffa8
fe13
fe55
05fe
ffff
0243
fcc8
fa1c
022f
0080
fdf3
fe14
fad6
00b8
fdd5
fd99
fe2a
05f4
000e
0154
fb7d
0121
02cd
fd59
ffce
fec3
00bc
f8a4
012c
08cf
fe8f
0348
01f5
05d2
fc1a
0003
fac4
01d0
ffb4
0523
fff3
fe45
fe3a
ff56
0098
04ba
0454
fe95
0123
0637
023b
fff4
f96a
fd35
0588
06ba
0025
01a0
00a8
057c
fc01
ff4f
f82a
0458
fb9b
fcc6
ff18
ffda
0312
f905
01a1
03fc
001a
01c7
0127
00eb
fe21
0441
fb04
fb15
0016
01bb
02b7
ff16
feb8
fb9d
fd50
febd
03fa
04ed
fba8
fcb8
ff13
fd73
04a6
fb29
fe53
0143
007d
028d
fdf3
feaa
04a6
ffd9
0553
fa0d
0241
fd13
fa8e
fe37
0126
0167
00e7
ff01
004f
fb64
0318
ff78
01c9
02c2
fb2c
0466
02c5
fcd8
004f
03d8
02a4
0577
ff59
02f6
fdf2
ffd4
00a0
fc63
ff45
ff73
f7c2
04fa
fb69
061b
fea3
0470
0163
011d
0743
0262
fe52
fd94
fdd8
02f8
02aa
02a9
0550
ffed
fef8
fe92
fb54
fdde
fb36
fe95
0113
018d
0224
0277
0148
fa1c
04d3
fbd3
01f8
01c9
fd0b
faf8
01b0
fd9b
fff0
0004
011e
feb6
079b
fec0
fd4d
003a
fe60
ffa1
0128
024b
039e
fcf0
0034
0268
03a0
ff1e
ff0d
0773
fdc5
01c5
ffa2
016e
038e
007b
007e
040a
023d
fa98
fe75
fe2f
ff05
fcb5
ffd8
01a9
f794
ff3b
0297
0309
006e
fee7
fff2
00aa
0253
fe1b
fd65
0684
fa6d
fefd
01e9
0057
00c5
ff33
fec7
febb
011e
025f
fad2
fd94
0343
01c5
02ba
f96d
f748
fdb7
0000
fd42
f97e
fdb6
fe0c
06d1
fdb1
ffae
007d
fc24
0140
fe48
0081
0075
fda6
0618
fc9a
f999
fce5
fb9d
f979
fbfd
04f9
0356
0064
fba8
000c
076a
fe27
01be
fee9
ff83
0371
00a0
04ce
fe7c
01dd
fbfd
ff5b
ff04
ff1a
fc46
fd2d
ffd7
01b6
fd46
0541
fd56
0146
ff8b
ff0a
0698
ff65
0508
ffaf
ff42
018f
fbca
fb63
ff7b
fdc3
fc63
face
ffb5
0108
ffdc
0104
026e
fca9
01a4
011f
0423
ff1f
03cc
0586
0663
031c
fa81
faef
feea
ff58
fd57
00b7
ff00
ff8a
02ce
fd59
0439
009a
0409
00de
f9f4
0051
03e0
fd74
01d7
f910
feea
0339
005c
04e7
ff2f
05d9
038f
fdba
0589
fef2
0169
fcdc
fea1
fff3
f9ad
0190
0168
01da
fcd2
01ac
fca1
fefb
00e0
004a
073e
0447
0296
0220
ffed
004b
03b0
0474
03f3
fe32
ffb3
039e
fd33
f805
ff72
ff58
fb0a
024c
ff7f
fd53
fe8d
0119
fe32
00d1
05ae
0151
029b
02cb
fd38
0111
fdaf
ff13
ff19
fd79
00db
fb32
fd24
033a
04e8
fd60
fbd1
fdf5
01e3
fc51
043e
02e3
006e
0105
01df
0130
037e
03d5
fe89
02a3
0198
fcb3
feb0
fbf9
fd35
05cf
03a9
0328
0767
03fe
03b3
fc51
fde8
008e
fca1
fde4
022f
fff2
0121
025a
fca9
febe
052f
ffc4
ff84
02f4
fc00
00aa
014f
ffb4
0114
0926
0158
fef2
022b
0314
feba
fd29
0419
fec2
03ad
01ca
ff94
068b
00a1
024a
fcf3
fd14
056e
fd33
fe9b
0020
fbc5
fa8b
0311
ff8d
f9b7
fe52
0112
02bd
f9dc
0529
017c
faa6
feb0
02a2
fc91
0223
ffd5
fa78
fb23
faf4
0200
055c
fe6c
0025
fe0d
fe32
010b
f9aa
feaa
00a3
0284
fc21
feca
0450
07a1
030b
0044
fc38
f6cd
001d
fe5a
fb68
fdf5
fd5e
00d8
01d8
01ad
0228
fe66
fceb
00b9
fe5a
043f
fb59
01b0
0342
00fc
00aa
fde8
0233
0655
0122
fbc1
fab1
fead
ff0c
039f
0295
fd69
015d
05a3
ff50
0366
