fe60
ff79
0013
ff64
02d4
00a8
013b
fedd
0790
0787
0356
fd8b
0488
0000
fe0d
031f
027a
ffdd
fe80
fda5
004d
0785
0309
fd5d
fb89
0017
fb94
fcd7
ffd6
03a3
017b
fa07
feed
fb34
00ab
00f6
0230
fd7d
ff5e
0059
001f
029c
ff4e
fdd1
fbc9
feb5
f899
fd35
01ac
025b
057d
fc62
fd51
0295
fc82
0365
fea4
fc2e
008f
0825
02de
007e
fe93
fffd
ff49
012d
ffe8
ffdf
ff9b
016c
f9d9
02f6
fc80
0078
00c4
021e
fdcb
fbe7
0417
fed8
02d0
fd76
fe05
fb91
009f
ff7a
fd35
0173
fd87
052d
feb9
0357
0265
01d2
ffb9
0115
004f
0141
0417
f8a0
feb8
fdbe
fc7d
fd18
fbe7
01ae
018f
feb9
fe7f
00a5
fd3d
fd00
fbfc
008f
00f6
0131
fffe
fd0a
0218
012a
fe15
fd94
062b
0094
fac0
0554
fd15
00fb
0048
04ad
030b
f946
fbf0
fbd5
fadd
fe5c
030b
fad3
f5e1
f9c2
fbf8
015d
fe79
ff6c
047f
ff29
0464
f8ed
0651
fdcd
01f9
0493
0242
fffd
00cb
fdc6
0270
0119
f846
ff37
fe64
0031
fda4
ff71
072a
03f8
fc7d
f6f1
ffd2
ff81
03ab
0181
01a3
0294
fdc8
ffcf
016d
0253
03de
fc1f
007c
0556
04c6
ff18
041e
fe8b
fbf8
01ff
fe1f
fb8d
f8c4
0474
024d
013f
049d
fb58
fc2d
0229
02dc
fca3
00d7
0857
ff84
ff0c
ffa1
feae
fd96
0108
fa4d
0095
f986
0090
063f
041b
fec6
003e
f8c9
feb9
0009
ffb2
0432
01d2
02ad
fe6d
023a
02c8
ff3c
fb0d
0304
fba6
fedd
fa40
0150
0183
fef1
0277
0053
f7cd
fcfc
fdee
ffbc
fd9d
fb58
fa6c
ff18
0692
fe72
fc0d
0065
0019
fd41
ffbe
0211
05c0
0441
01f0
fa87
fe8d
fe24
fee2
fd84
ffc0
030f
00ed
0334
fca0
fa0d
fdf6
0014
0029
fd9d
0296
03ae
02f3
0648
fa59
03e8
f886
0110
fded
0257
fd49
ffc5
fd9e
fbcc
0662
0447
fec0
ff5d
012b
fcb7
ff80
03bb
009f
03de
fc9e
ff19
00aa
fe06
fbbd
fc26
fe73
ff63
030c
02d6
fc9a
036e
04b9
0000
000d
027f
00aa
ff09
0852
02b1
0109
fd88
ffb7
017c
fd64
01aa
fb86
fe80
ff2f
02ac
0050
fd51
fc94
fff0
fea1
fa92
014d
0196
0052
fedf
01a1
05f9
ff09
fdac
fbb6
0001
fc74
01a7
f5f1
03f8
09c1
0224
0239
fe7f
00c9
fe31
00f2
0512
ffba
0092
fbd0
fc87
f608
0059
00b4
feba
05ed
01ca
fcbd
0009
fdfe
041b
0165
0397
ff75
fa0c
ffe2
fec3
fa01
04f9
fe6a
054d
0780
fe9e
f88b
feb4
fcbd
00a9
037a
0026
0240
01b9
feed
00c0
fcf4
ff67
fe6f
fdc9
05b3
fedd
0058
0085
0087
fd54
0190
fc82
f942
0125
05da
0113
f8ed
ffbf
fea0
fa43
00ef
fc62
fb4e
03ae
fff1
0061
0049
0227
01ca
03a8
fa90
fcfd
ff96
01b8
005a
0355
02d9
ff0a
fd78
0485
0117
04cf
001d
fe21
05a4
fd19
fd48
fe7e
00a9
ff34
fe2c
fe55
fe3a
fd69
fbcd
0345
02a2
0159
feb4
0341
ff18
fe4e
fe3c
0452
03eb
ff55
027b
facf
00d9
005c
ffd0
000c
02e8
07bc
0276
0357
00ca
0180
071f
fca5
03ce
0025
fde6
fbc4
feb4
0410
032e
0467
fd03
0280
f9ba
02f2
0002
0198
f831
f906
ff15
ff82
fa63
0078
fc1a
fe2a
049a
f85e
0875
fc7b
fb08
0169
00f2
ff34
f97c
ff64
fd59
0282
007c
027f
fe9f
fddb
ff2b
fb76
ff97
02b7
ff82
0359
ff27
fac1
009a
fe0a
fcf9
044f
ffa0
021f
fc1d
fd76
fd58
fbec
fecc
fe12
01c5
018e
0174
0211
000c
01dd
01f0
049d
00db
fd08
ffc4
fe5b
fdca
0447
ff99
0308
0540
011b
fef6
00e8
037e
fb2d
016d
fef4
00e2
fdf4
fa0c
fca0
0351
0014
03d1
0473
034f
00d3
fe3d
010c
02a9
fe7c
03d5
0045
0031
0033
0231
0171
0534
ff59
00fc
ff41
fb86
fe93
0113
fd58
ffcb
ffaf
fccf
fef4
fbf0
fd7b
081f
fdf9
ff95
ffef
fc8d
f938
fdd1
ff3b
fef7
0014
009b
073b
03a6
fe9e
fd84
02c0
fdee
feb4
fb04
0059
ffe8
0083
0081
fd9c
fe83
0113
fd70
fa56
fe71
fdf1
0106
01fc
fb72
fa88
ff38
0261
fe5b
00e5
feb7
f9eb
fe5c
0178
01ed
0014
fe6b
0217
0568
ff29
ff59
ff34
0780
0388
0344
05f1
003e
fd3f
0379
fcf8
000a
ff09
ff44
fff4
f6aa
fa9f
fab3
fde5
01a0
05c4
ffba
fdd2
0359
fdb6
00b9
fdaa
0060
03bc
fc98
0730
0560
00df
0010
fd59
0358
00e8
fe1e
0390
ff8d
0174
04a3
05d3
0443
036c
00e0
0044
0389
feca
0448
fff3
ff4b
fd16
02bf
04ed
fe9f
01c4
0137
fa85
fd92
037a
042b
02d3
013d
020d
fc5b
ff65
019d
0162
0342
065c
02f0
067d
00fa
fe90
fe5f
fb72
ff1d
fd83
011b
feed
fa02
fd33
0334
fb17
fea9
fb91
fdd8
faf8
01f4
f9cc
fb5d
fc19
ff46
036b
fd63
02c7
f92d
fbee
0088
06ea
ffca
019f
fdfc
ff54
002c
fdfc
03a5
009f
fe85
012a
03a6
0492
faf8
006b
ff17
0130
010c
0172
0709
f92c
0573
fea9
0239
0293
02c1
04ef
002f
00e3
00b9
0223
036f
0024
fbfc
0103
fafa
fac0
fc3b
0138
009e
03b0
feee
fc6e
fdaa
ff84
fc91
0270
0431
00c6
0985
f86d
07af
