fc6c
01e0
02d3
fe7b
00a7
fedb
fe81
0122
fdae
018f
078f
f91a
ff59
09b2
00bd
03f9
fea6
fd1c
0026
0362
fdfd
031a
fe43
0206
0726
0492
00d0
02e6
f87d
0710
fc0e
0414
ff3c
ff1b
023a
012c
fdea
044f
fbc5
fd20
fc5f
04c9
fd90
0243
03f2
0406
0000
ff00
02cb
0463
0028
02a2
018d
fcbd
01a3
0241
ff79
01d3
0068
01d0
04d2
0159
f8a4
00ce
f669
fed4
fd4e
025b
03c0
fe15
fd16
fee0
01e6
ff00
fc2b
fba8
0088
fa42
fdda
fda8
fd3f
01ca
fec8
fc41
fdcb
ff14
ff3d
0211
fe4b
04ce
0562
fddc
ff2b
fa22
0162
0123
00ca
fd2e
fc94
ff26
022e
00fe
0247
fe49
fd22
ff34
0356
000b
fb7e
01a0
03a4
ff78
fc3f
0235
00cb
fe4a
fe14
00af
0138
020f
02b4
00a0
fe3d
0092
011e
042a
03ac
ff44
08f1
fd91
fc8d
00a7
00b2
01cc
002d
0147
00ff
029a
0218
fd1b
ff1c
0277
045b
033a
006e
ff3f
03dc
fb5f
05e5
ff98
facd
0433
fcec
fc4d
fc74
ff3a
01b8
fe87
01c7
fb0b
fd0f
04dd
f8a3
0022
024b
fd9c
fea6
fc83
fb3b
0494
fe7e
0000
016a
f9a6
04f7
fe14
01ab
03cd
fef7
01af
fe7c
ff50
040b
ffd8
fe6e
0542
fcfc
fe69
ff40
04f3
013b
fc1d
fec8
041a
0368
04f8
fe0d
0572
04f4
051a
fd5a
045a
0223
fd5a
ff74
00c7
02bf
fe1f
fd49
fd9c
0004
0969
ffeb
018c
000d
ff07
fc64
0211
faaa
fe7d
fb74
0404
018a
04c5
ffc5
019a
ff46
f9b6
fd05
0142
007d
02d1
fda5
0298
0191
fc6a
01b5
0000
fe8b
0413
0311
003e
0055
0219
f9a2
ff33
0131
01d2
fd93
06d1
fe98
034a
0034
ff49
ff8f
0297
fe61
0067
0274
046c
fc52
0499
01c3
034a
006e
0317
0040
fef5
f9ba
ffb0
fed4
fbd9
fb95
fcc7
00d2
fd18
ff1c
0378
fb56
fe44
02b9
005f
0101
ffe1
0379
fe8b
0090
0638
019f
031c
ffb2
fe5d
00ad
0633
008e
003f
033f
fe72
0093
fca4
0196
fe82
fd0e
0759
0230
06bd
fed4
0029
010f
f94f
027f
ff35
fbb6
f9d9
fb2d
0204
ff64
04ce
005c
fd97
00ee
f88b
041d
00d6
00fa
ffa7
fc58
015f
ff0f
00e5
000c
00b7
0159
00fa
019d
fe63
ff56
f938
01ae
fe0d
0025
fe37
fd43
fe41
fd9c
ff6a
0144
ffae
fe6c
0219
0117
fc16
02ba
fdb3
002d
fe16
0605
051c
025a
ff85
0723
fd80
fd7e
002c
fc12
019c
0151
ffa4
03f3
fc99
ff7e
029a
01c0
011c
02aa
ffff
01d1
0027
022a
0206
0282
f7cb
0626
02f6
fe0a
0228
fc7c
0339
fc31
0175
0438
ffab
fd44
fc6a
ffef
ffdf
041b
0073
01e5
0185
056a
f8a5
02e4
0452
0301
ff10
05a3
fdff
033e
0383
02f5
fef5
ffa7
fe18
00ab
0095
0130
0233
036f
fd72
00b9
f998
fe6e
fba9
0349
03d9
0187
048d
0003
fef0
0482
00cf
0387
011d
fea6
043c
0257
ff44
ff01
02c7
fe8b
008c
fe17
feff
00b7
fe77
fdc2
0000
fc9d
fc42
0091
07f3
fb14
fa5d
ff77
04a5
fc59
ff82
fdd2
f97f
fef5
fdb9
ff0d
01d2
fcb7
053f
fff9
025d
fe14
01a8
fd7e
0076
01f0
fd1f
feb3
05ee
ff63
02bb
028a
01a4
fe72
fbdd
00ac
fc3f
fc09
0231
fe30
fac1
fefe
fe5c
01c4
0261
fc09
0065
0044
01b0
fe47
009c
04ee
0000
fe4a
010d
002c
ff7f
f9d0
fd6b
0384
029c
fe31
ff44
06b8
fd77
fc0f
ffbd
01c4
fc0d
0217
f92e
030d
fd3a
fe45
01fc
fbdf
0646
fc8f
ff99
022e
f8b7
0274
ff1d
fdf6
ff00
ffa8
fe0d
008c
ff91
01c7
f6b5
00ea
00f4
019c
0131
ff53
0a7a
ffbb
ff31
0117
ff8d
00e4
fb0e
041a
011e
feaa
054f
04ff
ff83
fec1
032d
fe0e
02bc
0371
002c
0118
fb57
0125
fbec
fc7e
fd30
fc85
fc5d
0076
0184
fe31
ff17
fde6
030c
feb3
fc46
004b
ff05
00a9
0166
fedd
0072
0557
ffeb
002a
0703
fc9f
02d3
ff07
f958
fe23
0535
0105
0163
fd62
027c
f9e1
ff24
ff96
ffc5
01d1
fdf9
046b
fddf
fe94
fd04
ff51
0579
fdf7
0058
ff00
00b2
044b
02a1
048f
ff3f
fe1e
fc9f
04d9
032c
feb1
0401
fc52
fc4b
010b
fe3b
00fc
ffad
0258
0572
0451
0060
fe4e
fc1f
faa8
082d
fa1e
00ec
fe7f
f9df
ffcd
0100
fdeb
f86f
fd6f
fe91
0104
00a6
053d
0270
facb
fda5
f891
02b1
0103
fecc
022b
fa2d
009a
022c
fbd7
053a
fc2e
013d
012c
fd93
ff6c
0157
fb5f
feed
0346
ff21
0531
02a3
fdf2
f9b8
fea1
ff68
00b4
fe91
02b3
04a4
0177
fe80
fdf1
04ba
004c
fa90
0042
fa1e
feeb
ffca
044f
034b
fcca
ff15
fec8
00df
fe3e
fde0
fb4e
fad2
027d
ff23
0257
ff12
0238
00a2
02d9
fe9a
fc1f
0093
00ac
00e6
ffaa
0130
fbd6
fb78
fca2
092b
fa62
0654
0142
0258
0023
020b
0255
fe9d
fd2a
01ec
fd4d
02ac
0150
0062
ff8a
0176
ffb0
01e0
019c
fb83
038e
fc4c
00a5
02c7
000d
0092
0323
ffcd
fc4e
02c6
053d
04e7
05a8
f881
fcf6
008d
035d
f972
fc54
fbb9
029d
01a6
fd8f
00bc
ff22
0033
071d
ff3f
0471
0628
ff7a
0535
020f
fbd3
fbc5
fe97
fcbd
fbd5
04d3
fc50
fca3
feea
