fe34
fbb7
05ee
039c
075d
0285
004c
ff54
0097
0319
ff1a
fe79
0013
0123
0627
0258
00e9
00cb
0152
fe2e
fcab
fe0c
feb5
fdf9
fd88
0314
062d
0152
fdd0
0172
f8d5
fd48
03ad
ffcf
007a
fcaa
0022
0593
ffd8
fa91
0719
04b3
008f
04cf
08ac
08d7
ffc9
ff38
00b4
fc7e
02a3
ff6f
045d
048b
fdd8
fd49
fd37
ff5d
0073
011f
01ba
0033
ff2e
fda7
fc26
ff73
fdec
0321
034e
032c
fefd
00d0
fcbd
03fd
fe77
ff2b
ff36
0121
fec6
fffe
fc3f
fdd0
fa79
fc78
fca4
fbcf
00dc
007c
fc33
0293
fe41
fdf8
f892
ffe4
fe06
fdb1
0358
003a
0490
0010
fc17
03a3
002b
032a
000d
00cc
04c7
ffc3
017f
fff8
fc08
01bf
02d3
0110
0321
fc3d
fac5
ff68
01cf
0478
fc88
0253
05d7
00a9
0415
f8d2
fd19
fee7
fec5
0178
fd76
01d4
ff40
0000
01c0
f82f
010c
fec2
fdb7
0639
0136
fd7d
fbaf
fe68
ff04
ff73
03ec
036c
00dd
fd62
fcc5
fd32
fcff
feac
0060
02bb
fc99
fd0b
0166
ff80
f9f5
fc95
f786
fd7e
024f
fe91
ffbe
0030
ffc8
ff83
ff31
00dc
00ad
fdc3
015e
02a9
ff0c
0980
042e
031a
0164
01e0
fe79
fd21
f986
ff4e
0718
ff71
01b4
fabb
0295
ffe4
fd2a
fc99
0237
fa7a
ffc1
fe4e
005f
ff01
f942
fb78
0023
ff3d
01de
02c3
0206
fffd
0266
0130
0255
015c
0129
fdaf
fc65
f916
008f
ffe7
01c6
fe60
02d2
016d
fde0
026e
00e7
fd8b
fef3
fe5c
0353
fd4c
fdda
0176
0139
fcb2
fe09
ffc2
016a
fe1c
fea7
fdc7
fe32
0289
fdab
ff7d
0212
fd9a
fb97
fe71
02b3
019c
03ad
02ce
fe7f
0363
01fd
0160
0378
000d
feb5
00fc
fec5
fd80
027b
043f
0245
fdec
fd92
00e2
ff83
018d
fff8
00e7
fd50
0145
ff92
0252
febe
0223
01e7
fbe6
01c4
0152
fddc
009f
ff0e
f8d7
fcfa
fcc2
0227
fc89
05c2
fc5a
0253
04e3
0362
fde3
f712
03fe
fb9a
0122
ffd5
f9e3
050d
031f
fe46
018c
fa0c
0182
fc6f
0614
028e
007e
019e
fc67
fe87
003a
02cc
072e
fa5a
009a
0428
05ad
ff6c
f6e5
fd7c
fc75
034c
fefe
fa75
025a
04f2
fe55
0154
030c
0027
0183
00a6
0038
0765
01f9
f8f1
0558
fdb0
0515
0177
0115
fe96
00d8
ff4a
ff85
ff40
02b4
fb4d
fc81
fd7e
00ec
03c1
f7fb
00b8
0047
037b
ff8d
0057
ffd9
fe05
0062
ffb3
021d
0212
fd97
fdb2
0438
00a6
ff8f
0410
ffaa
ff07
fcbb
fedd
fcb1
0096
019f
0114
070d
024a
047d
019e
fdfa
ffc3
fe2a
fe1d
fd8e
045a
fe0b
f9f4
0056
ff06
fded
007b
00d4
ffea
fd1e
0111
ffd9
ff66
08ba
0548
0149
f93e
013e
fd5c
01bc
019a
fe15
00af
f88a
04cc
fe91
fee8
0070
fd9b
fe2f
0184
005a
ff17
ff90
007a
026a
ff5e
f9db
ff14
014d
fdad
0236
ff32
fd5a
ffc3
00ec
ff6f
03fb
0438
fee8
0303
ff83
fead
019e
fe2d
0477
fc9e
01f2
019b
045b
002a
fa12
f97f
029f
fb77
f982
ff9e
ffab
06bb
0321
fc7b
fcd3
fda8
0301
fe55
fdaf
fe17
fb83
fb34
03ba
06e4
febf
039f
fe56
fa03
fe34
fc4c
fc1e
fd3e
fa8e
fe51
028d
0299
fe97
f9ad
fcca
01c5
fdab
fe25
ff4b
0099
fc39
025c
0314
038e
0278
fda7
fe36
fefb
029f
013d
fa40
0108
02ae
f890
0760
fb90
0041
0494
ff5d
fe4d
fb04
fbf0
f95b
01b1
fd59
028a
02bd
02e6
fde9
fd53
fbb4
035a
013e
01fa
feb0
0060
fedf
02be
00c3
ffd8
ff98
0121
0058
04e7
021c
fd51
02e7
fdf7
fc46
05c3
fbb1
01b0
ff36
fe86
02c6
0195
002f
fac1
0121
0173
0053
014f
02cb
0210
fd02
002b
fd06
fef1
0394
0114
fa7a
02bd
fe28
fca6
fe51
fd80
fcd4
fefb
fffe
0081
00ed
fe39
ff14
ffb7
fc3a
ffb1
fec7
051d
03f5
00ba
fbea
0689
ffa2
010d
01f3
0130
00c6
fb01
fc7d
0148
f511
0201
fdea
ff47
020f
f72f
ff60
fc38
ff07
0005
02f2
fe9f
fd5b
fcba
02bb
0454
faf9
0734
fd9c
06de
fd15
0348
01e9
0276
fcfc
ff71
0458
fc77
004f
fda7
fe2e
0018
fa6a
fce4
fd7a
04ad
0379
01a4
0014
02f2
00ac
fc1f
05c5
fa16
fbe3
fe92
0111
06ae
fce3
0672
007b
0114
00af
0245
013b
025a
ff36
05df
001b
02c4
010f
fda6
00f7
fde8
feff
01c2
fef8
fe28
ff99
0219
02dd
fba5
001a
fdd5
fba7
045e
0317
ffa4
f961
ffd0
ff37
fe12
011d
0089
fcc5
00d6
fec1
00b0
fc42
01f0
02b8
fec4
0081
0188
027c
05c5
ff15
fed0
ff37
0382
0395
0311
ff00
000a
fe36
021d
fd34
0509
fe68
fe51
fc5b
04bd
fe91
fc7f
01b2
ff82
00ea
0463
ff61
02e8
fcaf
fd17
00d2
0191
01e3
fe52
019a
f737
ffe8
fe65
fe41
fe7c
fe04
0052
fb92
fe89
01c7
00ae
0187
fa96
02f2
0292
ff8c
024e
043b
0142
026b
014e
fcbe
fd15
0132
ffec
00cf
fcfd
0172
03db
0196
ff69
04b2
ffb5
0276
0138
00e6
ff9c
03ee
0196
fb33
fc5f
fc3b
fc6b
0165
fb40
03a6
fe89
fddc
0510
006f
03a5
0475
fe7a
ffc3
0100
0076
01fe
ffe9
fcf0
fe9c
076a
0110
fbfc
05ed
