fd37
fe6f
fc73
ff98
ff93
fdf6
0539
fafb
fd3b
fdff
fef5
067e
fd7e
018d
ff35
01ea
fb57
faae
f621
021c
00c3
015c
f6de
fcb7
fcee
0128
ff13
ff24
00de
fc9c
ff13
01b4
055b
05a9
043c
fef7
fd15
04d0
009e
fd4b
01f3
0109
040a
0295
02a5
fcf2
0507
ffad
fe79
ffe9
fe64
fbbf
01ce
fa98
ff86
0166
fe07
fc5f
fe63
011a
fe40
0083
04ab
022c
fce6
0245
ffd5
fe54
047e
012f
fbbf
015d
fef6
fbe0
021a
ff90
00af
feb5
fdc3
00ac
fd5f
04d8
0082
fef0
003a
02c7
057b
014d
ffe0
fa55
fb58
0113
03c2
04ea
002e
049d
fe1d
02b2
01df
fbb0
0057
fb35
02b3
0119
035f
fceb
01a5
02b9
012f
03d9
0355
ffd0
fd54
ffae
0136
ff7a
0068
fce0
0367
ff83
fb6e
01e4
fe1e
0153
003e
008b
0258
04ac
01df
fd9f
fc66
0331
022a
0189
ff7f
ff8b
fd7f
0391
0225
03ad
fa3b
05ab
fec7
ff38
0956
007b
0322
01fd
fac5
0080
06d0
ff02
fb82
021c
fdae
fedd
fc40
04f3
0436
0451
fd21
0233
0108
fca3
0247
fecf
fcd8
fb29
fe9a
fe19
fbca
00be
ff2e
fd0f
0117
fd75
0330
01b6
033d
ffeb
01f0
fd30
051e
fdf7
0384
fe4f
fc43
0192
fc86
ffec
04ec
fc83
ff3c
07ac
0202
0300
03c8
fa10
022a
02bd
fbd5
01e7
ff95
ffb8
fe5e
018a
0268
00cd
03a0
fa47
0356
0312
fea0
fb0f
fd77
fed0
ff4d
fa42
fe4d
01cb
fd37
01e6
ff4a
02be
0745
ff95
00dd
01af
fe68
00d4
fd93
034b
0113
0035
ff6b
0463
ff53
ff87
0582
0131
ff2c
fece
fc4f
018f
faa1
013a
fc9e
fcb3
fe83
ffee
01d9
0049
00ba
ff7a
fb35
fdef
fce3
00cc
0561
ff31
01c0
0510
f722
ff60
0072
026c
f976
0086
0517
ffcd
000c
0383
fcfd
fd5d
00f2
0138
02f5
fe3e
fae3
ffc2
ffd4
0465
0003
03de
0068
f948
faa0
0567
ff96
fbe4
fdf6
fccf
fcdc
00ba
fcc6
fe3a
fec8
ffb4
04f0
009b
fd39
fc7e
fe2c
02ba
ff4f
0014
05a6
fa29
0012
feae
009b
006f
02bc
03ad
0246
fb90
0023
02de
fc96
02ba
0256
fe07
ffd2
05a1
028b
02fb
02ff
031e
fcab
ff4c
0702
fe99
0500
04ca
02cb
0178
0661
f93a
04c6
fda5
fdee
0074
ffab
ffca
05b9
fd39
009f
022b
0461
005e
fea5
08b4
fa11
0120
fbbc
fef5
ffc6
ff15
fcc7
00ef
fc41
fe62
fda4
0072
031f
0019
fd6d
fd4e
0489
0292
00a2
0050
fc82
020e
02fc
0150
0203
fc20
049b
03a4
0239
fe23
039f
feae
fd7a
057a
01c7
0321
faa0
ffbc
0168
0264
024d
0155
fa72
ff42
0041
01ed
ff8f
01d2
fece
03d1
0015
ff00
0187
03db
0058
0015
f9d5
04de
fdce
0059
0082
0251
00d3
ff18
0490
00ee
fe17
0577
fca7
02e5
0471
02eb
0605
fab6
f97a
fc89
038e
fef6
ffaa
0541
fce8
fca8
fe86
03d4
0263
0236
fec5
0350
fd4b
008c
01bc
001c
fe60
027a
fbed
03f4
fe57
ff79
fcbc
03cb
03b5
fe70
0126
fb6d
fd69
f81b
019d
0156
023f
01d4
fe00
0447
0223
f88a
ff46
ff78
010c
061f
ff14
f76a
ff91
0143
0414
001d
0295
0347
ffc3
feed
0974
0344
049a
0245
fde4
ff29
febb
02d9
0621
fc29
fe6b
fcea
00db
00e9
ffa3
052e
fb67
febb
fedd
fc81
fb70
02ee
ffb9
fe66
028b
fdb1
01d7
ff14
fdb8
042b
fe59
fda4
0069
019b
fc7e
0125
fd21
fe3a
00bb
02be
fdf1
02ee
02c3
fcb1
fcb2
000a
fe8c
0554
fd1a
0296
fdc0
044d
00b7
02c5
fbce
02ee
faac
feb2
01f0
ff9f
035e
0179
05e8
0085
ff9d
fda0
055b
fdaf
03cb
083d
fe46
fdf2
03c0
03e4
05f9
0159
f96f
01ab
02d2
05c6
093e
0550
0069
fef2
fe12
ff26
030d
fe71
f904
0728
fba3
fe54
058a
fe51
fceb
fdb9
fef0
0a64
fbf1
fc83
07af
fe47
02a6
0116
0049
fe98
08e4
0254
f9ad
0016
0066
fbef
fdbd
046b
fe75
002e
fdef
fcab
0465
037d
007e
fddf
002a
fea8
ffea
0237
fe69
0632
ff21
0578
019e
0067
fe0b
feb0
060b
00b9
023a
03d1
fecc
0218
0496
005e
ffff
07f6
06cd
fe83
fccc
046d
005c
01af
06ab
02e3
06f7
fe5c
00ee
fc97
feaf
0292
031e
0469
fff4
01b8
fdc4
048d
03ba
007e
0259
f9d7
01cf
fd5a
0342
0154
fb8a
006b
03ee
0635
fdcf
02d4
ffc2
00f1
0122
ff3b
0170
018a
fe85
00b1
00e3
fe35
0026
fb14
0564
fdcc
fe94
ffa9
05d2
fc00
feae
ffb7
0095
fe14
f843
fe9c
fb6b
fda7
fda1
0326
fd76
ff89
029e
f8f9
01af
02bb
0634
fed3
03d5
0099
fc34
028b
01d7
fb9a
0049
061f
fc71
fee8
0507
ff3a
00c5
0180
0547
faff
06a0
fe6c
fd36
fad5
fdd0
01bc
fed6
033c
02ba
037b
01a4
0027
01b0
03c3
028e
00ba
039d
04cd
0050
fdc8
0519
fd73
fc40
0281
0251
fdb6
fd0c
fe95
0297
01ac
ffe1
007a
ffd4
ff7d
0330
032e
0162
febf
0387
00e3
fd9c
0269
f813
fce9
0388
fe12
0395
020c
021f
030f
01f6
fdc9
011e
ff85
fe4e
fd8c
fcdf
ffb0
00f5
fe05
fe4e
0569
faef
ff83
0376
ff80
fb45
005d
0009
feb9
fe9a
fa5c
03c8
fd68
