fc7f
02a5
0227
f8db
fef4
fbf3
fd75
0078
fc64
fec4
fe7d
ff32
fdc1
065c
ff3d
fed3
02b0
f660
0784
fb78
fcac
fec2
fd99
ff85
fd19
0498
f600
01af
0152
00bc
ff2e
fdfb
037e
0393
01d6
fde8
0078
f954
fe36
00fc
fecb
fd8f
fe83
ff51
04c4
ff31
014c
f979
fd3f
fe0d
069b
05d0
fd2f
fcd0
0247
fc1e
fe14
fee0
0328
0012
f82b
0099
fc1a
011d
0151
fc46
fb25
fb4f
0193
0177
0295
ffef
0303
05b6
fcb9
016e
f906
ff59
0175
0315
0023
ffc0
0000
fd82
ff9b
02af
face
01e8
009f
fee6
0186
00ef
fbb2
fb55
01da
fb7f
ff72
0169
012e
ff75
0240
ff45
0125
fe1d
ff88
ffe6
01e1
017e
fdde
fa8b
fcda
04e8
fe8c
047e
fbce
024f
00de
fe2e
fab9
0173
fb9d
0470
fadf
fe98
fe41
04d2
fcca
0028
0249
02ba
fa6d
ff9d
056d
0154
043b
fae2
fc3c
fbd7
05a2
0203
fd3a
031e
0141
fd89
fe01
0302
fe90
024c
0373
fc0d
fd76
026d
fe48
ff98
03d5
0125
0676
0076
ff21
02c6
05a0
0393
0097
0363
fff7
025a
04be
029d
fb0b
faff
fe38
013c
04d7
015f
0010
01de
fe83
0132
fd17
0167
0078
feba
ff39
fca1
fa76
fd98
0163
0026
fee3
fd9e
03b4
00cc
fe04
fab4
fb27
0383
ff77
fc55
00c7
ff67
ff5f
ffb9
fc07
0182
0202
0191
00d6
fe15
019b
ff0a
0280
01c3
0402
f956
fda7
ff1b
02c1
fea0
0315
ff42
0531
03f3
01e2
ff49
03cd
0086
0056
059e
fd09
014c
fbb6
fdc3
f9d3
01cc
fe10
04ee
0050
00ce
fd62
fe7a
fc28
fcd2
fd85
012e
fd69
000b
043f
017e
00cc
01d2
004f
fd8f
003d
0389
02df
ff3d
ffac
00a1
fe05
ff15
076e
fed9
ff42
0545
fd47
01f9
0134
00e9
00d3
fc36
fe45
ff05
0382
02e7
03b3
086b
0541
f83a
fbe0
ff62
ff2a
0072
fa53
ff78
01df
fbf1
fe13
fcd0
02e0
0055
fc3a
0124
01aa
0120
fe48
fff7
feb4
0161
fba9
f8f4
01a6
06b3
ff63
0091
fcb6
008e
0126
01e5
fbb8
040d
026a
012a
03a4
01db
ffe1
fd04
fc2f
fe9d
01fa
0051
00bd
ff21
ff73
01ac
fdee
fb13
fe2c
03a4
fdbb
ffb8
01f9
0306
020b
ff8e
004a
fb88
fe5d
fdf8
fd00
fa4a
fdd2
0166
0931
fe5a
0046
04d5
fd7f
01e2
fce3
fd1a
01d5
0057
02a6
0073
ffe4
0047
01c0
ffc4
03b0
0144
fef0
0035
015d
05a4
fcd3
ff9d
038c
0140
02e9
003f
01c9
fe82
fcf8
ff64
0281
00c0
02ab
02e9
0152
ffc9
000b
fb5e
0108
f9c5
01b9
0624
fa6b
fce8
00be
0431
fc48
0397
0234
fb82
fa47
faae
006f
011e
05d8
fe5c
fe9e
0358
04cc
fb86
fbe6
0249
fcee
fffd
0289
fbe1
fa8c
fe64
04b4
00c8
f938
025e
ff40
fdda
fce2
0178
fc0d
07a5
fd4c
0639
fe89
02dc
019f
f99a
fcce
fb0f
ff70
fe62
0442
fd35
026d
00f2
fc82
fd5e
fd28
fac8
fabf
023a
fcf8
02c6
ff14
0561
fbbe
fae6
022a
0026
ff87
00b2
0088
fbb4
039b
fabe
fe27
fde7
fd39
fd8d
fef3
0315
0283
0054
ff2e
042b
029b
fda1
00c0
fc43
003b
fd57
06ff
01f7
0632
fdf0
0261
006a
f849
0546
00b0
fea5
02e2
fdeb
fbf1
fd79
fde5
093e
fceb
01ba
fb5e
053f
ff79
f94d
fb5f
04ec
031c
022e
fab3
00bf
02ff
018f
0435
001c
0018
011d
ff1e
fc41
fd45
ff40
fa36
fe61
fd22
fc48
ffb6
01f9
0894
fc01
0195
039d
0144
fe3c
fc37
0324
ff9d
fed5
fc22
003f
02d5
ffe3
0027
fe90
022b
fdfc
fab4
05cc
fe54
0071
fd97
fdfb
01aa
026a
fcd0
fdaf
ff49
febc
fe3f
0105
fd89
fdda
fd8b
fe83
06f3
fd42
0530
044a
fd9e
0199
045e
0275
fbb4
022f
fcf9
fdc7
fef7
01b8
fd06
0413
fdf6
ffbe
ffe3
06c0
fe64
02aa
03d8
019e
fc74
fe5a
01f5
040e
0340
00f7
ff7e
fdc1
ff11
ff29
0299
01e9
016c
fd6d
022b
ff8e
fbfd
fcb4
035f
0317
ff6c
fed4
02d5
fd8e
005e
03ec
ff71
0070
ff43
06be
0532
01f4
03d9
ff77
0018
01e9
fc79
fefd
fec3
ff20
02f5
fa39
0354
0313
fc80
0709
047d
ff90
04da
fd70
0087
00c2
fb47
fe78
0055
fcf5
fdb6
fda2
04d3
fec6
feba
fc68
00d5
0590
f8ca
01cf
0364
02f5
0261
002f
02a0
fc0d
fc4a
0334
0735
fe91
ff76
fc1a
ff6f
04de
0359
01e7
ff2f
0403
0532
0149
fe4e
00ae
0264
f9b9
fc49
ff54
09bb
ff3b
fc17
ff30
fca0
0346
fd84
052f
0117
fe4c
fc31
0272
fc80
006d
00da
ff8c
0088
fbe5
00bf
fc39
0386
023f
fc4c
0232
012a
017f
fba0
fda6
0220
03b1
fd88
02ec
03a5
05ca
fcab
fd1f
fee9
fe62
008e
fea4
03a2
fbad
0043
f969
ffdc
fe32
fffc
0456
055c
0146
f8f7
fb60
057f
025f
f7e4
fcb1
fd79
02ac
fb1c
fe8e
fe8f
fc0d
fe73
019a
0365
feab
0202
ff1b
0259
fecb
013b
0232
ffda
044f
02ef
00be
f2ef
0234
0395
f76c
fdaa
fbd2
fd88
01d1
feda
0574
0422
074f
0510
feb8
04a1
00cc
fd7d
faed
fdbb
0082
06b1
fbfe
fdb7
02de
0054
ff45
0072
01a5
0177
02c8
0569
00f8
fdb4
fb93
f74c
0069
01c5
02e1
ffd1
fc09
