fbd0
fc3d
045a
007b
036f
0188
01f2
fc54
0156
007c
fbe1
fd3e
fec2
025d
00d2
0523
000b
fcee
fc34
04f7
fcf0
fe06
04ec
0386
ffd2
ff48
024d
07c6
fe1f
01d1
0066
fe46
fc1c
0293
fe73
0085
fcda
0530
fef2
00a7
fda6
015a
00f4
ff62
0191
05fe
fb2f
fff8
f5c5
03cb
fe76
fe60
fd08
0009
fc6e
0226
0365
ffcc
fdf8
ff2f
ff45
ff1c
01eb
01ea
fe68
0792
0192
ff3d
fc6f
fbef
ff2b
0172
fd06
0067
0258
ffc9
fe6a
ff81
fbde
01d6
fee2
ffea
0332
012e
066f
00bd
fa62
03fa
011a
0084
0356
0365
fe7c
fe56
fef7
fe46
fd4c
f9c6
0179
ff81
ff55
0326
fe6a
0748
005c
fdeb
fd64
f7a3
fefa
fd62
03bd
02d3
ffaf
01c1
ffdc
0186
016b
01fe
ff19
fd8e
0647
0012
fbca
00bb
feb7
fe9f
f9aa
0003
ff02
042a
f8b7
fe32
fd85
0243
0291
fc3e
0153
0569
0198
fd29
fddf
ff27
02ba
0051
0192
014e
01b8
022d
0031
04ab
013e
fb89
ff9d
0067
03c6
03de
044c
019f
0090
0342
fd47
fd75
00ad
01fa
0003
fdf4
0117
0193
0918
0440
00c2
ff11
02b3
fe83
06d8
fd7f
fd4a
0172
f960
0065
05b2
0120
01ff
0021
fc7d
ff08
ff04
016d
ff77
00e8
0151
fcde
fcc3
ff25
ff72
02fc
fd90
ff75
0035
fffa
03e6
fc58
fb82
010a
fb70
013a
fc9f
0125
fed7
0475
fb90
fb44
fc7d
fe03
06d9
ff16
fd6b
02c3
fefc
fb61
fcf1
fefc
fc73
0046
fdfe
fee6
0211
fd4b
fdc6
fc74
feac
00a8
fc68
fdd6
00f7
0004
fdc4
fe39
026e
0224
f88d
028c
00e7
01aa
01a3
fd88
fe2f
ffb5
fc61
fdc6
02c3
fa09
0132
027d
00dc
06f2
008c
ff16
0299
01d0
03e6
fdfc
03b4
0008
029b
fddc
0277
ff96
fc1f
fb0a
fa67
015f
fd21
02b3
019f
ff73
044a
fb7b
fd1f
0243
00a8
02a0
ff18
fce4
0096
02cb
02e0
0195
0237
fea8
051f
fa00
02cd
00ef
feb7
fbbf
ff1c
00f8
05bc
fb8b
0097
008f
02fd
00a1
02f4
0098
011e
fec0
0082
065c
02dd
01de
0139
004d
02fa
01f6
02a8
fce4
fb00
03ee
008a
024a
feeb
fe23
010c
ff17
fb98
fc2d
0136
06ab
fc31
fafc
0407
fd31
fecb
0293
02be
fcb7
ff82
040e
fcc9
ffcc
fe84
0289
0262
00da
011a
fec1
fff6
fee9
00db
fedd
02f4
0143
0548
fe3f
ff0f
fd23
03ff
017f
ff3c
0451
0249
fa47
0464
0960
0154
fd82
ff27
f771
fe11
fa6a
01bc
0122
ff7c
fbcb
0104
0583
ff6d
01a4
fe85
0326
ffc6
0085
ffbe
fead
0318
fdee
ffe8
fd0c
fd90
fc80
054b
02be
0252
fd5d
ff51
ffe7
fcf7
ffe0
fe8b
009c
fd92
0170
fdb9
0694
fa48
0022
0409
03e8
faff
fd5e
025e
fbf6
ff4d
0419
03c0
01cc
fc62
f965
fe22
0180
0248
0315
017a
fc86
ffed
00d0
fb71
0213
fd4a
fdeb
002c
0193
0022
01aa
ffb2
fa66
fb93
001d
03e1
fdff
ff06
0317
0313
fc64
ffe1
fe95
f833
001a
fd51
0338
0192
fe93
0048
004e
fd77
ff83
ff46
015d
02a9
f8e7
01b6
0150
fd62
038a
008e
0120
0028
fd2b
0133
0233
fe9f
fdf3
0321
fe01
034e
01a0
fc70
fc08
fb28
047e
0206
0094
f9ca
0216
02ba
fc9c
0771
fb69
02f8
00c2
0243
fb11
0334
006b
ff42
fece
fe95
0100
fb8c
fd85
ff6c
ffbb
00fa
fc27
f9df
fd33
fe61
0787
fae3
0286
fdf5
043a
fb40
fed6
0353
0107
ff2d
ff37
fe76
fd4e
ffab
0261
0287
fe26
03aa
0200
025a
fda6
053f
0135
fec6
fcb0
011f
0510
01ca
02a7
ff3e
06eb
04dd
0624
02ed
f98f
fc2a
fd6a
fa8c
0327
0165
02f6
012d
fa45
061c
02c7
fdeb
0185
0406
042b
fcc9
01b4
fe21
faba
fcf5
fdf9
0285
fbb4
fb6c
00bb
02e7
0225
02f1
ff13
f9b8
fe5b
fbb3
0012
0362
fa60
ff5a
034b
0021
ffd9
013a
0203
fb84
01c5
038a
fe93
0337
fef3
ff8d
fe6c
fdb7
fc36
f91a
fc49
0554
040e
0059
ff0e
fc6c
00b6
ff0f
fe09
01dc
0532
040c
0046
fc2e
0312
0591
fd94
ff35
002c
0098
ff41
f905
fdcd
ff15
016b
0023
01e2
0289
0286
f9ac
fd52
0136
fd9b
0115
ff47
fef1
0250
00ea
08ab
fd81
fefd
016e
01ed
00d6
fd63
0011
ffc2
012a
03da
fadb
feda
0452
006d
fa10
005e
ff3d
ff2b
021d
fcc0
ff2f
01f6
00e2
035d
f61f
0334
fc0c
fea0
ff58
0164
fa64
0035
014c
fcda
fd49
01ae
053c
0375
fb0f
0407
041b
fbb9
ffca
fdea
031e
040d
0092
0608
ff94
037b
04a6
0020
fe6a
0709
0187
0448
0041
0113
fd0a
fd88
02d8
fb2d
fcef
fe70
02eb
00f8
02aa
fddb
f7d6
03af
022c
f878
00fd
01a0
fa13
fff2
02ac
049e
fe80
fc4c
fb06
01d1
fc6c
fb80
0134
fc35
0050
012d
ff59
fe9f
02b8
02b3
026d
0429
fff2
fc46
0024
007d
01c3
fe0f
fce5
fcf7
fe57
0085
fcd6
0127
fdce
fe98
ffda
017d
feab
f8f8
0412
ffae
0202
feb5
fb84
fffe
0215
0057
fdb9
0684
fb2a
01cb
0067
f990
00c8
ff2e
0733
010a
ffc8
0240
0219
fe26
fd8e
fd9e
01a3
fc69
fe17
fd5b
02c6
01ba
fb98
fdd7
fc72
fc90
ff7c
022b
fe45
fdaa
