ff89
fd73
fc39
fd7a
00c2
0012
039e
fb6b
ff68
0037
0037
ff49
fb45
ff70
02d0
04d0
01af
07c9
03f7
ffee
0091
fdd4
f9ae
fb1b
fdca
0656
fe8d
00ee
fb17
006e
fb79
00b0
0226
fee3
0168
fd9d
fbe3
01fd
fe08
0530
f95f
ff11
f8d4
ff42
0322
fc25
fd3a
00dc
01d4
0425
fdf2
05c7
0291
fdfa
002d
ff02
fe75
fe5f
00b9
0228
0115
01d2
fd21
0002
fde7
00d4
fe33
04a8
0156
0086
ff4e
fe45
fe96
fff0
0151
fee9
fc9a
0120
0182
fea8
fac6
fd53
02d4
0427
fb66
05ac
0360
febf
fbd7
f9de
0188
0282
feae
0086
fd15
fd13
fd87
ffab
011e
00da
fc5c
f87c
fe04
0211
00ce
fdaf
02d3
03b2
fc49
f9c7
0764
001f
ffe6
fc9e
013b
0279
fb5a
ffbc
04b3
fdc6
0272
feec
fc01
fb5c
ff8a
ff65
0365
f837
ff7b
041a
006f
0193
fbf9
02ff
fa21
fe82
04ad
fcce
0356
00da
febf
ffb2
00b0
fe44
0123
031c
fd6f
02be
fa9d
0182
fbd0
01ae
ff8c
ff18
05b4
07cc
faad
fbb7
ffaf
008c
01e9
fda2
007a
fad1
f963
014d
0291
ffa9
0049
02d8
fdb4
031e
ffa2
053c
00c7
fbc8
fb8e
feb8
ff32
fdb3
025a
fdef
fdc7
fe31
0263
04dd
01a9
fe6e
0616
fc55
00c6
002a
01a3
fe47
00ab
fae5
fec6
054e
fae4
feee
017e
0016
03a3
0560
051f
029d
0374
00ff
fb1d
feac
011b
0441
fcaa
019d
f927
00c3
ff4a
feab
fb25
03f9
fdf6
0328
fe3c
fd40
01be
018f
037b
054b
0055
fde4
fc56
0130
ffd1
ffba
0227
fbd6
ffc1
0370
0196
0051
fb3c
029d
fb72
fe60
00a9
001d
fe46
fd92
fcb3
fdc1
0399
febf
02c0
fd26
04c0
fe0f
0000
033a
012e
fb2e
069d
ff68
0275
03df
fe4b
fe18
0263
0187
fad2
0389
0241
ff82
03d0
044c
fe3e
000f
01aa
029f
01c6
012a
0488
0046
0769
040f
0597
0613
02e1
02eb
0277
fc1f
017f
faa4
0359
ffb0
0135
fee5
00fc
ff1e
ff83
fc10
ffcb
fc92
ffab
ff5a
033b
030c
ffba
fffc
fc4f
fb07
0456
0772
fa9c
ff4e
0282
038e
042d
fdbb
0180
007b
0144
fc14
0289
0084
fabf
fff8
fe68
fc6e
fd72
042e
006f
01f4
fde8
fe83
ff72
055e
f747
fee5
0180
02a9
02b4
fef5
fc84
ffce
018f
00c6
fee8
ff1c
007f
ff80
054e
025f
ff9a
052e
019e
ffcf
01d1
ff94
f8d7
fda9
022e
f854
fcaf
fb3d
062e
fe5e
015d
fc18
02b7
fd7f
0079
02fa
0242
0456
fc65
0125
fa7b
fdc3
075b
ffe0
0102
0009
fdbe
0041
ff54
fc5c
0393
fe3b
06d2
00a7
019b
05bb
059b
0069
ffba
018d
fdd7
fd95
004d
fd1f
fe19
fe2b
fe26
012f
fe89
01de
0131
0296
fdbb
011c
fee6
ff1e
0164
07cc
fddc
03c2
fe11
fc81
ff53
019d
fcdd
ff49
0309
0081
feef
fa63
04b4
fc19
fd67
ffdf
01a0
0059
ffd3
fc86
fc3d
05ac
01c2
fe9c
fbad
03c5
00f6
0349
05da
0007
00b3
01d6
010e
fe5c
00e9
fed0
fbe6
ffc0
fe73
fbe7
04ac
fc23
ffdf
0229
fbf6
025b
01ef
ffef
051b
ff9e
fd57
0479
05b5
ff52
04e4
019c
0080
f7a2
feea
0361
0478
0392
0287
fefe
ff9d
fb86
009a
febb
ffbc
fec3
0100
fd53
fb73
04a1
fdc0
fbb4
ff59
02cc
ffe7
fcf6
009e
ffef
fbc5
0210
02b6
02ee
ffc1
fc8e
007d
ffb2
ffb4
fb47
fd85
044c
0244
00d8
ff4f
00a8
fdf1
fe17
02d7
026f
00e0
fc8d
fa9a
0431
fcc5
fbe5
f9c1
fba6
05c8
0180
0151
fa5b
ff5b
fda9
ff2f
0000
07d7
01f7
fc03
fd4b
018d
044b
02d2
fb54
fbab
ff2d
0493
0164
0231
fd10
fd79
02a3
03b7
02f1
fcdd
0066
fd26
01bb
009c
01aa
fde5
fad7
032d
fb08
fa23
02b5
fd6c
03c5
ff6a
029c
01c6
fbe7
0643
04c2
001f
fd32
007e
0298
01b2
0194
01c8
ff9f
ff5c
03de
fc3b
03fa
00b3
02b5
f925
fea2
fea2
fe85
048c
fe30
018f
fd29
fb9b
023a
0563
010c
00fb
0391
ffca
fec2
fda0
fb8f
01e1
032d
01bc
031c
fde7
fcda
00e2
0216
fdf8
ffcc
02b2
017b
fecd
0338
fdb8
036a
0202
0207
ff1b
fb9a
fdc5
fcd9
fa1e
0411
fd52
fae3
fcd7
ffaa
055a
f8f7
02cc
ff27
0130
fec2
ff8f
fd67
fce8
022e
03d9
ffdd
0218
0321
0092
0086
fed9
ffc5
01ef
007b
0129
ffb3
fc8e
04b3
faa9
f99b
fec1
fef3
fd79
ffd3
01a8
fd74
fbcf
ff79
ff31
01c8
fdd9
fea7
0138
fea6
01ef
fe63
0073
ffd1
01d0
0244
0402
fd5c
f9bf
fff6
ffac
0173
036f
fff1
fa80
0427
fed2
0302
02a0
032f
fbeb
fdaa
02db
00ba
0289
fd74
fed0
fccc
061b
fb55
fa00
01c5
faff
fc1c
fdd9
ffba
f8da
04fe
ffcd
014b
fb4f
ff99
0270
fbd0
ff51
01a2
fcad
0402
0168
fefa
fdfb
ff70
fe90
fce3
fd3f
fc42
0068
0888
fc7d
0018
023d
fd3e
024c
01e8
0010
0374
ffbe
00a9
0529
037d
04b5
0174
fa2d
072c
fc1e
001f
04ea
04df
027d
fee8
fef3
ff9b
065e
fdd6
ff2a
0150
03f2
febd
0483
fee2
fe12
0110
ffe9
fdc1
034e
fed4
fc95
0058
01b5
021c
feb2
ff9b
fc5d
fdcf
01d0
009c
fd4e
0177
f970
051e
fe32
004e
fdf2
0010
