00fe
fe68
04b9
0227
02bd
ff7c
ff72
fe51
015e
fe98
0427
0397
fd1d
fd9d
fce4
fc54
ff85
fd19
04dd
00c3
fe04
005a
0010
f9c0
fff4
fe65
ff3a
0403
03b5
ff46
0505
fd04
fed5
fd5a
fe0f
fe69
0200
00eb
f8e6
021e
fcf8
0175
01f2
0399
0558
009b
fd78
fcd7
035b
019e
0234
fde3
02d9
002e
fdd5
ff62
00b0
0002
fc2e
fe04
fd4a
0373
fdb0
fcc2
01d5
fe61
ffdc
facc
03dc
fd2e
fc87
0178
040d
016d
0316
02b4
0578
04a9
0141
fcde
014e
01ba
015f
0383
00db
002b
003d
076d
fd42
0002
feb0
fcc8
0163
0106
0255
ffea
ffd6
0066
ff84
fe7f
fda2
0128
00bb
019f
fd1a
0027
fb45
016a
ff2d
0071
0243
005e
fe5d
fe7d
fadc
fa77
01bb
00f1
0045
fb76
ff1f
000e
ffb8
fd52
fb3e
0bb6
feba
fb8b
fefc
05f0
ff1b
06d9
0127
ff56
0473
03b8
fb5d
ffbd
01e0
faab
050b
ff72
02a2
013f
0255
fdea
0033
fe09
fc8b
fef0
fec0
08d8
02fe
0293
0301
fc48
0010
fc47
06a5
0311
0024
ff0f
032a
041d
0129
01c4
fb41
fcdf
fdd0
fb8f
faf2
0058
fff9
fe30
019d
013b
fa13
fe67
0276
fc0b
ffac
0251
fee4
fcdc
fdfb
003a
fdda
0300
0106
f9a7
febb
00da
ffae
0517
01e5
02c9
ff74
fdb3
017b
fd02
0473
00ea
0167
fecf
feba
00dc
fb5e
0295
fcb9
009a
fd2c
0234
0447
ff88
fe19
fe51
027e
017a
fe3a
0079
07aa
00b5
0067
01fe
004d
0297
ff75
00d6
fd85
04aa
fb17
03a3
03a7
01f9
032e
f9c3
fbcf
fcaa
01b1
fec4
025c
01ff
fdce
001e
fd3c
0289
0442
0482
fc39
031f
04fa
036e
023f
ff65
fed1
02f8
0708
0150
028b
031e
0096
0289
fe43
0437
fff7
0191
fc0f
00ec
00bf
fdda
ffcf
fded
040a
f78a
fed2
ff87
fd4d
fecf
00df
02e5
ffd0
fbf7
fbf3
fd02
fae7
02c5
fc6e
0340
fc69
fe92
fc40
fcc6
01a2
0132
0381
fb71
fc3d
fc86
fe9e
005b
fbb3
00c6
033c
012f
0330
fe94
ff27
012e
ffc8
01de
001d
04fd
05a0
fd55
00f5
fd19
fb0c
08eb
fe43
ff32
06c7
fd2a
0379
f989
0058
ff89
03c5
fc49
feb6
fcc2
01f2
029f
fd05
01bf
fc3a
01ea
0875
0382
002e
0000
05ff
040d
003c
fd9d
fd64
04a1
fe21
fa72
0238
0372
04e3
0416
fa75
046a
fcf7
fc00
fb22
f692
fe0d
01fe
034c
0645
0346
059a
0514
0020
fcf3
ff9a
fdf0
fedc
01a3
f8eb
feed
0097
fc7a
fb63
fa16
027c
037c
fc83
ff64
06a5
001a
ff2b
faaf
ff34
f9c6
02a2
fdf5
00e6
0185
01e8
fce4
032d
ff3c
0082
fa1f
fff0
03bb
fcb0
fcde
fed5
0121
fdd1
0303
fe82
00f9
000a
0445
ffc7
01b5
fd26
03a2
038b
fd9a
fd05
fdc6
0046
ff31
03bd
fc6e
0115
0228
fe8e
0174
05ef
fef9
012a
fa80
01a9
fedb
0136
fd04
0309
0003
042a
ffdc
035d
0522
fcea
fd9e
016f
04fa
00ff
02c5
ffec
01a3
fd57
fcbe
01e6
ffb6
00c6
fb70
f99b
f9ec
00c3
01bf
008d
0426
fefe
fec4
fbbe
fec1
ffed
fdbb
fcb1
fc4a
03bf
06fa
ffc9
0524
02c9
fa07
009f
fac2
03b0
0111
04b8
fc3c
fbbf
04e0
0198
01e3
fe76
fc76
0053
f9fb
faab
fc7d
00b5
fddc
fd1f
005f
0532
03cd
0297
ff46
ff73
0150
025d
feca
fe79
0285
f6f5
0175
00a4
fec3
02a3
ffd3
fde7
03eb
02b2
00dd
fef7
ff8c
04f1
ffbf
0105
0219
0049
fe88
01c1
f9e9
0006
010c
fa59
fee9
005a
fd37
fd7c
fccc
0218
0488
ff72
078a
010a
0234
032f
00b0
fad3
fe3d
0085
fd8c
01dc
ffe1
053a
0047
f941
0087
00bc
0166
fe9e
fa2b
03d2
ff38
fa06
ff1d
01cb
ffa5
0428
01dc
fc9e
fe94
ff22
fcec
fee1
ff48
0057
02f3
012e
fcc6
fe4c
ff97
ffed
ff03
fbe5
00bc
ffb3
ffc1
fc39
0155
fd09
0285
00e8
002d
ff42
0359
0479
fe19
0730
f98d
049e
fe56
fd02
fec2
fd02
ff3a
0431
04c8
ffca
ff45
0184
fc41
01c8
0046
fb74
041d
0328
068f
ff93
fc63
fbe7
faa9
0078
0085
fda3
ff0f
ff0a
feb3
0940
ff90
01ae
fd8d
0444
053c
fd87
fc84
09de
0105
0669
00a6
0043
05c7
fe6f
ff35
0042
012c
fd49
febb
07b1
fac4
00cd
fe57
02aa
fb35
fe22
0602
ff2b
02d5
0137
fca3
00b7
fc46
0074
fd87
0557
01e9
fd66
fd60
04ab
fb35
0423
fbfe
ff0e
fc1c
feaf
0053
f837
fdfb
ff16
fee6
0293
016c
ffc0
fefe
02f0
fcad
fde7
01ca
fd15
066d
0198
ff94
00d0
03dd
053a
fd2c
fdf5
fb26
fe8c
0153
f9af
fa03
0563
fd72
0030
fcf6
015e
0593
0357
0119
fe20
fd11
0515
f8c6
022d
013b
02ac
ff5a
fd46
0263
01e5
fffb
0401
fbda
ff2b
0044
0294
fff3
fe1c
fd7e
fd34
0282
fd05
fe93
f8aa
fddc
0308
00d0
0034
ffb4
fe6b
0447
020c
ffeb
01e6
0636
ffc2
fee2
01dc
fe39
fafc
fb12
0393
01fc
0084
fd49
0053
0082
ff1d
fdf6
094d
ff63
fefd
00c5
0677
ff23
fd10
ff74
ffbe
01b3
0436
feca
ffc0
ff45
0736
0acf
fc56
032b
fd82
01f2
ff1a
f9e3
fece
0139
f94c
00bf
0011
ffcd
0200
0168
fe58
faab
fd40
