0433
0141
ff92
0050
fdf8
0301
070a
fbce
fbd1
02ae
fff2
fa40
01b3
ff90
fbce
02ff
02ed
ff27
fc41
fcaa
005c
ff5f
0468
fd13
fbf5
fe48
01c0
fc19
01d7
fa50
01b5
fe1f
fdd0
f89b
fe6a
fdab
fa30
fdc5
03ab
046b
ff0a
0533
fd6c
fd49
033e
fecc
014d
0313
fd1d
ff85
02cd
fc23
0381
03b5
fcd5
fade
01e7
ffa6
00e0
fb4a
020a
ffec
0313
ff97
000c
020d
ff34
fb64
01e0
035c
02fc
f7df
ff17
fb06
005a
f972
fd46
fce3
011d
ff6f
042d
fc45
0113
ffa6
06c4
000b
ff4f
ffdc
019d
0573
f915
fd9c
fdbd
feba
ff0d
030b
0460
034c
fefc
00bc
0263
0378
008f
02b9
0234
004b
fad0
fda5
042b
00e1
04aa
f9e2
0119
ffab
fb83
fe8b
0043
0088
fa65
0176
01c9
0272
0140
004a
05cc
005d
fff5
fd04
fe1b
0751
003e
00bb
059d
ff15
ff23
01d9
fcae
f98f
fd84
feb9
033e
0293
fcf2
fd02
01c5
0481
06fc
00db
fbe5
0162
08a8
fbd0
02e8
0114
fdc5
fddf
0200
0780
0148
fffd
fe04
f6bc
fb2f
fbb4
031b
fcdd
03a5
fd43
01d7
0147
f990
ffa0
fe27
055a
fe84
fffa
f9f0
03a1
fcc9
fe49
008b
0134
0091
015b
ffcf
ffa7
fa3d
0198
0074
fff2
fef3
0119
01a5
fcb9
fcce
034d
058d
007b
fedd
fd48
ff70
00d1
fe47
fff4
ffaf
ffbe
feb2
fdcd
0043
03a2
fed4
f9f3
ff32
0738
fa35
002e
fd8b
063a
0122
0033
0351
00bb
fdc1
feff
fbc6
fdb5
f940
07b2
02ff
01cc
0420
fdd2
0059
fe7d
0229
fec2
fe3f
fd3e
0382
fee3
0486
ffdf
039a
fe7f
04f1
ff1a
0326
fda5
f5ce
ff6c
01d2
fedd
febc
ffce
01e4
022d
0693
00b0
fd16
ffec
027b
fc70
019e
0365
03a2
fe00
fefd
0094
0001
fdd1
ff52
ffbd
fa86
fdfa
fd3d
ff90
03ea
ff3b
00f3
02f6
fdcb
040e
fdc9
068d
fbd9
fcaa
ff11
fdd2
ff86
011c
07a0
0526
fe0f
0067
0293
fa03
0109
fd79
fe0a
fde8
fe2c
fcae
fb8d
fb52
fd2a
fa67
fab7
01eb
0043
fc1f
00fc
fdcf
fc0c
ffea
f9aa
fef0
fde3
03bc
0105
0320
fdfa
fb37
00d0
ffd1
fc68
009c
0273
fbef
ff9e
fe6e
024a
016a
fb6d
0078
0398
fdb2
01cd
01cf
00ec
0277
01e6
0545
fed2
fde5
03cf
03e2
fde9
fff6
fdbc
fa7e
fdbf
fe6c
0480
ffad
02e9
fce3
0055
01c1
019d
f85a
fea8
0157
01b7
fdab
fa65
fa9e
067f
ffaf
fd96
065f
ff58
004e
001e
0311
fd91
00f4
fcf2
fcff
0764
04a3
01e0
02ad
ffde
02b0
06fe
013b
f99e
fd16
ff08
00b2
0242
0370
044d
02a8
032b
feb6
01ee
01de
fe4a
01a0
fd01
fd87
0042
05d9
fed3
fd72
f830
0375
001e
feec
fe13
ff9a
fe1b
0377
ff8e
fffa
050a
00d9
0070
faa7
fc2c
feff
facc
0424
0018
021c
ffac
0036
00fa
0283
ffd1
fe8e
0402
0010
fc01
ffd3
053a
03db
0032
fe69
012b
fa6a
007c
fed1
fc97
001c
fbb7
030b
ffa9
ff2b
faee
fb89
f9cd
ff60
ff73
ff85
fb1d
00ec
ff9a
fe7e
03df
fece
fd92
fd5d
00b4
ff48
fd3d
02ce
0397
fc3c
ff5d
026f
020c
fe61
ff73
00fa
f9a5
01b0
fbec
0123
f9ee
fd34
000c
0349
02fd
fd87
0002
0092
00f0
0065
026a
037a
014e
071f
0285
026c
011c
febf
0219
01bb
feb6
faa6
ff18
0276
0584
fc65
fe9d
fee0
fefa
f834
025d
0154
fde2
fd44
02d3
fcd0
ffdc
fe5b
03b1
0444
00ff
fad7
00a2
04bb
fd69
fd7d
008b
fe78
fa2b
0405
0910
ffdf
02c7
0336
fdc0
02f8
007f
fc6c
fadf
0063
08f8
fefd
ff70
ff5d
fea4
fbca
fd04
fe9e
067c
010a
ffbd
05da
0218
000c
fde3
fefe
fe4c
ff07
fe53
fb78
0109
fea7
ffc8
027c
f855
00a3
ff78
f8f1
0287
002b
03c1
fcf9
01dc
0064
ffdd
0430
0113
05a6
fe0b
ff24
fcf4
02cc
0152
fd43
fdf4
0293
fff3
fd9f
0558
017e
0061
fdcc
0237
0195
047b
fea7
ff2c
01df
0341
ff2f
0018
05d5
0149
02ca
fea7
fe17
fcd5
0071
0245
015a
01b6
02c6
06d7
04d6
0356
0664
fd57
0084
fd59
0221
01aa
0296
fa47
0267
fee1
ffdd
0274
0198
ffdc
fe57
0129
048c
fe22
fd21
fd37
ff01
012b
0119
0272
fe9d
fea1
01d6
00db
fac3
0293
fe1d
041b
04d5
033b
019b
030b
06ee
0348
ff76
fabb
0295
0305
fd12
0431
0251
fe7c
077a
fa7e
036b
057c
0268
f6f3
f7c1
01d3
ff28
00b4
fc70
fa71
047a
00a8
0075
fbe6
ff7f
0535
ff44
0205
ff4e
fd6b
fc93
fcd9
fe0f
fe90
ff8c
fb08
ff36
fd2f
fb83
faf4
ff89
03fb
040e
00be
fedc
fd75
fed1
0202
fe06
ff91
032d
03ad
0001
ff62
fec2
020a
016f
fca8
0470
ff1f
fa0f
06e4
071b
ff82
00c3
044f
ffe3
fce2
0014
fc47
fe41
01f2
fec4
ffde
01f8
ff90
fdb7
fd4f
0376
017b
feb4
03e3
029d
febd
ff66
0063
fb83
fcdd
0312
0148
fdc5
fdcc
fedc
028f
01e7
0168
0351
fdc7
057d
05c2
0335
ff00
fad6
03a3
033d
fdbc
0043
0010
fe49
fe6f
fdb6
0018
fe9d
0246
ff98
0232
fa07
00d7
0166
fcdc
ffc3
fec2
08d7
022c
0238
02b1
fd91
f6dc
0275
fee4
fb27
