ff59
04cf
fb64
018a
fca4
faae
ff8b
ff93
fbcf
ffd5
fedb
0080
0180
05af
02d1
016a
02cd
fc48
fa7d
0343
ff65
fccb
02d4
fcee
0499
ff5b
fbb5
0453
fdab
fd9b
0354
fcf4
0020
fbce
fede
fe38
027f
0279
006d
fc59
fe67
fd7f
0232
00cd
06b1
02f0
01bb
00c6
fdac
002a
0281
fb6c
ff8e
fcab
03f7
0513
f9e1
fe05
fd02
fae1
fefa
ffe5
ff87
00ee
0330
ffe2
00d8
0037
fb54
0853
00b6
003d
0138
0266
fff1
0136
fd0b
014c
fd2c
fc65
003b
0243
0456
01f4
0262
0591
fc76
fd00
0002
03ba
0166
fc68
02a0
fea5
ff93
ff5b
fcaa
04a6
010f
047f
fccf
fbb4
fd58
019c
fdef
fdf7
ffed
fad0
fe01
fe40
fc3c
029b
0232
f917
0195
0456
ffda
00e5
0423
fff0
04f0
ffb8
ffe7
00dd
fc8b
0139
00ab
ffe1
049c
ff84
00e9
fdcc
0067
fda6
fe83
fece
0181
0248
0283
02bb
0227
fdda
ffb6
02f5
021e
fdcc
0661
fc41
fa11
fd36
0337
fcf7
fcfd
0254
0337
ff33
0533
ff5f
0095
fb6a
fe9a
0094
02ae
ff05
01c0
00da
01ca
03e4
0043
fbb0
01e8
021c
01ad
fe71
fdb7
006e
feec
03c0
fd35
fe22
fd81
fd97
0183
fcad
03b1
fcf6
fd38
059e
fd83
00b9
ff16
02de
0137
f9f9
000f
fdc5
048c
04e1
fdd6
0202
01f3
0135
faa7
00e7
fd4f
0019
fdfe
f97d
fd4a
0553
016e
0078
ff9d
f9d8
025a
056e
ffd5
fc29
01d0
0138
0416
00fe
fe4f
fb8f
ff99
ffb5
feab
01ab
0448
007b
ffe9
ff49
0071
fff2
01d1
00ab
00ce
fee5
fe66
fbc4
fc8e
fe2d
0270
fe3f
0248
004c
0262
014f
022c
0270
fcae
0425
fc8c
0267
011a
01b0
00cc
fe0c
f9d8
fc03
fec6
ff42
0022
fdf9
023e
ff6e
0297
0012
0196
0556
fee6
fde3
0009
fd09
040f
fa64
ff7e
0086
f8a4
ffcc
0138
fe18
04f7
01d3
fc1d
fc9e
0381
fc85
0188
fe6a
fddb
fdf5
00c1
03ca
ffeb
fba3
017a
fbef
fef8
002e
012c
0022
fdbb
05a8
fbf2
f85f
fdea
ff9f
013b
04f6
fba6
f8dc
fe7e
ff59
0098
fc18
0518
ff35
0304
feaf
ff87
fef1
00b4
0009
0233
ff58
feb7
023b
fc89
04b8
fcfc
fe1e
0207
fe02
0066
f994
feb9
02c2
fe82
fadd
fa04
fded
00fd
0480
02e1
0216
fd12
00b8
0025
fae3
057b
0354
fdc2
051c
ffc3
fe1c
0047
ffa8
ff7f
0285
00c1
fcd3
0304
01f8
01b1
02a2
fdf6
0188
0155
ffaa
fbb5
001d
ff92
ff94
0189
fdf6
06bd
fbdb
04ef
fabb
033b
fda5
07ad
fb7c
03eb
fd82
fb92
faaf
0125
fd00
0153
0031
0496
ff89
0384
fb52
0168
f9a4
026b
fb3e
f9a1
fe04
054a
f87a
ffcf
030b
04b7
fdfa
064d
00ba
fc42
fd18
008a
ff19
fefb
017b
fb14
f97d
fedd
01f5
fa7b
fffa
0475
fa4a
0230
086c
00e1
fee5
fff9
0036
fb42
fb60
ff27
ff20
fcca
fb93
fe81
011d
00b0
0507
fc12
00e2
fff7
ff3f
fece
ff49
0183
025c
0079
fe15
035b
ff86
010a
ff74
fd50
fcdd
0262
0084
fd60
00dc
ffc6
07e3
fea9
fe66
fe58
0327
029d
fc42
fb56
02ee
065f
fca7
00fc
0089
032e
0031
0565
ff4e
ff8d
f9a9
fd27
0685
fefd
006a
00df
fbf6
026c
00d1
fde8
fe27
0208
fb0c
fb50
fff9
0123
01b4
ffd8
fc31
0245
ff50
fddb
03c5
ffe7
fdf7
fd07
fbc8
0679
06b6
0103
0332
0308
fef5
fcbe
fb3f
fe36
fd86
021f
01a9
ff7a
033c
02b8
fdf9
f960
ff2d
042b
0161
02c2
ff0f
fd14
ffcb
fc25
feab
065b
fc2e
032a
ff58
fff0
fdbc
fee5
fe18
fe5f
01de
ff10
fe22
ffe6
ffa0
05e5
074f
fd1b
00a0
fe82
f8a0
fda0
fe1a
fd5e
01b8
008d
fd18
f971
01ef
0248
01ab
006c
ffd4
00e2
001d
f868
ff44
fea1
fdcf
ff39
fe63
fd73
001d
0226
fc66
ffea
0169
fcdd
ff5f
fe0e
ff56
fd91
00b6
fa03
fba2
fe7f
ff8c
0027
00c2
01ca
0296
0455
fef9
ffe5
0274
fa2b
ff92
03b7
faee
fed4
0339
fc8b
0061
ffd2
0110
fad2
016b
ffef
00c8
0004
01c1
fe72
0221
04a1
fea1
ffbc
04c0
004e
0333
fd7e
008d
fcf2
0537
fd46
fdff
ff85
0029
ffb6
fc2b
fe83
03d1
fa95
03ec
fd94
0008
fb52
ffba
0181
fea8
003f
00a2
fa20
fd65
fd68
015a
fba5
0209
fe79
fbe4
fe5d
ffb4
0001
fc9b
fea4
fff3
02f3
0259
fd8f
00a1
0251
fda6
032e
0178
009f
ff95
fd1a
01e6
fe36
02c8
0544
076d
f93f
0597
fa6f
fc17
01bf
ff4b
027f
0231
fa2f
fa2e
fde9
0254
fe33
012e
ffa5
faf1
fe92
0604
0400
0089
026a
00fb
00f0
fc66
ffc2
fddd
fdfc
0290
0666
fd5a
fcbe
0301
ffe9
0315
ff68
fa8a
fb28
fc67
fc23
03cf
02fd
ff18
ffaa
fb85
fc60
03f6
ffa6
03ae
0123
01ec
ff67
fdde
059a
00dd
0424
fed4
0215
001f
005b
033a
fef8
01a1
03be
02f8
00c6
00b6
00e2
fda2
001b
ffca
fed9
fdbe
00a8
016f
ffc2
fcb8
fe80
fd91
0149
fdae
feca
01b5
fa7c
fd0c
02a9
fc9c
f989
0593
fbc0
feef
fdbb
0141
0145
0215
fded
fd35
05ed
f740
0193
01aa
fe2a
ffc0
012e
fe63
04f5
fe24
0695
ffb2
0401
0051
0673
ffda
